@ @</w> 6451370
2 0 2386279
国 家</w> 1625913
员 会</w> 1619147
委 员会</w> 1619032
20 0 1564443
会 议</w> 1380437
问 题</w> 1302389
联 合 1271472
报 告</w> 1067175
联合 国</w> 1054820
组 织</w> 1023779
国 际</w> 962091
提 供</w> 929353
发 展</w> 927774
关 于</w> 877233
政 府</w> 863293
方 面</w> 831174
工 作</w> 827077
以 及</w> 820721
1 9 801220
包 括</w> 775687
方 案</w> 733702
机 构</w> 731750
社 会</w> 717493
20 1 716777
进 行</w> 697613
情 况</w> 695341
通 过</w> 688912
一 个</w> 669200
执 行</w> 664307
特 别</w> 662843
这 些</w> 662259
其 他</w> 629466
妇 女</w> 625009
行 动</w> 620710
有 关</w> 620362
决 议</w> 618054
公 约</w> 611634
人 员</w> 594899
活 动</w> 593505
秘 书 582644
人 权</w> 567997
建 议</w> 564340
19 9 554695
安 全</w> 539617
缔 约 524201
工 作 522078
大 会</w> 502882
所 有</w> 502622
儿 童</w> 501005
合 作</w> 493821
事 会</w> 491137
区 域</w> 490812
规 定</w> 482754
权 利</w> 479935
项 目</w> 478306
理 事会</w> 477707
根 据</w> 474688
经 济</w> 464330
我 们</w> 462536
措 施</w> 440884
支 持</w> 432752
提 出</w> 423248
代 表</w> 414390
决 定</w> 407366
需 要</w> 403150
技 术</w> 400709
法 律</w> 398435
政 策</w> 393011
1 2</w> 388174
促 进</w> 378057
计 划</w> 376742
加 强</w> 374993
系 统</w> 371784
管 理</w> 371737
1 0</w> 367984
没 有</w> 365973
目 标</w> 365676
秘书 长</w> 364164
资 源</w> 362640
保 护</w> 360735
采 取</w> 356278
提 交</w> 355938
确 保</w> 355340
影 响</w> 350514
继 续</w> 348837
0 0</w> 347207
必 须</w> 345654
和 平</w> 344635
行 为</w> 343789
可 能</w> 343661
要 求</w> 340548
能 力</w> 339427
服 务</w> 336543
努 力</w> 334062
缔约 国</w> 333971
部 门</w> 317851
美 元</w> 316154
教 育</w> 309766
主 义</w> 307313
援 助</w> 305437
注 意</w> 303131
草 案</w> 302014
重 要</w> 299927
期 间</w> 298543
认 为</w> 298451
1 1</w> 297400
审 议</w> 297340
建 立</w> 297147
开 展</w> 291204
主 席</w> 291087
举 行</w> 290127
审 查</w> 286706
他 们</w> 286609
作 为</w> 286185
基 金</w> 283557
主 要</w> 283365
文 件</w> 283136
实 施</w> 281972
共 和 279257
一 些</w> 278831
共和 国</w> 276994
成 员</w> 276559
信 息</w> 276525
各 国</w> 276080
实 现</w> 275653
参 与</w> 274099
- -</w> 273118
国 际 271819
使 用</w> 266194
战 略</w> 266090
这 一</w> 265125
武 器</w> 264475
部 分</w> 263828
领 域</w> 262425
支 助</w> 261151
相 关</w> 260580
任 何</w> 260268
因 此</w> 258590
员 国</w> 257595
地 区</w> 256453
指 出</w> 256080
之 间</w> 255654
考 虑</w> 255315
环 境</w> 253902
全 球</w> 252671
先 生</w> 252230
增 加</w> 251835
小 组</w> 251199
持 续</w> 246966
协 调</w> 246474
. @@</w> 245169
代 表 244751
一 项</w> 241237
可 以</w> 239924
派 团</w> 237668
特 派团</w> 237335
关 系</w> 236252
这 种</w> 234762
讨 论</w> 234585
预 算</w> 234434
其 中</w> 233132
发 展 231660
有 效</w> 230856
程 序</w> 230575
培 训</w> 228186
作 用</w> 225672
工作 人员</w> 225498
获 得</w> 224627
作 出</w> 224343
世 界</w> 224167
中 心</w> 223083
代表 团</w> 221612
得 到</w> 221593
机 制</w> 221065
研 究</w> 219793
秘书 处</w> 218450
及 其</w> 218378
事 务</w> 218348
意 见</w> 215181
条 约</w> 213233
一 步</w> 213108
平 等</w> 213069
框 架</w> 212013
非 洲</w> 210764
制 定</w> 206284
评 估</w> 206078
法 院</w> 204301
解 决</w> 203684
资 料</w> 203340
任 务</w> 201422
人 口</w> 201404
进 一步</w> 200130
政 治</w> 200012
处 理</w> 199740
1 5</w> 199150
因 为</w> 196651
人 民</w> 196399
工作 组</w> 196338
中 国家</w> 196208
发展 中国家</w> 196208
进 程</w> 195404
提 高</w> 195035
减 少</w> 195032
表 示</w> 195029
议 程</w> 194588
已 经</w> 194073
歧 视</w> 193947
斯 坦</w> 193738
3 0</w> 190574
缔约 方</w> 190230
原 则</w> 188499
取 得</w> 188074
由 于</w> 187913
确 定</w> 187595
标 准</w> 187497
2 0</w> 187299
部 队</w> 186463
正 在</w> 185354
调 查</w> 184821
犯 罪</w> 184820
以 便</w> 184275
目 前</w> 182798
强 调</w> 182702
能 够</w> 181739
冲 突</w> 181603
200 5</w> 180112
说 明</w> 179596
第 二 178071
参 加</w> 176652
利 用</w> 176469
暴 力</w> 174669
办 事 174460
办 法</w> 173852
办事 处</w> 172997
联 盟</w> 172387
制 度</w> 172316
各 种</w> 172015
同 时</w> 171732
200 8</w> 171533
费 用</w> 171363
方 式</w> 171265
201 0</w> 170029
200 6</w> 169799
会 员国</w> 168543
进 展</w> 167996
咨 询</w> 167976
此 外</w> 167183
发 言</w> 166470
1 4</w> 166012
200 9</w> 165933
范 围</w> 165904
消 除</w> 164143
设 立</w> 163757
性 别</w> 163580
1 3</w> 163573
适 当</w> 163180
司 法</w> 162689
艾 滋 161662
数 据</w> 161035
200 4</w> 160700
机 会</w> 160201
必 要</w> 158567
200 7</w> 158475
责 任</w> 157973
做 法</w> 157536
文 化</w> 157362
1 8</w> 156873
1 6</w> 155747
专 家</w> 155509
许 多</w> 155478
全 面</w> 155392
建 设</w> 155069
它 们</w> 154984
维 持</w> 153555
按 照</w> 153496
201 1</w> 153399
贸 易</w> 152838
承 诺</w> 152802
如 果</w> 152687
各 项</w> 152012
协 助</w> 151697
定 书</w> 151094
议 定书</w> 150975
行 政</w> 150415
条 件</w> 149787
具 体</w> 149463
监 测</w> 149292
人 道 148893
义 务</w> 148157
方 法</w> 148106
一 次</w> 147076
目 的</w> 146609
基 础</w> 145419
家 庭</w> 145371
r @@</w> 144927
鼓 励</w> 144121
200 3</w> 143132
这 方面</w> 142999
而 且</w> 142844
负 责</w> 142738
设 施</w> 142612
存 在</w> 142495
充 分</w> 142458
资 金</w> 142131
自 由</w> 141634
涉 及</w> 141582
1 7</w> 141117
200 2</w> 141025
办 公 140928
200 0</w> 140816
1 0 140789
具 有</w> 140551
非 政府</w> 139959
利 亚</w> 139751
恐 怖 138749
造 成</w> 138680
应 当</w> 138391
2 1</w> 138319
201 2</w> 137092
共 同</w> 136610
协 定</w> 136370
以 色 136081
3 1</w> 135843
尤 其</w> 135388
尼 亚</w> 135099
接 受</w> 134948
正 式</w> 134425
当 局</w> 134398
办公 室</w> 133873
1 9</w> 133726
法 庭</w> 133281
2 5</w> 132023
报 告 131079
200 1</w> 130986
巴 勒 130764
形 式</w> 130690
成 果</w> 130317
是 否</w> 129994
事 项</w> 129773
关 切</w> 129041
投 资</w> 128849
这 个</w> 128796
批 准</w> 128623
日 至</w> 128256
报告 员</w> 128077
改 革</w> 127963
挑 战</w> 127940
不 同</w> 127847
用 于</w> 127730
案 件</w> 127498
欢 迎</w> 127423
为 了</w> 127359
受 到</w> 127332
认 识</w> 127209
. 1</w> 127001
产 生</w> 126913
公 司</w> 126554
2 2</w> 126317
结 果</w> 125867
地 位</w> 125715
开 始</w> 125553
严 重</w> 125549
例 如</w> 124917
谈 判</w> 124281
以色 列</w> 124206
优 先</w> 124043
以 下</w> 123770
附 件</w> 123667
高 级 123573
2 3</w> 123390
阿 拉 123031
2 4</w> 122699
变 化</w> 122638
分 析</w> 122601
最 后</w> 122589
适 用</w> 122542
0 00</w> 122446
l @@</w> 122383
开 发 121601
两 年</w> 121280
安 排</w> 121268
规 则</w> 121246
利 益</w> 120858
社 区</w> 120667
但 是</w> 119841
对 于</w> 119560
人道 主义</w> 119513
地 方</w> 119348
发 生</w> 119331
生 活</w> 119025
监 督</w> 118982
第 三 118747
难 民</w> 118498
国 内</w> 118483
禁 止</w> 118148
立 法</w> 118039
199 9</w> 117778
业 务</w> 116934
时 间</w> 116638
恐怖 主义</w> 116487
宣 言</w> 115880
选 举</w> 115689
基 本</w> 115684
201 3</w> 115647
第 十 115337
土 著</w> 114402
成 为</w> 114130
状 况</w> 113797
改 善</w> 113751
联 合</w> 113537
并 且</w> 113502
帮 助</w> 113314
希 望</w> 112890
完 成</w> 112666
一 种</w> 112242
履 行</w> 111381
打 击</w> 110967
现 有</w> 110641
关 注</w> 110075
t @@</w> 110042
健 康</w> 109725
纳 入</w> 109560
管 理 109228
2 6</w> 108695
h @@</w> 108682
评 价</w> 108257
受 害 108209
199 8</w> 108167
保 障</w> 108072
个 人</w> 107867
重 申</w> 106982
巴勒 斯坦</w> 106796
防 止</w> 106775
论 坛</w> 106679
尽 管</w> 106668
n @@</w> 106628
联合 国 106470
5 0</w> 106370
以 来</w> 106233
2 7</w> 106150
伙 伴</w> 105780
2 8</w> 105448
划 署</w> 105299
理 会</w> 105292
仍 然</w> 105288
如 何</w> 104940
准 则</w> 104847
独 立</w> 104688
安 理会</w> 104483
综 合</w> 104188
呼 吁</w> 103612
表 明</w> 103516
应 该</w> 103198
制 订</w> 102901
限 制</w> 102846
收 入</w> 102694
经 费</w> 102178
一 致</w> 102169
一 份</w> 102114
比 亚</w> 102030
介 绍</w> 101989
采 用</w> 101653
集 团</w> 101277
审 计</w> 100960
两 个</w> 100867
临 时</w> 100824
世 界 100634
一 切</w> 100378
领 土</w> 100139
洲 联盟</w> 99991
员 额</w> 99705
群 体</w> 99670
这 项</w> 99642
2 9</w> 98433
直 接</w> 97652
伙 伴 97555
6 0</w> 97551
稳 定</w> 97537
过 程</w> 97506
指 导</w> 97473
对 话</w> 97298
条 款</w> 97292
针 对</w> 97179
保 健</w> 97023
伙伴 关系</w> 96619
企 业</w> 96617
之 后</w> 96404
专 员</w> 96173
采 取 95989
请 求</w> 95960
定 期</w> 95477
该 国</w> 95404
同 意</w> 95315
一 级</w> 95066
美 国</w> 94788
发 达 94774
发达 国家</w> 94774
规 划</w> 94558
一 般</w> 94395
协 商</w> 94210
扩 大</w> 94158
积 极</w> 93944
侵 犯</w> 93886
推 动</w> 93841
遵 守</w> 93821
全 国</w> 93718
警 察</w> 93428
千 年</w> 93325
预 防</w> 92649
需 求</w> 92442
内 容</w> 92336
非 法</w> 92329
空 间</w> 92249
承 认</w> 92141
之 前</w> 91988
风 险</w> 91933
联 系</w> 91757
伊 拉 91509
收 到</w> 91263
广 泛</w> 90908
某 些</w> 90862
违 反</w> 90525
1 5 90215
行 动 90184
重 点</w> 89865
国 家 89732
联 邦</w> 89589
威 胁</w> 89190
所 述</w> 89072
成 员国</w> 89039
4 0</w> 89036
阶 段</w> 88936
原 因</w> 88841
核 武器</w> 88810
发 挥</w> 88735
最 近</w> 88697
病 毒</w> 88225
1 3 88218
军 事</w> 88020
知 识</w> 87766
基 金 87369
材 料</w> 87234
贩 运</w> 87169
出 现</w> 87163
控 制</w> 86742
虽 然</w> 86707
上 述</w> 86514
倡 议</w> 86416
协 议</w> 86261
这 样</w> 86170
增 长</w> 86138
C . 85806
市 场</w> 85536
因 素</w> 85422
宪 法</w> 85123
面 临</w> 85106
然 而</w> 84770
旨 在</w> 84696
应 对</w> 84511
明 确</w> 84459
编 写</w> 84197
不 是</w> 84167
残 疾 84137
文 书</w> 84120
裁 军</w> 83945
无 法</w> 83847
不 能</w> 83632
实 际</w> 83479
俄 罗 83323
就 业</w> 83037
从 而</w> 83006
财 政</w> 82974
公 共 82945
落 实</w> 82824
法 官</w> 82701
生 产</w> 82581
艾滋 病</w> 82491
符 合</w> 82476
银 行</w> 82475
伊拉 克</w> 82399
年 度</w> 82105
武 装 82061
结 束</w> 81904
事 件</w> 81745
本 国</w> 81718
加 入</w> 81678
种 族 81479
受害 者</w> 81149
改 进</w> 81103
公 民</w> 80904
危 机</w> 80750
了 解</w> 80632
确 认</w> 80541
实 体</w> 80237
保 证</w> 80215
下 列</w> 80205
L . 80176
程 度</w> 79917
民 间</w> 79907
s @@</w> 79842
助 于</w> 79546
人 数</w> 79181
艾滋 病毒</w> 79171
导 致</w> 79165
行动 计划</w> 79070
刑 事</w> 78739
d @@</w> 78514
m @@</w> 78259
编 制</w> 78024
观 察 77953
长 期</w> 77925
拘 留</w> 77809
自 己</w> 77745
经 济 77526
扩 散</w> 77501
民 主 77183
当 地</w> 76936
基金 会</w> 76727
土 地</w> 76693
网 络</w> 76656
人 类</w> 76245
普 遍</w> 76153
有 助于</w> 76063
环 境 76050
合 同</w> 75990
贡 献</w> 75888
举 办</w> 75862
境 内</w> 75767
多 数</w> 75696
万 美元</w> 75114
19 8 75090
1 8 74998
女 士</w> 74723
第 一 74703
列 入</w> 74663
西 亚</w> 74622
人 权 74410
宣 传</w> 74366
指 标</w> 74326
科 学</w> 74303
局 势</w> 74231
运 动</w> 74149
国际 法</w> 73950
部 长</w> 73861
公 共</w> 73851
内 部</w> 73761
委 会</w> 73550
经 验</w> 73337
记 录</w> 73251
199 7</w> 73092
要 性</w> 72943
重 新</w> 72849
保 留</w> 72774
做 出</w> 72704
现 在</w> 72561
贫 穷</w> 72530
第 四 72353
201 4</w> 72301
议 会</w> 72286
享 有</w> 71945
总 部</w> 71890
酷 刑</w> 71711
结 构</w> 71586
1 4 71381
残疾 人</w> 71379
结 论</w> 71324
成 功</w> 71302
计 划署</w> 71017
学 校</w> 70770
协 会</w> 70419
官 员</w> 70382
提 议</w> 70342
工 具</w> 70328
总 统</w> 70318
协 调 70186
那 些</w> 70120
缺 乏</w> 70087
来 自</w> 70032
管 制</w> 69993
恢 复</w> 69885
现 象</w> 69667
民 主</w> 69655
拟 议</w> 69561
职 能</w> 69352
宗 教</w> 69150
基 于</w> 69073
过 去</w> 68725
一 名</w> 68691
后 续</w> 68576
欧 洲</w> 68417
提 到</w> 68405
回 顾</w> 68263
更 加</w> 68262
6 1</w> 68248
尊 重</w> 68124
整 个</w> 68082
1 7 67767
题 为</w> 67759
0 %</w> 67758
6 3</w> 67272
反 映</w> 67166
6 5</w> 67021
给 予</w> 66867
之 一</w> 66634
美 洲</w> 66573
声 明</w> 66361
资 产</w> 66322
重 大</w> 66176
第 五 65921
支 付</w> 65907
授 权</w> 65821
修 订</w> 65786
人 们</w> 65657
手 段</w> 65606
欧 洲联盟</w> 65592
若 干</w> 65529
6 7</w> 65341
6 2</w> 65340
经 常</w> 65324
开 发</w> 65229
采 购</w> 65215
为 此</w> 65204
中 国</w> 65105
基 础 65092
伊 斯 64936
专 业</w> 64882
移 徙</w> 64846
苏 丹</w> 64799
构 成</w> 64606
统 计</w> 64513
拟 订</w> 64489
5 7</w> 64479
青 年</w> 64451
成 立</w> 64413
卫 生 64321
农 业</w> 64252
条 例</w> 64216
6 4</w> 64197
气 候 64155
规 模</w> 64044
首 脑 63939
在 内</w> 63926
卫 生</w> 63882
首脑 会议</w> 63835
补 充</w> 63805
法 律 63694
我 国</w> 63662
分 配</w> 63631
实 行</w> 63572
毒 品</w> 63527
气候 变化</w> 63304
不 断</w> 63280
5 8</w> 63197
一 直</w> 63098
理 由</w> 62879
马 里</w> 62849
有 人</w> 62790
达 成</w> 62779
阿拉 伯</w> 62774
有 权</w> 62754
提 案</w> 62692
3 5</w> 62629
答 复</w> 62407
5 5</w> 62383
商 定</w> 62372
5 9</w> 62340
签 署</w> 62109
设 备</w> 62108
同 样</w> 61889
鉴 于</w> 61669
团 体</w> 61422
森 林</w> 61347
a n 61270
罪 行</w> 61227
民 族</w> 61171
支 出</w> 61146
干 事</w> 61122
调 整</w> 61047
达 到</w> 61009
解 释</w> 60969
各 方</w> 60961
允 许</w> 60757
部 署</w> 60715
阿 富 60679
财 务</w> 60638
选 择</w> 60557
水 平</w> 60540
今 后</w> 60492
访 问</w> 60431
里 亚</w> 60429
城 市</w> 60335
6 6</w> 60278
满 足</w> 60225
失 所</w> 60137
流 离 60102
流离 失所</w> 60101
女 性</w> 59929
质 量</w> 59875
多 边</w> 59760
完 全</w> 59760
能 源</w> 59710
王 国</w> 59493
数 量</w> 59441
基础 设施</w> 59439
增 强</w> 59339
信 息 59331
关 键</w> 59294
3 3</w> 59259
移 民</w> 59186
通 知</w> 59128
拥 有</w> 59024
阿富 汗</w> 58998
反 对</w> 58967
尚 未</w> 58944
A d 58929
日 内 58925
收 集</w> 58749
5 3</w> 58669
敦 促</w> 58663
黎 巴 58649
地 点</w> 58496
3 2</w> 58466
安 全 58433
高级 专员</w> 58385
重 要性</w> 58356
两 性</w> 58285
来 源</w> 58227
非 正式</w> 58190
事 务 58136
权 力</w> 58121
通 信</w> 58114
只 有</w> 58069
如 下</w> 58064
b @@</w> 58053
Ad d 58022
专 门</w> 57999
生 物</w> 57977
组 成</w> 57911
黎巴 嫩</w> 57639
4 5</w> 57603
加 拿 57569
举 措</w> 57470
5 2</w> 57465
观察 员</w> 57453
担 任</w> 57370
3 4</w> 57149
5 4</w> 56982
运 输</w> 56913
纲 领</w> 56639
亿 美元</w> 56531
一 部分</w> 56412
财 产</w> 56330
主 任</w> 56304
讲 习 56285
5 6</w> 56278
社 会 56253
核 准</w> 56245
武 装</w> 56109
准 备</w> 56091
步 骤</w> 56074
199 6</w> 56051
领 导</w> 56040
5 1</w> 56018
开发 计划署</w> 55995
自 愿</w> 55982
3 7</w> 55892
赔 偿</w> 55817
未 来</w> 55806
检 察 55797
出 口</w> 55793
此 类</w> 55727
保 持</w> 55679
登 记</w> 55673
感 谢</w> 55467
贸 发</w> 55427
共 同 55410
而 言</w> 55397
宣 布</w> 55342
这 是</w> 55321
比 例</w> 55303
农 村</w> 55197
核 心</w> 55166
专 家 55165
3 6</w> 55009
产 品</w> 54814
. 2</w> 54809
证 据</w> 54718
开发 署</w> 54623
讲习 班</w> 54599
大 学</w> 54593
加拿 大</w> 54580
索 赔</w> 54509
召 开</w> 54491
估 计</w> 54380
证 明</w> 54367
宪 章</w> 54328
运 作</w> 54311
阿拉 伯 54294
司 法 54200
体 制</w> 54193
多 样 54183
加 以</w> 53942
贸 易 53926
从 事</w> 53906
申 请</w> 53894
传 播</w> 53664
常 驻</w> 53653
私 营 53645
合 作 53636
与 会 53628
属 于</w> 53564
效 率</w> 53562
4 8</w> 53425
古 巴</w> 53322
进 入</w> 53189
每 个</w> 53148
外 国</w> 53145
平 民</w> 53128
高级 别</w> 53095
专家 组</w> 53075
非 常</w> 52879
予 以</w> 52864
3 9</w> 52794
灾 害</w> 52334
日 本</w> 52333
以 上</w> 52323
任 命</w> 52310
3 8</w> 52158
危 险</w> 52124
研 究 52120
十 年</w> 52110
寻 求</w> 51970
机 关</w> 51915
依 据</w> 51731
201 5</w> 51681
大 多数</w> 51680
交 流</w> 51662
超 过</w> 51642
传 统</w> 51601
显 示</w> 51587
公 平</w> 51506
日内 瓦</w> 51493
障 碍</w> 51482
技 术 51467
g @@</w> 51375
与会 者</w> 51332
每 年</w> 51311
粮 食</w> 51310
第 五</w> 51185
4 9</w> 51184
金 融 51179
损 失</w> 51176
住 房</w> 51158
年 人</w> 51052
私营 部门</w> 51032
大 量</w> 51002
指 控</w> 51000
统 一</w> 50971
生 产 50876
6 8</w> 50821
三 个</w> 50811
5 %</w> 50711
磋 商</w> 50592
家 庭 50562
专 题</w> 50532
4 4</w> 50509
带 来</w> 50388
更 好</w> 50342
主 题</w> 50302
职 位</w> 50144
或 者</w> 49989
另 外</w> 49981
第二 十 49975
会 议 49973
贫 困</w> 49933
自 然 49880
第 六</w> 49855
再 次</w> 49852
4 6</w> 49835
困 难</w> 49828
实 质 49748
最 佳</w> 49593
媒 体</w> 49509
行 政 49435
遭 受</w> 49415
联合 王国</w> 49381
顾 问</w> 49316
国际 公约</w> 49311
一 般 49271
医 疗</w> 49263
4 1</w> 49251
难 民 49210
依 照</w> 49045
4 2</w> 48866
实质 性</w> 48804
转 让</w> 48738
课 程</w> 48560
高 级</w> 48553
金 融</w> 48503
重 视</w> 48443
人权 委员会</w> 48304
199 5</w> 48279
身 份</w> 48273
发 表</w> 48268
虐 待</w> 48210
价 值</w> 48183
性 质</w> 48149
采取 行动</w> 48092
预 计</w> 48071
维 护</w> 48070
化 学 48045
上 诉</w> 47952
4 3</w> 47950
俄罗 斯 47806
捐 款</w> 47791
阿 尔 47655
刑 事 47612
u @@</w> 47551
预 期</w> 47495
起 诉</w> 47423
占 领</w> 47385
待 遇</w> 47346
债 务</w> 47321
行 使</w> 47291
4 7</w> 47246
承 担</w> 47235
资 助</w> 47216
感 到</w> 47195
避 免</w> 47164
生 效</w> 47159
工作 队</w> 47158
侵 害</w> 47101
截 至</w> 47037
任 择</w> 47006
所 作</w> 46801
主 义 46786
亚 洲</w> 46778
系 列</w> 46774
7 0</w> 46725
民主 共和国</w> 46702
主 管</w> 46686
解 决 46653
捐 助</w> 46597
特 殊</w> 46589
定 义</w> 46586
加 勒 46340
k @@</w> 46340
政 治 46339
6 9</w> 46285
1 00</w> 46277
外 交 46120
少 数</w> 45982
创 造</w> 45945
. 4</w> 45920
趋 势</w> 45901
攸 关</w> 45873
数 据 45817
清 单</w> 45776
公 众</w> 45703
外 地</w> 45650
星 期 45627
力 于</w> 45520
致 力于</w> 45486
有 些</w> 45480
印 度</w> 45447
预 防 45370
模 式</w> 45226
公 正</w> 45218
概 念</w> 45156
审 判</w> 45149
第 二</w> 45146
学 生</w> 45092
筹 资</w> 45025
科 索 44968
研 讨 44964
7 7</w> 44957
邀 请</w> 44936
妇 女 44837
科索 沃</w> 44768
研讨 会</w> 44758
所 涉</w> 44720
至 关 44680
改 变</w> 44547
决 策</w> 44444
就 是</w> 44365
意 义</w> 44354
海 洋</w> 44327
她 们</w> 44326
a r@@</w> 44317
执 行 44267
还 有</w> 44238
澳 大 44236
第 六 44222
最 大</w> 44146
至关 重要</w> 44115
各 级</w> 44109
工 业</w> 44088
索 马里</w> 44045
观 点</w> 44001
新 闻 43991
此 种</w> 43915
工 人</w> 43867
赞 赏</w> 43867
刚 果 43857
法 国</w> 43784
成 本</w> 43742
武装 冲突</w> 43741
诉 讼</w> 43686
一般 性</w> 43674
维 亚</w> 43634
领 导 43459
辩 论</w> 43368
地 雷</w> 43363
分 别</w> 43358
墨 西 43222
俄罗斯 联邦</w> 43198
筹 备</w> 43191
立 即</w> 43154
及 时</w> 43118
公 开</w> 43046
专 门 42975
腐 败</w> 42958
暴 力 42875
发 现</w> 42823
全 球 42779
律 师</w> 42771
科 威 42687
不 仅</w> 42644
不 过</w> 42635
财 务 42435
居 民</w> 42389
供 资</w> 42199
迅 速</w> 42183
损 害</w> 42113
c @@</w> 42106
单 位</w> 42098
西 班 42052
背 景</w> 42030
福 利</w> 42002
监 狱</w> 41890
纽 约</w> 41817
第 一</w> 41808
多样 性</w> 41667
职 业</w> 41606
详 细</w> 41572
太 平 41167
数 额</w> 41098
安 保</w> 41096
一 起</w> 41083
战 争</w> 40992
特 定</w> 40986
一 系列</w> 40939
刚果 民主共和国</w> 40856
紧 急</w> 40825
商 业</w> 40631
7 3</w> 40590
所 载</w> 40511
土 耳 40487
澳大 利亚</w> 40487
修 改</w> 40457
捐 助 40318
研究 所</w> 40309
制 裁</w> 40246
设 计</w> 40160
全 体 40120
视 为</w> 39899
有 限</w> 39871
科威 特</w> 39814
职 责</w> 39810
出 席</w> 39621
印 度 39605
至 少</w> 39540
加勒 比</w> 39532
过 渡</w> 39498
劳 动 39497
之 外</w> 39442
巴 西</w> 39431
y @@</w> 39383
立 场</w> 39277
卢 旺 39255
法 治</w> 39227
新 闻</w> 39163
通 报</w> 39154
原 子 39037
药 物</w> 38958
适 应</w> 38925
物 质</w> 38902
墨西 哥</w> 38830
卢旺 达</w> 38816
少 年</w> 38782
体 系</w> 38721
最 高</w> 38703
提 及</w> 38651
C N 38603
信 托</w> 38545
协调 员</w> 38532
检察 官</w> 38505
救 济</w> 38386
不 足</w> 38352
精 神</w> 38350
服 务 38333
伊斯 兰 38282
统 计 38193
类 似</w> 38191
双 方</w> 38188
查 明</w> 38187
调 查 38168
破 坏</w> 38115
最 终</w> 38098
增 进</w> 38085
a n</w> 38065
死 亡</w> 38035
越 来 37995
当 前</w> 37912
良 好</w> 37893
全体 会议</w> 37847
一 年</w> 37815
太平 洋</w> 37793
女 孩</w> 37774
申 诉</w> 37758
岛 屿</w> 37758
不 会</w> 37752
数 字</w> 37726
便 利</w> 37723
除 了</w> 37714
治 理</w> 37685
基 本 37644
达 尔 37536
指 南</w> 37482
199 0</w> 37457
残 疾</w> 37418
起 草</w> 37385
越来 越</w> 37370
数 目</w> 37343
种族 歧视</w> 37310
账 户</w> 37286
工 发</w> 37283
人 力 37280
指 定</w> 37223
富 尔</w> 37212
理 解</w> 37198
主 权</w> 37161
名 单</w> 37146
达尔 富尔</w> 37087
各 自</w> 37027
事 实</w> 36983
疾 病</w> 36930
大 规模</w> 36890
维 也 36868
维也 纳</w> 36867
随 后</w> 36850
日 期</w> 36797
德 国</w> 36793
犯 罪 36776
2 8 36739
下 午</w> 36716
提 请</w> 36712
引 起</w> 36647
种 族</w> 36613
以 前</w> 36552
修 正</w> 36495
土耳 其</w> 36492
治 疗</w> 36467
来 文</w> 36457
英 语</w> 36392
拉 丁 36383
A @@</w> 36300
巴 基 36270
劳 工</w> 36259
工 程 36218
接 触</w> 36213
来 说</w> 36190
维 和</w> 36183
相 互</w> 36175
i @@</w> 36168
首 先</w> 36168
国 籍</w> 36153
降 低</w> 36135
拉丁 美洲</w> 36124
a r 36090
下 降</w> 36032
不 得</w> 36015
发 出</w> 35986
难民 署</w> 35977
如 此</w> 35923
年 龄</w> 35910
本 身</w> 35860
各 个</w> 35835
. 3</w> 35830
交 易</w> 35777
延 长</w> 35752
以 外</w> 35726
还 是</w> 35714
往 往</w> 35636
几 个</w> 35550
俄罗 斯</w> 35510
应 用</w> 35478
国家 一级</w> 35471
评 论</w> 35414
启 动</w> 35399
其 它</w> 35349
利 比 35304
领导 人</w> 35295
男 子</w> 35276
检 查</w> 35241
o r 35200
利比 里亚</w> 35115
女 童</w> 35078
- --</w> 35073
网 站</w> 35040
- ---</w> 34969
合 众 34967
协 作</w> 34959
e @@</w> 34930
p @@</w> 34897
十 分</w> 34897
官 方</w> 34879
后 果</w> 34875
技 能</w> 34868
通 常</w> 34855
方 针</w> 34835
尼 日 34815
最 新</w> 34807
5 00</w> 34727
巴基 斯坦</w> 34707
电 子</w> 34696
国 民</w> 34679
美 利 34650
竞 争</w> 34628
判 决</w> 34553
美利 坚 34530
人 民 34527
美利坚 合众 34519
几 内 34466
密 切 34463
助 理</w> 34421
酌 情</w> 34414
人力 资源</w> 34405
非 洲联盟</w> 34399
暴力 行为</w> 34392
未 能</w> 34252
199 4</w> 34188
v @@</w> 34179
剥 削</w> 34157
语 言</w> 34120
遭 到</w> 34076
提 供 34054
采取 措施</w> 33996
特 设</w> 33973
反 应</w> 33949
一 点</w> 33875
加 拉 33836
飞 机</w> 33791
订 正</w> 33752
迪 瓦</w> 33735
力 量</w> 33730
规 划署</w> 33730
科 特 33708
发 言 33649
科特 迪瓦</w> 33648
7 2</w> 33647
劳 动</w> 33636
主 流</w> 33620
7 5</w> 33619
9 0</w> 33587
种族 主义</w> 33506
法 令</w> 33452
执行 局</w> 33448
足 够</w> 33390
全 部</w> 33388
处 于</w> 33380
海 洋 33354
获 取</w> 33307
计 算</w> 33279
美利坚合众 国</w> 33249
训 练</w> 33240
事务 部</w> 33220
规 范</w> 33111
哥 伦 33081
透 明 33080
平 衡</w> 33079
才 能</w> 33014
大 约</w> 32985
强 迫</w> 32971
克 斯坦</w> 32959
8 0</w> 32936
常 设</w> 32875
一 届</w> 32872
战 略 32840
南 非</w> 32824
初 步</w> 32782
共同 体</w> 32730
拒 绝</w> 32669
男 女</w> 32617
第 一次</w> 32583
i n 32544
20 0</w> 32541
斯 坦 32532
利 于</w> 32526
学 习</w> 32514
袭 击</w> 32494
总 额</w> 32491
日 益</w> 32409
颁 布</w> 32408
分 发</w> 32396
各 地</w> 32376
资 格</w> 32351
积 极 32329
载 有</w> 32326
双 边</w> 32305
剥 夺</w> 32303
不 利</w> 32296
层 面</w> 32284
货 物</w> 32272
教 育 32245
后 勤</w> 32223
亚 共和国</w> 32220
总 体</w> 32209
环境 署</w> 32152
表 决</w> 32061
7 4</w> 32051
区 域 32022
合 理</w> 31950
更 新</w> 31929
第 七 31920
印度 尼 31912
欧 洲 31892
什 么</w> 31892
和 平 31886
妇女 地位</w> 31836
透明 度</w> 31828
很 大</w> 31800
流 动</w> 31776
化学 品</w> 31755
裁 决</w> 31672
不 可</w> 31637
核 查</w> 31623
子 女</w> 31617
愿 意</w> 31606
废 物</w> 31539
阿 根 31485
令 人 31461
分 子</w> 31399
议 事 31394
瑞 士</w> 31336
e r 31334
比 较</w> 31331
家庭 暴力</w> 31327
埃 及</w> 31319
一 样</w> 31317
海 地</w> 31305
外 部</w> 31270
时 期</w> 31253
拟 定</w> 31250
以 期</w> 31243
主 席 31177
数据 库</w> 31122
斯 拉 31037
粮 食 30996
7 1</w> 30959
弹 药</w> 30951
时 候</w> 30924
复 杂</w> 30863
投 票</w> 30840
现 行</w> 30796
保 险</w> 30766
工程 处</w> 30748
候 选 30739
重 建</w> 30728
供 应</w> 30719
欧 盟</w> 30682
执 法</w> 30668
平 均</w> 30648
爱 尔 30616
7 8</w> 30616
N @@</w> 30597
高 专</w> 30592
遗 憾</w> 30510
议事 规则</w> 30498
差 距</w> 30390
卫 星</w> 30358
价 格</w> 30329
停 止</w> 30321
爱尔 兰</w> 30318
途 径</w> 30310
上 文</w> 30302
叙 利亚</w> 30284
a @@</w> 30219
成 部分</w> 30190
组 成部分</w> 30190
用 途</w> 30178
创 新</w> 30165
第五 十 30147
补 救</w> 30120
解决 办法</w> 30107
Add .1</w> 30029
期 限</w> 29948
附 属</w> 29923
最 低</w> 29907
意 大 29897
a l</w> 29886
案 文</w> 29885
失 踪</w> 29855
实 际 29834
挪 威</w> 29827
逮 捕</w> 29819
供 应 29810
世界 银行</w> 29790
预防 犯罪</w> 29788
帝 汶</w> 29777
真 正</w> 29760
之 下</w> 29755
明 显</w> 29707
合作 伙伴</w> 29666
西班 牙</w> 29661
7 6</w> 29623
今 天</w> 29610
原子 能</w> 29604
很 多</w> 29571
容 忍</w> 29508
印度尼 西亚</w> 29485
效 力</w> 29483
南 斯拉 29469
心 理</w> 29432
部 长 29419
2 %</w> 29378
东 帝汶</w> 29371
担 保</w> 29370
语 文</w> 29314
津 贴</w> 29284
塞 拉 29279
主 持</w> 29276
共 识</w> 29263
指 示</w> 29254
出 版 29246
中 期</w> 29231
这 次</w> 29210
法 案</w> 29201
干 预</w> 29165
人道 主义 29153
人道主义 法</w> 29153
2 9 29138
信 任</w> 29122
赞 扬</w> 29120
争 取</w> 29116
第 三</w> 29036
额 外</w> 29028
当 事 28995
转 移</w> 28994
续 性</w> 28969
不 可 28954
集 体</w> 28919
利 昂</w> 28894
返 回</w> 28887
主席 团</w> 28884
制 止</w> 28881
满 意</w> 28878
反 恐</w> 28862
作 出 28816
塞拉 利昂</w> 28797
哪 些</w> 28770
7 9</w> 28756
群 岛</w> 28733
第二 次</w> 28703
雇 员</w> 28697
团 结</w> 28633
相 同</w> 28632
刑 法</w> 28544
防 治</w> 28514
E @@</w> 28487
死 刑</w> 28441
R @@</w> 28407
和 解</w> 28370
一 方面</w> 28351
全球 化</w> 28329
切 实</w> 28313
边 界</w> 28295
具 体 28273
上 午</w> 28268
199 3</w> 28226
任 期</w> 28142
阿根 廷</w> 28139
摩 洛 28134
打 算</w> 28066
享 受</w> 28042
埃 塞 28001
斯 洛 27971
报 表</w> 27922
攻 击</w> 27889
埃塞 俄 27867
可 能 27865
调 动</w> 27859
似 乎</w> 27856
武装 部队</w> 27836
吁 请</w> 27830
投 入</w> 27826
形 成</w> 27811
漠 化</w> 27767
. 5</w> 27709
业 绩</w> 27694
基 地</w> 27677
诸 如</w> 27674
跨 国</w> 27633
人 力</w> 27623
S @@</w> 27616
正 如</w> 27595
商 品</w> 27547
起 来</w> 27544
候选 人</w> 27529
7 %</w> 27490
工 资</w> 27457
集 中</w> 27437
派 遣</w> 27436
意大 利</w> 27417
人 士</w> 27387
荒 漠化</w> 27384
分 享</w> 27358
6 %</w> 27323
对 此</w> 27288
经 过</w> 27281
塞 浦 27255
塞浦 路 27254
依 然</w> 27247
哥伦 比亚</w> 27184
e n 27160
秘 书</w> 27114
克 兰</w> 27106
行 预</w> 27105
私 人</w> 27086
历 史</w> 27069
三 届</w> 27021
出版 物</w> 27009
展 开</w> 26965
透 明</w> 26907
族 裔</w> 26903
关 键 26862
会议 室</w> 26861
紧 急 26851
新 西 26801
看 法</w> 26785
知 道</w> 26760
布 隆 26695
1 %</w> 26685
C O 26682
甚 至</w> 26681
管 辖</w> 26654
年 度 26645
军 事 26621
合 法</w> 26603
可能 性</w> 26584
估 计 26560
有 利于</w> 26556
摩洛 哥</w> 26548
探 讨</w> 26514
阿尔 及 26507
赋 予</w> 26481
相 互 26474
a l@@</w> 26467
包 含</w> 26403
公 布</w> 26380
3 %</w> 26378
教 科 26377
民 众</w> 26375
外 交</w> 26358
公 务 26325
e r</w> 26312
公共 部门</w> 26288
为 止</w> 26243
保 护 26235
多 年</w> 26231
小 岛屿</w> 26187
争 端</w> 26159
涵 盖</w> 26133
意 味 26067
荷 兰</w> 26067
协 商 26042
意味 着</w> 26022
大 部分</w> 26021
示 范</w> 26013
乌 克兰</w> 25997
逐 步</w> 25981
次 级</w> 25948
埃塞俄 比亚</w> 25941
3 00</w> 25936
生 殖</w> 25909
估计 数</w> 25896
z @@</w> 25891
死 亡 25878
阻 碍</w> 25876
公 民 25863
付 款</w> 25831
赞 同</w> 25794
世 纪</w> 25753
捐助 者</w> 25725
青 少年</w> 25720
一 位</w> 25690
意 识</w> 25626
表 现</w> 25622
管 辖 25604
促 请</w> 25552
第三 十 25551
议 题</w> 25536
处 罚</w> 25522
199 1</w> 25520
不 @@</w> 25458
年 底</w> 25411
联合 会</w> 25411
尽 可能</w> 25378
手 册</w> 25350
审 理</w> 25344
中 央</w> 25341
阿 塞 25331
阿塞 拜 25309
分 类</w> 25308
预 算 25305
预 测</w> 25295
全 世界</w> 25288
事 实 25285
融 入</w> 25267
加 沙</w> 25261
气 候</w> 25252
充 分 25251
尼日 利亚</w> 25245
中 东</w> 25234
仲 裁</w> 25227
新西 兰</w> 25226
199 2</w> 25215
受害 人</w> 25169
B @@</w> 25161
替 代</w> 25137
T @@</w> 25135
储 存</w> 25107
证 人</w> 25078
瑞 典</w> 25064
平 台</w> 25049
几 乎</w> 25018
贷 款</w> 24988
科 学 24986
阁 下</w> 24955
概 述</w> 24951
合 并</w> 24925
单 独</w> 24921
一 @@</w> 24853
所 有人</w> 24801
诉 人</w> 24787
伊 朗 24784
自然 资源</w> 24743
差 异</w> 24740
父 母</w> 24729
开 放</w> 24715
人 居</w> 24640
独 立 24621
重 返</w> 24620
惩 罚</w> 24618
发 布</w> 24603
燃 料</w> 24596
居 住</w> 24576
实际 上</w> 24553
令 人</w> 24521
密 切</w> 24519
结 合</w> 24515
现 金</w> 24502
潜 在</w> 24488
在 于</w> 24433
道 路</w> 24410
是 因为</w> 24398
刚 果</w> 24394
场 所</w> 24376
大 使</w> 24368
征 聘</w> 24358
公务 员</w> 24342
减 轻</w> 24313
信息 技术</w> 24306
P @@</w> 24302
1 .@@</w> 24273
伊斯兰 共和国</w> 24245
确 立</w> 24234
1 2 24233
试 验</w> 24215
L @@</w> 24203
乌 干 24196
4 %</w> 24195
M @@</w> 24178
取 消</w> 24170
政治 权利</w> 24142
0 @@</w> 24135
死亡 率</w> 24099
减 贫</w> 24084
资 源 24081
外 勤</w> 24036
以 后</w> 24027
法 规</w> 24012
外 层 24002
外层 空间</w> 24002
有 力</w> 23987
过 境</w> 23976
6 @@</w> 23963
会 计 23916
管辖 权</w> 23914
随 着</w> 23908
南 部</w> 23895
类 别</w> 23885
修 正 23874
w @@</w> 23873
相 应</w> 23872
布隆 迪</w> 23869
乌干 达</w> 23859
庇 护</w> 23855
D @@</w> 23852
第 四</w> 23802
阿尔及 利亚</w> 23802
克 罗 23749
男 性</w> 23747
恤 金</w> 23745
e r@@</w> 23744
注 重</w> 23689
部长 级</w> 23684
a n@@</w> 23672
修正 案</w> 23660
监 禁</w> 23615
该 项</w> 23595
二 届</w> 23539
菲 律 23530
表 示 23504
教 训</w> 23501
实 地</w> 23500
一 定</w> 23498
那 样</w> 23468
引 渡</w> 23457
因 而</w> 23451
得 以</w> 23438
谴 责</w> 23429
妨 碍</w> 23424
更 为</w> 23347
教科 文 23343
教科文 组织</w> 23340
非 洲 23326
体 现</w> 23322
殖 民 23313
类 型</w> 23307
拉 圭</w> 23281
显 然</w> 23275
澄 清</w> 23274
效 益</w> 23265
R C</w> 23252
车 辆</w> 23219
8 7</w> 23210
f @@</w> 23208
筹 措</w> 23192
不 到</w> 23186
唯 一</w> 23156
巨 大</w> 23148
经 委会</w> 23133
相 信</w> 23033
菲律 宾</w> 23032
资 本</w> 23031
巩 固</w> 23027
巴勒 斯坦 23014
叙 利 22981
8 %</w> 22979
界 定</w> 22964
百 分 22961
竞 争 22937
无 核武器</w> 22912
特 里亚</w> 22893
促 使</w> 22878
空 缺</w> 22872
自 由 22851
看 到</w> 22844
玻 利 22823
融 资</w> 22739
南斯拉 夫</w> 22729
蒙 特 22727
第三 次</w> 22724
西 非</w> 22717
成 就</w> 22713
厄 立 22708
厄立 特里亚</w> 22697
o @@</w> 22689
四 届</w> 22683
波 斯 22679
年度 报告</w> 22675
伊朗 伊斯兰共和国</w> 22675
伤 害</w> 22659
生 态 22624
分 摊</w> 22612
论 会</w> 22594
开 支</w> 22588
之 中</w> 22556
核 裁军</w> 22542
危 害</w> 22534
专门 机构</w> 22495
滥 用</w> 22491
决 心</w> 22490
态 度</w> 22488
体 化</w> 22478
驱 逐</w> 22472
即 使</w> 22466
发 起</w> 22465
申 诉人</w> 22463
奥 地 22441
系 统 22438
产 出</w> 22424
多 个</w> 22417
免 费</w> 22415
脆 弱</w> 22390
利 比亚</w> 22377
清 楚</w> 22373
一 体化</w> 22352
以 往</w> 22319
道 德</w> 22317
监 察 22315
排 放</w> 22306
肯 尼亚</w> 22277
民 国</w> 22269
四 个</w> 22242
款 项</w> 22239
志 愿 22233
就 此</w> 22217
用 户</w> 22201
电 子 22195
尔 @@</w> 22193
格 鲁 22192
只 是</w> 22174
相 比</w> 22160
进 步</w> 22123
警 察 22115
格鲁 吉 22110
阿塞拜 疆</w> 22086
阿拉伯 叙利 22083
阿拉伯叙利 亚共和国</w> 22083
参 与 22066
a l 22060
登 记 22058
谅 解</w> 22055
意 愿</w> 22042
波斯 尼亚</w> 22014
旅 行</w> 21995
装 备</w> 21988
认 可</w> 21959
规 约</w> 21955
事实 上</w> 21913
咨 询 21910
教 师</w> 21903
两 项</w> 21874
推 广</w> 21861
智 利</w> 21861
R e 21847
马 拉</w> 21803
即 将</w> 21799
七 届</w> 21746
所 以</w> 21744
本 次</w> 21741
塞浦路 斯</w> 21739
8 3</w> 21732
学 院</w> 21724
H @@</w> 21707
劳动 力</w> 21699
就 业 21688
格鲁吉 亚</w> 21685
五 届</w> 21677
应 急</w> 21674
同 一</w> 21672
下 文</w> 21656
兴 趣</w> 21648
有 所</w> 21641
推 进</w> 21630
o n</w> 21625
共 体</w> 21622
卫生 组织</w> 21619
o n 21616
持 续性</w> 21614
要 素</w> 21611
讨 论会</w> 21581
回 应</w> 21569
未 经</w> 21554
提供 援助</w> 21530
证 实</w> 21522
8 1</w> 21500
马 来 21486
而 是</w> 21476
他 人</w> 21475
a h</w> 21472
听 取</w> 21459
大 韩 21450
污 染</w> 21448
大韩 民国</w> 21447
突 出</w> 21441
情 报</w> 21425
东 道 21412
严 格</w> 21411
建 设 21410
取 决 21370
取决 于</w> 21370
I I</w> 21336
密切 合作</w> 21301
相 对</w> 21271
豁 免</w> 21254
奥地 利</w> 21248
马来 西亚</w> 21245
4 00</w> 21243
受 理</w> 21229
一 致 21223
最 高 21165
备 选</w> 21141
然 后</w> 21137
国 政府</w> 21134
8 2</w> 21132
a m@@</w> 21112
培 训 21108
军 谈判</w> 21076
裁 军谈判</w> 21076
财 政 21072
泰 国</w> 21070
塞 尔 21059
完 整</w> 21056
生 命</w> 21050
衡 量</w> 21043
持 久</w> 21021
状 态</w> 21019
使 得</w> 21008
销 毁</w> 21003
医 院</w> 21002
管理 局</w> 20991
职 等</w> 20986
j @@</w> 20983
阐 述</w> 20973
找 到</w> 20960
出 版</w> 20950
释 放</w> 20941
表 达</w> 20921
人 口 20920
放 在</w> 20881
外 国 20862
正 规</w> 20839
公民 权利</w> 20810
a t 20796
第四 十 20792
老 年人</w> 20777
男 女 20763
混 合</w> 20754
不 再</w> 20749
上 升</w> 20726
互 动</w> 20709
伊 朗</w> 20704
设 想</w> 20697
O @@</w> 20689
卖 淫</w> 20688
政 党</w> 20679
发言 者</w> 20675
监 管</w> 20671
八 届</w> 20662
提 高 20651
周 期</w> 20648
列 出</w> 20632
东道 国</w> 20631
G @@</w> 20594
8 5</w> 20590
进 口</w> 20589
第 九 20569
正 常</w> 20552
报 道</w> 20503
细 则</w> 20496
几内 亚</w> 20486
人 道</w> 20468
全 体</w> 20436
受 益</w> 20431
工 程</w> 20415
忘 录</w> 20392
备 忘录</w> 20391
小 时</w> 20387
毛 里 20371
被 告</w> 20349
一 道</w> 20324
8 6</w> 20314
并 非</w> 20297
可 行</w> 20263
黑 塞 20247
终 止</w> 20240
产 权</w> 20203
新闻 部</w> 20199
初 级</w> 20198
克罗 地 20198
声 称</w> 20145
军 队</w> 20141
塞 尔</w> 20139
6 00</w> 20129
宗 旨</w> 20125
伊斯 兰</w> 20114
财务 报表</w> 20074
遣 队</w> 20070
方 向</w> 20067
容 易</w> 20051
压 力</w> 20046
任 意</w> 20040
政 府 20028
制 造</w> 19988
薪 金</w> 19970
比 利 19968
拨 款</w> 19959
8 4</w> 19957
少 数 19954
渔 业</w> 19943
哈 拉</w> 19934
推 迟</w> 19904
职 务</w> 19897
检 查 19889
雇 主</w> 19869
问 责 19869
有 所 19849
母 亲</w> 19809
定 于</w> 19798
3 0 19797
生态 系统</w> 19794
药 品</w> 19778
高 度</w> 19773
销 售</w> 19764
黑塞 哥 19763
i n</w> 19739
口 头</w> 19738
维 那</w> 19725
黑塞哥 维那</w> 19725
复 员</w> 19713
斗 争</w> 19683
命 令</w> 19673
性 暴力</w> 19662
除 非</w> 19653
相 当</w> 19640
书 面</w> 19638
依 赖</w> 19622
询 问</w> 19603
孟 加拉 19587
缅 甸</w> 19583
加 快</w> 19573
9 6</w> 19565
危 地 19561
尽 快</w> 19559
北 部</w> 19558
仅 仅</w> 19557
自 治</w> 19532
小 型</w> 19529
志愿 人员</w> 19521
名 义</w> 19517
国际 法庭</w> 19505
朝 鲜 19500
8 8</w> 19487
证 书</w> 19468
名 额</w> 19464
金融 机构</w> 19439
可 靠</w> 19430
会计 准则</w> 19429
. 6</w> 19427
恶 化</w> 19426
C @@</w> 19424
惯 例</w> 19407
约 束 19405
等 教育</w> 19401
9 1</w> 19398
获 悉</w> 19390
9 7</w> 19386
限 于</w> 19377
移 交</w> 19364
巴 布 19346
供应 商</w> 19342
F @@</w> 19338
内 罗 19333
联 络 19332
尼 泊 19300
中 @@</w> 19287
内罗 毕</w> 19280
实 践</w> 19276
负 担</w> 19266
驻 地</w> 19262
会 上</w> 19261
问责 制</w> 19255
约 旦</w> 19245
代 理</w> 19245
可 持续性</w> 19222
案 例</w> 19202
与 其</w> 19187
C. 2</w> 19183
本 届</w> 19173
年 代</w> 19153
孟加拉 国</w> 19148
食 物</w> 19138
尼 斯</w> 19135
撒 哈拉</w> 19135
发 放</w> 19123
白 俄罗斯</w> 19122
9 8</w> 19118
近 东</w> 19113
劳 工 19092
潜 力</w> 19072
K @@</w> 19052
并 未</w> 19044
建设 性</w> 19035
消 费 19025
农 组织</w> 19019
粮 农组织</w> 19019
重 于</w> 19011
a m 19003
总 理</w> 18994
拉 @@</w> 18991
与 此 18964
亚 美 18961
囚 犯</w> 18953
秘 鲁</w> 18944
9 3</w> 18939
争 议</w> 18919
最高 法院</w> 18909
成 绩</w> 18902
所 列</w> 18841
成 年人</w> 18838
9 2</w> 18822
合 法 18806
中 有</w> 18786
婚 姻</w> 18786
消 费</w> 18783
决 策 18773
更 大</w> 18771
今 年</w> 18765
尊 严</w> 18760
9 %</w> 18759
谈 会</w> 18744
8 9</w> 18736
柬 埔 18730
负 责 18711
人民 共和国</w> 18681
经 验 18670
制 性</w> 18663
汇 编</w> 18657
观 念</w> 18636
低 于</w> 18634
瓜 多 18632
厄 瓜多 18632
信息 系统</w> 18627
a s 18596
反 腐败</w> 18593
丹 麦</w> 18572
日 起</w> 18558
知 识 18550
石 油</w> 18525
议 员</w> 18509
约束 力</w> 18479
电 话</w> 18478
芬 兰</w> 18473
必 要 18444
护 理</w> 18428
分 庭</w> 18406
葡 萄 18391
9 5</w> 18378
共 有</w> 18375
危地 马拉</w> 18367
特 点</w> 18366
两 名</w> 18366
总 数</w> 18359
具 备</w> 18331
生 育</w> 18329
协商 一致</w> 18327
补 贴</w> 18292
9 4</w> 18290
c h@@</w> 18270
产 妇</w> 18252
人 格</w> 18251
第四 次</w> 18217
海 关</w> 18197
设 在</w> 18189
据 称</w> 18181
清 洁</w> 18178
审 计 18141
遇 到</w> 18131
主 管 18112
信 贷</w> 18109
排 除</w> 18104
角 度</w> 18094
秩 序</w> 18094
年 来</w> 18086
波 兰</w> 18078
国 防 18072
当 时</w> 18066
特 遣队</w> 18060
有 利</w> 18052
基 准</w> 18039
行 业</w> 18033
赞 成</w> 18033
积极 参与</w> 18026
克 共和国</w> 18023
委 内 18016
委内 瑞 18009
观 察</w> 18006
比利 时</w> 17999
工 会</w> 17996
克罗地 亚</w> 17993
专门 知识</w> 17989
限 度</w> 17955
国 @@</w> 17949
两 次</w> 17906
废 除</w> 17901
8 00</w> 17885
法 典</w> 17875
参 考</w> 17858
医 疗 17856
货 币</w> 17838
行政 当局</w> 17826
9 9</w> 17819
外国 人</w> 17804
一 套</w> 17789
克 服</w> 17779
提 名</w> 17763
毁 灭 17752
6 .@@</w> 17750
百分 比</w> 17750
毁灭 性</w> 17748
里 兰 17747
整 体</w> 17703
那 么</w> 17702
建 造</w> 17693
事 先</w> 17672
第 一个</w> 17667
少数 民族</w> 17663
告 知</w> 17652
主 动</w> 17638
十 一届</w> 17630
缔 结</w> 17607
大 @@</w> 17588
协 同</w> 17580
安 置</w> 17577
. 9</w> 17567
首 次</w> 17534
国际 法院</w> 17509
内 陆</w> 17493
为 期</w> 17490
南 南 17477
斯 里兰 17460
期 待</w> 17458
物 品</w> 17452
突 尼斯</w> 17447
南南 合作</w> 17445
交 付</w> 17436
CN .4</w> 17431
设 法</w> 17419
世界 各地</w> 17419
信 仰</w> 17406
全 面 17402
自 然</w> 17398
厄瓜多 尔</w> 17388
联 络</w> 17387
摊 款</w> 17381
一 条</w> 17380
感 染</w> 17376
五 个</w> 17375
强 奸</w> 17370
排 雷</w> 17370
o r@@</w> 17364
洗 钱</w> 17337
将 会</w> 17332
普 遍 17329
记 者</w> 17326
几 年</w> 17318
效 果</w> 17276
. 7</w> 17270
现 实</w> 17262
联 网</w> 17262
定 居 17260
C. 3</w> 17259
欧 元</w> 17250
轻 武器</w> 17248
会 计</w> 17244
耶 路 17241
耶路 撒 17237
斯里兰 卡</w> 17233
五 年</w> 17221
卡 塔 17216
三 年</w> 17211
试 图</w> 17210
不 人道</w> 17202
塞尔 维亚</w> 17170
自然 灾害</w> 17154
出 于</w> 17144
周 年</w> 17143
当 选</w> 17132
委内瑞 拉</w> 17131
调 解</w> 17121
科 技 17116
工作 者</w> 17104
耶路撒 冷</w> 17098
地 球</w> 17097
定 性</w> 17092
最 初</w> 17083
六 届</w> 17076
核 定</w> 17059
正 义</w> 17053
显 著</w> 17049
e s</w> 17024
资源 管理</w> 17022
转 递</w> 17014
尼泊 尔</w> 17003
时 间 16949
自 身</w> 16925
建 筑</w> 16922
尼 亚 16917
Re v 16914
摘 要</w> 16911
纲 要</w> 16910
许 可 16900
过 渡 16893
无 @@</w> 16892
余 额</w> 16887
私 营</w> 16875
敏 感</w> 16861
离 开</w> 16854
单 方面</w> 16851
康 复</w> 16841
海洋 法</w> 16841
主 办</w> 16831
4 @@</w> 16801
气 体</w> 16798
中 非 16791
交 换</w> 16788
面 前</w> 16781
印 发</w> 16749
每 月</w> 16748
前 往</w> 16732
坚 持</w> 16721
筹 备 16717
雇 用</w> 16710
计 算 16687
退 化</w> 16685
分 列</w> 16683
联 刚</w> 16683
容 性</w> 16673
照 顾</w> 16666
有 时</w> 16649
加 剧</w> 16630
援 助 16613
马 @@</w> 16611
仇 外</w> 16585
首 长</w> 16564
协调 一致</w> 16563
改 为</w> 16562
问 责</w> 16558
陈 述</w> 16556
强 烈</w> 16544
巴勒斯坦 人</w> 16535
难 以</w> 16533
职 人员</w> 16523
职 业 16520
国 内 16519
7 00</w> 16517
北 爱尔兰</w> 16513
安 哥 16503
裁 定</w> 16498
概 算</w> 16480
已 有</w> 16479
C. 5</w> 16471
许可 证</w> 16426
恐 怖</w> 16414
许 可</w> 16413
监察 员</w> 16413
各 项 16412
有 罪</w> 16411
小 学</w> 16411
贸易 法</w> 16401
充 足</w> 16390
例 子</w> 16390
高 兴</w> 16385
内 部 16380
遵 循</w> 16373
加 尔</w> 16367
解 除 16367
一 国</w> 16341
观察 团</w> 16340
索 赔 16331
与此 同时</w> 16319
价 值 16305
装 置</w> 16299
处 决</w> 16292
人 人</w> 16253
主 张</w> 16252
北 京</w> 16247
审 评</w> 16243
着 手</w> 16238
C C 16226
认 定</w> 16225
以 此</w> 16221
亚美 尼亚</w> 16221
任 何 16213
罗 马</w> 16205
阿 @@</w> 16204
哈 萨 16185
无 论</w> 16146
信 通</w> 16136
工 业 16115
解除 武装</w> 16095
法 行为</w> 16093
强 调 16080
认 真</w> 16080
强调 指出</w> 16080
委 员</w> 16075
o u 16061
制 作</w> 16060
应 付</w> 16052
共 计</w> 16028
补 偿</w> 16007
不 列 15997
期 望</w> 15991
不列 颠</w> 15990
重 大 15989
各 类</w> 15978
何 种</w> 15972
元 首</w> 15924
民主 主义 15921
朝鲜 民主主义 15921
载 于</w> 15905
塞 内 15903
粮食 安全</w> 15895
塞内 加尔</w> 15863
根 本</w> 15861
终 了</w> 15854
有 效 15828
沙 特 15827
守 则</w> 15822
邻 国</w> 15797
中非 共和国</w> 15793
比 率</w> 15790
联合国 开发计划署</w> 15790
一 方</w> 15780
营 养</w> 15777
斯 达 15776
准 确</w> 15769
商 业 15768
索赔 人</w> 15768
经验 教训</w> 15767
骚 扰</w> 15746
购 买</w> 15745
柬埔 寨</w> 15740
普 通</w> 15731
事 态</w> 15729
京 都</w> 15724
包 容性</w> 15723
强 化</w> 15721
哥 斯达 15717
黎 加</w> 15710
哥斯达 黎加</w> 15706
深 入</w> 15703
职 权 15698
经济 体</w> 15698
职权 范围</w> 15697
关 联</w> 15681
一 旦</w> 15657
有 害</w> 15656
人 @@</w> 15653
a t@@</w> 15652
确 实</w> 15644
失 业</w> 15636
多 @@</w> 15627
a r</w> 15624
取 代</w> 15616
持 久 15611
申 请 15606
特 别 15601
联 邦 15598
安全 部队</w> 15593
爆 炸</w> 15563
缺 少</w> 15546
亚 太 15544
I @@</w> 15543
农 业 15530
武 力</w> 15521
对 待</w> 15520
情 形</w> 15514
时间 表</w> 15512
马 尼亚</w> 15509
罗 马尼亚</w> 15509
援助 团</w> 15505
国 民 15489
不 应</w> 15481
间 接</w> 15479
只 能</w> 15471
统计 数据</w> 15463
i n@@</w> 15458
世 贸 15458
i l 15451
国际 贸易</w> 15439
遣 返</w> 15435
世贸 组织</w> 15427
飞 行</w> 15424
负责 人</w> 15421
决 权</w> 15420
暂 停</w> 15404
S R 15394
坦 桑 15394
社会 保障</w> 15391
后 来</w> 15384
不 论</w> 15351
加 速</w> 15349
足 以</w> 15342
管理 人员</w> 15320
安哥 拉</w> 15315
简 要</w> 15297
二 十 15283
处 境</w> 15264
朝鲜民主主义 人民共和国</w> 15262
订 立</w> 15249
该 法</w> 15246
C .1</w> 15237
适 合</w> 15235
o n@@</w> 15232
e n</w> 15227
用 品</w> 15221
乍 得</w> 15218
7 @@</w> 15211
国际 标准</w> 15211
各 个 15202
有 辱</w> 15200
不 结 15196
男女 平等</w> 15187
上 空</w> 15151
民 族 15134
外交 部长</w> 15132
大 楼</w> 15130
麻 醉 15122
拖 延</w> 15119
贩 卖</w> 15115
成 效</w> 15078
犯 下</w> 15068
核 可</w> 15067
先 前</w> 15044
用 来</w> 15021
汇 报</w> 15010
爆 炸 14992
法律 援助</w> 14988
渠 道</w> 14985
彻 底</w> 14969
1 20</w> 14967
葡萄 牙</w> 14961
面 对</w> 14942
重 复</w> 14937
红 十 14925
a b@@</w> 14902
削 减</w> 14894
0 1</w> 14856
大 不列颠</w> 14854
食 品</w> 14851
加 纳</w> 14840
阻 止</w> 14833
加 上</w> 14828
任 职</w> 14825
就业 机会</w> 14822
通 讯</w> 14821
捷 克共和国</w> 14816
提高 认识</w> 14812
掌 握</w> 14805
2 @@</w> 14797
后 者</w> 14785
严 重 14757
短 期</w> 14745
变 革</w> 14724
总 值</w> 14724
发 射</w> 14714
残 忍</w> 14708
融 合</w> 14696
多 地</w> 14691
投 诉</w> 14691
首 脑</w> 14686
5 @@</w> 14674
s t@@</w> 14672
国 别</w> 14664
巴 黎</w> 14660
a d@@</w> 14647
经 营</w> 14637
匈 牙 14625
货 币 14603
提 醒</w> 14581
转 型</w> 14576
收 益</w> 14576
必 要性</w> 14574
不 妨</w> 14571
照 料</w> 14550
处 置</w> 14548
穷 人</w> 14547
裁 谈会</w> 14546
时 限</w> 14526
土 著 14512
1 @@</w> 14500
沙特 阿拉伯</w> 14473
战 斗 14467
出 生</w> 14449
期 内</w> 14440
侧 重于</w> 14431
多 种</w> 14426
e l@@</w> 14426
斯洛 伐 14400
专 题 14377
定 为</w> 14371
转 交</w> 14369
领 空</w> 14363
讲 话</w> 14351
预算 外</w> 14341
只 要</w> 14334
外交 部</w> 14334
越 南</w> 14324
指 数</w> 14303
希 腊</w> 14292
快 速</w> 14290
乌 拉圭</w> 14272
定 罪</w> 14257
另 一方面</w> 14255
使 用 14249
知识 产权</w> 14243
南 亚</w> 14235
3 .@@</w> 14225
10 5</w> 14214
多 哈</w> 14201
第一 届</w> 14200
还 应</w> 14198
捐助 国</w> 14196
萨 尔 14187
灵 活</w> 14170
Rev .1</w> 14170
乌 兹 14168
民 事</w> 14158
还 要</w> 14155
边 境</w> 14154
e l</w> 14153
个 月</w> 14150
区域 合作</w> 14150
共 享</w> 14148
乌兹 别 14142
2 .@@</w> 14139
阿尔 巴 14138
农 村 14127
生 物 14125
常 常</w> 14106
地 带</w> 14088
四 条</w> 14085
法 定</w> 14068
内部 监督</w> 14067
o l@@</w> 14060
前 景</w> 14029
推 行</w> 14015
必要 措施</w> 14015
可 @@</w> 14008
导 弹</w> 14000
论 性</w> 13997
负 债</w> 13971
玻利 维亚</w> 13971
特 网</w> 13963
招 募</w> 13962
重 新 13961
旅 费</w> 13955
最 好</w> 13954
当事 方</w> 13933
占 领 13920
总 干事</w> 13916
物 资</w> 13908
咨询 服务</w> 13884
附 加</w> 13878
动 员</w> 13872
阐 明</w> 13869
对 象</w> 13868
航 空</w> 13851
十 五届</w> 13847
结 论性</w> 13845
a h@@</w> 13830
地 域</w> 13822
遗 产</w> 13818
0 . 13806
脆 弱 13787
自 我</w> 13786
常 规 13781
瓦 多</w> 13780
机 场</w> 13763
市 场 13763
匈牙 利</w> 13755
怀 孕</w> 13753
萨尔 瓦多</w> 13748
明 确 13727
第二 个</w> 13710
所 属</w> 13709
喀 麦 13707
承 包 13707
哈萨 克斯坦</w> 13704
脆弱 性</w> 13697
此 项</w> 13690
促 成</w> 13688
9 00</w> 13684
简 化</w> 13676
解 放 13676
因 特网</w> 13667
绩 效</w> 13630
斯 @@</w> 13623
坚 定</w> 13620
排 放 13614
幅 度</w> 13610
附 近</w> 13595
罪 犯</w> 13593
杀 害</w> 13589
有 @@</w> 13588
10 @@</w> 13579
尼 加拉 13572
尼加拉 瓜</w> 13572
公 报</w> 13562
孩 子</w> 13555
缓 解</w> 13554
迄 今</w> 13536
签 订</w> 13523
亚太 经 13518
值 得</w> 13511
没 收</w> 13506
参 照</w> 13497
指 导 13491
卡 @@</w> 13489
士 兵</w> 13484
好 处</w> 13483
A C. 13479
纪 念</w> 13477
温 室</w> 13471
多 次</w> 13470
放 弃</w> 13468
医 生</w> 13464
每 天</w> 13461
那 里</w> 13457
U N 13455
培训 班</w> 13453
这 类</w> 13449
常规 武器</w> 13446
始 终</w> 13442
位 于</w> 13440
迄 今 13440
着 重</w> 13425
登记 册</w> 13417
喀麦 隆</w> 13413
发展 权</w> 13404
控 制 13398
新 加 13383
特 征</w> 13378
科 @@</w> 13375
斯洛 文 13370
相 反</w> 13363
坚 决</w> 13363
大 家</w> 13356
所 谓</w> 13351
化学 武器</w> 13348
紧急 情况</w> 13330
用 水</w> 13329
级 别</w> 13323
披 露</w> 13317
旅 游 13314
董 事会</w> 13311
a s@@</w> 13310
规 章</w> 13304
法 语</w> 13303
事 故</w> 13296
功 能</w> 13288
领 取</w> 13252
联合国 大会</w> 13252
偿 还</w> 13245
倡 导</w> 13241
杀 伤</w> 13235
排放 量</w> 13233
2 . 13231
疟 疾</w> 13228
寻 找</w> 13226
地 理</w> 13223
金 额</w> 13222
几内 亚 13202
单 一</w> 13201
至 于</w> 13198
C or 13153
家 人</w> 13148
很 少</w> 13133
毛里 求 13101
C E 13092
图 书 13092
东 部</w> 13084
特 @@</w> 13077
体 育</w> 13059
支 柱</w> 13046
封 锁</w> 13040
r i@@</w> 13024
第二 条</w> 13019
正 确</w> 13001
不 够</w> 12996
审 查 12986
祝 贺</w> 12976
行 事</w> 12974
国内 法</w> 12963
非 国家</w> 12962
失 业 12959
库 存</w> 12959
这 份</w> 12958
第二 届</w> 12944
1 . 12939
独立 性</w> 12939
关 押</w> 12936
3 @@</w> 12935
习 俗</w> 12924
安全 部门</w> 12920
有 用</w> 12919
包 容</w> 12919
国家 元首</w> 12918
企 图</w> 12916
图书 馆</w> 12915
V @@</w> 12908
得 出</w> 12904
保 持 12894
卡塔 尔</w> 12889
完 善</w> 12888
排 斥</w> 12887
一致 性</w> 12887
关 心</w> 12882
纪 律</w> 12881
警 方</w> 12865
比 绍</w> 12860
我 要</w> 12858
童 工</w> 12857
入 侵</w> 12851
a s</w> 12846
删 除</w> 12844
未 成年人</w> 12838
作 业</w> 12834
旅 游</w> 12827
视 性</w> 12824
10 9</w> 12814
毛里求 斯</w> 12812
跟 踪</w> 12808
投 资 12799
也 门</w> 12797
言 论 12796
歧 视性</w> 12796
H RC</w> 12789
客 户</w> 12788
进 度</w> 12783
着 重 12782
言论 自由</w> 12781
视 察</w> 12780
列 为</w> 12776
干 旱</w> 12774
各 位</w> 12773
创 建</w> 12753
人权 法</w> 12753
经 历</w> 12743
苏 丹 12742
实 质</w> 12739
亚太经 社会</w> 12731
当事 人</w> 12717
审查 会议</w> 12707
根 源</w> 12694
净 额</w> 12688
文 本</w> 12686
J @@</w> 12677
弱 势 12674
支 援</w> 12673
对 @@</w> 12672
5 .@@</w> 12670
W @@</w> 12669
作出 贡献</w> 12665
阿尔巴 尼亚</w> 12653
农村 妇女</w> 12652
弱势 群体</w> 12649
个 别</w> 12646
备 金</w> 12645
普 查</w> 12640
继 续 12637
发 了</w> 12629
试 点</w> 12621
三 分 12619
称 为</w> 12618
丧 失</w> 12605
应 有</w> 12597
质 疑</w> 12596
的 话</w> 12593
占 领土</w> 12586
被 占领土</w> 12586
1 50</w> 12581
极 为</w> 12562
其 余</w> 12555
形 势</w> 12531
新加 坡</w> 12528
生产 总值</w> 12527
大 陆</w> 12519
例 外</w> 12519
吸 引</w> 12512
多样 化</w> 12512
无 论 12511
季 度</w> 12478
技术 转让</w> 12475
速 度</w> 12472
A l</w> 12464
政府 首脑</w> 12462
扩 展</w> 12457
格 式</w> 12450
尔 多 12448
前 提</w> 12441
a y@@</w> 12436
不 良</w> 12430
生 计</w> 12430
所 有权</w> 12428
普 通 12413
拉 斯</w> 12411
有 益</w> 12411
r .1</w> 12409
判 例</w> 12408
不 罚</w> 12397
营 地</w> 12394
高 于</w> 12390
一 词</w> 12385
西班 牙 12382
国际 劳工 12380
随 时</w> 12379
专 业 12375
沿 海</w> 12368
加 @@</w> 12362
条 文</w> 12353
绑 架</w> 12351
饥 饿</w> 12342
巴 塞尔</w> 12333
现 代</w> 12331
编 列</w> 12329
现 已</w> 12327
家 属</w> 12326
公 里</w> 12324
斯洛伐 克</w> 12307
该 部</w> 12303
活 性</w> 12300
斯洛文 尼亚</w> 12296
农 民</w> 12276
软 件</w> 12274
区 分</w> 12274
配 置</w> 12274
权 能</w> 12270
5 0%</w> 12265
牙 买 12264
免 遭</w> 12262
离 职</w> 12243
0 .@@</w> 12241
一 半</w> 12233
指 挥 12230
司法 部</w> 12230
儿 童 12217
被 迫</w> 12208
早 期</w> 12204
几内亚 比绍</w> 12196
首 席</w> 12194
汇 率</w> 12189
复 原</w> 12182
科技 咨询</w> 12175
i c 12157
极 端</w> 12154
定居 点</w> 12147
可 用</w> 12142
民 兵</w> 12125
之 二</w> 12107
犯罪 行为</w> 12103
保 存</w> 12102
反 对 12094
保 加 12088
Cor r.1</w> 12083
人权 宣言</w> 12082
十 @@</w> 12079
增 长 12078
注 册</w> 12069
事 业</w> 12067
消费 者</w> 12066
禁 运</w> 12054
精 神 12051
利 @@</w> 12047
铭 记</w> 12045
份 额</w> 12042
侵 略</w> 12041
指 称</w> 12041
南 方</w> 12040
迫 切 12040
代表 性</w> 12034
同 次</w> 12030
建 筑 12020
法 索</w> 12019
工作 文件</w> 12016
U @@</w> 12013
管理 系统</w> 12013
将 来</w> 12000
色 情</w> 11999
当 然</w> 11993
联 黎</w> 11991
基 会</w> 11983
恐怖 分子</w> 11967
西 岸</w> 11963
e n@@</w> 11960
营 养 11935
开 办</w> 11925
下 述</w> 11922
肯 定</w> 11917
有效 性</w> 11915
强 制性</w> 11912
近 年来</w> 11907
怀 疑</w> 11906
咨 商</w> 11902
生 命 11898
e d</w> 11886
法 @@</w> 11881
i a</w> 11878
指导 方针</w> 11871
养 护</w> 11863
难民 营</w> 11859
文 化 11853
退 休</w> 11847
违 背</w> 11844
变 得</w> 11838
互 联网</w> 11838
以色 列 11835
大 大</w> 11827
e l 11824
再 生 11823
巴 @@</w> 11821
配 合</w> 11819
首 要</w> 11817
交 通 11809
维 护 11803
结 构 11800
关 闭</w> 11799
立 陶 11798
o u@@</w> 11794
国际劳工 组织</w> 11790
竞争 力</w> 11773
婴 儿</w> 11772
污 染 11771
会 晤</w> 11759
殖民 化</w> 11758
监 督 11751
运 用</w> 11743
之 @@</w> 11743
0 7</w> 11740
去 年</w> 11730
转 变</w> 11727
强 有力</w> 11725
我 谨</w> 11721
司 长</w> 11718
两 种</w> 11714
决策 者</w> 11702
德 @@</w> 11693
用 以</w> 11689
相 当 11678
其 @@</w> 11677
合 组织</w> 11674
军 备</w> 11670
届 会</w> 11670
年 初</w> 11661
担 心</w> 11650
消 耗</w> 11648
变 动</w> 11643
传 染 11638
黑 山</w> 11629
任何 人</w> 11629
宏 观 11628
不 得 11627
缺 陷</w> 11627
利 尔</w> 11599
0 9</w> 11598
非 正规</w> 11597
召 集</w> 11594
标 准 11589
本 @@</w> 11588
牙买 加</w> 11585
贫 困 11584
新 @@</w> 11581
区 别</w> 11581
理 事</w> 11574
水 资源</w> 11569
依 靠</w> 11566
债 权 11557
保加 利亚</w> 11548
多 米 11543
计 划 11542
平 等 11540
诉 讼 11538
爆炸 物</w> 11536
四 年</w> 11535
详 细 11525
加 大</w> 11523
纠 正</w> 11520
监 察</w> 11518
蒙特 利尔</w> 11515
错 误</w> 11514
联 塞</w> 11509
下 放</w> 11504
位 置</w> 11501
多米 尼 11501
负 有</w> 11497
布 基 11491
选 定</w> 11488
运 行</w> 11486
不结 盟 11484
不结盟 运动</w> 11483
纳 法索</w> 11466
布基 纳法索</w> 11465
宗 教 11460
独 特</w> 11449
简 报</w> 11445
家庭 成员</w> 11443
迄今 为止</w> 11440
公 认</w> 11435
0 3</w> 11430
赞 比亚</w> 11425
世界 人权宣言</w> 11425
有 机</w> 11422
月 份</w> 11421
性 虐待</w> 11420
升 级</w> 11415
受 益 11403
之 内</w> 11402
制 约</w> 11399
同 等</w> 11385
自 决</w> 11384
残疾 儿童</w> 11384
选 出</w> 11382
清 除</w> 11380
尔 吉 11379
常 会</w> 11379
吉 尔吉 11379
再生 能源</w> 11364
亚 太</w> 11354
配 偶</w> 11344
瓦 尔</w> 11338
宏观 经济</w> 11335
谈 到</w> 11327
里 @@</w> 11320
填 补</w> 11318
198 9</w> 11318
罗 姆 11317
马 尔 11311
努 力 11309
4 .@@</w> 11301
8 @@</w> 11299
E P</w> 11295
内 @@</w> 11290
青 年人</w> 11288
节 目</w> 11272
调查 结果</w> 11268
档 案</w> 11257
城 市 11255
总 结</w> 11253
暂 行</w> 11247
某 种</w> 11241
会 费</w> 11221
刑事 法庭</w> 11218
十 届</w> 11216
对 性</w> 11210
马 拉 11210
海 上</w> 11210
准 入</w> 11196
观 测</w> 11187
10 %</w> 11187
十 三届</w> 11186
钻 石</w> 11183
合 格</w> 11180
本 人</w> 11177
初 次</w> 11175
现 状</w> 11163
持 有</w> 11160
国 外</w> 11156
出 售</w> 11135
跨 界</w> 11123
受 伤</w> 11118
核 实</w> 11114
宝 贵</w> 11103
布 尔</w> 11099
0 6</w> 11099
经 合组织</w> 11098
u r@@</w> 11095
中 非</w> 11083
7 .@@</w> 11083
忽 视</w> 11075
迫切 需要</w> 11074
赠 款</w> 11072
角 色</w> 11071
非 殖民化</w> 11063
席 位</w> 11058
联合国 总部</w> 11046
继 承</w> 11040
灵 活性</w> 11039
欧洲 委员会</w> 11033
马 其 11026
1 10</w> 11015
9 @@</w> 11011
帐 户</w> 11011
德 班</w> 11007
流 程</w> 11007
联合国 环境 10995
联合国环境 规划署</w> 10995
摩 尔多 10991
20 %</w> 10991
长 期 10986
特 使</w> 10982
以 @@</w> 10970
交 通</w> 10969
动 力</w> 10968
联邦 政府</w> 10958
设 置</w> 10955
非 常 10941
文 @@</w> 10934
经济 委员会</w> 10923
健 康 10920
推 出</w> 10919
阿 卜 10915
年 轻 10908
高 等教育</w> 10907
广 播</w> 10896
均 衡</w> 10896
补 助 10895
翻 译</w> 10891
着重 指出</w> 10891
学 率</w> 10886
一 家</w> 10881
第 八 10876
尽 早</w> 10874
筹备 工作</w> 10871
感 到 10870
d e</w> 10866
9 .@@</w> 10856
198 8</w> 10822
解决 方案</w> 10814
0 8</w> 10813
正 是</w> 10813
部 委</w> 10808
0 5</w> 10805
8 .@@</w> 10788
债权 人</w> 10785
援 引</w> 10781
塔 吉 10776
受 害</w> 10775
桌 会议</w> 10774
圆 桌会议</w> 10774
相当 于</w> 10774
动 态</w> 10765
认 证</w> 10764
2 50</w> 10763
空 中</w> 10761
提 起</w> 10755
立 法 10750
英 国</w> 10749
得 成功</w> 10748
合法 性</w> 10744
弱 势</w> 10743
永 久</w> 10743
吉尔吉 斯 10743
马 耳 10736
培 养</w> 10735
批 款</w> 10724
交 流 10724
强 制</w> 10718
所 @@</w> 10716
撤 销</w> 10714
探 索</w> 10711
价值 观</w> 10707
照 会</w> 10702
世界 卫生组织</w> 10699
十 二届</w> 10689
C R 10684
作 物</w> 10681
第六 条</w> 10676
a d</w> 10673
和 @@</w> 10673
必 需</w> 10672
对 策</w> 10669
发 给</w> 10668
第十 九 10662
基本 权利</w> 10658
极 大</w> 10652
草 稿</w> 10641
马耳 他</w> 10641
免 受</w> 10629
一 贯</w> 10625
英 文</w> 10620
绿 色</w> 10615
和平 利用</w> 10613
两 @@</w> 10601
优 势</w> 10586
联 科</w> 10585
补助 金</w> 10585
乌兹别 克斯坦</w> 10566
诉 诸</w> 10549
多 边 10548
福 祉</w> 10548
不 当</w> 10547
资 金 10546
巡 逻</w> 10545
愿 望</w> 10537
穆 斯 10535
相 关 10531
替 代 10522
联合 共和国</w> 10521
联 利</w> 10506
妇 发</w> 10506
破 产</w> 10502
方 便</w> 10495
分 段</w> 10495
申 明</w> 10495
污染 物</w> 10495
失 去</w> 10490
i t 10483
教 学</w> 10477
直 至</w> 10470
知 情</w> 10469
a k@@</w> 10468
时 @@</w> 10458
逐 渐</w> 10457
东 耶路撒冷</w> 10454
高 @@</w> 10449
万 人</w> 10442
生 存</w> 10438
计 量</w> 10431
法律 文书</w> 10418
得 不到</w> 10417
蒙 古</w> 10415
回 返</w> 10411
无 害</w> 10410
中 部</w> 10409
卫生 部</w> 10406
假 设</w> 10404
增 多</w> 10404
尼亚 联合共和国</w> 10403
坦桑 尼亚联合共和国</w> 10403
测 试</w> 10400
文 明</w> 10399
警察 部队</w> 10385
保 安</w> 10376
不得 不</w> 10371
覆 盖 10370
经 社 10369
C P 10369
痛 苦</w> 10349
小 组 10347
中 学</w> 10345
超 出</w> 10342
经 共体</w> 10337
日 @@</w> 10335
内 政 10331
执 法 10321
10 2</w> 10320
自由 化</w> 10318
大 型</w> 10317
三 @@</w> 10317
西 @@</w> 10316
第十 四条</w> 10315
参与 者</w> 10315
解 除</w> 10314
津 巴布 10309
地 @@</w> 10296
缴 款</w> 10296
履 行 10291
意 图</w> 10288
不 要</w> 10283
其 他人</w> 10282
年轻 人</w> 10280
判 处</w> 10278
绝 对</w> 10275
第三 届</w> 10272
响 应</w> 10270
小 企业</w> 10268
应 由</w> 10267
沟 通</w> 10264
客 观</w> 10263
纳 米 10259
全球 性</w> 10256
用 作</w> 10253
应 @@</w> 10247
航 空 10247
轨 道</w> 10240
由 此</w> 10230
第三 方</w> 10227
海 外</w> 10226
管理 层</w> 10219
发 挥 10217
连 续</w> 10209
风 险 10203
差 别</w> 10200
裂 变</w> 10197
发挥 作用</w> 10196
煽 动</w> 10191
感 兴趣</w> 10172
穆斯 林</w> 10172
发 生 10161
维 修</w> 10159
鼓 舞</w> 10158
暂 时</w> 10156
行动 者</w> 10156
津巴布 韦</w> 10146
散 发</w> 10144
共同 努力</w> 10144
有 着</w> 10137
国家 联盟</w> 10113
直 到</w> 10111
分 布</w> 10110
身 体</w> 10110
也 许</w> 10108
领 袖</w> 10107
巴 拿 10106
现 代 10106
月 底</w> 10106
描 述</w> 10102
10 1</w> 10102
贝 宁</w> 10100
面 积</w> 10097
低 收入</w> 10095
198 0</w> 10094
A b 10091
外 联</w> 10083
组 合</w> 10083
丰 富</w> 10081
开 幕</w> 10077
来 看</w> 10074
战斗 人员</w> 10074
否 则</w> 10073
1 11</w> 10068
纳 @@</w> 10067
联合国 秘书处</w> 10063
电 台</w> 10054
普 及</w> 10051
职 类</w> 10049
特 性</w> 10045
i r@@</w> 10043
经社 理事会</w> 10033
立陶 宛</w> 10028
种 种</w> 10025
港 口</w> 10025
对 付</w> 10022
大 幅</w> 10022
旅游 业</w> 10015
中 央 10012
看 来</w> 10005
闭 会</w> 10005
授 予</w> 9995
4 . 9990
综 合 9982
众 多</w> 9975
保 险 9975
购 置</w> 9972
力 求</w> 9969
苏丹 政府</w> 9969
所 示</w> 9958
自 从</w> 9956
安 @@</w> 9956
线 图</w> 9955
冻 结</w> 9948
团 伙</w> 9944
能 否</w> 9940
上 @@</w> 9939
标准 化</w> 9932
政 权</w> 9930
实 物</w> 9929
e z</w> 9922
贸易 组织</w> 9918
路 线图</w> 9911
分 歧</w> 9901
巴 林</w> 9893
土 库 9874
被 捕</w> 9865
星 期</w> 9863
增长 率</w> 9857
所 在 9856
仲 裁 9852
繁 荣</w> 9848
商 务</w> 9844
i l@@</w> 9843
S T</w> 9842
作出 努力</w> 9841
3 . 9840
养 恤</w> 9839
文 职人员</w> 9837
过 度</w> 9837
自 动</w> 9831
风险 管理</w> 9830
r a</w> 9829
总 共</w> 9820
标 题</w> 9816
紧 张</w> 9804
回 答</w> 9803
增 至</w> 9800
第五 次</w> 9793
物 体</w> 9792
税 收</w> 9792
恰 当</w> 9790
爱 沙 9788
针 对性</w> 9788
振 兴</w> 9782
罗姆 人</w> 9782
工作 量</w> 9781
10 3</w> 9781
18 @@</w> 9780
刑 法典</w> 9778
言 论</w> 9772
教 授</w> 9771
马其 顿 9767
人 为</w> 9757
治 安</w> 9748
所 在</w> 9743
并 于</w> 9739
辅 助</w> 9739
诉讼 法</w> 9734
安 装</w> 9732
丈 夫</w> 9726
马其顿 共和国</w> 9724
削 弱</w> 9722
多 项</w> 9721
小 额</w> 9712
种 植</w> 9693
拉 脱 9684
各个 方面</w> 9682
流 行 9678
最 低 9673
习 惯</w> 9671
1 30</w> 9668
切 实 9652
桑 比 9649
莫 桑比 9647
任 用</w> 9647
设 定</w> 9647
序 言</w> 9642
CN .9</w> 9636
核 试验</w> 9632
曾 经</w> 9632
放 射 9631
d a</w> 9629
开 设</w> 9627
克 @@</w> 9627
辩 护</w> 9626
计划 生育</w> 9623
多 名</w> 9622
回 收</w> 9620
中 亚</w> 9602
尊 重 9602
比 额</w> 9597
世界 贸易组织</w> 9597
10 4</w> 9593
3 0%</w> 9584
拉脱 维亚</w> 9580
尊重 人权</w> 9580
i s 9577
亚 @@</w> 9576
现代 化</w> 9576
毛 额</w> 9572
入 境</w> 9564
拉 加</w> 9563
灭 绝</w> 9559
N F 9557
CR P 9552
至 今</w> 9548
非 索</w> 9542
有所 增加</w> 9539
系统 地</w> 9530
盟 约</w> 9528
会 谈</w> 9524
分 担</w> 9518
真 相</w> 9507
驳 回</w> 9492
爱沙 尼亚</w> 9487
小 @@</w> 9479
采 纳</w> 9469
维护 者</w> 9467
o m@@</w> 9465
剩 余</w> 9464
罗 @@</w> 9452
两 级</w> 9452
近 期</w> 9449
所 得</w> 9445
莫桑比 克</w> 9441
同 @@</w> 9437
0 2</w> 9436
仇 恨</w> 9435
Y @@</w> 9431
奥 @@</w> 9431
0 4</w> 9430
结 婚</w> 9428
自 @@</w> 9426
伊 @@</w> 9418
清 理</w> 9415
10 6</w> 9414
防 范</w> 9406
短 缺</w> 9404
思 想</w> 9402
开 列</w> 9399
缩 小</w> 9398
平 均 9397
每 周</w> 9389
科 技</w> 9381
这 里</w> 9374
对 外</w> 9361
全 民 9361
a m</w> 9360
证 件</w> 9357
不 久</w> 9355
u l@@</w> 9352
基金 组织</w> 9342
e c 9339
薪 酬</w> 9336
第七 条</w> 9334
曼 斯坦</w> 9332
土库 曼斯坦</w> 9332
联合国 儿童 9326
联合国儿童 基金会</w> 9326
指挥 官</w> 9325
UN EP</w> 9324
组 织 9321
学 术</w> 9320
10 8</w> 9309
高 效</w> 9304
人 群</w> 9302
施 加</w> 9297
土 地 9295
i t@@</w> 9293
长 国</w> 9290
查 阅</w> 9290
酋 长国</w> 9290
o s</w> 9287
联 检</w> 9275
电 信</w> 9273
X X 9271
做 到</w> 9267
u n 9265
大 西 9265
边 缘 9264
健 全</w> 9259
有 待</w> 9257
会 见</w> 9249
交 给</w> 9249
臭 氧</w> 9248
表 格</w> 9245
原 籍</w> 9241
红十 字 9237
10 7</w> 9234
本 着</w> 9231
边缘 化</w> 9231
修 建</w> 9228
理 论</w> 9223
分 @@</w> 9220
欺 诈</w> 9219
置 于</w> 9219
持久 性</w> 9206
接 近</w> 9203
团 长</w> 9202
效 应</w> 9201
下 @@</w> 9200
说 法</w> 9198
空 间 9189
化 学</w> 9186
预防 性</w> 9178
接 收</w> 9177
冰 岛</w> 9177
牵 头</w> 9158
海 事</w> 9158
领 土 9155
公 路</w> 9146
灾 难</w> 9146
中 所载</w> 9141
会议 议程</w> 9140
体 面</w> 9129
司法 制度</w> 9127
制 品</w> 9120
林 业</w> 9120
简 单</w> 9118
I D 9116
德 哥 9112
斯 德哥 9112
法 外</w> 9110
亚 政府</w> 9107
S h 9104
发 表 9096
基本 建设</w> 9096
一 所</w> 9091
星期 五</w> 9087
当 中</w> 9083
协调 会</w> 9081
国民 议会</w> 9079
星期 一</w> 9074
该 司</w> 9066
年 @@</w> 9063
另 有</w> 9059
毫 无 9059
布 @@</w> 9057
洪 都 9054
报 酬</w> 9050
学 科</w> 9048
贩 卖 9045
船 舶</w> 9044
船 只</w> 9035
特 权</w> 9028
保 密</w> 9027
犯 有</w> 9022
面 向</w> 9021
征 求</w> 9020
实 例</w> 9018
一 天</w> 9008
巴 拉圭</w> 9006
行政 部门</w> 9003
海 @@</w> 8999
19 67</w> 8999
麻醉 药品</w> 8997
1 12</w> 8982
Z @@</w> 8980
C h@@</w> 8972
联合 酋长国</w> 8972
阿拉伯 联合酋长国</w> 8972
尔 摩</w> 8969
斯德哥 尔摩</w> 8969
民 警</w> 8968
. .</w> 8963
国 公司</w> 8960
关键 作用</w> 8954
洪都 拉斯</w> 8953
教育 部</w> 8952
更 多地</w> 8947
开 会</w> 8944
告 诉</w> 8938
单 元</w> 8932
签 名</w> 8930
半 年</w> 8929
顾 及</w> 8920
案 情</w> 8918
性 别 8915
该 条</w> 8914
金融 危机</w> 8914
人 员 8911
电 视 8911
纳米 比亚</w> 8911
第十 届</w> 8906
组 建</w> 8904
等 待</w> 8900
认 捐</w> 8895
重 @@</w> 8887
敦 士 8884
为 重要</w> 8883
应 为</w> 8878
列 支 8878
列支 敦士 8878
萨 @@</w> 8872
国防 军</w> 8871
金 属</w> 8858
每 日</w> 8856
取 得成功</w> 8854
德 里</w> 8851
失业 率</w> 8851
ID B 8851
西 撒哈拉</w> 8850
1 15</w> 8845
年 间</w> 8844
最 为</w> 8843
a t</w> 8842
营养 不良</w> 8836
军 火</w> 8835
阵 线</w> 8818
地 理 8814
1 60</w> 8811
约 束</w> 8807
生 态</w> 8807
卢 森 8807
土著 人</w> 8807
上 次</w> 8806
名 称</w> 8805
隔 离</w> 8797
覆 盖</w> 8788
补 编</w> 8785
操 守</w> 8784
生产 力</w> 8781
未 决</w> 8780
生 活 8777
欣 见</w> 8776
or g</w> 8772
现 场</w> 8771
下 次</w> 8770
职业 培训</w> 8769
某 一</w> 8759
改 造</w> 8750
东 盟</w> 8742
和平 解决</w> 8742
经济 危机</w> 8736
优 惠</w> 8733
六 个</w> 8724
列支敦士 登</w> 8721
男 孩</w> 8720
徒 刑</w> 8717
既 定</w> 8715
患 者</w> 8714
巴拿 马</w> 8708
次 数</w> 8706
原子 能 8703
领土 完整</w> 8699
塔吉 克斯坦</w> 8689
力 度</w> 8685
为 @@</w> 8683
紧 迫</w> 8679
无 效</w> 8678
1 13</w> 8676
验 室</w> 8676
南 部 8675
南部 非洲</w> 8674
惩 治</w> 8673
网 上</w> 8669
企 业 8669
能 源 8665
17 @@</w> 8665
买 卖</w> 8661
结 余</w> 8660
高 质量</w> 8657
1 14</w> 8656
水 @@</w> 8654
其 后</w> 8653
贩卖 人口</w> 8653
创 造 8649
D P</w> 8648
中 等</w> 8647
参 加 8643
适 用 8632
项 下</w> 8630
大 幅度</w> 8629
关 税</w> 8614
时 至</w> 8611
选 民</w> 8600
达 成 8591
吉 布 8584
卢森 堡</w> 8582
i m@@</w> 8574
儿 基会</w> 8571
合作 社</w> 8561
内政 部</w> 8559
惩 处</w> 8558
出 @@</w> 8555
订 约</w> 8554
i s</w> 8553
等 等</w> 8552
除 外</w> 8550
美 洲 8546
外 @@</w> 8546
检察 长</w> 8537
斐 济</w> 8531
13 @@</w> 8531
支 配</w> 8527
信 心</w> 8525
奠 定</w> 8522
运 送</w> 8517
1 40</w> 8515
塞 人</w> 8512
权 限</w> 8511
追 加</w> 8509
u n</w> 8500
章 程</w> 8494
堕 胎</w> 8491
欧 安 8488
倾 向</w> 8483
第四 届</w> 8481
负 面 8474
必 不可 8470
撤 回</w> 8469
军事 行动</w> 8465
准 备金</w> 8464
首 都</w> 8464
A l 8463
国际 原子能 8458
国际原子能 机构</w> 8458
大 力</w> 8457
1 16</w> 8456
力 支持</w> 8452
具体 措施</w> 8448
要 点</w> 8446
星期 四</w> 8444
循 环</w> 8442
提 升</w> 8441
想 法</w> 8439
此 后</w> 8437
人 均</w> 8434
直 升 8428
不 受</w> 8423
公共 行政</w> 8421
多 哥</w> 8420
进 行 8420
核 能</w> 8415
公共 政策</w> 8412
广 大</w> 8411
合 物</w> 8409
开 采</w> 8406
设 有</w> 8405
双 边 8405
普通 照会</w> 8402
弃 权</w> 8401
符 合 8398
普遍 性</w> 8389
中 小企业</w> 8385
u n@@</w> 8382
极 端 8382
羁 押</w> 8382
I II</w> 8376
第四 条</w> 8371
一 架</w> 8370
隔 离 8367
外 空</w> 8363
摆 脱</w> 8363
访 问 8361
家 园</w> 8357
生 @@</w> 8356
负面 影响</w> 8355
机 遇</w> 8354
星期 三</w> 8351
动 机</w> 8350
蒙特 雷</w> 8349
消 灭</w> 8342
所 用</w> 8337
责 任 8333
措 辞</w> 8333
六 条</w> 8329
划 界</w> 8325
CC C</w> 8323
合 适</w> 8321
某 个</w> 8318
无论 是</w> 8311
本 条</w> 8310
见 下文</w> 8302
穷 国</w> 8298
种族 灭绝</w> 8297
刑事 诉讼法</w> 8295
无 国籍</w> 8294
警 官</w> 8294
F CCC</w> 8290
1 22</w> 8290
1 18</w> 8281
中 美洲</w> 8279
补 助</w> 8275
格 @@</w> 8272
总 务</w> 8272
议 院</w> 8271
契 约</w> 8270
8 0%</w> 8269
担 忧</w> 8258
捕 捞</w> 8255
日 常</w> 8254
感到 遗憾</w> 8253
顺 利</w> 8238
总 体 8238
联 海</w> 8233
1 17</w> 8232
达成 协议</w> 8231
必不可 少</w> 8230
不 足以</w> 8225
村 庄</w> 8224
欧安 组织</w> 8223
活 力</w> 8221
4 0%</w> 8217
载 列</w> 8216
干 涉</w> 8213
指 挥</w> 8211
所 指</w> 8207
玻利 瓦尔</w> 8203
减 缓</w> 8202
签 证</w> 8199
表示 感谢</w> 8192
星期 二</w> 8186
可 行 8184
减 免</w> 8182
SR .@@</w> 8182
权 力 8171
围 绕</w> 8166
脱 离</w> 8164
图 @@</w> 8162
延 迟</w> 8161
阶 层</w> 8161
斯 堡</w> 8158
父 亲</w> 8146
14 @@</w> 8145
年 轻</w> 8144
整 合</w> 8144
含 有</w> 8142
截 止</w> 8135
供 水</w> 8133
IDB . 8128
o v</w> 8127
吉尔吉斯 斯坦</w> 8123
禁 毒</w> 8122
撤 出</w> 8120
很 难</w> 8111
执法 人员</w> 8106
计算 机</w> 8101
部 落</w> 8099
会 期</w> 8091
指 令</w> 8091
吉布 提</w> 8091
x @@</w> 8087
自 决权</w> 8081
识 别</w> 8081
已 于</w> 8079
采 矿</w> 8079
比 @@</w> 8073
名 册</w> 8065
承包 商</w> 8061
致 使</w> 8057
基本 上</w> 8057
老 龄</w> 8055
饮 用水</w> 8055
为 什么</w> 8053
警 务</w> 8047
赔 偿 8047
年 期</w> 8041
刑事 诉讼</w> 8041
统 筹</w> 8040
原 则 8040
发 动</w> 8038
灭 绝 8037
尼 @@</w> 8035
投资 者</w> 8032
a g@@</w> 8031
时 代</w> 8030
i s@@</w> 8029
住 所</w> 8025
分 散</w> 8022
构 想</w> 8016
阿 布 8013
约 翰 8012
检查 组</w> 8012
灭绝 种族</w> 8012
高级 官员</w> 8004
发 达</w> 8003
情 报 8003
万 @@</w> 7996
孕 妇</w> 7996
人 事</w> 7992
e t@@</w> 7989
适 足</w> 7986
全面 禁止</w> 7982
2 12</w> 7974
非 @@</w> 7974
司法 部门</w> 7968
招 聘</w> 7966
颁 发</w> 7963
敌 对 7961
根 本 7960
迹 象</w> 7959
朝 鲜</w> 7958
布 鲁 7957
书 面 7951
签 发</w> 7951
送 交</w> 7940
停 火</w> 7935
席 会议</w> 7933
距 离</w> 7933
重 叠</w> 7932
第六 十 7930
卫生 设施</w> 7924
出 来</w> 7916
第五 条</w> 7916
13 73</w> 7913
比 如</w> 7911
第三 条</w> 7907
行 @@</w> 7900
雇 佣 7900
瓦 @@</w> 7899
缴 纳</w> 7895
操 作</w> 7894
事务 处</w> 7891
行 为 7890
实 验室</w> 7884
流行 病</w> 7881
u t@@</w> 7878
谋 求</w> 7873
的 确</w> 7870
入 学率</w> 7861
迫 使</w> 7854
庆 祝</w> 7854
固 定</w> 7852
三 名</w> 7850
信 函</w> 7849
卫生 保健</w> 7840
变 成</w> 7838
追 踪</w> 7835
出 口 7834
预 警</w> 7829
学 会</w> 7825
1 19</w> 7822
十 四届</w> 7814
加 共和国</w> 7806
配 备</w> 7800
在 此 7791
提 倡</w> 7791
动 物</w> 7786
明确 规定</w> 7782
哈 @@</w> 7769
用 @@</w> 7767
评 注</w> 7765
申请 人</w> 7763
值 得 7761
据 说</w> 7761
三 项</w> 7753
准 许</w> 7752
地 中 7750
大西 洋</w> 7746
18 0</w> 7742
电 视</w> 7737
施 政</w> 7735
六 个月</w> 7728
完 全 7728
前 @@</w> 7724
实 效</w> 7722
危 险 7722
市场 准入</w> 7717
加 工</w> 7716
审 讯</w> 7711
复 杂 7707
职 权</w> 7701
瓦 共和国</w> 7692
摩尔多 瓦共和国</w> 7692
跨 国公司</w> 7685
发言 人</w> 7685
普 @@</w> 7683
1 25</w> 7680
房 屋</w> 7677
缓 慢</w> 7676
高 等 7674
竞 赛</w> 7674
全 权</w> 7671
大 赦</w> 7669
多 少</w> 7658
局 面</w> 7654
多米尼 加共和国</w> 7652
先 决 7649
或 是</w> 7641
尼日 尔</w> 7638
雷 @@</w> 7637
主 导</w> 7634
据 此</w> 7631
孕 产妇</w> 7626
警察 局</w> 7625
正 当</w> 7624
工业 化</w> 7616
标 志</w> 7615
委 托</w> 7610
先决 条件</w> 7604
术 语</w> 7603
采取 有效</w> 7600
萨 摩 7596
学 @@</w> 7594
外 债</w> 7591
权 益</w> 7589
扫 盲</w> 7578
经济 社会</w> 7574
通 货 7573
免 疫</w> 7569
预算 编制</w> 7567
理 想</w> 7560
疑 问</w> 7558
学 术 7556
1 6@@</w> 7556
强 大</w> 7550
大 会 7548
办 公</w> 7548
伊拉 克 7540
遗 留</w> 7539
解 释 7532
寿 命</w> 7532
at i 7531
专题 讨论</w> 7531
人 身 7530
名 @@</w> 7527
编 辑</w> 7526
会议 组织</w> 7525
伊斯兰 会议组织</w> 7525
中 止</w> 7519
以 南</w> 7518
事 宜</w> 7512
捍 卫</w> 7510
精 简</w> 7509
此 事</w> 7507
从 未</w> 7503
之 际</w> 7502
a d 7500
分 钟</w> 7486
两 份</w> 7486
艺 术</w> 7482
具体 情况</w> 7478
本 案</w> 7475
世 卫</w> 7473
赞 助</w> 7471
债 务 7468
社会 福利</w> 7465
追 究</w> 7462
第九 届</w> 7461
范 畴</w> 7455
抗 议</w> 7455
聘 用</w> 7455
1 23</w> 7454
基 @@</w> 7450
在 线</w> 7445
而 @@</w> 7439
斯 加</w> 7438
海 盗</w> 7437
战 斗</w> 7429
财务 报告</w> 7427
号 法</w> 7419
当 代</w> 7415
1 21</w> 7415
日内 瓦 7413
疫 苗</w> 7403
权力 下放</w> 7403
萨摩 亚</w> 7400
主管 部门</w> 7393
生 殖 7391
偏 见</w> 7389
爆 发</w> 7389
15 @@</w> 7387
第二 章</w> 7385
通货 膨 7384
成 年</w> 7383
议 定</w> 7382
各 @@</w> 7382
十 周年</w> 7380
根 除</w> 7379
目 的 7374
便 于</w> 7364
极 其</w> 7361
忆 及</w> 7360
实 务</w> 7355
维 @@</w> 7351
198 6</w> 7346
瓦 纳</w> 7345
马拉 维</w> 7344
口 译</w> 7343
四 @@</w> 7340
二 @@</w> 7334
利 班</w> 7333
塔 利班</w> 7333
彼 此</w> 7333
接 纳</w> 7333
运 营</w> 7327
反对 派</w> 7324
w w 7323
公共 卫生</w> 7323
ww w</w> 7323
员 工</w> 7318
马 达 7310
所 提</w> 7310
节 省</w> 7308
考 试</w> 7307
埃 @@</w> 7306
海洋 环境</w> 7306
主 持 7303
心 理 7303
提供 者</w> 7303
环境 保护</w> 7302
马达 加 7302
如 @@</w> 7294
解释 性</w> 7288
鱼 类</w> 7285
分 割</w> 7282
起 到</w> 7278
妻 子</w> 7276
多 斯</w> 7275
尽 管 7274
尽管 如此</w> 7274
体 罚</w> 7273
发 @@</w> 7272
第六 次</w> 7269
马尔 代 7268
辐 射</w> 7265
第三 国</w> 7265
之 以 7262
S u 7261
毛里 塔 7257
塞 族</w> 7253
尽 量</w> 7249
下 去</w> 7247
延 误</w> 7239
o r</w> 7236
收 容</w> 7236
地中 海</w> 7236
惠 益</w> 7231
期 @@</w> 7216
重 组</w> 7215
增 编</w> 7215
各 部</w> 7211
波 动</w> 7209
租 赁</w> 7205
联合国 日内瓦 7204
联合国日内瓦 办事处</w> 7204
碎 片</w> 7201
公共 服务</w> 7194
证 词</w> 7192
P .@@</w> 7190
博 茨 7189
严 格 7188
历 史 7186
屠 杀</w> 7184
一 再</w> 7176
汽 车</w> 7176
法律 事务</w> 7176
得 出 7173
得出 结论</w> 7173
直升 机</w> 7169
相 @@</w> 7168
种 类</w> 7167
M o 7166
批 评</w> 7164
C .@@</w> 7160
A l@@</w> 7158
邮 件</w> 7158
病 人</w> 7151
I n 7150
甄 选</w> 7149
雇佣 军</w> 7149
马达加 斯加</w> 7148
i c@@</w> 7147
统计 数字</w> 7145
第七 届</w> 7145
弥 补</w> 7140
测 量</w> 7138
第一 章</w> 7136
2 5%</w> 7133
无 线 7132
r o@@</w> 7132
汇 款</w> 7131
志 愿</w> 7130
每 一</w> 7130
三 次</w> 7127
追 回</w> 7123
联 苏</w> 7120
受 到 7120
反 馈</w> 7117
势 头</w> 7116
敌对 行动</w> 7115
制 造 7114
秘 密</w> 7110
1 24</w> 7110
年 前</w> 7109
阿拉伯 国家联盟</w> 7106
型 期</w> 7105
转 型期</w> 7105
内 斯堡</w> 7104
过渡 时期</w> 7101
程 序 7100
目的 地</w> 7098
占领 国</w> 7097
第二 阶段</w> 7096
隔离 墙</w> 7096
约翰 内斯堡</w> 7096
曼 谷</w> 7094
复 苏</w> 7094
均 等</w> 7091
内 阁</w> 7090
危 及</w> 7086
第五十 九</w> 7086
广 播 7084
马尔代 夫</w> 7084
毛里塔 尼亚</w> 7080
不 予</w> 7076
充分 利用</w> 7076
储 备</w> 7072
e d@@</w> 7070
检 测</w> 7070
一 揽 7069
模 型</w> 7068
服务 中心</w> 7066
博 士</w> 7064
伤 亡</w> 7064
一揽 子</w> 7061
综合 性</w> 7060
性 骚扰</w> 7057
体 @@</w> 7057
第十 一届</w> 7054
博茨 瓦纳</w> 7054
加 紧 7050
其 次</w> 7048
加紧 努力</w> 7048
家 长</w> 7044
勘 探</w> 7043
电子 商务</w> 7039
成 人</w> 7037
i d@@</w> 7034
指 明</w> 7034
技术 支持</w> 7034
次 序</w> 7031
12 @@</w> 7031
集 会</w> 7030
化 @@</w> 7030
赤 贫</w> 7028
13 8</w> 7026
找 出</w> 7024
统计 局</w> 7024
绳 之以 7022
绳之以 法</w> 7022
引 发</w> 7015
第九 条</w> 7013
l a</w> 7009
学 家</w> 7005
审计 员</w> 7005
每 次</w> 6997
最 多</w> 6995
第六 届</w> 6991
第五十 八</w> 6990
参加 者</w> 6987
签 字</w> 6986
a v@@</w> 6985
进行 谈判</w> 6965
筹 集</w> 6958
巴 巴 6956
巴巴 多斯</w> 6956
财 富</w> 6954
斯坦 共和国</w> 6954
收 款</w> 6953
激 励</w> 6953
国 务 6949
老 年</w> 6945
估 算</w> 6942
连 续性</w> 6941
先 进</w> 6940
队 伍</w> 6940
重大 进展</w> 6939
学 金</w> 6938
司法 机关</w> 6938
i m</w> 6933
增 设</w> 6928
盘 旋</w> 6928
演 变</w> 6927
迁 移</w> 6919
百 万</w> 6918
禁 令</w> 6917
一 事</w> 6916
1 27</w> 6914
国 防</w> 6913
庭 长</w> 6911
入 学</w> 6905
西班牙 语</w> 6903
续 会</w> 6902
医疗 保健</w> 6900
项 目 6899
代 价</w> 6895
毫 米</w> 6895
用 尽</w> 6892
r e@@</w> 6892
核 算</w> 6887
15 3</w> 6885
第五 届</w> 6878
鲁 @@</w> 6875
20 20</w> 6872
198 2</w> 6872
个 人 6867
公 私</w> 6867
分 为</w> 6864
圭 亚 6861
救 助</w> 6860
平 方 6859
二 条</w> 6857
遏 制</w> 6857
作 法</w> 6852
性 恋</w> 6848
交 易 6846
6 0%</w> 6841
离 婚</w> 6840
撤 离</w> 6840
15 %</w> 6839
奖 励</w> 6835
201 6</w> 6829
报 复</w> 6828
业 已</w> 6827
CO NF 6812
集 束</w> 6811
一 场</w> 6809
署 长</w> 6806
或 许</w> 6805
核 证</w> 6801
妇女 组织</w> 6801
东 南 6797
周 围</w> 6797
第五十 七届</w> 6796
移 动</w> 6794
不 丹</w> 6791
产 业</w> 6790
因 @@</w> 6789
划 分</w> 6785
收 养</w> 6785
13 4</w> 6782
分 至</w> 6780
塞 @@</w> 6778
行 径</w> 6777
每 @@</w> 6777
层 次</w> 6777
15 5</w> 6769
1 28</w> 6768
198 5</w> 6766
列 举</w> 6764
调 集</w> 6763
选 举 6760
调查 团</w> 6751
这 笔</w> 6748
南斯拉 夫 6740
海 牙</w> 6738
消 耗 6737
产 假</w> 6733
1 26</w> 6732
物 种</w> 6724
常 规</w> 6724
13 2</w> 6723
1 .1</w> 6721
自 主</w> 6720
叙 述</w> 6720
吸 收</w> 6720
连 接</w> 6717
紧 张 6715
高 度 6714
友 好</w> 6710
产 量</w> 6709
a y 6702
提 出 6702
科学 技术</w> 6698
几 次</w> 6696
东 欧</w> 6695
见 解</w> 6695
否 认</w> 6691
姓 名</w> 6691
这 场</w> 6690
西 部</w> 6679
使 馆</w> 6679
无 障碍</w> 6675
文 职</w> 6670
网 址</w> 6668
198 7</w> 6668
三分 之一</w> 6668
细 节</w> 6666
展 示</w> 6665
e s 6663
运 输 6663
对 抗</w> 6662
概 要</w> 6662
公 务</w> 6661
联 委会</w> 6660
架 构</w> 6653
恐 吓</w> 6653
通 用</w> 6651
少 女</w> 6651
格 林 6650
编 号</w> 6650
利 润</w> 6649
罚 款</w> 6645
述 及</w> 6645
感 染 6644
务 人员</w> 6637
承 担 6637
CO P 6637
处 以</w> 6635
权 威</w> 6630
各 种 6628
从 @@</w> 6628
补 救 6628
20 @@</w> 6628
双 重</w> 6627
院 长</w> 6622
达 @@</w> 6622
全民 投票</w> 6617
概 况</w> 6614
生 境</w> 6603
医 学</w> 6601
e s@@</w> 6599
不 扩散</w> 6594
核 不扩散</w> 6594
买 方</w> 6594
地 面</w> 6593
附 上</w> 6592
机 @@</w> 6590
相关 性</w> 6586
绝 大多数</w> 6583
u s 6580
圭亚 那</w> 6572
工 @@</w> 6571
莱 @@</w> 6569
草 坪</w> 6564
基 督 6560
强 制 6560
身 份 6560
数 @@</w> 6558
据 报</w> 6558
几 @@</w> 6557
o s@@</w> 6556
18 2</w> 6556
助 长</w> 6553
此 机会</w> 6552
九 届</w> 6552
可 否</w> 6550
影 响 6549
事务 司</w> 6547
地 震</w> 6546
本 来</w> 6545
完 整 6544
民族 和解</w> 6543
这 @@</w> 6539
不 仅仅</w> 6536
归 还</w> 6536
不 安</w> 6535
确 切</w> 6525
CE D 6525
E S</w> 6523
15 40</w> 6522
布鲁 塞尔</w> 6522
2 .1</w> 6517
体 育 6517
女 生</w> 6515
欧洲 人</w> 6513
A W</w> 6502
CED AW</w> 6502
承 付</w> 6500
Add .2</w> 6499
十 六届</w> 6497
论 述</w> 6494
借 此机会</w> 6494
五 @@</w> 6494
影响 力</w> 6493
概 览</w> 6491
较 大</w> 6487
含 义</w> 6486
抵 消</w> 6484
海 底</w> 6482
调 解 6482
一 支</w> 6475
此 次</w> 6475
法 法院</w> 6473
宪 法法院</w> 6473
依 存</w> 6473
解 放</w> 6471
塔 @@</w> 6466
m a</w> 6465
第 八届</w> 6459
原则 上</w> 6459
临 时 6456
9 0%</w> 6452
较 为</w> 6452
下 来</w> 6450
流 入</w> 6449
民 法</w> 6446
使 命</w> 6444
创 业</w> 6443
编 纂</w> 6443
总 是</w> 6440
更 具</w> 6438
补救 措施</w> 6434
引 入</w> 6433
一 人</w> 6427
若 干 6417
7 0%</w> 6415
境 况</w> 6415
中 间</w> 6411
植 物</w> 6411
纪 念 6411
民 间 6410
革 命</w> 6405
特别 法庭</w> 6401
消 极</w> 6395
详 情</w> 6394
专 长</w> 6391
in g</w> 6383
债务 人</w> 6380
早 日</w> 6379
an d</w> 6379
中 所</w> 6376
持久 和平</w> 6376
配 额</w> 6374
木 材</w> 6374
替代 品</w> 6373
美 国政府</w> 6370
为 何</w> 6367
训 研</w> 6367
本 地</w> 6366
流 行</w> 6364
对 应</w> 6364
极端 主义</w> 6363
1 29</w> 6362
布 罗 6361
拘 押</w> 6361
S h@@</w> 6360
违 法行为</w> 6359
中 将</w> 6358
以 供</w> 6352
已 @@</w> 6347
C RC</w> 6346
非洲 大陆</w> 6345
各项 规定</w> 6343
事 情</w> 6340
i y 6337
方 @@</w> 6336
侧 重</w> 6336
e t 6333
或 @@</w> 6331
S B 6329
依 法</w> 6327
法 人</w> 6325
信 中</w> 6322
税 务</w> 6317
遵 约</w> 6316
气 氛</w> 6315
格林 纳 6314
深 信</w> 6313
第一 阶段</w> 6309
由 @@</w> 6306
生命 权</w> 6304
a c@@</w> 6300
亲 属</w> 6300
奴 役</w> 6300
14 1</w> 6299
利 害 6297
摧 毁</w> 6295
法律 顾问</w> 6289
改 组</w> 6288
13 5</w> 6288
伊拉克 政府</w> 6287
利 息</w> 6285
理 @@</w> 6277
枪 支</w> 6272
分 娩</w> 6268
迪 @@</w> 6255
附 录</w> 6253
生产 能力</w> 6252
假 定</w> 6249
沙 @@</w> 6248
延 期</w> 6248
救 灾</w> 6247
1 69</w> 6245
这 两项</w> 6244
年 龄 6243
二十 一</w> 6243
章 节</w> 6241
偷 运</w> 6241
第三 个</w> 6239
区域 间</w> 6239
划 拨</w> 6237
中 小型</w> 6235
养 老 6234
南 @@</w> 6230
独立 国家</w> 6229
19 70</w> 6228
国 会</w> 6227
201 7</w> 6226
e t</w> 6225
甲 基</w> 6224
诊 所</w> 6224
国际 货币 6224
开发 银行</w> 6224
严 峻</w> 6213
应 予</w> 6211
导 航</w> 6211
所 说</w> 6211
不 幸</w> 6210
更 改</w> 6210
兼 顾</w> 6210
表 @@</w> 6207
指 派</w> 6204
妥 善</w> 6204
经济 合作 6204
留 在</w> 6203
里 约 6194
传染 病</w> 6194
特 丹</w> 6190
特 区</w> 6190
矛 盾</w> 6190
恶 劣</w> 6189
完整 性</w> 6189
涉 嫌</w> 6185
相互 依存</w> 6185
修 订 6184
13 3</w> 6184
国防 部</w> 6183
相 一致</w> 6179
哈 马</w> 6177
城 镇</w> 6171
m an</w> 6170
裁 撤</w> 6168
伦 敦</w> 6166
条 @@</w> 6163
令人 满意</w> 6160
i r</w> 6159
街 头</w> 6159
异 议</w> 6157
k a</w> 6157
申 报</w> 6153
资金 来源</w> 6153
天 @@</w> 6152
收 取</w> 6149
新 生 6147
贩 毒</w> 6147
和 谐</w> 6145
. ..</w> 6144
不 管</w> 6143
索 @@</w> 6143
七 条</w> 6142
获 益</w> 6139
主管 机构</w> 6139
是 从</w> 6138
教育 权</w> 6134
时 说</w> 6133
山 区</w> 6130
遵 照</w> 6128
新 兴</w> 6124
1 31</w> 6121
不 法行为</w> 6116
正 当 6112
远 远</w> 6109
分 开</w> 6106
习 惯 6104
受 @@</w> 6104
积 累</w> 6101
性别 歧视</w> 6101
放射 性</w> 6097
预防 措施</w> 6096
土 壤</w> 6089
17 0</w> 6082
h am 6081
预 定</w> 6081
书 记</w> 6079
微 型</w> 6077
加 蓬</w> 6076
戈 兰</w> 6075
业 务 6074
无 条件</w> 6072
e m@@</w> 6071
费 率</w> 6071
失 败</w> 6070
意 外</w> 6069
联合国 人口 6065
联合国人口 基金</w> 6065
印 刷</w> 6063
增 效</w> 6063
a c 6060
抵 达</w> 6060
发 送</w> 6059
欧洲 共同体</w> 6058
版 本</w> 6056
示 威</w> 6054
调查 表</w> 6053
建筑 物</w> 6051
及 农业 6045
联合国 粮食 6045
企业 家</w> 6045
及农业 组织</w> 6045
联合国粮食 及农业组织</w> 6045
可 信</w> 6041
诊 断</w> 6035
未 @@</w> 6030
关键 问题</w> 6029
活 跃</w> 6026
加勒 比 6022
可行 性</w> 6021
兰 @@</w> 6020
区域 性</w> 6020
协商 会议</w> 6020
护 照</w> 6015
谋 杀</w> 6012
嫌 疑 6012
日 前</w> 6011
三 方</w> 6011
M ar 6009
A n 6004
僵 局</w> 6001
博 @@</w> 5992
该 @@</w> 5989
贝 巴</w> 5988
中 断</w> 5988
i l</w> 5980
努力 实现</w> 5979
亚 贝巴</w> 5977
殖民 地</w> 5977
论 点</w> 5976
化 碳</w> 5976
房 舍</w> 5971
刑 罚</w> 5969
管理 机构</w> 5969
卷 入</w> 5964
斯 亚贝巴</w> 5963
保 障 5961
更 换</w> 5960
战略 性</w> 5960
贫 民 5959
租 金</w> 5958
飞 离</w> 5955
详 尽</w> 5955
前 任</w> 5954
布 雷 5948
布雷 顿</w> 5948
摩 纳 5947
迫 害</w> 5944
日 益 5937
称 赞</w> 5936
扣 押</w> 5934
麻醉 品</w> 5932
过 @@</w> 5931
文 章</w> 5929
措 词</w> 5926
更 正</w> 5922
转 化</w> 5920
自 主权</w> 5919
气 象</w> 5917
选 择 5915
提 前</w> 5913
监 护 5913
转 @@</w> 5912
大 众</w> 5910
联 盟 5910
令人 遗憾</w> 5909
多 黎 5907
波 多黎 5907
左 右</w> 5906
与 会</w> 5905
米 尔</w> 5905
亚 的 5904
亚的 斯亚贝巴</w> 5904
政府 部门</w> 5901
小组 讨论</w> 5899
合 理 5898
无 疑</w> 5896
成 @@</w> 5895
性 健康</w> 5895
支 持 5895
波多黎 各</w> 5894
克 斯坦共和国</w> 5893
13 6</w> 5890
修 复</w> 5889
陷 入</w> 5887
刑事 犯罪</w> 5887
段 落</w> 5885
建 制</w> 5884
奖 学金</w> 5883
一致 意见</w> 5882
检 验</w> 5881
余 留</w> 5878
公 @@</w> 5877
19 78</w> 5876
学术 界</w> 5876
华 盛 5875
联合国 安全 5875
联合国安全 理事会</w> 5875
上 帝</w> 5873
收 回</w> 5873
挂 钩</w> 5871
派 出</w> 5869
u m@@</w> 5865
深 切</w> 5861
禁 产</w> 5860
辩 护 5856
保护 措施</w> 5856
第十 二届</w> 5854
托 @@</w> 5852
火 器</w> 5849
大 陆 5848
利 化</w> 5846
款 额</w> 5846
便 利化</w> 5846
经 常 5845
考 察</w> 5844
非洲 人</w> 5843
后 @@</w> 5842
地 名</w> 5836
应 收款</w> 5832
转 向</w> 5823
蓄 意</w> 5823
定 居</w> 5822
受益 人</w> 5819
南斯拉夫 联盟 5816
南斯拉夫联盟 共和国</w> 5816
展 望</w> 5815
淘 汰</w> 5815
保持 一致</w> 5814
无 视</w> 5813
N F</w> 5812
等 级</w> 5812
冲 击</w> 5809
联合 行动</w> 5808
an d@@</w> 5807
上 学</w> 5805
举 报</w> 5802
氯 化</w> 5801
同 事</w> 5800
保 留 5800
紧张 局势</w> 5799
肇 事 5797
预 审</w> 5796
赋 权</w> 5792
十 分 5790
空 运</w> 5789
手 续</w> 5786
克 劳</w> 5781
马 德里</w> 5776
洛 @@</w> 5776
很 快</w> 5775
一 类</w> 5767
病 率</w> 5766
天 然 5764
一 段</w> 5763
斡 旋</w> 5760
13 9</w> 5760
14 2</w> 5760
充分 考虑</w> 5757
各 州</w> 5756
恢 复 5752
东 南亚</w> 5749
连 贯</w> 5749
a w@@</w> 5747
斯 科</w> 5747
反 @@</w> 5746
三分 之二</w> 5745
过 于</w> 5744
区 内</w> 5743
所在 地</w> 5743
界 限</w> 5741
收 费</w> 5740
国际货币 基金组织</w> 5738
判 刑</w> 5737
巴 哥</w> 5736
多 巴哥</w> 5736
承 受</w> 5734
a z@@</w> 5732
该 次</w> 5732
解放 军</w> 5729
刑事 责任</w> 5728
托 克劳</w> 5727
结构 性</w> 5725
阵 地</w> 5724
七 个</w> 5723
经 @@</w> 5722
1 .2</w> 5721
战略 规划</w> 5721
19 49</w> 5719
扶 持</w> 5717
哥伦 比 5717
确 定性</w> 5714
警 卫</w> 5714
13 7</w> 5714
几 项</w> 5712
心 @@</w> 5712
第一 款</w> 5712
3 .1</w> 5711
平等 权利</w> 5707
土著 居民</w> 5705
1 6 5704
坚 信</w> 5702
筹备 会议</w> 5699
段 时间</w> 5697
航 天 5696
全 力</w> 5694
原 先</w> 5694
劳动 法</w> 5693
流 通</w> 5690
14 3</w> 5686
日 历</w> 5685
索 托</w> 5682
火 箭</w> 5681
红十 字</w> 5681
捐 赠</w> 5680
动 议</w> 5679
初 期</w> 5679
第十九 条</w> 5674
化 合物</w> 5670
会 @@</w> 5669
征 得</w> 5668
宣 称</w> 5668
刺 激</w> 5659
动 @@</w> 5655
存 者</w> 5653
联 阿</w> 5653
老 挝 5653
追 求</w> 5652
a p@@</w> 5651
鹿 特丹</w> 5651
遥 感</w> 5650
形 象</w> 5648
三 条</w> 5646
肇事 者</w> 5645
多 方</w> 5642
胁 迫</w> 5641
内 外</w> 5638
198 1</w> 5637
做 好</w> 5633
分 离</w> 5630
互 助</w> 5630
缩 短</w> 5628
使用 者</w> 5627
老挝 人民 5627
差 旅</w> 5626
开 @@</w> 5623
现 任</w> 5623
副 本</w> 5623
拘 禁</w> 5622
坦 布尔</w> 5619
伊斯 坦布尔</w> 5619
古 @@</w> 5618
统 一 5615
生产 性</w> 5615
人 身</w> 5613
国家 计划</w> 5613
部长 会议</w> 5610
下 面</w> 5609
发 电 5607
优 先 5605
幸 存者</w> 5605
2 35</w> 5602
老挝人民 民主共和国</w> 5600
预 先</w> 5597
香 港</w> 5597
全 额</w> 5595
吸 毒</w> 5595
挑 选</w> 5595
路 线</w> 5593
居 住 5592
殴 打</w> 5590
i d</w> 5589
切 割</w> 5588
谨 慎</w> 5587
19 73</w> 5587
习惯 法</w> 5586
优 质</w> 5585
第二十 届</w> 5585
作出 反应</w> 5582
发展 部</w> 5580
采取 任何</w> 5580
多边 贸易</w> 5578
跨 部门</w> 5576
蔓 延</w> 5576
出 台</w> 5574
超 越</w> 5572
两 者</w> 5570
时 刻</w> 5569
仔 细</w> 5569
警 告</w> 5567
极 为重要</w> 5564
幼 儿</w> 5562
文化 遗产</w> 5562
哈 根</w> 5560
上 涨</w> 5559
Add . 5559
从 中</w> 5557
犯罪 活动</w> 5552
伊斯兰 教</w> 5551
官 长</w> 5549
法 文</w> 5544
预 见</w> 5543
14 5</w> 5542
军 人</w> 5539
以色列 政府</w> 5539
器 官</w> 5535
14 4</w> 5535
u r 5533
不 限</w> 5527
基 伍</w> 5527
五 条</w> 5526
或 缺</w> 5525
拖 欠</w> 5525
大 程度</w> 5524
出 境</w> 5523
扭 转</w> 5522
缴 付</w> 5518
复杂 性</w> 5518
紧 密</w> 5515
财务 状况</w> 5515
塞浦路 斯 5515
发 行</w> 5512
研 训</w> 5512
直 布罗 5512
不可 或缺</w> 5510
对 本</w> 5507
an i</w> 5503
养老 金</w> 5502
C D</w> 5501
部 件</w> 5497
1 62</w> 5497
兄 弟</w> 5497
犹 太 5494
派 驻</w> 5490
特 立 5484
合 @@</w> 5484
药 物 5484
专 用</w> 5484
岗 位</w> 5482
i o</w> 5477
P R 5473
第五十 四届</w> 5472
乡 村</w> 5471
伯 利</w> 5468
各 省</w> 5467
第二十 三届</w> 5465
律 师 5464
些 时候</w> 5463
证 券</w> 5462
回 到</w> 5462
可 疑</w> 5459
为 本</w> 5455
书 记 5453
G C. 5452
金 伯利</w> 5452
5 . 5451
特 殊 5446
生物 武器</w> 5446
将 近</w> 5441
战略 方针</w> 5440
失 望</w> 5439
退 休 5438
大 大 5433
u s@@</w> 5431
14 7</w> 5431
14 6</w> 5428
公 然</w> 5427
害 人</w> 5425
华盛 顿</w> 5422
公 职人员</w> 5418
薄 弱</w> 5418
巴 哈马</w> 5417
格 达</w> 5415
长 时间</w> 5409
愿 景</w> 5409
科学 家</w> 5407
10 0%</w> 5404
不 必</w> 5400
执行 机构</w> 5400
犯罪 者</w> 5400
如 同</w> 5399
当 事</w> 5399
世界 粮食 5399
世界粮食 计划署</w> 5399
哥 本 5398
哥本 哈根</w> 5398
充 当</w> 5397
炸 弹</w> 5397
规 划 5396
判 断</w> 5395
最 终 5395
C. 4</w> 5394
之 上</w> 5392
居 留</w> 5391
15 7</w> 5388
药物 滥用</w> 5387
益 于</w> 5385
退 出</w> 5384
驱 动</w> 5381
莱 索托</w> 5376
高等 法院</w> 5376
摩纳 哥</w> 5376
侵 权 5373
全 国 5369
着 眼 5359
动 性</w> 5356
孤 儿</w> 5356
所 致</w> 5356
阿 曼</w> 5355
冈 比亚</w> 5353
天然 气</w> 5350
固 有</w> 5349
无 需</w> 5339
蒂 @@</w> 5339
不可 分割</w> 5336
被 控</w> 5333
整 套</w> 5333
资 发</w> 5331
提 @@</w> 5329
电 力</w> 5328
特立 尼 5328
交 换 5326
回 合</w> 5324
农 产品</w> 5324
重 债</w> 5322
文 字</w> 5320
别 的</w> 5320
查 询</w> 5319
纠 纷</w> 5319
达 和 5316
有 意</w> 5316
特立尼 达和 5316
特立尼达和 多巴哥</w> 5316
分 配 5314
o v 5313
a f@@</w> 5312
益 处</w> 5311
不 明</w> 5308
大陆 架</w> 5306
直布罗 陀</w> 5306
你 们</w> 5302
义 务 5300
发 病率</w> 5299
办 理</w> 5294
勤 人员</w> 5292
减 灾</w> 5291
加 深</w> 5288
地 图</w> 5288
侦 查</w> 5287
交流 信息</w> 5284
城市 化</w> 5281
拉 特</w> 5280
新 几内亚</w> 5280
相 称</w> 5279
儿 子</w> 5278
随 函</w> 5278
抵 抗</w> 5278
种 群</w> 5277
网 页</w> 5277
顺 序</w> 5276
改 动</w> 5276
应 是</w> 5275
思 考</w> 5272
高 效率</w> 5271
飞 越</w> 5271
进 出口</w> 5268
六 @@</w> 5268
货币 基金</w> 5267
a b 5265
自 行</w> 5264
统 组织</w> 5264
非 统组织</w> 5264
百 @@</w> 5260
1 66</w> 5257
司法 程序</w> 5257
借 鉴</w> 5256
不 变</w> 5255
起 @@</w> 5253
立法 机构</w> 5251
o v@@</w> 5250
总 @@</w> 5249
动 产</w> 5246
不 断 5245
境 外</w> 5243
非 盟</w> 5237
后 裔</w> 5236
尽 量 5229
得 @@</w> 5228
北 方</w> 5225
亚 新几内亚</w> 5224
巴布 亚新几内亚</w> 5224
夫 人</w> 5223
s h@@</w> 5222
劳动 者</w> 5222
基 线</w> 5221
被 害人</w> 5220
传染 性</w> 5220
个 案</w> 5219
运 人</w> 5218
克 斯</w> 5218
15 6</w> 5218
限 制性</w> 5209
受益 者</w> 5209
长 @@</w> 5207
杜 @@</w> 5206
无线 电</w> 5205
吸 取</w> 5204
强制 执行</w> 5204
负 担 5201
迈 出</w> 5197
福 利 5196
希 @@</w> 5196
15 1</w> 5196
占 有</w> 5194
15 4</w> 5193
参与 性</w> 5192
财政 年度</w> 5191
电子 邮件</w> 5189
社会 保险</w> 5186
保护 区</w> 5186
拉 巴 5180
困 境</w> 5177
危险 废物</w> 5177
抢 劫</w> 5174
巴 格达</w> 5173
环境 卫生</w> 5172
连 同</w> 5170
g a</w> 5168
里 程 5168
西 撒</w> 5163
切实 有效</w> 5159
2 .2</w> 5156
a j@@</w> 5155
2 20</w> 5154
参 数</w> 5152
2 70</w> 5150
军 官</w> 5150
相 符</w> 5149
定 稿</w> 5148
之 处</w> 5147
14 9</w> 5147
伯 利 5143
希 族</w> 5143
阿卜 杜 5142
技术 咨询</w> 5141
常 任 5135
加 重</w> 5134
三 大</w> 5133
欧 国家</w> 5130
纳 尔</w> 5130
宣 传 5130
源 于</w> 5129
大 批</w> 5128
将 要</w> 5127
健康 权</w> 5126
和 发展 5125
联合国 贸易 5125
和发展 会议</w> 5125
联合国贸易 和发展会议</w> 5125
15 2</w> 5124
暴力 事件</w> 5124
第十 三届</w> 5121
竞争 法</w> 5121
浓 度</w> 5119
第一 条</w> 5118
业 @@</w> 5117
消耗 性</w> 5117
陆 地</w> 5114
定居 者</w> 5113
健康 状况</w> 5113
裁 减</w> 5111
广 泛 5109
统计 资料</w> 5108
书记 官</w> 5106
保 人</w> 5105
全国 性</w> 5103
创 收</w> 5102
同 行</w> 5100
波 @@</w> 5100
经常 性</w> 5099
培训 中心</w> 5098
2 10</w> 5097
拆 除</w> 5096
走 私</w> 5093
声 援</w> 5093
复 兴</w> 5092
198 4</w> 5091
大 多</w> 5087
女 工</w> 5087
莫 @@</w> 5086
处 长</w> 5084
严格 遵守</w> 5081
仲裁 庭</w> 5078
继续 加强</w> 5077
贫民 窟</w> 5077
局 长</w> 5072
媒 介</w> 5071
14 8</w> 5071
波 黑</w> 5070
推 定</w> 5067
限 期</w> 5065
工 厂</w> 5064
l e</w> 5062
条 中</w> 5062
动 用</w> 5061
国际 委员会</w> 5061
红十字 国际委员会</w> 5061
辅 导</w> 5060
防 @@</w> 5057
令人 鼓舞</w> 5055
中央 银行</w> 5054
T D</w> 5053
解 雇</w> 5052
各项 措施</w> 5050
加 迪 5049
最低 工资</w> 5049
加迪 沙</w> 5049
现 @@</w> 5048
接 种</w> 5048
卖 方</w> 5047
壁 垒</w> 5042
履 约</w> 5041
判 定</w> 5040
侵权 行为</w> 5039
日 向</w> 5035
复 @@</w> 5035
联络 小组</w> 5034
接 待</w> 5031
着眼 于</w> 5031
性 @@</w> 5030
进 口 5030
即 @@</w> 5029
通 @@</w> 5028
汲 取</w> 5028
克 拉</w> 5027
相 成</w> 5026
e g@@</w> 5025
相 辅 5024
相辅 相成</w> 5022
经 社</w> 5021
施 行</w> 5020
政 策 5013
佛 得 5010
人口 普查</w> 5009
创 伤</w> 5007
口 粮</w> 5006
吉 @@</w> 5005
结 核</w> 5004
致 函</w> 5002
民 事 5002
暴 行</w> 5001
一 体</w> 5000
省 级</w> 5000
摩 加迪沙</w> 4997
社 团</w> 4995
免 除</w> 4993
多 种 4991
此 前</w> 4991
组 成员</w> 4991
坦桑 尼亚</w> 4991
干 扰</w> 4990
湖 区</w> 4989
工 商 4988
西 欧</w> 4987
o m 4985
避 孕</w> 4984
学 员</w> 4981
入 @@</w> 4979
看 作</w> 4977
外 勤人员</w> 4977
15 8</w> 4977
出 席会议</w> 4975
韩 国</w> 4971
中 立</w> 4970
救 援</w> 4969
故 意</w> 4966
技术 性</w> 4966
递 交</w> 4965
19 0</w> 4964
作 战</w> 4958
至 迟</w> 4958
电 @@</w> 4957
特 派</w> 4955
第 七</w> 4955
an a</w> 4951
小 规模</w> 4949
第 一步</w> 4948
之 日起</w> 4946
男 人</w> 4944
一 笔</w> 4943
成 长</w> 4941
水 层</w> 4941
所 定</w> 4935
C. 6</w> 4934
发 援</w> 4933
一 周</w> 4933
暂 定</w> 4933
审计 报告</w> 4931
下 令</w> 4929
阿卜 耶 4929
多 重</w> 4928
民 用</w> 4928
看 出</w> 4927
生产 者</w> 4922
d o</w> 4921
权 @@</w> 4920
两 位</w> 4920
驻 科</w> 4918
摩 罗</w> 4911
之 友</w> 4911
过 分</w> 4911
学 年</w> 4910
得 起</w> 4907
监督 机构</w> 4905
越 境</w> 4904
编 入</w> 4902
贯 彻</w> 4902
波 恩</w> 4901
信 @@</w> 4900
i g@@</w> 4900
列 报</w> 4900
后 代</w> 4899
非 法 4898
总 量</w> 4897
仪 式</w> 4897
市 镇</w> 4895
科 摩罗</w> 4894
时 应</w> 4893
问 卷</w> 4891
海 啸</w> 4890
八 个</w> 4889
分 组</w> 4888
实 践 4888
军 备 4888
检查 站</w> 4888
开 展 4887
分 项</w> 4887
i k@@</w> 4887
两 国</w> 4886
大 纲</w> 4885
差 旅费</w> 4885
军备 竞赛</w> 4884
M ar@@</w> 4883
资源 分配</w> 4881
发表 意见</w> 4880
I S 4879
教 @@</w> 4877
C h 4877
总 的 4876
W G</w> 4875
文 献</w> 4874
住 宅</w> 4872
20 8</w> 4870
15 .@@</w> 4869
二 氧 4866
现 况</w> 4865
医疗 保险</w> 4862
财 力</w> 4861
土地 利用</w> 4859
新 型</w> 4856
作 @@</w> 4855
援 国</w> 4854
扶 贫</w> 4854
基础 教育</w> 4852
实 况</w> 4850
损 坏</w> 4850
会 员</w> 4847
富 有</w> 4847
大 臣</w> 4845
库 @@</w> 4844
受 援国</w> 4839
抚 养</w> 4837
受到 限制</w> 4837
主持 人</w> 4834
即 便</w> 4833
9 63</w> 4830
u s</w> 4829
省 份</w> 4828
必 然</w> 4825
贝 尔 4823
累 积</w> 4819
名 为</w> 4818
之 所以</w> 4818
遭 遇</w> 4818
战略 目标</w> 4818
1 61</w> 4816
认 同</w> 4816
低 @@</w> 4815
前 进</w> 4814
统 治</w> 4814
纽 约 4811
含 水层</w> 4810
族 群</w> 4808
借 口</w> 4806
平等 待遇</w> 4806
尽量 减少</w> 4805
承担 责任</w> 4804
动 荡</w> 4802
费 @@</w> 4802
缉 获</w> 4802
答 辩</w> 4801
看 待</w> 4795
代 理 4794
交 @@</w> 4792
适 宜</w> 4790
主 导 4790
29 @@</w> 4787
o d@@</w> 4786
炮 弹</w> 4786
高度 重视</w> 4783
好 @@</w> 4782
严 厉</w> 4781
常 见</w> 4778
生 育 4777
几 十年</w> 4777
原 @@</w> 4775
同 于</w> 4774
向 前</w> 4770
里程 碑</w> 4770
过渡 政府</w> 4769
赖 于</w> 4765
验 证</w> 4765
海 岸</w> 4764
下 届</w> 4763
深 感</w> 4760
新 增</w> 4757
避 孕 4757
良 心</w> 4756
定 @@</w> 4754
产 值</w> 4753
自 卫</w> 4752
远 地区</w> 4751
苦 难</w> 4750
机 会 4749
o b@@</w> 4747
婚 姻 4746
默 德</w> 4744
边 缘</w> 4741
1 65</w> 4741
北 约</w> 4740
作 者</w> 4739
第十 条</w> 4736
详细 资料</w> 4735
文 盲</w> 4733
质 量 4733
通货膨 胀</w> 4732
注 销</w> 4731
i b@@</w> 4729
病 例</w> 4729
多 元 4726
航 行</w> 4725
流 量</w> 4723
应 计</w> 4723
捕 鱼</w> 4723
到 达</w> 4721
破 坏 4721
3 50</w> 4718
闭 幕</w> 4718
S P</w> 4716
气 @@</w> 4714
特别 强调</w> 4714
应 用 4712
仅 限于</w> 4712
饮 水</w> 4712
年 级</w> 4708
基 层</w> 4707
审 前</w> 4707
哈 兹</w> 4706
苏 @@</w> 4705
4 .1</w> 4703
兵 役</w> 4702
有 形</w> 4702
相 似</w> 4701
穆 罕 4698
惩 戒</w> 4698
基督 教</w> 4698
佛得 角</w> 4698
无 人</w> 4697
阿布 哈兹</w> 4695
犯 人</w> 4694
阿拉伯 语</w> 4692
2 40</w> 4690
天 基</w> 4689
未 有</w> 4689
理 念</w> 4689
打 破</w> 4687
节 余</w> 4686
复 审</w> 4685
投 票 4685
19 2</w> 4685
15 9</w> 4685
7 . 4683
目 前 4682
常任 理事</w> 4682
目前 为止</w> 4682
解决 问题</w> 4680
全 文</w> 4678
圣 @@</w> 4677
塞浦路斯 共和国</w> 4677
制 度 4670
节 约</w> 4670
策 略</w> 4668
铲 除</w> 4667
言 之</w> 4665
总 收入</w> 4664
取 向</w> 4663
宽 容</w> 4663
新闻 稿</w> 4663
列 @@</w> 4662
受 过</w> 4660
结 核 4659
确 信</w> 4658
荣 幸</w> 4658
私 有 4657
19 79</w> 4656
该 案</w> 4655
场 地</w> 4654
2 42</w> 4651
增 加 4651
撰 写</w> 4649
巴勒斯坦 国</w> 4646
联络 点</w> 4645
20 1</w> 4644
前 体</w> 4640
以 使</w> 4640
查 @@</w> 4639
穆罕 默德</w> 4639
学 位</w> 4638
结核 病</w> 4634
2 48</w> 4632
全 @@</w> 4632
六 种</w> 4631
合 办</w> 4629
消 息</w> 4629
回 复</w> 4626
Add .@@</w> 4626
登记 处</w> 4625
主 教</w> 4624
加 紧</w> 4622
训 练 4622
不 必要</w> 4621
石 油 4621
o p@@</w> 4620
水 准</w> 4620
I NF</w> 4620
潜 能</w> 4618
减 至</w> 4616
命 运</w> 4615
全 力支持</w> 4614
借 助</w> 4614
制 @@</w> 4611
革 新</w> 4610
财政 部</w> 4609
阿卜耶 伊</w> 4609
有 者</w> 4606
18 9</w> 4604
遗 传</w> 4601
姆 @@</w> 4600
穆 @@</w> 4600
交 存</w> 4600
中 东 4599
三 年期</w> 4596
二 苯 4595
以色列 国防军</w> 4594
该 股</w> 4592
单 @@</w> 4589
调解 人</w> 4589
不 满</w> 4588
农 药</w> 4587
二氧 化碳</w> 4584
土 族</w> 4581
介 绍 4579
空 @@</w> 4578
农 场</w> 4578
带 有</w> 4577
宣 读</w> 4577
组 @@</w> 4576
册 子</w> 4575
二苯 醚</w> 4575
到 期</w> 4574
民 航</w> 4573
萨 赫 4572
征 税</w> 4571
第七 次</w> 4569
熟 悉</w> 4568
强 行</w> 4566
6 . 4566
2 60</w> 4563
原 来</w> 4561
添 加</w> 4560
频 繁</w> 4560
加 以 4559
即 可</w> 4559
3 .2</w> 4558
士 兰</w> 4557
同 性恋</w> 4555
逆 转</w> 4555
百 万美元</w> 4550
一 下</w> 4549
主 @@</w> 4547
网 络 4543
晋 升</w> 4541
2 13</w> 4538
兑 现</w> 4536
环境 影响</w> 4534
W P.@@</w> 4533
在 职</w> 4531
商 品 4531
第二 款</w> 4529
利 益 4528
刚 刚</w> 4527
请 愿</w> 4525
负担 得起</w> 4525
a f 4524
K h@@</w> 4524
18 3</w> 4524
作 证</w> 4522
法 郎</w> 4521
供 其</w> 4520
一 组</w> 4516
形 态</w> 4516
联 体</w> 4515
国际 贸易 4515
光 @@</w> 4514
第二 节</w> 4514
停 火 4513
矿 物</w> 4511
贝 @@</w> 4509
独 联体</w> 4508
使 团</w> 4508
国家 组织</w> 4508
美洲 国家组织</w> 4508
第六十 六</w> 4508
小 册子</w> 4507
2 30</w> 4506
预 警 4506
帕 @@</w> 4505
西 非国家</w> 4503
年 份</w> 4501
I N@@</w> 4501
传 真</w> 4497
1 64</w> 4494
毕 业</w> 4494
出 入</w> 4493
教 会</w> 4492
联 @@</w> 4490
农业 部门</w> 4490
18 .@@</w> 4488
h e</w> 4487
联 大</w> 4487
接 受 4485
一 并</w> 4483
信 仰 4483
奴 隶 4482
草 拟</w> 4481
该 处</w> 4481
据 估计</w> 4481
提高 效率</w> 4478
卡 尔</w> 4477
机会 均等</w> 4476
中 华 4474
打 @@</w> 4473
结 社 4472
系统 性</w> 4469
孤 立</w> 4468
结社 自由</w> 4467
乐 部</w> 4464
模 块</w> 4464
俱 乐部</w> 4463
监 视</w> 4463
继续 执行</w> 4463
Mo ham 4462
i m 4459
持 续 4459
简 介</w> 4459
出 色</w> 4458
迫 切</w> 4458
联 发援</w> 4458
在此 期间</w> 4458
萨赫 勒</w> 4457
南 北</w> 4456
第二 项</w> 4455
团 队</w> 4454
诺 @@</w> 4453
第 一份</w> 4452
峰 会</w> 4450
2 51</w> 4450
Ab d 4449
从 业 4447
彻 底 4446
无 关</w> 4445
t a</w> 4445
结 果 4445
职 员</w> 4444
真 实</w> 4440
臭 氧 4440
索 偿</w> 4438
慈 善</w> 4437
违 约</w> 4435
想 要</w> 4435
保 @@</w> 4433
7 5%</w> 4431
林 @@</w> 4430
七 @@</w> 4430
被 告 4429
真 诚</w> 4427
量 化</w> 4427
1 63</w> 4426
保 卫</w> 4425
市 政</w> 4425
19 74</w> 4425
代理 人</w> 4424
必要 条件</w> 4423
履行 职责</w> 4423
b .2</w> 4421
Su b.2</w> 4421
1 67</w> 4420
该 科</w> 4420
加 共体</w> 4419
收 @@</w> 4415
地 向</w> 4414
拉 姆</w> 4410
所 起</w> 4408
深 刻</w> 4408
无 辜</w> 4407
17 5</w> 4404
o t@@</w> 4402
q @@</w> 4402
月 初</w> 4402
免 于</w> 4401
17 3</w> 4401
开 罗</w> 4399
消费 量</w> 4399
贸易 协定</w> 4398
有 限 4397
赤 字</w> 4397
限 额</w> 4396
回 @@</w> 4395
科学 研究</w> 4394
职 司</w> 4393
储 蓄</w> 4393
P O 4392
阿 鲁 4390
S C</w> 4390
斯 威 4390
搜 查</w> 4389
表示 遗憾</w> 4389
成 熟</w> 4388
CN . 4386
分 阶段</w> 4385
不 适</w> 4384
附 表</w> 4384
in a</w> 4384
赤 道 4382
备 @@</w> 4381
臭氧 层</w> 4379
兰 政府</w> 4378
之 害</w> 4377
恩 @@</w> 4376
监 控</w> 4374
出 庭</w> 4370
大 麻</w> 4369
降 至</w> 4366
供应 链</w> 4366
获 准</w> 4365
墨西 哥 4365
总 产值</w> 4364
一 节</w> 4362
构 成 4362
下 属</w> 4360
创 立</w> 4360
交通 运输</w> 4358
V I</w> 4357
回 国</w> 4357
接 到</w> 4357
搬 迁</w> 4356
A .@@</w> 4355
13 25</w> 4353
17 2</w> 4353
竞争 性</w> 4352
鲁 特</w> 4351
198 3</w> 4351
规 范 4350
辩护 律师</w> 4350
亚 人</w> 4349
介 入</w> 4346
要 么</w> 4340
专 @@</w> 4339
14 .@@</w> 4337
人员 编制</w> 4337
嫌疑 人</w> 4336
特 许</w> 4334
逻 辑</w> 4333
t o</w> 4331
慷 慨</w> 4331
热 @@</w> 4330
永 远</w> 4330
PR ST</w> 4329
利 率</w> 4326
大 气</w> 4322
武装 力量</w> 4322
初 等教育</w> 4320
周 知</w> 4320
工 艺</w> 4319
分 裂</w> 4314
文 中</w> 4312
震 惊</w> 4312
控制 措施</w> 4312
当 作</w> 4311
尽 力</w> 4311
诸 多</w> 4311
2 11</w> 4310
沙 特</w> 4310
严重 威胁</w> 4308
支持 者</w> 4308
反 叛</w> 4307
一 部</w> 4306
转 达</w> 4305
1 68</w> 4305
利害 关系</w> 4305
分 之一</w> 4304
进 而</w> 4304
附 带</w> 4304
此 @@</w> 4302
民 政</w> 4298
i r 4298
贝 鲁特</w> 4296
一 案</w> 4296
等 于</w> 4296
出 生 4295
人 才</w> 4293
自然 人</w> 4292
身 心</w> 4291
力 @@</w> 4290
h a</w> 4290
运 载 4289
用 语</w> 4288
十 七届</w> 4287
u b@@</w> 4286
表 述</w> 4285
放 @@</w> 4285
教 材</w> 4283
明 @@</w> 4280
学 者</w> 4279
一 大</w> 4279
部 @@</w> 4278
鉴 定</w> 4278
表 决权</w> 4275
走 向</w> 4274
付 出</w> 4273
朝 着</w> 4272
程序 性</w> 4271
监护 人</w> 4271
瑞 士 4269
合理 化</w> 4269
解 散</w> 4268
男 童</w> 4267
私有 化</w> 4267
信仰 自由</w> 4266
八 @@</w> 4265
情 况 4263
殖民 主义</w> 4259
交 叉</w> 4257
19 60</w> 4257
建 立 4255
表示 满意</w> 4254
造 林</w> 4253
代 替</w> 4253
尤 为</w> 4253
公共 秩序</w> 4253
决 定性</w> 4252
禁 试</w> 4251
总 局</w> 4251
I V</w> 4251
联 伊</w> 4250
题 目</w> 4248
再 度</w> 4246
估 值</w> 4244
着 重于</w> 4243
太 阳 4241
e b@@</w> 4241
报 @@</w> 4238
进 出</w> 4237
2 .3</w> 4237
不 利于</w> 4236
生殖 器</w> 4236
空 白</w> 4235
2 .5</w> 4235
军 @@</w> 4234
载 入</w> 4234
制度 化</w> 4234
就 是 4231
传 统 4231
金融 服务</w> 4231
新生 儿</w> 4231
多 方面</w> 4228
信 誉</w> 4228
司 @@</w> 4227
汇 集</w> 4226
伯利 兹</w> 4226
AC. 109</w> 4224
2 27</w> 4221
处 在</w> 4219
斯威 士兰</w> 4219
引 进</w> 4217
成 分</w> 4216
大 使馆</w> 4216
地理 信息系统</w> 4212
花 费</w> 4211
莫 斯科</w> 4207
地 址</w> 4206
国家 主权</w> 4206
梅 @@</w> 4205
广 告</w> 4205
生产 率</w> 4205
军 用 4203
e v@@</w> 4202
i t</w> 4202
值得 注意</w> 4202
Q @@</w> 4200
竞 选</w> 4199
综 管</w> 4199
奴隶 制</w> 4199
e k@@</w> 4197
服务 业</w> 4194
事 @@</w> 4191
关 岛</w> 4191
紧急 状态</w> 4188
C A 4186
选择 性</w> 4186
妥 协</w> 4185
17 4</w> 4185
结构 调整</w> 4185
招 标</w> 4184
领 事</w> 4183
17 1</w> 4182
密切 相关</w> 4182
19 75</w> 4181
毫无 疑问</w> 4179
19 77</w> 4178
感染 者</w> 4177
优先 权</w> 4177
第 纳尔</w> 4176
正 @@</w> 4176
灾 后</w> 4176
当 今</w> 4175
即 决</w> 4175
中 等教育</w> 4174
占领 军</w> 4174
红十字 会</w> 4174
律师 协会</w> 4173
物 理</w> 4171
撤 消</w> 4170
CP . 4169
储 备金</w> 4168
列 明</w> 4165
结 成</w> 4164
装 @@</w> 4163
A r@@</w> 4162
获 释</w> 4162
签 署 4162
19 61</w> 4162
1 6.@@</w> 4161
变 更</w> 4158
签署 国</w> 4158
积 压</w> 4157
联络 处</w> 4157
o f</w> 4156
10 .@@</w> 4156
展 览</w> 4155
E C</w> 4154
安 道 4153
k i</w> 4153
消 极 4151
所 周知</w> 4147
接 着</w> 4146
人 质</w> 4145
深 表</w> 4145
监察 组</w> 4143
资 @@</w> 4141
s on</w> 4140
兵 力</w> 4140
美 国 4137
众 所周知</w> 4135
卢 @@</w> 4133
不 确定性</w> 4132
中 请</w> 4131
罗 姆</w> 4129
向 @@</w> 4128
计算 机 4128
得 知</w> 4127
五 名</w> 4127
毫 不</w> 4126
分 析 4125
民主 化</w> 4125
审 案</w> 4123
来 @@</w> 4122
赤道 几内亚</w> 4122
自 治 4121
如 今</w> 4121
C M 4121
信 件</w> 4118
系 数</w> 4117
贾 @@</w> 4115
义务 教育</w> 4115
上 面</w> 4114
普遍 存在</w> 4114
监 护</w> 4113
译 成</w> 4113
就是 说</w> 4113
核 @@</w> 4112
外 情况</w> 4111
例 外情况</w> 4111
户 主</w> 4108
使 @@</w> 4108
严重 性</w> 4108
电 脑</w> 4106
铁 路</w> 4105
远 程</w> 4103
或 非</w> 4102
二 级</w> 4100
条 所</w> 4100
留 下</w> 4098
中 为</w> 4097
教 学 4095
老 人</w> 4092
独立 宣言</w> 4091
自 动 4090
前 所 4090
毫 无</w> 4090
自动 化</w> 4090
前所 未有</w> 4090
基 石</w> 4089
艰 难</w> 4089
法律 依据</w> 4087
生育 率</w> 4087
S t@@</w> 4082
不 论 4081
b a</w> 4081
在 @@</w> 4080
各 样</w> 4078
这 使</w> 4075
等 国</w> 4074
议 会 4073
议会 选举</w> 4073
职 工</w> 4072
东 亚</w> 4072
听 到</w> 4072
手 @@</w> 4071
替 换</w> 4070
内 政</w> 4069
美 @@</w> 4069
相 结合</w> 4069
率 为</w> 4069
国际 金融</w> 4068
里 南</w> 4066
苏 里南</w> 4066
C O</w> 4066
18 5</w> 4066
法律 义务</w> 4062
咨询 机构</w> 4060
职 者</w> 4059
携 带</w> 4059
e c@@</w> 4058
总 表</w> 4058
流 @@</w> 4057
手 中</w> 4054
20 3</w> 4054
东 非</w> 4053
四 名</w> 4053
as s@@</w> 4052
当 @@</w> 4047
国际 电 4046
集 中 4045
开 幕 4044
不 动产</w> 4043
管理 工作</w> 4040
小组 会议</w> 4040
国 集团</w> 4038
实 @@</w> 4037
定 型</w> 4036
规划 系统</w> 4031
中 欧</w> 4030
深 入 4028
调查 员</w> 4028
第 一项</w> 4027
互 相</w> 4027
一 批</w> 4026
育 儿</w> 4026
家 具</w> 4026
存 款</w> 4025
o s 4024
事 例</w> 4023
个 @@</w> 4019
莱 德</w> 4019
不 相同</w> 4018
半 岛</w> 4017
身份 证</w> 4017
瓦 卢</w> 4016
覆盖 面</w> 4015
性 取向</w> 4013
o g@@</w> 4011
优 化</w> 4010
场 合</w> 4010
教育 领域</w> 4010
精神 药物</w> 4009
完全 符合</w> 4009
进 @@</w> 4008
红 新 4007
17 7</w> 4007
天 内</w> 4006
驱 逐 4006
19 9</w> 4006
和平 部队</w> 4006
瓦 努 4005
各 届</w> 4004
直 接 4003
毁 坏</w> 4002
外 来</w> 4001
缔 约</w> 4001
h m 4000
内 在</w> 3999
乌 @@</w> 3999
管理 部</w> 3998
专业 知识</w> 3997
图 瓦卢</w> 3994
可 靠 3992
12 .@@</w> 3992
访问 团</w> 3992
声 音</w> 3990
19 71</w> 3990
关键 因素</w> 3990
并 不 3988
闭 门</w> 3988
米 @@</w> 3987
四 次</w> 3987
空 气</w> 3985
卢 西亚</w> 3985
D ec 3983
4 .2</w> 3981
一 段时间</w> 3980
18 6</w> 3980
万 名</w> 3978
抵 制</w> 3978
o u</w> 3976
施 工</w> 3976
2 14</w> 3975
SR . 3975
按 时</w> 3974
丧 生</w> 3974
汇 总</w> 3972
处 死刑</w> 3971
18 1</w> 3971
出 缺</w> 3970
三 种</w> 3970
见 @@</w> 3968
19 1</w> 3966
不 少</w> 3965
而 定</w> 3963
维 尔</w> 3963
住 宿</w> 3962
总 统 3961
约 法</w> 3960
第二十 四届</w> 3960
过 时</w> 3957
2 43</w> 3956
多 人</w> 3955
精 算</w> 3955
圣 马 3952
农 发</w> 3952
19 51</w> 3952
边 界 3951
追 查</w> 3950
这 么</w> 3949
贯 穿</w> 3946
管理 处</w> 3946
出 身</w> 3945
陪 同</w> 3945
过 来</w> 3943
下 表</w> 3943
公 顷</w> 3942
有限 公司</w> 3940
分 工</w> 3939
第三 节</w> 3939
本 政府</w> 3938
日 本政府</w> 3938
原 始</w> 3935
适用 范围</w> 3935
价 格 3933
规范 性</w> 3933
论 文</w> 3930
不 愿</w> 3927
伴 侣</w> 3926
承包 者</w> 3926
中 国政府</w> 3925
前 面</w> 3924
缺 口</w> 3923
保 罗</w> 3922
2 26</w> 3919
I S@@</w> 3919
审 视</w> 3918
实 用</w> 3918
t h@@</w> 3913
d i</w> 3913
被告 人</w> 3911
千 @@</w> 3910
个 体</w> 3910
母 婴</w> 3910
圣 卢西亚</w> 3907
有 毒</w> 3906
建立 联系</w> 3905
其 管辖</w> 3904
e v 3903
幼 儿 3900
iy ah</w> 3900
i c</w> 3899
19 8</w> 3898
17 8</w> 3896
相关 者</w> 3895
气 象 3894
艺 术 3891
运 @@</w> 3890
实 验</w> 3890
雷 斯</w> 3890
出 发</w> 3889
负 有 3889
阿拉 木 3889
负有 责任</w> 3889
加 利</w> 3888
安道 尔</w> 3887
附 有</w> 3885
k h@@</w> 3885
V II</w> 3881
第六 十</w> 3881
地 说</w> 3880
一 个月</w> 3877
鸿 沟</w> 3877
介绍 性</w> 3875
主 体</w> 3874
延 续</w> 3874
条 约法</w> 3873
法 医</w> 3872
尊 敬</w> 3871
新闻 界</w> 3871
不 足 3869
患 有</w> 3869
法 制</w> 3868
审 判 3867
罗 门 3863
所 罗门 3863
所罗门 群岛</w> 3863
毒 性</w> 3860
e y</w> 3859
19 .@@</w> 3859
事 国</w> 3858
理 事国</w> 3858
负 面</w> 3856
无论 如何</w> 3856
阿 图</w> 3855
奴 隶</w> 3855
瓦努 阿图</w> 3855
u d@@</w> 3854
庇 护 3854
输 入</w> 3854
第十九 届</w> 3854
承 办</w> 3853
17 6</w> 3852
流 产</w> 3851
引 导</w> 3851
判 处死刑</w> 3849
能 @@</w> 3848
人身 安全</w> 3848
四 方</w> 3846
银 行 3846
2 33</w> 3845
与 发展 3844
经济合作 与发展 3844
经济合作与发展 组织</w> 3844
仓 库</w> 3841
难 以 3841
第十 二条</w> 3840
历史 性</w> 3840
28 @@</w> 3839
重大 贡献</w> 3838
一 次 3836
反 洗钱</w> 3834
通 报 3834
不论 是</w> 3834
医 务</w> 3833
信 念</w> 3833
家 中</w> 3833
注 意 3833
印度 洋</w> 3833
切实 可行</w> 3833
20 2</w> 3832
急 剧</w> 3831
评 委</w> 3831
斯 特</w> 3830
精 确</w> 3829
应 收</w> 3826
马 斯</w> 3826
性 行为</w> 3825
P C</w> 3823
九 个</w> 3823
逃 离</w> 3823
卫 者</w> 3822
合 同 3821
利 斯</w> 3819
恐 惧</w> 3819
多 样</w> 3818
证 据 3818
研 发</w> 3816
改 @@</w> 3816
项目 管理</w> 3814
党 派</w> 3813
L .1</w> 3811
何 时</w> 3809
古 巴 3808
联 东</w> 3807
20 6</w> 3807
18 7</w> 3802
照 片</w> 3801
划 定</w> 3801
国 情</w> 3800
增 列</w> 3800
多 尼亚</w> 3799
水 域</w> 3798
营 利</w> 3798
大 力支持</w> 3796
在 场</w> 3795
如 上</w> 3793
卫生 部门</w> 3793
头 @@</w> 3792
一 代</w> 3791
19 72</w> 3791
四 项</w> 3789
20 9</w> 3789
1 1.@@</w> 3788
i v@@</w> 3783
土耳 其 3780
合作 项目</w> 3779
贯 彻 3778
工作 日</w> 3777
o l</w> 3776
团 结 3773
金 @@</w> 3768
2 18</w> 3767
信息 管理</w> 3767
18 4</w> 3764
禁 毒 3760
年 会</w> 3760
并 @@</w> 3759
调 @@</w> 3759
萨 米</w> 3758
可靠 性</w> 3758
九 @@</w> 3757
此 案</w> 3752
深 化</w> 3751
预警 系统</w> 3751
缅 甸 3747
创造 条件</w> 3747
2 25</w> 3746
协 力</w> 3745
L .@@</w> 3744
破坏 性</w> 3744
里 多尼亚</w> 3743
喀 里多尼亚</w> 3743
19 4</w> 3743
我 愿</w> 3741
名 字</w> 3740
先 例</w> 3740
门 @@</w> 3740
巡 逻 3739
于 @@</w> 3738
八 条</w> 3738
符合 国际</w> 3734
大 国</w> 3732
维 尔 3732
根 据 3731
拘 留 3731
出 资</w> 3729
无 家 3728
项 @@</w> 3728
宗教 自由</w> 3727
澳大 利 3726
S A 3725
受 伤害</w> 3725
务 部</w> 3725
毒 素</w> 3724
增 订</w> 3724
圣马 力 3724
禁毒 署</w> 3724
及 @@</w> 3723
海洋 生物</w> 3723
保留 意见</w> 3723
多元 化</w> 3723
生 成</w> 3722
办 @@</w> 3722
无家 可 3722
金 沙 3721
金沙 萨</w> 3721
第八 条</w> 3719
e h</w> 3718
本 项</w> 3717
M u 3717
拯 救</w> 3717
下 落</w> 3715
可 取</w> 3714
罢 工</w> 3714
a i</w> 3713
皮 @@</w> 3711
估 价</w> 3711
不结 盟</w> 3711
阿拉木 图</w> 3709
身 @@</w> 3708
投 标</w> 3707
土 穆</w> 3706
指 责</w> 3706
开 放 3705
股 @@</w> 3705
18 8</w> 3705
消极 影响</w> 3705
喀 土穆</w> 3703
车 @@</w> 3703
17 9</w> 3703
各个 领域</w> 3702
与 非</w> 3701
里 奥</w> 3700
地 下 3700
保护 环境</w> 3699
法律 咨询</w> 3698
共 @@</w> 3697
源 自</w> 3696
公 职</w> 3696
务 @@</w> 3695
知 名 3693
CONF .@@</w> 3692
将 军</w> 3691
捍 卫者</w> 3691
范 例</w> 3690
阅 读</w> 3690
占 据</w> 3686
两 天</w> 3684
议 案</w> 3683
届 满</w> 3683
第三 章</w> 3683
速 效</w> 3681
转 运</w> 3681
频 率</w> 3680
刚 才</w> 3679
20 7</w> 3679
见 表</w> 3675
P S</w> 3671
审 慎</w> 3670
初 始</w> 3669
应 于</w> 3669
a y</w> 3669
迪 西</w> 3669
运 转</w> 3667
财 产 3667
u l</w> 3665
永 久 3665
民 @@</w> 3664
时 所</w> 3664
加勒比 地区</w> 3664
东 @@</w> 3661
公 营</w> 3660
超 @@</w> 3660
武 库</w> 3660
拘留 所</w> 3660
I X</w> 3659
韦 @@</w> 3658
电视 台</w> 3658
拒 绝 3657
20 5</w> 3657
注 射</w> 3655
自 杀</w> 3654
服务 提供者</w> 3654
早 婚</w> 3652
19 76</w> 3652
多 万</w> 3651
易 @@</w> 3651
其 重要</w> 3651
极 其重要</w> 3651
逮 捕 3649
侦 察 3649
商业 性</w> 3649
航 天</w> 3646
某 项</w> 3646
失 @@</w> 3644
人 选</w> 3643
极 @@</w> 3643
附 注</w> 3643
盈 余</w> 3643
简 易</w> 3642
核 对</w> 3642
休 假</w> 3641
案 @@</w> 3641
模 拟</w> 3641
各种 各样</w> 3639
皇 家</w> 3637
上 所述</w> 3636
传 媒</w> 3636
19 69</w> 3635
安 提 3634
报 纸</w> 3634
贵 国</w> 3633
第十 六届</w> 3631
保护 法</w> 3631
转 录</w> 3630
引 用</w> 3630
到 位</w> 3629
取 缔</w> 3628
联 系 3625
2 28</w> 3623
尝 试</w> 3623
杂 志</w> 3623
一次 性</w> 3623
字 @@</w> 3622
信 号</w> 3620
欧 共体</w> 3620
非 法行为</w> 3618
车 队</w> 3618
封 信</w> 3617
敏 感 3617
在 实践 3616
总 督</w> 3616
翻 修</w> 3616
Add .3</w> 3615
那 时</w> 3614
弱 点</w> 3611
组织 法</w> 3611
点 @@</w> 3610
按 @@</w> 3609
A m@@</w> 3607
下 达</w> 3607
参 见</w> 3606
标 记</w> 3605
圆 满 3604
资 料 3603
托 管</w> 3602
油 @@</w> 3602
监 测 3601
布 林 3600
少 年 3600
善 政</w> 3600
13 .@@</w> 3600
布林 迪西</w> 3600
宗教 信仰</w> 3598
面 @@</w> 3597
19 3</w> 3596
A d@@</w> 3595
塞 舌 3595
第十 七届</w> 3594
全 民</w> 3592
彻底 消除</w> 3588
加 倍 3586
被 判</w> 3586
财务 管理</w> 3586
加倍 努力</w> 3586
图 像</w> 3584
巴 厘</w> 3583
信 用 3583
阻 挠</w> 3582
共同 市场</w> 3581
目 录</w> 3579
全 氟</w> 3578
社会 主义</w> 3578
制造 业</w> 3578
不 良 3577
行政 助理</w> 3577
易 于</w> 3576
集 装 3576
集装 箱</w> 3576
可 信 3575
3 .3</w> 3575
发电 机</w> 3575
的 是</w> 3573
矿 业</w> 3572
现 实 3571
侵 入</w> 3571
清 洗</w> 3571
有所 改善</w> 3571
视 角</w> 3569
亿 @@</w> 3569
T h@@</w> 3568
利益 冲突</w> 3568
新 喀里多尼亚</w> 3567
北 非</w> 3567
2 69</w> 3566
某 种 3565
违 法</w> 3564
年龄 组</w> 3564
注意 力</w> 3563
付 诸 3561
尚 待</w> 3560
核 设施</w> 3559
含 量</w> 3559
密 集</w> 3558
技 巧</w> 3558
保 养</w> 3557
原 告</w> 3556
参 议院</w> 3556
并 入</w> 3555
2 7@@</w> 3554
转 入</w> 3554
人 称</w> 3553
喀 布尔</w> 3553
ati on 3552
选举 法</w> 3552
烟 草</w> 3550
可 预 3547
发表 声明</w> 3547
要 @@</w> 3546
使 该</w> 3546
有 效率</w> 3545
考 绩</w> 3545
17 .@@</w> 3545
森 特</w> 3544
延 伸</w> 3543
控 告</w> 3542
1 .5</w> 3542
总的 来说</w> 3541
团 聚</w> 3540
弹 道 3540
龄 化</w> 3539
该 段</w> 3539
ar d</w> 3537
未 成年</w> 3536
回 归</w> 3536
改 革 3536
2 66</w> 3535
病 @@</w> 3535
叛 乱</w> 3534
检察 院</w> 3534
年度 预算</w> 3533
A b@@</w> 3532
2 22</w> 3532
K h 3532
公 斤</w> 3530
访 谈</w> 3530
打 死</w> 3529
名 誉</w> 3528
P R</w> 3527
老 龄化</w> 3527
第十 五届</w> 3526
朋 友</w> 3525
明 年</w> 3524
供 @@</w> 3524
海 运</w> 3523
1 .3</w> 3523
19 7</w> 3523
交流 经验</w> 3523
无 力</w> 3522
括 号</w> 3520
赫 @@</w> 3519
更 @@</w> 3519
长期 以来</w> 3519
2 41</w> 3517
接 @@</w> 3517
传 染</w> 3516
in e</w> 3516
转 换</w> 3515
北 @@</w> 3515
发 票</w> 3513
经 由</w> 3513
非洲 统一 3513
非洲统一 组织</w> 3513
约 @@</w> 3510
致 命</w> 3510
2 53</w> 3509
缺 点</w> 3509
造 福</w> 3507
第 八</w> 3507
实 施 3507
阿拉伯 人</w> 3507
外 聘</w> 3505
记 录 3505
十 二</w> 3504
另 见</w> 3504
W G 3502
就 此 3502
往 来</w> 3502
质 @@</w> 3501
艰 苦</w> 3501
第七 章</w> 3501
致 力</w> 3499
推 荐</w> 3499
固 定 3497
记 得</w> 3496
共 处</w> 3495
an g@@</w> 3495
同 酬</w> 3493
侦察 机</w> 3493
2 37</w> 3491
承 运人</w> 3491
创 新 3490
杀 人</w> 3489
联合 声明</w> 3487
2 .4</w> 3486
19 5</w> 3486
上 半年</w> 3484
弹道 导弹</w> 3484
政 @@</w> 3483
i e</w> 3480
产 科</w> 3478
核 心 3478
还 会</w> 3478
夫 妻</w> 3475
立 学校</w> 3475
管理 制</w> 3473
多 层面</w> 3472
平 行</w> 3472
推 翻</w> 3472
缩 编</w> 3470
利 政府</w> 3468
忽 略</w> 3467
相互 作用</w> 3467
主管 机关</w> 3467
AC. 105</w> 3465
下 半年</w> 3464
公 正 3464
公正 性</w> 3464
欧 @@</w> 3463
公 告</w> 3463
圣马力 诺</w> 3463
手 术</w> 3461
五 次</w> 3461
在实践 中</w> 3461
en t@@</w> 3460
卡 拉</w> 3459
代 @@</w> 3459
特 许 3458
上 限</w> 3457
事务 局</w> 3457
4 50</w> 3456
联合 体</w> 3456
退休 金</w> 3456
塞舌 尔</w> 3456
阿鲁 沙</w> 3455
庇护 所</w> 3455
管理 制度</w> 3454
太 @@</w> 3453
格 兰</w> 3451
演 讲</w> 3451
第十 八届</w> 3451
其 所</w> 3447
无 须</w> 3446
法律 效力</w> 3446
中 向</w> 3445
e v</w> 3444
缅甸 政府</w> 3442
U N@@</w> 3441
每 届</w> 3441
P V 3440
指 @@</w> 3440
20 4</w> 3440
c h</w> 3439
重 计</w> 3438
镇 压</w> 3438
司法 部长</w> 3437
里约 集团</w> 3436
o l 3435
敌 对</w> 3435
19 6</w> 3435
详细 情况</w> 3435
根据 上述</w> 3435
赢 得</w> 3434
al l@@</w> 3434
行为 人</w> 3434
急 需</w> 3432
搜 索</w> 3430
淡 水</w> 3429
0 0@@</w> 3428
2 16</w> 3427
除 名</w> 3427
多 元</w> 3423
选 项</w> 3422
切 @@</w> 3422
衰 退</w> 3422
英 联邦</w> 3421
无 罪</w> 3420
迎 接</w> 3420
通 告</w> 3419
已 婚</w> 3418
几 位</w> 3418
奉 行</w> 3418
教 廷</w> 3416
局 限于</w> 3416
调 节</w> 3415
大会 决议</w> 3415
制 定 3414
演 习</w> 3414
28 0</w> 3414
难 题</w> 3412
无 权</w> 3411
2 36</w> 3411
2 15</w> 3408
癌 症</w> 3407
文 学</w> 3406
2 21</w> 3406
时 机</w> 3406
货 运</w> 3405
继 承 3405
高 层</w> 3404
丁 斯</w> 3404
等 @@</w> 3403
构成 威胁</w> 3403
5 .1</w> 3402
全 环</w> 3401
移 民 3400
法 学</w> 3399
传 达</w> 3399
巴布 达</w> 3398
P ar 3397
格 莱德</w> 3394
富 有 3394
贝尔 格莱德</w> 3394
及 早</w> 3392
网 @@</w> 3390
热 带</w> 3389
飓 风</w> 3389
到 @@</w> 3389
戈 @@</w> 3388
房 地</w> 3388
il l@@</w> 3388
余 地</w> 3387
武 器 3386
见 本</w> 3385
插 入</w> 3385
调 拨</w> 3384
文 森特</w> 3383
东 京</w> 3382
社会 工作者</w> 3381
标 签</w> 3380
阿 比 3378
阿比 让</w> 3378
半 @@</w> 3377
东南 欧</w> 3375
z a</w> 3374
征 收</w> 3374
各 政党</w> 3373
空间 科学</w> 3373
安提 瓜 3373
团 @@</w> 3372
和 巴布达</w> 3371
航空 公司</w> 3371
安提瓜 和巴布达</w> 3371
阿 克拉</w> 3369
一 轮</w> 3368
大 小</w> 3368
市 长</w> 3367
怎 样</w> 3366
I CC 3365
联 格</w> 3363
肤 色</w> 3362
第二十 六条</w> 3362
安全 措施</w> 3361
耶 @@</w> 3360
从业 人员</w> 3360
前 者</w> 3358
犯罪 人</w> 3358
先 @@</w> 3357
精 力</w> 3356
谨 向</w> 3356
沃 @@</w> 3354
旅 馆</w> 3354
o c@@</w> 3352
立 @@</w> 3349
联 布</w> 3349
京 群岛</w> 3349
0. 7%</w> 3349
宪 政</w> 3348
残 割</w> 3347
经 理</w> 3346
阿根 廷 3346
2 38</w> 3345
拥 挤</w> 3345
13 %</w> 3345
废 料</w> 3344
众 议院</w> 3343
女 @@</w> 3343
西班牙 文</w> 3342
十 三</w> 3339
赔偿 额</w> 3339
译 员</w> 3338
安 盟</w> 3337
兴 奋 3337
收 缴</w> 3337
导 言</w> 3335
终 身</w> 3334
2 54</w> 3333
太平 洋 3333
1 2%</w> 3329
兴奋 剂</w> 3328
艰 巨</w> 3327
20 .@@</w> 3326
快 速 3324
维尔 京群岛</w> 3324
略 有</w> 3323
大会 堂</w> 3323
迫 击 3321
联 署</w> 3321
执 照</w> 3318
民 用 3318
i on</w> 3318
E l@@</w> 3317
区 @@</w> 3314
h t 3313
参 考 3313
致 意</w> 3312
推 @@</w> 3310
各 不相同</w> 3310
家 @@</w> 3309
娱 乐</w> 3308
行政 区</w> 3307
少 于</w> 3306
横 向</w> 3306
总 计</w> 3305
信息 中心</w> 3305
国 王</w> 3303
悲 剧</w> 3303
12 67</w> 3303
访问 期间</w> 3302
替代 性</w> 3301
流 域</w> 3300
公共 安全</w> 3300
路 @@</w> 3299
摩尔多 瓦</w> 3299
第 九</w> 3298
军用 飞机</w> 3297
尽 全力</w> 3296
斯 克</w> 3295
品 @@</w> 3295
难 @@</w> 3295
跨 越</w> 3295
逾 期</w> 3294
卫 队</w> 3293
贯 性</w> 3293
A R@@</w> 3292
奥 斯 3292
查 验</w> 3292
处 @@</w> 3291
移 动 3289
各项 政策</w> 3289
日 常 3288
增 值</w> 3288
明确 指出</w> 3288
一 倍</w> 3285
赔偿 金</w> 3285
教 徒</w> 3284
简 短</w> 3283
扭 曲</w> 3283
恐怖 活动</w> 3283
取 @@</w> 3282
务 实</w> 3282
环 节</w> 3282
X @@</w> 3280
年 内</w> 3279
维 持 3279
抵 销</w> 3278
勒 @@</w> 3276
索 取</w> 3276
圣 文森特</w> 3275
战略 部署</w> 3275
一 整套</w> 3272
氯 烃</w> 3272
罪 名</w> 3272
稳 步</w> 3271
所在 国</w> 3270
选 @@</w> 3269
改 划</w> 3269
而 易 3267
限 定</w> 3267
我 @@</w> 3264
审 定</w> 3263
外 籍</w> 3263
识 字</w> 3261
公 海</w> 3260
服 兵役</w> 3259
地下 水</w> 3259
已 知</w> 3258
现 金 3253
o m</w> 3252
政 体</w> 3252
派 别</w> 3252
款 @@</w> 3251
办公 厅</w> 3250
2 76</w> 3249
确 性</w> 3248
2 46</w> 3246
查 访</w> 3246
巴 斯</w> 3244
日 后</w> 3244
内 务部</w> 3242
总 协定</w> 3241
部 族</w> 3240
印 象</w> 3239
种 子</w> 3239
2 44</w> 3237
辞 职</w> 3237
民间 组织</w> 3237
双 @@</w> 3236
检 察</w> 3235
医 务人员</w> 3234
东南 亚 3234
数 以 3233
香 港 3232
拨 出</w> 3232
改革 方案</w> 3232
欠 款</w> 3228
交换 意见</w> 3228
来 到</w> 3227
军 方</w> 3226
早 些时候</w> 3224
汤 加</w> 3224
阿塞拜 疆 3223
第二 期</w> 3222
护 士</w> 3221
携 手</w> 3221
代表 大会</w> 3221
应 从</w> 3220
2 90</w> 3220
亿 人</w> 3220
2 17</w> 3218
轰 炸</w> 3218
山 @@</w> 3218
某 人</w> 3218
此 人</w> 3217
殖 民</w> 3217
节 @@</w> 3216
行 列</w> 3214
东 欧国家</w> 3214
特许 权</w> 3214
善 治</w> 3213
兰 国</w> 3211
格林纳 丁斯</w> 3210
那 @@</w> 3209
卡 拉巴 3209
2 65</w> 3209
普遍 认为</w> 3209
卡拉巴 赫</w> 3209
表 面</w> 3208
隐 私</w> 3208
2 47</w> 3207
修 理</w> 3207
私 人 3207
地 为</w> 3206
效 能</w> 3206
中 所列</w> 3205
局 @@</w> 3205
防 卫</w> 3204
刑事 案件</w> 3203
保 育</w> 3202
5 .2</w> 3202
失 踪 3198
排 @@</w> 3198
大 屠杀</w> 3197
工 具 3197
此 一</w> 3196
性 传播</w> 3196
密 @@</w> 3196
住 户</w> 3196
卡 车</w> 3194
a ch@@</w> 3194
太平洋 地区</w> 3193
决 书</w> 3192
仲裁 员</w> 3191
乐 观</w> 3190
牺 牲</w> 3190
发 射 3189
几 天</w> 3188
附 加 3188
讲 座</w> 3188
扩 充</w> 3187
葡萄 牙 3186
土 @@</w> 3185
2 55</w> 3185
通 行</w> 3185
大 致</w> 3184
文 莱 3181
达 鲁 3181
萨 兰国</w> 3181
除 此 3181
K ar@@</w> 3181
文莱 达鲁 3181
文莱达鲁 萨兰国</w> 3181
诚 意</w> 3180
所 称</w> 3180
Al i</w> 3180
来 文 3178
金融 市场</w> 3178
零 @@</w> 3176
中央 政府</w> 3176
r e</w> 3175
V III</w> 3175
永久 性</w> 3173
结 社</w> 3172
伪 造</w> 3172
一 新</w> 3171
物 项</w> 3170
第一 年</w> 3170
最低 标准</w> 3169
a b</w> 3168
帕 拉</w> 3168
混 乱</w> 3168
政策 措施</w> 3168
之 类</w> 3167
只 会</w> 3166
覆盖 率</w> 3166
大 选</w> 3164
易 受</w> 3163
大 家庭</w> 3163
维 奇</w> 3162
y a</w> 3161
强 @@</w> 3161
西 方</w> 3159
营 造</w> 3159
诺 贝 3158
2 58</w> 3158
海 军</w> 3158
警 务人员</w> 3158
得 益于</w> 3157
两 架</w> 3156
3 0@@</w> 3156
代表 权</w> 3156
总体 目标</w> 3156
一 辆</w> 3155
本 函</w> 3153
裁 判</w> 3153
责 成</w> 3153
基本 法</w> 3152
太阳 能</w> 3152
两 类</w> 3151
关 系 3151
尼 亚共和国</w> 3150
2 31</w> 3150
人 体</w> 3149
金 钱</w> 3149
艾 @@</w> 3147
原 有</w> 3147
农 @@</w> 3146
偿 付</w> 3144
桥 梁</w> 3143
尔 德</w> 3142
三 角</w> 3142
中 应</w> 3141
投 标 3141
研 制</w> 3141
第一 批</w> 3141
函 件</w> 3140
3 5%</w> 3139
胡 @@</w> 3139
物 @@</w> 3138
第十 四届</w> 3138
建 @@</w> 3137
对 照</w> 3136
累 计</w> 3136
令人 担忧</w> 3136
刑 警</w> 3135
导 则</w> 3134
正 面</w> 3134
4 .3</w> 3133
量 @@</w> 3133
阿尔 @@</w> 3133
住 区</w> 3132
2 61</w> 3131
利 用 3130
备 件</w> 3129
树 立</w> 3128
平方 公里</w> 3128
如 上所述</w> 3127
各 次</w> 3127
流 动性</w> 3126
黑 @@</w> 3125
结 @@</w> 3125
应用 程序</w> 3125
教 员</w> 3124
平 @@</w> 3124
维 纳 3124
马尔 维纳 3124
备 灾</w> 3123
k o</w> 3122
L. 2</w> 3122
欧洲 理事会</w> 3122
2 64</w> 3121
南 美洲</w> 3120
联 索</w> 3120
播 放</w> 3120
CONF . 3120
2 34</w> 3119
渥 太 3118
渥太 华</w> 3118
租 用</w> 3117
同 期</w> 3117
增 @@</w> 3117
地 产</w> 3116
牲 畜</w> 3116
新 政府</w> 3115
负责 管理</w> 3115
但 须</w> 3113
军事 法庭</w> 3113
通 知 3111
清 晰</w> 3111
收 支</w> 3110
亟 需</w> 3110
民用 航空</w> 3110
二 次</w> 3109
力 图</w> 3107
杰 出</w> 3107
第十 七条</w> 3107
营 业</w> 3106
被 @@</w> 3105
一 章</w> 3104
B ar@@</w> 3104
候选 国</w> 3104
格林纳 达</w> 3104
克 里 3103
2 32</w> 3102
活 动 3102
CO P</w> 3101
某种 程度</w> 3100
聚 集</w> 3099
q u@@</w> 3099
尼 科 3097
申请 者</w> 3097
应 享</w> 3096
机 密</w> 3096
28 3</w> 3096
ar i</w> 3096
伦 @@</w> 3094
探 测</w> 3094
美 国@@</w> 3094
差 额</w> 3094
舆 论</w> 3094
焦 点</w> 3094
第三 款</w> 3093
一 句</w> 3092
届 时</w> 3092
8 . 3091
海 域</w> 3087
敌 方</w> 3086
哥伦比 亚 3086
扣 除</w> 3083
千 克</w> 3081
变 @@</w> 3079
指 认</w> 3077
毕 业 3077
为 主</w> 3076
28 9</w> 3076
发生 率</w> 3076
核 爆炸</w> 3075
任 务 3075
第四 章</w> 3072
价值 链</w> 3072
努 @@</w> 3071
美 属</w> 3070
视 频</w> 3069
未 满</w> 3067
高 风险</w> 3066
X V</w> 3066
国际 性</w> 3066
重新 考虑</w> 3066
日常 生活</w> 3066
六 次</w> 3065
尸 体</w> 3064
r o</w> 3061
逆 转录</w> 3061
三 级</w> 3059
军 用</w> 3058
贿 赂</w> 3058
海 地区</w> 3057
已 获</w> 3056
沉 重</w> 3056
an g</w> 3056
2 49</w> 3055
A hm 3054
标 识</w> 3054
卡 因</w> 3052
半 数</w> 3052
两 人</w> 3050
M r</w> 3050
伤 残</w> 3050
控 诉</w> 3049
巴 西 3048
普 及 3047
劳工 法</w> 3046
依 赖于</w> 3045
环 保</w> 3043
典 型</w> 3042
代 办</w> 3041
密 克罗 3038
案 中</w> 3038
密克罗 尼 3038
u k@@</w> 3037
之 三</w> 3036
通 道</w> 3036
期 徒刑</w> 3035
需 @@</w> 3035
施 加 3035
总 之</w> 3033
似 宜</w> 3033
发生 变化</w> 3033
意 志</w> 3032
非 核心</w> 3030
示 威 3030
en t</w> 3030
不 符</w> 3029
科技 委</w> 3029
整 @@</w> 3028
民族 团结</w> 3027
血 @@</w> 3026
雇 佣</w> 3026
长期 存在</w> 3026
监督 机制</w> 3025
生活 水准</w> 3024
两 周</w> 3023
联 苯</w> 3023
紧急 行动</w> 3023
特 有</w> 3022
可 卡因</w> 3022
a g 3022
连 @@</w> 3022
不 合理</w> 3021
假 @@</w> 3021
天 主教</w> 3017
不 让</w> 3016
就此 结束</w> 3014
滥 用 3013
as h@@</w> 3013
根本 原因</w> 3013
台 湾</w> 3012
教育 部门</w> 3012
议 书</w> 3011
非 暴力</w> 3010
否 决权</w> 3010
辍 学</w> 3009
最 长</w> 3009
妇女 儿童</w> 3009
列 于</w> 3008
东南亚 国家联盟</w> 3007
2 23</w> 3006
情况 通报</w> 3006
无 意</w> 3005
消 息 3005
走 廊</w> 3004
在 外</w> 3003
一 件</w> 3002
波 利 3002
胀 率</w> 3002
总 人口</w> 3002
变 为</w> 3001
远 @@</w> 3001
以 免</w> 3000
落 后</w> 3000
战略 伙伴</w> 3000
住 房 2999
炸 药</w> 2999
安 第 2998
空 气 2998
第四 节</w> 2998
主 计 2997
贸易 谈判</w> 2997
主计 长</w> 2996
步 伐</w> 2995
疗 法</w> 2995
款 中</w> 2995
巡逻 队</w> 2995
首 相</w> 2994
第六十 九</w> 2994
医 药</w> 2991
2 45</w> 2990
反 复</w> 2990
百 慕 2988
激 烈</w> 2987
2 19</w> 2986
福 @@</w> 2986
关键 性</w> 2985
柬埔 寨 2985
不 同于</w> 2983
高 中</w> 2982
抵 触</w> 2981
经济 区</w> 2981
视 @@</w> 2980
P A</w> 2979
试 @@</w> 2979
诽 谤</w> 2978
运载 工具</w> 2978
马 绍 2977
否 决</w> 2977
通知 书</w> 2977
R D</w> 2976
步 提高</w> 2976
博 物 2975
渔 船</w> 2975
匮 乏</w> 2975
塞尔 维 2975
博物 馆</w> 2975
喀 尔</w> 2974
小 国</w> 2973
反 过来</w> 2973
财 产权</w> 2973
多 达</w> 2970
冲 突 2970
债 券</w> 2969
发 电</w> 2968
对 比</w> 2968
充 满</w> 2968
达 喀尔</w> 2966
埃 厄</w> 2966
犹太 人</w> 2966
i y@@</w> 2965
起 因</w> 2965
平方 米</w> 2964
质量 保证</w> 2964
证 会</w> 2963
紧急 状况</w> 2963
人 物</w> 2962
定 位</w> 2962
火 @@</w> 2962
启 用</w> 2962
r o 2961
导 向</w> 2961
物 流</w> 2960
司 机</w> 2959
热 线</w> 2958
标 @@</w> 2958
领导 层</w> 2958
同 情</w> 2956
宪 兵</w> 2955
听 证会</w> 2954
艾 哈 2953
教科 书</w> 2953
检查 和</w> 2953
2 59</w> 2952
机 械</w> 2952
移民 局</w> 2952
T A</w> 2951
百慕 大</w> 2950
垄 断</w> 2947
i z@@</w> 2945
付 给</w> 2944
公 平 2943
跨 境</w> 2943
er n@@</w> 2943
来 源 2942
强 加</w> 2941
犹 太</w> 2941
第八 次</w> 2941
总体 而言</w> 2941
E l</w> 2940
南 共体</w> 2938
编 @@</w> 2938
ati on</w> 2938
吸 引 2937
3 65</w> 2936
劫 持</w> 2936
2 52</w> 2934
低 下</w> 2934
消 失</w> 2934
部 际</w> 2933
任 @@</w> 2933
移动 电话</w> 2933
录 像</w> 2932
日 程</w> 2931
专 利</w> 2931
防 扩散</w> 2929
人 发</w> 2928
2 1.@@</w> 2927
素 质</w> 2926
辩 称</w> 2925
c e</w> 2924
联 席会议</w> 2924
情 绪</w> 2924
省 @@</w> 2924
也 就是说</w> 2924
身 心 2922
减 排</w> 2922
薪 资</w> 2922
身心 健康</w> 2922
以 求</w> 2921
移 送</w> 2921
2 24</w> 2920
忧 虑</w> 2919
空 局</w> 2918
国家 @@</w> 2918
不可 避免</w> 2918
科 长</w> 2917
班 @@</w> 2917
a v 2917
服 刑</w> 2916
尔 群岛</w> 2915
精 @@</w> 2915
使 人</w> 2915
互 补</w> 2914
维 斯</w> 2914
核 武库</w> 2914
传 递</w> 2913
专 委</w> 2909
密切 联系</w> 2909
阿拉伯 文</w> 2908
化 管</w> 2907
上 述 2906
交 由</w> 2906
on g</w> 2906
偏 远地区</w> 2905
连 贯性</w> 2905
高 达</w> 2904
存 放</w> 2904
修 @@</w> 2903
送 到</w> 2903
e m 2902
近 来</w> 2901
外交 政策</w> 2901
不 懈</w> 2900
容 许</w> 2899
该 款</w> 2899
链 接</w> 2898
苏 联</w> 2897
2 75</w> 2897
采 访</w> 2896
所 知</w> 2895
受 灾 2895
A n@@</w> 2894
u r</w> 2893
扎 @@</w> 2893
高 等</w> 2892
既 有</w> 2892
PV .@@</w> 2892
加以 解决</w> 2891
一 览 2890
19 @@</w> 2890
ar a</w> 2890
3 60</w> 2889
假 期</w> 2889
创新 性</w> 2888
来源 国</w> 2888
稳 定性</w> 2886
C ar@@</w> 2886
后 面</w> 2885
德 拉</w> 2884
女 儿</w> 2884
一 向</w> 2883
O S</w> 2883
谈 话</w> 2883
实 现 2882
实现 目标</w> 2882
刑 警 2881
喂 养</w> 2881
圣 多 2880
全 境</w> 2879
准 予</w> 2879
一览 表</w> 2878
林 匹 2876
奥 林匹 2876
送 @@</w> 2876
可 见</w> 2875
起 码</w> 2875
否 定</w> 2875
28 4</w> 2875
发生 冲突</w> 2875
29 6</w> 2874
干 @@</w> 2873
概 括</w> 2873
CM P 2873
科威 特 2871
合法 化</w> 2871
马绍 尔群岛</w> 2871
布 拉</w> 2870
2 57</w> 2870
9 5%</w> 2869
样 本</w> 2868
除 @@</w> 2868
效 用</w> 2868
a u@@</w> 2866
老 @@</w> 2866
大 于</w> 2864
面 谈</w> 2864
时 效</w> 2863
迁 徙</w> 2861
八 国集团</w> 2860
白 @@</w> 2860
结 婚 2860
国际 刑警 2859
安全 网</w> 2859
ICC D</w> 2859
国际刑警 组织</w> 2859
六 年</w> 2858
化 物</w> 2857
双 重 2857
零 部件</w> 2856
杰 @@</w> 2856
敏感 性</w> 2856
传 @@</w> 2855
德 斯</w> 2854
b er 2854
国 贸</w> 2853
转 为</w> 2853
显 而易 2853
显而易 见</w> 2853
阿 里</w> 2852
应 立即</w> 2852
那 种</w> 2852
两 国 2852
中 介</w> 2852
不可 逆转</w> 2852
之 急</w> 2850
28 .@@</w> 2846
意 识 2845
希 尔</w> 2845
申请 书</w> 2845
报 销</w> 2844
曼 @@</w> 2844
菲 @@</w> 2843
准 军事</w> 2843
系 指</w> 2842
起 飞</w> 2840
意识 形态</w> 2840
第十 次</w> 2839
毒 @@</w> 2837
e e</w> 2836
航 班</w> 2836
中华 人民共和国</w> 2836
伯 @@</w> 2835
商 会</w> 2835
政治 化</w> 2835
详 述</w> 2834
劳 @@</w> 2832
而 未决</w> 2830
悬 而未决</w> 2830
预 @@</w> 2828
每 一项</w> 2827
野 生</w> 2827
脚 注</w> 2827
i ra</w> 2826
数 百万</w> 2826
洛 因</w> 2823
海 洛因</w> 2823
霍 @@</w> 2823
加拿 大 2822
商品 价格</w> 2822
本 法</w> 2821
28 8</w> 2821
持续 增长</w> 2819
制 图</w> 2817
周 转 2816
军事 化</w> 2816
借 调</w> 2815
期 限 2813
开展 业务</w> 2813
i k</w> 2812
随 @@</w> 2812
3 38</w> 2812
珊 瑚 2812
坚 实</w> 2812
最终 目标</w> 2812
一 语</w> 2811
但 @@</w> 2811
3 20</w> 2810
惠 及</w> 2809
2 39</w> 2808
绝 不</w> 2808
国 有</w> 2808
更 高</w> 2807
浓 缩</w> 2805
中 午</w> 2804
断 @@</w> 2802
福 克 2801
洪 水</w> 2801
19 48</w> 2801
第一 期</w> 2800
较 @@</w> 2799
让 人</w> 2799
威 尔 2798
因 于</w> 2797
国 界</w> 2796
武装 集团</w> 2796
决策 机构</w> 2796
电 影</w> 2794
血 统</w> 2793
2 29</w> 2792
乃 至</w> 2792
断 定</w> 2791
布隆 迪 2791
r a@@</w> 2790
深 @@</w> 2790
民间 团体</w> 2790
杂 项</w> 2789
分 在</w> 2788
7 50</w> 2788
u l 2787
o w@@</w> 2787
缩 减</w> 2787
17 01</w> 2787
内 向</w> 2786
保 管</w> 2784
征 募</w> 2784
国家 统计局</w> 2784
列 名</w> 2783
英 镑</w> 2782
理 学</w> 2782
吸引 力</w> 2782
灌 溉</w> 2781
余 下</w> 2781
纪念 活动</w> 2781
乐 @@</w> 2780
助 @@</w> 2780
删 去</w> 2780
瑙 鲁</w> 2780
第九 次</w> 2780
2 62</w> 2779
C P</w> 2778
误 解</w> 2778
真 寺</w> 2777
清 真寺</w> 2777
冷 战</w> 2777
尔 诺贝 2775
约 翰</w> 2775
a w 2775
2 72</w> 2775
i st@@</w> 2775
切 尔诺贝 2775
减 损</w> 2775
an t@@</w> 2774
as t@@</w> 2774
生殖 器官</w> 2774
兰 群岛</w> 2773
福克 兰群岛</w> 2773
协 理</w> 2772
继续 下去</w> 2771
当 务 2770
虚 拟</w> 2770
当务 之急</w> 2770
活 @@</w> 2769
口 @@</w> 2769
不 但</w> 2768
账 目</w> 2768
9 . 2768
航天 局</w> 2768
信用 证</w> 2768
期限 内</w> 2768
议 长</w> 2767
埃 尔</w> 2765
前 后</w> 2764
第五 章</w> 2764
请 @@</w> 2763
6 .2</w> 2762
目 睹</w> 2759
北 美</w> 2759
内 卢</w> 2758
造 @@</w> 2758
刑 期</w> 2758
腐 败 2757
热 内卢</w> 2757
未 缴</w> 2757
识 字 2755
过渡 期</w> 2755
里约 热内卢</w> 2755
识字 率</w> 2755
防 御</w> 2754
马 克</w> 2753
M IS 2752
士 革</w> 2751
布 宜 2751
全 人类</w> 2751
马 士革</w> 2749
大 马士革</w> 2749
二十 @@</w> 2749
国际 海 2748
解放 运动</w> 2748
其 为</w> 2746
无 限期</w> 2745
安 南</w> 2745
I NF 2745
提出 申请</w> 2745
意 在</w> 2744
诺 斯 2743
口 头 2743
布宜 诺斯 2743
布宜诺斯 艾 2743
浪 费</w> 2742
亚 联邦</w> 2741
受 让人</w> 2741
女 子</w> 2741
柏 林</w> 2741
第二十 二届</w> 2741
现 阶段</w> 2740
任 职者</w> 2740
鸦 片</w> 2740
审计 工作</w> 2740
30 5</w> 2739
审 核</w> 2738
强 烈 2738
暴 露</w> 2737
聘 请</w> 2737
月 会</w> 2736
t he</w> 2735
避 难</w> 2734
电 话 2733
集 @@</w> 2733
i p@@</w> 2733
历 来</w> 2733
免 权</w> 2733
数据 中心</w> 2733
珊瑚 礁</w> 2733
购 买 2732
红新 月会</w> 2732
无 数</w> 2731
t e</w> 2731
休 会</w> 2731
十 一</w> 2731
2 56</w> 2730
视 听</w> 2730
商 @@</w> 2730
庞 大</w> 2730
泰 @@</w> 2729
对 方</w> 2728
8 5%</w> 2728
精神 病</w> 2728
环境 退化</w> 2727
努力 提高</w> 2727
基 因</w> 2726
第四十 九届</w> 2726
情 事</w> 2725
伴 随</w> 2725
战 胜</w> 2724
城 乡</w> 2722
身 上</w> 2721
e k</w> 2720
迈 进</w> 2719
旗 国</w> 2718
记 入</w> 2718
施 @@</w> 2718
报 导</w> 2717
谋 生</w> 2717
蓝 线</w> 2717
扶 养</w> 2716
待 @@</w> 2715
测 性</w> 2712
游 客</w> 2711
偏 离</w> 2710
毕业 生</w> 2710
应 予以</w> 2709
剥 夺 2708
1 .4</w> 2708
船 旗国</w> 2708
试 行</w> 2707
剥夺 权利</w> 2707
积极 支持</w> 2706
提 法</w> 2704
创造 性</w> 2704
合 计</w> 2703
开 枪</w> 2702
ad i</w> 2702
东 西</w> 2700
安全 局</w> 2700
通报 情况</w> 2700
差 价</w> 2699
采 @@</w> 2699
批 准 2698
寡 妇</w> 2698
产 后</w> 2697
市 政府</w> 2696
大 气 2695
恐怖 组织</w> 2695
管理 员</w> 2695
鼓 掌</w> 2694
消息 来源</w> 2694
驱逐 出境</w> 2693
3 .4</w> 2692
国 在</w> 2691
另 一方</w> 2691
于 此</w> 2690
2 3.@@</w> 2690
艾哈 迈 2690
夫 @@</w> 2689
强 劲</w> 2687
侮 辱</w> 2687
调查 报告</w> 2686
真 @@</w> 2684
北 极</w> 2684
整 理</w> 2683
水 道</w> 2682
实 习</w> 2681
各 部委</w> 2681
3 30</w> 2681
增 补</w> 2680
坦 克</w> 2679
国际 @@</w> 2679
本 质</w> 2678
专业 化</w> 2678
高 昂</w> 2677
s s@@</w> 2677
亚 尔</w> 2677
这 位</w> 2677
笔 译</w> 2677
当 今 2676
阿塞拜疆 共和国</w> 2676
法 学家</w> 2675
他 @@</w> 2675
大 战</w> 2674
及 时 2674
者 之间</w> 2674
国内 外</w> 2674
亚 洲 2673
28 5</w> 2673
S al 2672
管理 司</w> 2672
凯 @@</w> 2670
表示 同意</w> 2670
有 鉴 2669
有鉴 于此</w> 2669
辍 学率</w> 2668
就业 率</w> 2668
桑 @@</w> 2666
方 对</w> 2665
内 战</w> 2665
出 示</w> 2664
地 方 2664
总统 令</w> 2664
令人 不安</w> 2663
立法 机关</w> 2663
经济 学</w> 2661
权 国家</w> 2660
主 权国家</w> 2660
帕 劳</w> 2660
日 志</w> 2659
欧 空局</w> 2658
专 项</w> 2658
幼儿 园</w> 2658
法 院 2657
计 入</w> 2657
金融 部门</w> 2657
广 为</w> 2656
参与 方</w> 2656
一 本</w> 2655
事 组织</w> 2655
c o</w> 2655
到 来</w> 2655
国际海 事组织</w> 2655
蒙 @@</w> 2654
S t 2654
周 @@</w> 2654
竭 尽全力</w> 2653
尼科 西亚</w> 2653
雷 区</w> 2652
包 装</w> 2652
通货膨 胀率</w> 2652
产 @@</w> 2651
日 止</w> 2649
技术 培训</w> 2649
一 步提高</w> 2648
进 一步提高</w> 2648
牢 房</w> 2648
就 职</w> 2646
公共 事务</w> 2645
一 期</w> 2644
里 克</w> 2643
准 确性</w> 2643
Ab u</w> 2643
h i</w> 2642
服 从</w> 2642
威 @@</w> 2642
起 点</w> 2642
昂 贵</w> 2641
发展 局</w> 2641
29 2</w> 2641
运 载</w> 2640
t p</w> 2639
互 补 2639
获 取 2639
悲 惨</w> 2639
ht tp</w> 2639
2 .6</w> 2638
控制 权</w> 2638
深 海</w> 2637
平均 数</w> 2637
特殊 教育</w> 2637
姆 斯</w> 2636
风 @@</w> 2635
an e</w> 2634
互补 性</w> 2634
再 @@</w> 2633
渐 进</w> 2632
黄 金</w> 2632
18 %</w> 2632
年 满</w> 2631
低 成本</w> 2631
交 战</w> 2631
成 千 2630
毒 者</w> 2628
旱 地</w> 2628
吸 毒者</w> 2628
多 于</w> 2626
对 联</w> 2626
周 转</w> 2626
轮 调</w> 2626
工程 师</w> 2626
担 负</w> 2625
豁 免权</w> 2625
近 几 2625
忘 记</w> 2624
蒂 固</w> 2623
o k@@</w> 2623
根 深 2622
新 设</w> 2622
过 多</w> 2622
根深 蒂固</w> 2622
院 校</w> 2621
斯 群岛</w> 2621
SB I</w> 2621
i f@@</w> 2620
履行 义务</w> 2620
亲 自</w> 2619
求 @@</w> 2619
缺 席</w> 2619
带 到</w> 2619
2 63</w> 2617
公 立</w> 2617
常 任</w> 2617
填 写</w> 2617
Dec .@@</w> 2617
亲 @@</w> 2614
调 度</w> 2614
脱 @@</w> 2614
受 损</w> 2613
废 止</w> 2613
广播 电台</w> 2613
单 个</w> 2612
威 慑</w> 2612
果 断</w> 2611
域 外</w> 2610
件 @@</w> 2610
月 间</w> 2610
同 盟</w> 2608
短 @@</w> 2608
奇 @@</w> 2608
M A@@</w> 2607
接受 国</w> 2606
当 天</w> 2605
日 为</w> 2605
占 用</w> 2605
驾 驶</w> 2605
I CE 2605
el l@@</w> 2605
ICE F</w> 2605
警 惕</w> 2604
分 成</w> 2603
赫 纳</w> 2603
上 万</w> 2603
成千 上万</w> 2603
i g 2602
通 讯 2601
批准 书</w> 2601
从 来</w> 2600
治 @@</w> 2600
发 布 2599
家 务</w> 2599
上述 情况</w> 2598
扫 雷</w> 2597
体 检</w> 2596
萨 卡</w> 2595
长 远</w> 2595
司法 人员</w> 2595
m ad</w> 2594
关 税 2594
3 10</w> 2593
常 @@</w> 2593
6 .1</w> 2593
第一 季度</w> 2593
非法 活动</w> 2592
塞尔维 亚共和国</w> 2592
可预 测性</w> 2591
临时 代办</w> 2590
卡塔 赫纳</w> 2589
归 因于</w> 2588
挑 衅</w> 2588
暗 杀</w> 2588
远 距离</w> 2587
容 器</w> 2586
密切 协作</w> 2586
CE RD</w> 2585
制造 商</w> 2585
意 见 2584
构 建</w> 2584
特 尔</w> 2583
角 度 2583
经 营 2583
明 白</w> 2582
代表 作</w> 2582
停火 协定</w> 2581
文 信</w> 2579
明 智</w> 2579
见 到</w> 2578
罂 粟</w> 2578
犯罪 集团</w> 2578
e m</w> 2577
情 节</w> 2576
收 容 2576
中 间 2575
存 @@</w> 2575
而 应</w> 2574
规 格</w> 2573
建 议书</w> 2573
收容 所</w> 2573
监 核</w> 2572
海 盗 2572
日 趋</w> 2571
光 盘</w> 2571
木 @@</w> 2569
相互 尊重</w> 2569
外国 投资</w> 2569
管 制 2568
4 5%</w> 2568
服务 器</w> 2567
最终 用户</w> 2567
分 支 2565
中 型</w> 2565
南 极</w> 2565
昨 天</w> 2565
u m 2564
第四十 六届</w> 2563
2 67</w> 2562
P B 2562
蒂 纳</w> 2561
生 长</w> 2561
布 拉 2561
数 次</w> 2561
分支 机构</w> 2561
同 文信</w> 2560
压 迫</w> 2560
判 决书</w> 2559
齐 @@</w> 2559
德 黑 2558
偏 远</w> 2558
作 品</w> 2558
撰 文</w> 2558
政治 犯</w> 2558
书面 形式</w> 2558
德黑 兰</w> 2558
角度 看</w> 2557
世界 大战</w> 2556
日 于</w> 2555
评 级</w> 2555
1 1%</w> 2555
结果 表明</w> 2555
来文 方</w> 2555
三 国</w> 2553
白 俄罗斯 2552
存 货</w> 2552
白俄罗斯 共和国</w> 2552
技术 人员</w> 2551
美 好</w> 2550
垃 圾</w> 2550
纯 粹</w> 2550
传 送</w> 2549
17 %</w> 2548
变 性</w> 2547
外交 官</w> 2547
非常 重视</w> 2547
计 @@</w> 2546
乌兹别 克斯坦共和国</w> 2546
出口 国</w> 2546
无家可 归</w> 2546
方 括号</w> 2545
4 .5</w> 2545
击 者</w> 2544
志愿 者</w> 2544
a k</w> 2543
边 境 2543
崇 高</w> 2543
5 50</w> 2542
体育 运动</w> 2541
传统 习俗</w> 2541
当今 世界</w> 2540
在 案</w> 2539
重新 部署</w> 2539
海盗 行为</w> 2539
势 力</w> 2538
14 %</w> 2537
天 体</w> 2536
6 50</w> 2536
偿 金</w> 2536
充分 发挥</w> 2536
非常 任</w> 2536
原 料</w> 2535
结 案</w> 2535
印 第 2534
男 生</w> 2534
筛 选</w> 2534
5 .3</w> 2533
只 @@</w> 2533
安第 斯</w> 2530
复 制</w> 2529
货 物 2529
航 运</w> 2528
捷 克</w> 2528
走 上</w> 2527
分 部</w> 2525
国家 机关</w> 2524
切尔诺贝 利</w> 2524
杀 伤 2523
情 @@</w> 2523
中 旬</w> 2522
ation al</w> 2522
除此 之外</w> 2522
G S</w> 2521
第一 节</w> 2521
南 太平洋</w> 2520
澳大利 亚政府</w> 2520
游 行</w> 2519
五 项</w> 2517
19 63</w> 2517
第一 @@</w> 2517
社会 @@</w> 2517
参 看</w> 2516
数 值</w> 2516
抵 押</w> 2516
饮 食</w> 2516
3 16</w> 2515
很 小</w> 2515
口头 报告</w> 2515
沿 线</w> 2512
既 然</w> 2511
未 获</w> 2511
交 往</w> 2511
6 87</w> 2511
2 2%</w> 2510
门 户</w> 2509
不 多</w> 2508
两 倍</w> 2507
所 处</w> 2507
承 包</w> 2507
产 法</w> 2503
破 产法</w> 2503
管理 信息系统</w> 2503
自由 权</w> 2503
阿卜杜 勒</w> 2503
发 育</w> 2502
盖 @@</w> 2501
老 挝</w> 2501
尚 无</w> 2500
残 @@</w> 2499
管 局</w> 2499
挑 战 2499
紧 迫 2498
1 6%</w> 2498
奥斯 陆</w> 2498
波利 萨</w> 2498
以 为</w> 2497
同 一个</w> 2496
实 时</w> 2495
n a</w> 2494
榜 样</w> 2494
r i</w> 2492
地 质</w> 2492
陪 伴</w> 2491
多边 条约</w> 2491
艾哈迈 德</w> 2491
居住 地</w> 2490
词 语</w> 2489
管 @@</w> 2489
原 定</w> 2488
富 @@</w> 2487
巨 大 2487
试 验 2486
第二 份</w> 2486
德 培</w> 2485
大气 层</w> 2485
恩 德培</w> 2484
庄 严</w> 2483
服务 质量</w> 2483
证 @@</w> 2482
极 少</w> 2481
布隆迪 政府</w> 2481
裁 研</w> 2479
有所 不同</w> 2479
起 诉 2478
善 意</w> 2478
和平 谈判</w> 2477
投 @@</w> 2476
掩 盖</w> 2475
提 取</w> 2474
各 阶层</w> 2474
苯 丙 2473
争 辩</w> 2473
另 一名</w> 2473
可 怕</w> 2472
私 @@</w> 2472
蒙 受</w> 2470
视 委</w> 2470
单 身</w> 2470
辛 @@</w> 2470
Par t</w> 2468
该 厅</w> 2466
有 利 2465
敌 军</w> 2464
步 @@</w> 2463
以 下 2462
外 界</w> 2462
u g@@</w> 2461
编 拟</w> 2461
研究 员</w> 2461
Add .4</w> 2460
ic a</w> 2459
阿布 贾</w> 2459
任务 区</w> 2459
文 第</w> 2458
核 销</w> 2458
应 以</w> 2457
结 盟</w> 2457
挑战 性</w> 2457
2 68</w> 2456
定 向</w> 2456
公民 投票</w> 2455
改 叙 2454
装 运</w> 2454
一致 同意</w> 2454
能 效</w> 2453
可 予</w> 2452
适 应 2452
平 静</w> 2452
温 度</w> 2452
回 报</w> 2452
细 目</w> 2452
阿尔及 尔</w> 2452
可 是</w> 2451
青 年 2450
拟 @@</w> 2450
青年 党</w> 2450
约 定</w> 2449
汇 @@</w> 2449
私 法</w> 2449
审 批</w> 2448
妊 娠</w> 2448
于 是</w> 2447
越 @@</w> 2447
拨 给</w> 2447
28 7</w> 2447
环境 法</w> 2446
服务 台</w> 2445
内 为</w> 2444
2 79</w> 2443
布宜诺斯艾 利斯</w> 2443
受 限制</w> 2442
遗 弃</w> 2442
天 气</w> 2441
候 补</w> 2441
操 作 2441
苯丙 胺</w> 2441
l e@@</w> 2440
追 究 2440
专题 组</w> 2440
第十 五条</w> 2439
法 域</w> 2438
制定 者</w> 2438
医疗 卫生</w> 2436
万 国 2435
案 子</w> 2435
文 盲 2434
战 术</w> 2434
换 言之</w> 2434
乘 客</w> 2434
文盲 率</w> 2434
黑 人</w> 2432
归 @@</w> 2432
非洲 开发银行</w> 2432
主导 作用</w> 2432
同 工 2431
同工 同酬</w> 2431
e y@@</w> 2430
值得 一 2430
前 途</w> 2429
案 文 2429
沉 默</w> 2429
荣 誉</w> 2429
非 歧视</w> 2428
熟 练</w> 2428
深 远</w> 2428
宣 告</w> 2426
多边 合作</w> 2426
分 区</w> 2425
待 命</w> 2425
账 款</w> 2425
人 中</w> 2424
M a@@</w> 2424
侵 蚀</w> 2424
履行 任务</w> 2423
对 面</w> 2422
并 行</w> 2422
什 蒂纳</w> 2422
开 火</w> 2421
S TA</w> 2421
紧 缩</w> 2419
案 研究</w> 2419
个 案研究</w> 2419
i ch@@</w> 2418
几 点</w> 2418
销 售 2418
首 @@</w> 2418
卫 星 2417
阿卜杜 拉</w> 2417
表 现 2416
足 额</w> 2416
年 鉴</w> 2416
辛 烷</w> 2416
积极 主动</w> 2416
表现 形式</w> 2416
不 懈 2413
难 性</w> 2413
双边 协定</w> 2413
不懈 努力</w> 2413
警 @@</w> 2412
经济 援助</w> 2412
CC PR</w> 2411
开 辟</w> 2410
这 部分</w> 2409
动 乱</w> 2408
就 要</w> 2408
新闻 自由</w> 2408
伦 理</w> 2407
28 6</w> 2407
意 向</w> 2406
I C</w> 2406
贫困 人口</w> 2406
流 向</w> 2405
赫 尔 2405
远 景</w> 2405
促 进 2405
类 @@</w> 2405
记 载</w> 2405
水 源</w> 2404
感到 高兴</w> 2404
不良 影响</w> 2404
舍 尔</w> 2403
19 66</w> 2403
国际贸易 中心</w> 2403
道 理</w> 2402
此 基础</w> 2400
援 用</w> 2400
使 本</w> 2400
3 .5</w> 2399
挖 掘</w> 2399
预 报</w> 2398
运 费</w> 2397
定 价</w> 2397
B r@@</w> 2397
智 力</w> 2397
里 什蒂纳</w> 2396
S A@@</w> 2396
普 里什蒂纳</w> 2396
灾 难性</w> 2395
四 分之一</w> 2394
男女 之间</w> 2394
付诸 实施</w> 2394
参 阅</w> 2393
关 爱</w> 2393
29 5</w> 2393
合 实际</w> 2392
私 权</w> 2392
几 种</w> 2392
切 合实际</w> 2392
遴 选</w> 2392
地 下</w> 2391
参 观</w> 2391
3 80</w> 2391
知名 人士</w> 2391
抗 击</w> 2389
C C</w> 2389
所 获</w> 2388
带 @@</w> 2388
反对 党</w> 2388
A C.@@</w> 2387
救 @@</w> 2387
弥 合</w> 2387
三 天</w> 2384
学 前 2382
第十 一条</w> 2382
重 振</w> 2381
外 汇</w> 2381
模 板</w> 2381
心理 健康</w> 2381
偏 低</w> 2379
法 学院</w> 2379
意 思</w> 2379
防 护</w> 2378
本 应</w> 2377
集 体 2377
C. 12</w> 2377
正 常 2376
正常 化</w> 2376
i i</w> 2375
敲 定</w> 2375
制 剂</w> 2374
选 票</w> 2374
体 重</w> 2374
封 闭</w> 2373
具体 步骤</w> 2373
预算 内</w> 2373
五 岁</w> 2372
借 款</w> 2371
研究 生</w> 2371
直接 参与</w> 2371
养 费</w> 2370
最 @@</w> 2370
第二 号</w> 2370
获取 信息</w> 2370
逍 遥 2369
28 1</w> 2368
会计 师</w> 2368
揭 示</w> 2367
阿 布</w> 2366
受 雇</w> 2366
专 职</w> 2366
死 @@</w> 2366
贫困 线</w> 2366
门 槛</w> 2364
冲 @@</w> 2364
漏 洞</w> 2364
全面 实施</w> 2364
领 地</w> 2363
e p@@</w> 2363
图 里</w> 2363
剩 下</w> 2363
号 码</w> 2363
嗣 后</w> 2361
董 事</w> 2361
杀 戮</w> 2360
SB STA</w> 2360
逍遥 法外</w> 2360
A t 2359
是 非</w> 2359
人口 比例</w> 2359
西 亚联邦</w> 2358
将 @@</w> 2358
工具 包</w> 2358
密克罗尼 西亚联邦</w> 2358
科 菲</w> 2357
工 商业</w> 2357
可 比 2355
一 座</w> 2355
侵 权</w> 2355
可比 性</w> 2355
商 用</w> 2354
全球 战略</w> 2354
市场 经济</w> 2354
拿 出</w> 2353
社 群</w> 2353
隐 私权</w> 2353
仪 器</w> 2353
经济合作 组织</w> 2353
学 业</w> 2352
缓 和</w> 2351
一般 来说</w> 2351
次 世界大战</w> 2350
窗 口</w> 2350
汽 油</w> 2349
P R@@</w> 2348
早 先</w> 2348
PO PS</w> 2348
这 会</w> 2347
地 球 2347
4 .4</w> 2347
带 头</w> 2347
论 及</w> 2346
结 算</w> 2346
共同 利益</w> 2345
表 中</w> 2344
家 里</w> 2344
借 贷</w> 2344
始 于</w> 2344
协调 会议</w> 2344
著 名</w> 2343
e h@@</w> 2342
致 @@</w> 2342
平 面</w> 2342
非 传统</w> 2342
l as</w> 2342
年 届会</w> 2342
近 @@</w> 2342
法 定 2341
第六 章</w> 2341
利 马</w> 2340
边 防</w> 2339
书 籍</w> 2339
19 68</w> 2339
第四十 届</w> 2339
2 4.@@</w> 2338
核 技术</w> 2338
接 管</w> 2338
抓 住</w> 2338
邻 近</w> 2338
临时 性</w> 2338
r an@@</w> 2337
活 产</w> 2336
金融 体系</w> 2336
克 制</w> 2335
单 证</w> 2335
欧 盟 2334
仅 为</w> 2334
欧盟 委员会</w> 2334
G B</w> 2333
S GB</w> 2333
夫 妇</w> 2333
听 @@</w> 2333
事 后</w> 2333
er a</w> 2333
检 方</w> 2332
社 区 2332
组 办</w> 2332
空气 污染</w> 2332
边境 地区</w> 2332
R A@@</w> 2330
战 时</w> 2330
理 性</w> 2329
祝 愿</w> 2328
完 毕</w> 2328
第二十 七届</w> 2328
一般 而言</w> 2328
集 会 2326
2 73</w> 2326
调 和</w> 2326
混 合物</w> 2326
补 充 2326
集会 自由</w> 2326
异 @@</w> 2325
R ES</w> 2324
CP .7</w> 2324
杜 古</w> 2323
海 峡</w> 2323
聚 力</w> 2323
受 众</w> 2323
H ar@@</w> 2323
策 划</w> 2323
尔 斯</w> 2322
祸 害</w> 2322
第十 八条</w> 2322
接 替</w> 2321
结婚 年龄</w> 2321
哈 马斯</w> 2320
核心 作用</w> 2320
安全 部</w> 2318
2 2.@@</w> 2317
架 次</w> 2317
即 应</w> 2317
却 是</w> 2317
n e</w> 2315
杜 绝</w> 2314
次 @@</w> 2314
自 营</w> 2313
停 @@</w> 2313
克 尔</w> 2313
罪 @@</w> 2313
29 9</w> 2313
格 局</w> 2312
支 @@</w> 2312
段 @@</w> 2312
百分 点</w> 2312
避孕 药</w> 2312
可 望</w> 2311
解 读</w> 2310
交 货</w> 2310
装 甲 2310
勃 勃</w> 2309
通 过 2309
逃 避</w> 2309
尤 @@</w> 2309
印度尼 西 2309
付 诸</w> 2308
滥 杀</w> 2308
翻 新</w> 2308
占领 区</w> 2308
管 道</w> 2307
集 资金</w> 2305
筹 集资金</w> 2305
G h@@</w> 2304
射 击</w> 2304
巴 尔 2302
C H 2302
清 @@</w> 2302
3 3%</w> 2301
抗 @@</w> 2299
送 回</w> 2299
不 佳</w> 2298
逃 犯</w> 2298
补 @@</w> 2298
j a</w> 2297
覆盖 范围</w> 2297
改叙 为</w> 2297
in g@@</w> 2296
之 为</w> 2295
营 销</w> 2294
延 至</w> 2294
正当 理由</w> 2294
全 年</w> 2293
28 2</w> 2293
目 标 2292
持 有人</w> 2292
3 40</w> 2292
数 年</w> 2292
提出 异议</w> 2292
目标 群体</w> 2292
年 里</w> 2291
吸 入</w> 2291
摆 在</w> 2291
发言 权</w> 2291
冲突 地区</w> 2291
沿 海地区</w> 2290
教育 法</w> 2290
张 正义</w> 2289
处 分</w> 2289
兹 @@</w> 2288
牢 固</w> 2287
学 习 2286
性 犯罪</w> 2286
驻 扎</w> 2286
两 者之间</w> 2285
归 类</w> 2285
第二 类</w> 2285
第二十 六届</w> 2285
高 加 2284
机 器</w> 2284
贫困 者</w> 2284
飞 @@</w> 2283
经济 @@</w> 2283
今 天 2282
超 支</w> 2281
人 事 2280
H am@@</w> 2280
预 付款</w> 2280
i an</w> 2279
贪 污</w> 2279
采 集</w> 2279
第四十 七届</w> 2279
生命 周期</w> 2278
长 官</w> 2277
适用 性</w> 2277
为 限</w> 2276
上 届</w> 2276
数据 @@</w> 2276
福利 部</w> 2276
2 6.@@</w> 2275
市 政 2275
进 来</w> 2274
母 语</w> 2274
直 @@</w> 2274
国家 级</w> 2274
口 径</w> 2273
19 50</w> 2273
施加 压力</w> 2273
初 审</w> 2272
卢 萨卡</w> 2272
本 信</w> 2272
凝 聚力</w> 2272
起 着</w> 2272
货物 运输</w> 2272
外交 使团</w> 2271
o y@@</w> 2269
共 存</w> 2269
书 @@</w> 2269
磺 酸</w> 2269
佩 @@</w> 2268
伤 害 2268
养 育</w> 2267
数据 处理</w> 2267
重新 分配</w> 2267
合 规</w> 2265
男 @@</w> 2265
第四十 三届</w> 2265
少 量</w> 2264
深 度</w> 2264
安 圭 2262
抑 制</w> 2261
技术 @@</w> 2261
价值 观念</w> 2261
达 尔</w> 2260
食 @@</w> 2260
保 全</w> 2259
群 组</w> 2259
第二十 五届</w> 2259
成 票</w> 2258
赞 成票</w> 2258
工作 进展</w> 2258
宗教 团体</w> 2258
游 说</w> 2256
一 枚</w> 2256
个 省</w> 2256
解 @@</w> 2256
岛 上</w> 2255
合法 权利</w> 2255
同 日</w> 2254
货 @@</w> 2253
30 4</w> 2253
P A@@</w> 2252
剂 量</w> 2252
行 之 2251
情 势</w> 2251
6 5%</w> 2251
行之 有效</w> 2251
g e</w> 2250
2 74</w> 2250
商 讨</w> 2250
公 园</w> 2250
崩 溃</w> 2250
会议 厅</w> 2250
CA T</w> 2250
十 个</w> 2249
引 述</w> 2249
操 纵</w> 2249
蒙特 塞</w> 2249
A r 2248
安 援</w> 2246
A C</w> 2245
过 早</w> 2245
漫 长</w> 2245
l o</w> 2244
力 争</w> 2243
全 时</w> 2243
副 @@</w> 2243
款 下</w> 2243
当事 国</w> 2243
微 额</w> 2242
哪 个</w> 2242
遵 行</w> 2242
离 @@</w> 2241
戈 马</w> 2241
常 务 2241
检 索</w> 2241
事务 所</w> 2241
兑 换</w> 2240
国际电 联</w> 2240
不 准</w> 2239
射 @@</w> 2239
充 实</w> 2239
赦 免</w> 2239
防 空</w> 2238
想 @@</w> 2238
测 @@</w> 2238
减 量</w> 2238
快速 反应</w> 2238
2 78</w> 2237
安圭 拉</w> 2237
搜 集</w> 2236
保险 费</w> 2236
责任 人</w> 2236
拓 展</w> 2235
跟 进</w> 2235
之 以</w> 2234
停 留</w> 2234
D i@@</w> 2234
退 还</w> 2234
失踪 者</w> 2234
杀伤 性</w> 2234
应 堆</w> 2233
族 人</w> 2233
反 应堆</w> 2233
交易 所</w> 2233
纳 克</w> 2232
说 服</w> 2232
升 @@</w> 2232
害 怕</w> 2231
真 主 2230
严 肃</w> 2230
真主 党</w> 2230
全 会</w> 2229
逮捕 令</w> 2229
住 院</w> 2227
日益 严重</w> 2227
CO @@</w> 2226
2 77</w> 2225
改 良</w> 2225
自 愿 2223
按 计划</w> 2222
存 量</w> 2222
语 @@</w> 2221
扣 留</w> 2221
朝鲜 半岛</w> 2220
什 @@</w> 2219
电 池</w> 2218
S S</w> 2218
西 比</w> 2217
u m</w> 2216
工商 企业</w> 2216
刊 登</w> 2215
容 纳</w> 2214
格 陵 2214
实 力</w> 2214
展 现</w> 2214
居 民 2214
备 用</w> 2214
利用 率</w> 2214
G u@@</w> 2213
圣 地 2213
伸 张正义</w> 2213
晚 些时候</w> 2213
o h@@</w> 2211
尔 诺</w> 2210
戈 尔诺</w> 2210
教 堂</w> 2209
商 事</w> 2209
军 警</w> 2209
击 @@</w> 2209
空 军</w> 2208
透 露</w> 2207
每 人</w> 2207
免 税</w> 2207
排 列</w> 2206
反 思</w> 2205
困 扰</w> 2205
谈 论</w> 2205
马 舍尔</w> 2204
第四十 八届</w> 2204
供 给</w> 2203
受 权</w> 2203
警 员</w> 2203
毫 不 2203
纵 向</w> 2203
中 所作</w> 2202
全 盘</w> 2202
七 次</w> 2202
充 满 2202
张 贴</w> 2201
受灾 国</w> 2201
亚 哥</w> 2200
海 关 2200
圣地 亚哥</w> 2200
学 费</w> 2199
增 添</w> 2199
L. 3</w> 2199
第三十 八届</w> 2199
有 何</w> 2198
q u 2198
12 44</w> 2198
追 溯</w> 2197
半 球</w> 2196
传 单</w> 2196
注 入</w> 2195
酌 处</w> 2195
不足 之处</w> 2194
不 顾</w> 2193
al l</w> 2193
In t 2193
留 @@</w> 2192
靠 近</w> 2192
牢 记</w> 2192
尔 政府</w> 2191
消 @@</w> 2191
掠 夺</w> 2191
姐 妹</w> 2191
卫生 系统</w> 2191
服 装</w> 2190
4 20</w> 2190
突 然</w> 2190
难 者</w> 2190
枪 鱼</w> 2189
广 义</w> 2189
第四 个</w> 2189
修订 本</w> 2189
扩 张</w> 2188
照 @@</w> 2187
南 南</w> 2185
C A@@</w> 2185
弗 @@</w> 2185
纽约 联合国总部</w> 2185
金 枪鱼</w> 2183
静 止</w> 2183
双重 标准</w> 2183
密 度</w> 2182
优 惠 2182
渴 望</w> 2182
恐怖 袭击</w> 2182
e st@@</w> 2181
处 理 2181
武装 人员</w> 2181
佐 证</w> 2180
分 支</w> 2179
自由 选择</w> 2179
生活 费</w> 2179
拉 美</w> 2178
拒绝 接受</w> 2178
特 罗</w> 2177
子 @@</w> 2177
有 益于</w> 2177
时 数</w> 2177
坎 帕拉</w> 2177
宽 泛</w> 2176
界 线</w> 2175
料 @@</w> 2174
瞻 性</w> 2173
林 西比</w> 2172
先 后</w> 2172
普 林西比</w> 2172
至 多</w> 2172
十 九</w> 2171
被 盗</w> 2171
新闻 媒体</w> 2170
财产 损失</w> 2170
残 酷</w> 2169
均 收入</w> 2169
视 作</w> 2168
两 国政府</w> 2167
i j@@</w> 2167
随 之</w> 2167
朱 巴</w> 2167
多种 多样</w> 2167
借 @@</w> 2166
综 述</w> 2166
en d@@</w> 2166
归 属</w> 2165
Moham ed</w> 2165
家 政</w> 2164
助 益</w> 2164
加 杜古</w> 2163
信 力</w> 2163
温 @@</w> 2163
瓦 加杜古</w> 2163
公 信力</w> 2163
事实 证明</w> 2163
不 清</w> 2162
前 瞻性</w> 2162
几 名</w> 2162
陷 于</w> 2162
教 派</w> 2161
仍 @@</w> 2161
一 封信</w> 2160
见 图</w> 2160
19 58</w> 2160
第一 类</w> 2160
有效 期</w> 2160
中东 问题</w> 2160
萨 尔</w> 2159
幸 福</w> 2159
哈 瓦 2158
股 东</w> 2158
性 研究</w> 2158
激 发</w> 2158
可行 性研究</w> 2158
哈瓦 那</w> 2158
个 州</w> 2157
不 下</w> 2156
标 明</w> 2156
廉 正</w> 2156
第二 次世界大战</w> 2156
感 觉</w> 2155
商业 活动</w> 2155
自 豪</w> 2154
有 望</w> 2154
远 离</w> 2154
监 委</w> 2154
公 吨</w> 2154
敬 意</w> 2154
加 元</w> 2153
3 70</w> 2152
201 8</w> 2152
第三十 九届</w> 2152
加拿大 政府</w> 2152
氟 氯烃</w> 2151
辛 基</w> 2150
人 均收入</w> 2149
校 长</w> 2149
率 @@</w> 2148
十 五</w> 2147
追 @@</w> 2147
美 和 2145
2 71</w> 2145
圣多 美和 2145
圣多美和 普林西比</w> 2145
依 @@</w> 2144
CMP .1</w> 2144
包 @@</w> 2143
第三 阶段</w> 2143
社会 群体</w> 2143
一 夫 2142
及时 性</w> 2141
o h 2140
弹 头</w> 2140
双 性恋</w> 2140
方 在</w> 2138
带 薪</w> 2138
第四十 二届</w> 2137
失业 者</w> 2137
日益 增长</w> 2137
士 学位</w> 2136
反 而</w> 2136
l ah</w> 2136
石 棉</w> 2136
股 长</w> 2135
空 前</w> 2135
之 角</w> 2135
额 @@</w> 2135
存 储</w> 2134
CRP .1</w> 2134
R E@@</w> 2133
毛 利 2133
D E@@</w> 2133
公 法</w> 2133
29 1</w> 2133
开 来</w> 2132
S al@@</w> 2132
十 二 2132
移 民法</w> 2132
专 注</w> 2132
第十 六条</w> 2132
事务 部长</w> 2132
格陵 兰</w> 2132
失 效</w> 2131
铁 @@</w> 2129
各 段</w> 2128
新 近</w> 2128
再 次 2128
例 行</w> 2127
方 法学</w> 2126
房 地产</w> 2126
加勒比 海</w> 2126
提 问</w> 2124
毁 林</w> 2124
最 具</w> 2124
群 众</w> 2124
根本 性</w> 2124
环 卫</w> 2123
客 观 2122
建 成</w> 2121
线 路</w> 2120
2 6@@</w> 2120
互 动 2120
居 @@</w> 2120
和平 共处</w> 2120
少年 犯</w> 2120
科 目</w> 2119
税 率</w> 2119
型 企业</w> 2118
资 讯</w> 2118
叛 乱 2118
非 营利</w> 2117
高 频</w> 2116
u st@@</w> 2116
上 校</w> 2116
固定 翼</w> 2116
海 湾 2115
结 清</w> 2115
处 处长</w> 2115
那 个</w> 2114
九 条</w> 2114
国务 院</w> 2114
明 文 2113
禁 @@</w> 2113
确 @@</w> 2113
上 将</w> 2113
发布 会</w> 2113
法 委员会</w> 2112
滥 伤</w> 2112
联合国 国际贸易 2111
适用 法律</w> 2111
联合国国际贸易 法委员会</w> 2111
谢 @@</w> 2110
虚 假</w> 2110
L. 4</w> 2110
开 曼 2109
至 @@</w> 2109
废 水</w> 2109
第二 @@</w> 2109
十分 重视</w> 2109
开曼 群岛</w> 2109
证 明 2108
民主 联盟</w> 2107
生产 国</w> 2107
全面 解决</w> 2107
周 边</w> 2106
籍 法</w> 2105
进 攻</w> 2104
国 籍法</w> 2104
思 维</w> 2104
视 察 2104
科学 界</w> 2104
全 职</w> 2103
参 谋 2103
延 @@</w> 2103
篇 幅</w> 2103
动 植物</w> 2102
马 里 2102
热 烈 2101
最 少</w> 2100
预 备</w> 2100
耗 氧</w> 2100
印度 政府</w> 2100
就 @@</w> 2098
g o</w> 2096
主 旨</w> 2096
互 @@</w> 2096
社 交</w> 2096
观察 站</w> 2096
人 工</w> 2095
C on 2095
该 局</w> 2095
感染 率</w> 2095
探 访</w> 2094
英 @@</w> 2094
河 @@</w> 2094
两 用</w> 2093
俄 语</w> 2093
改 建</w> 2093
非洲 之角</w> 2092
走 @@</w> 2091
快 @@</w> 2091
顺 利 2090
凯 科</w> 2090
拟 设</w> 2090
燃 烧</w> 2089
记 忆</w> 2089
非 裔</w> 2088
海 平面</w> 2088
校 @@</w> 2088
地理 位置</w> 2088
行为 准则</w> 2088
求 助</w> 2086
药 @@</w> 2086
减 @@</w> 2086
周转 基金</w> 2086
S ch@@</w> 2085
受 惠</w> 2085
不 具</w> 2084
人 人 2083
揭 露</w> 2083
人人 平等</w> 2083
共 用</w> 2082
独 @@</w> 2082
政 变</w> 2082
工 商</w> 2082
旱 灾</w> 2082
信 用</w> 2081
2 4@@</w> 2081
塔 尔</w> 2081
争 论</w> 2081
主持 会议</w> 2081
提 条件</w> 2080
基 薪</w> 2079
2 5.@@</w> 2079
催 化 2079
坚 定 2079
系统 对</w> 2078
人力 资本</w> 2077
参 @@</w> 2076
显 @@</w> 2076
公 用 2076
惩 教</w> 2076
环境 部</w> 2076
高 峰</w> 2075
马 尔</w> 2075
S T@@</w> 2075
选 区</w> 2075
私 立</w> 2075
每 名</w> 2075
倡 导 2074
对 话 2073
就 读</w> 2073
进 修</w> 2071
所 犯</w> 2071
侨 民</w> 2071
前 提条件</w> 2070
P L 2070
P r@@</w> 2070
排 定</w> 2070
肺 结核</w> 2070
余 力</w> 2070
运 往</w> 2069
两 届</w> 2069
虫 剂</w> 2069
核 燃料</w> 2069
河 流</w> 2069
自由 贸易</w> 2069
数 百 2068
5 20</w> 2068
A g@@</w> 2067
额 度</w> 2067
6 .3</w> 2067
无 法 2066
可 比</w> 2066
管理 者</w> 2065
29 8</w> 2065
个人 身份</w> 2065
过 高</w> 2064
安全 区</w> 2064
政治 处</w> 2064
N A</w> 2063
约 组织</w> 2062
当 年</w> 2062
评 审</w> 2062
很 @@</w> 2062
性 侵犯</w> 2061
借 此</w> 2061
部 厅</w> 2060
哈萨 克斯坦共和国</w> 2060
新 建</w> 2059
列 示</w> 2059
注 明</w> 2059
Add .5</w> 2059
法院 院长</w> 2059
盗 窃</w> 2058
母 乳 2058
宇 宙</w> 2058
母乳 喂养</w> 2058
倒 退</w> 2056
应 邀</w> 2055
本 章</w> 2055
刑 院</w> 2055
罚 金</w> 2055
A 0@@</w> 2054
中 小学</w> 2054
积 @@</w> 2054
UN A0@@</w> 2054
未 曾</w> 2053
陆 军</w> 2053
第三十 七届</w> 2053
A m 2052
性 关系</w> 2052
所 有者</w> 2052
30 3</w> 2052
用 性</w> 2051
整 编</w> 2051
矿 产</w> 2050
高 出</w> 2049
着 力</w> 2049
氛 围</w> 2049
检察 机关</w> 2049
不 遗 2047
反 驳</w> 2047
4 25</w> 2047
保护 主义</w> 2047
网络 @@</w> 2047
不遗 余力</w> 2047
压 制</w> 2046
藏 @@</w> 2045
2 3%</w> 2044
恪 守</w> 2044
基 茨</w> 2043
圣 基茨</w> 2043
S am@@</w> 2043
民 选</w> 2043
短 期内</w> 2043
财政 状况</w> 2043
广泛 传播</w> 2043
初 中</w> 2042
经 管</w> 2042
收 获</w> 2042
印 制</w> 2041
购买 力</w> 2041
事 关</w> 2040
何 处</w> 2040
受 灾</w> 2040
双 语</w> 2040
有所 提高</w> 2040
联络 官</w> 2040
定 期 2039
l i</w> 2039
持 @@</w> 2039
克 群岛</w> 2038
库 克群岛</w> 2037
便 是</w> 2037
选举 权</w> 2037
商 人</w> 2036
言 @@</w> 2034
职 @@</w> 2034
若 @@</w> 2034
情报 局</w> 2032
新 德里</w> 2031
下 称</w> 2031
务 必</w> 2031
抽 样</w> 2031
国防 部长</w> 2031
学前 教育</w> 2031
达 格</w> 2030
更 生</w> 2030
说 来</w> 2030
走 访</w> 2030
公共 利益</w> 2030
全民 教育</w> 2030
开展 调查</w> 2030
立 足 2029
尼 维斯</w> 2028
不 带</w> 2028
拨 付</w> 2028
一 审</w> 2027
下 跌</w> 2027
来 信</w> 2027
CN .7</w> 2027
停 战</w> 2026
社 @@</w> 2026
工业 部门</w> 2026
3 11</w> 2025
五 年期</w> 2025
引 @@</w> 2025
他 于</w> 2024
率 领</w> 2024
拦 截</w> 2024
这 名</w> 2023
S a@@</w> 2022
新 任</w> 2022
成 见</w> 2021
步 枪</w> 2020
经营 者</w> 2020
麦 @@</w> 2019
践 踏</w> 2019
翻 译成</w> 2019
双边 合作</w> 2019
杀 虫剂</w> 2017
声 誉</w> 2017
社会 工作</w> 2016
就 任</w> 2014
打 击 2014
差 别 2013
29 4</w> 2013
民 盟</w> 2011
重 型</w> 2011
后 期</w> 2011
2 .7</w> 2010
连 任</w> 2010
时 才</w> 2010
少 @@</w> 2010
受 控</w> 2010
俄 文</w> 2009
助 执行</w> 2009
协 助执行</w> 2009
生产 商</w> 2009
领 养</w> 2008
汇 总表</w> 2008
失 衡</w> 2008
轮 @@</w> 2008
中 说</w> 2007
斯 卡</w> 2007
更 替</w> 2007
种族 隔离</w> 2007
基本 要素</w> 2007
陆 @@</w> 2006
30 1</w> 2006
E 4</w> 2005
告 @@</w> 2005
总 署</w> 2005
公 立学校</w> 2005
退 回</w> 2005
减 去</w> 2005
有 素</w> 2004
称 作</w> 2004
示威 者</w> 2004
集体 行动</w> 2004
高 地</w> 2003
2 7.@@</w> 2003
19 64</w> 2003
ov a</w> 2003
苏 格兰</w> 2001
杀 死</w> 2001
5 0@@</w> 2001
印 机</w> 2000
机 能</w> 2000
新闻 记者</w> 2000
毫 克</w> 1999
赫 勒 1998
5 .4</w> 1998
往 年</w> 1998
令人 震惊</w> 1998
古巴 政府</w> 1998
背 @@</w> 1997
教 养</w> 1996
e w@@</w> 1996
其 实</w> 1996
a q@@</w> 1996
硫 丹</w> 1996
民 法典</w> 1995
根 @@</w> 1995
榴 弹</w> 1995
正当 程序</w> 1994
墨西哥 政府</w> 1994
手 工</w> 1993
传 授</w> 1993
硬 件</w> 1993
29 7</w> 1993
作 好</w> 1991
周 边 1991
总 支出</w> 1991
门 户 1991
吸 烟</w> 1991
不 想</w> 1990
间 隔</w> 1990
含 @@</w> 1990
法律 法规</w> 1990
al a</w> 1990
2 1%</w> 1989
检 疫</w> 1989
乔 @@</w> 1989
修订 案</w> 1988
搁 置</w> 1987
印 @@</w> 1986
密 性</w> 1986
30 2</w> 1986
倡导 者</w> 1986
密 集 1985
第一 轮</w> 1985
间 断</w> 1984
集 群</w> 1984
入 伍</w> 1984
何 塞</w> 1984
对 受</w> 1982
有 无</w> 1982
雷 达</w> 1982
转 给</w> 1982
6 .4</w> 1982
价格 上涨</w> 1982
上 海</w> 1981
假 日</w> 1981
绝 不能</w> 1980
低 估</w> 1979
邮 政</w> 1979
另 @@</w> 1978
劳 力</w> 1978
初 @@</w> 1977
自 足</w> 1976
代 人</w> 1976
意 @@</w> 1976
会 面</w> 1976
宽 带</w> 1976
er n 1975
比 之下</w> 1974
实 地 1974
相 比之下</w> 1974
瑞 典 1973
增 大</w> 1973
拍 卖</w> 1972
相互 合作</w> 1972
am a</w> 1972
圆 桌</w> 1970
29 3</w> 1970
还 @@</w> 1969
编 码</w> 1969
圣 保罗</w> 1968
冲 区</w> 1968
散 @@</w> 1968
缓 冲区</w> 1968
20 30</w> 1968
航空 安全</w> 1968
公 寓</w> 1967
激 增</w> 1967
载 明</w> 1967
进口 国</w> 1967
a z 1966
E n 1966
胜 利</w> 1966
很 长</w> 1966
通 盘</w> 1963
比 重</w> 1962
判 @@</w> 1962
氟 碳</w> 1962
最 小</w> 1962
卡 特尔</w> 1961
陪 审 1961
委 @@</w> 1960
文 凭</w> 1960
第十 一次</w> 1960
CN. 15</w> 1960
表 达 1959
政 务</w> 1959
七 年</w> 1959
出口 商</w> 1959
训练 有素</w> 1959
团结 一致</w> 1959
诉 求</w> 1958
长 达</w> 1958
克 什 1957
公 式</w> 1957
克什 米尔</w> 1957
有 序</w> 1956
微 @@</w> 1956
d er</w> 1955
对 非</w> 1955
公 益</w> 1955
想 象</w> 1955
广泛 支持</w> 1955
不 能 1954
加 大 1954
引 人 1954
报告 期</w> 1954
案文 见</w> 1954
加大 力度</w> 1954
舞 台</w> 1953
er s</w> 1952
充 作</w> 1951
第二 轮</w> 1951
自 力 1950
自力 更生</w> 1950
安 曼</w> 1949
亚洲 开发银行</w> 1949
E .@@</w> 1948
洛 斯</w> 1948
核 扩散</w> 1948
o j@@</w> 1947
强 奸 1947
相 等</w> 1947
马尔维纳 斯群岛</w> 1947
追究 责任</w> 1947
沿 岸</w> 1946
起诉 书</w> 1946
4 30</w> 1945
所 设</w> 1945
F PA</w> 1944
东 道</w> 1944
C T 1943
抵 御</w> 1943
民主 政体</w> 1943
不断 扩大</w> 1943
中东 地区</w> 1942
特 克斯</w> 1941
利 息 1941
答 案</w> 1941
3 12</w> 1941
口 译员</w> 1940
火 灾</w> 1940
免 @@</w> 1940
不 移</w> 1939
ec t 1939
多 余</w> 1938
异 常</w> 1938
队 部</w> 1938
任何 一方</w> 1938
方 可</w> 1937
图 表</w> 1937
19 %</w> 1937
定 量</w> 1936
评 定</w> 1936
环 @@</w> 1936
境 地</w> 1936
创 办</w> 1936
年龄 段</w> 1936
At las</w> 1936
产 地</w> 1935
最 有</w> 1935
野 蛮</w> 1935
一夫 多 1935
部 将</w> 1934
a h 1934
军 营</w> 1934
多米尼 加</w> 1934
分 从</w> 1933
大 胆</w> 1933
爱 @@</w> 1933
4 60</w> 1933
特别 行政区</w> 1933
亚 非</w> 1932
纪 录</w> 1932
优 点</w> 1932
I S</w> 1932
滴 涕</w> 1932
滴 滴涕</w> 1932
ic h 1932
大大 增加</w> 1932
多 氯 1931
细 菌</w> 1931
多氯 联苯</w> 1931
4 40</w> 1930
本 协定</w> 1929
简 称</w> 1929
富 裕</w> 1929
接 收 1929
2 7%</w> 1927
误 @@</w> 1927
海洋 学</w> 1926
in d@@</w> 1926
一 律</w> 1925
悬 挂</w> 1925
多 数 1924
G C</w> 1924
电 邮</w> 1924
弹 @@</w> 1924
不 力</w> 1923
限 性</w> 1923
偿 债</w> 1923
可信 度</w> 1923
市政 当局</w> 1923
参 谋</w> 1922
慢 性</w> 1922
后 备</w> 1922
28 %</w> 1922
民事 诉讼</w> 1922
流 失</w> 1921
挫 折</w> 1921
CC W</w> 1921
线 @@</w> 1920
未 清</w> 1920
30 7</w> 1920
保持 联系</w> 1920
有利 条件</w> 1920
克 减</w> 1919
N P 1919
视察 员</w> 1919
论 @@</w> 1918
极 度</w> 1918
区 别 1918
威尔 士</w> 1918
举 例 1917
现 行 1917
安 非 1916
赚 取</w> 1916
服 役</w> 1916
新生 力量</w> 1916
班 吉</w> 1915
谈 谈</w> 1915
这 点</w> 1914
音 乐</w> 1914
多米尼 克</w> 1914
埃塞俄 比 1913
R o 1912
局 限性</w> 1912
出 具</w> 1911
初 稿</w> 1910
19 46</w> 1910
an n@@</w> 1910
人 向</w> 1908
O C</w> 1908
神 @@</w> 1908
刚果 共和国</w> 1908
自治 区</w> 1908
庭 审</w> 1907
来 讲</w> 1906
为 准</w> 1905
P ro 1905
讯 问</w> 1905
工作 岗位</w> 1905
维持 费</w> 1905
农 户</w> 1904
成 本 1903
他 明</w> 1903
安非 他明</w> 1903
旅 客</w> 1902
笼 统</w> 1902
金融 资产</w> 1902
非 正常</w> 1901
创 意</w> 1901
A y@@</w> 1900
E R@@</w> 1900
汉 @@</w> 1900
某 @@</w> 1900
8 50</w> 1899
第三十 六届</w> 1899
不 容</w> 1898
一 艘</w> 1898
视 频 1898
上 游</w> 1898
公 路 1898
友 好 1898
严重 后果</w> 1898
雅 @@</w> 1897
7 .1</w> 1897
考 @@</w> 1897
德 尔</w> 1896
项 收入</w> 1896
违 规</w> 1896
杂 项收入</w> 1896
p h@@</w> 1895
落 @@</w> 1895
在此 之前</w> 1895
印度尼西 亚政府</w> 1895
基 加利</w> 1894
调 入</w> 1894
获 得成功</w> 1894
降 到</w> 1894
ay a</w> 1894
中 级</w> 1892
a da</w> 1892
形 资产</w> 1892
3 14</w> 1891
返 还</w> 1891
受害 国</w> 1891
情 景</w> 1890
上 网</w> 1889
牧 业</w> 1889
葡萄牙 语</w> 1889
投标 书</w> 1889
心 勃勃</w> 1888
雄 心勃勃</w> 1888
结果 显示</w> 1888
关 @@</w> 1887
考 验</w> 1887
污 水</w> 1887
Q u@@</w> 1887
及 第</w> 1886
. ...</w> 1886
卜 拉 1886
提供 商</w> 1886
损 害 1885
5 5%</w> 1885
送 往</w> 1885
at a</w> 1885
滥用 权力</w> 1885
损害 赔偿</w> 1885
无 偿</w> 1884
同 步</w> 1884
2 4%</w> 1884
7 .2</w> 1884
二 十年</w> 1882
i b 1882
默 @@</w> 1882
L. 7</w> 1882
第二十 八届</w> 1882
合 成</w> 1881
外 包</w> 1881
9 8%</w> 1881
感 @@</w> 1881
余 @@</w> 1881
智 慧</w> 1881
第五 号</w> 1881
任何 理由</w> 1881
与 否</w> 1880
税 款</w> 1880
一 处</w> 1878
查 出</w> 1878
29 .@@</w> 1878
知 名</w> 1877
编 制 1877
19 62</w> 1877
19 54</w> 1877
贫困 家庭</w> 1877
部 在</w> 1876
配 @@</w> 1876
区别 对待</w> 1876
行 使 1875
百 姓</w> 1875
居 留 1875
次 要</w> 1875
登 @@</w> 1874
皮 书</w> 1873
生 于</w> 1872
订 于</w> 1872
仅 @@</w> 1872
称 之为</w> 1872
照 管</w> 1871
石 @@</w> 1871
es s@@</w> 1871
千 名</w> 1870
养 @@</w> 1870
种 植 1870
轮 换</w> 1870
门户 网站</w> 1870
库 拉</w> 1869
咖 啡</w> 1869
接 下来</w> 1869
贸易 中心</w> 1869
al i</w> 1869
航天 器</w> 1869
特 等</w> 1868
众 @@</w> 1868
互 惠</w> 1868
近 地</w> 1868
佣 工</w> 1868
is h@@</w> 1868
开幕 式</w> 1867
尔 特</w> 1866
国 立</w> 1866
当 地 1865
病 假</w> 1865
行政 法院</w> 1865
可 可</w> 1864
之 时</w> 1864
通 往</w> 1864
5 60</w> 1864
指 望</w> 1864
五 十周年</w> 1864
u d</w> 1863
学 龄 1863
早 @@</w> 1863
时 向</w> 1862
元 素</w> 1862
17 18</w> 1862
福利 金</w> 1862
离 境</w> 1861
究 竟</w> 1861
录 音</w> 1861
烟 @@</w> 1861
扰 乱</w> 1861
空间 数据</w> 1861
身份 证件</w> 1861
士 @@</w> 1860
行政 拘留</w> 1860
一 时期</w> 1859
出 差</w> 1859
M E@@</w> 1859
反对 票</w> 1859
2 6%</w> 1858
外 阴</w> 1858
附 @@</w> 1858
说 @@</w> 1858
匹 配</w> 1858
冷 @@</w> 1858
花 @@</w> 1857
信 服</w> 1857
受 欢迎</w> 1857
压 @@</w> 1856
改 善 1856
继承 权</w> 1856
不 致</w> 1855
内 斯</w> 1855
联系 国</w> 1855
给 出</w> 1854
丁 @@</w> 1854
L. 6</w> 1854
人 以</w> 1853
机 动</w> 1852
强 度</w> 1852
每 项</w> 1852
差别 待遇</w> 1852
恶 @@</w> 1851
散 布</w> 1851
文化 部</w> 1851
希 亚</w> 1850
三 份</w> 1850
孕 产</w> 1850
投票 权</w> 1850
S u@@</w> 1849
混 @@</w> 1849
票 据</w> 1849
暗 示</w> 1849
第三十 二届</w> 1849
以 致</w> 1848
四 分 1848
紧迫 性</w> 1848
可 为</w> 1847
么 样</w> 1847
恢复 正常</w> 1847
S A</w> 1846
L A@@</w> 1846
损 于</w> 1846
边 远地区</w> 1846
觉 得</w> 1846
循 证</w> 1846
L. 8</w> 1846
30 6</w> 1846
ou n@@</w> 1846
提 的是</w> 1845
稍 后</w> 1845
呈 现</w> 1845
船 @@</w> 1845
值得一 提的是</w> 1845
一 度</w> 1844
C E@@</w> 1844
改 叙</w> 1843
省 长</w> 1843
叛乱 分子</w> 1843
得 性</w> 1842
L e@@</w> 1842
澳 门 1842
外 流</w> 1842
陈 旧</w> 1842
森 林 1842
委 任</w> 1841
严 @@</w> 1841
CRP .@@</w> 1841
邦 特</w> 1840
本 款</w> 1839
产 前</w> 1839
绘 制</w> 1839
公 允</w> 1839
神 圣</w> 1839
感 激</w> 1839
读 者</w> 1839
归 于</w> 1838
惯 常</w> 1838
军事 装备</w> 1838
表示 祝贺</w> 1838
恢复 性</w> 1838
在 上文</w> 1837
核 动力</w> 1837
谨 此</w> 1837
盘 存</w> 1837
严重 破坏</w> 1837
坚定 不移</w> 1837
黑 海</w> 1836
推 移</w> 1835
假 如</w> 1835
海洋 资源</w> 1835
在 一起</w> 1834
各 司</w> 1834
原 本</w> 1834
认 知</w> 1834
两 起</w> 1833
度 @@</w> 1833
战 俘</w> 1833
ic h</w> 1833
受 审</w> 1832
周 岁</w> 1831
勇 气</w> 1831
ou r@@</w> 1831
土地 权</w> 1831
审 @@</w> 1830
提 具</w> 1830
使用 权</w> 1830
预 料</w> 1829
载 述</w> 1829
暂 @@</w> 1829
巴 拉</w> 1828
枪 @@</w> 1828
记 @@</w> 1828
产 士</w> 1827
助 产士</w> 1827
第三十 四届</w> 1827
蒙 罗 1826
建设 项目</w> 1826
联邦 共和国</w> 1826
蒙罗 维亚</w> 1826
酋 长</w> 1825
兵 库</w> 1823
o t 1823
东 北部</w> 1823
战斗 员</w> 1823
4 01</w> 1821
付 @@</w> 1820
划 @@</w> 1820
邮 @@</w> 1820
30 9</w> 1820
伊 尔</w> 1818
一 切 1818
侦 察</w> 1818
股 票</w> 1817
中 文</w> 1817
互 利</w> 1817
un g</w> 1817
富有 成效</w> 1816
日 制</w> 1815
传 唤</w> 1815
U N</w> 1814
背 后</w> 1814
以 内</w> 1813
辖 区</w> 1813
高 水平</w> 1812
国 主义</w> 1812
侵 略 1812
g u@@</w> 1811
马 尼 1811
总 裁</w> 1811
场 址</w> 1811
公用 事业</w> 1811
润 滑 1810
权 威 1809
现 存</w> 1809
付 费</w> 1808
一 群</w> 1808
从 根本 1808
守 @@</w> 1808
系统 @@</w> 1808
从根本 上</w> 1808
劳动 部</w> 1807
着重 强调</w> 1807
信 联盟</w> 1806
坦 @@</w> 1806
研 @@</w> 1806
国际电 信联盟</w> 1806
举 例</w> 1805
克 朗</w> 1805
M u@@</w> 1805
er g@@</w> 1805
记录 在案</w> 1805
领 水</w> 1804
座 谈会</w> 1804
逗 留</w> 1804
防 备</w> 1803
隶 属</w> 1803
苏丹 共和国</w> 1803
行为 能力</w> 1803
范 @@</w> 1802
益 @@</w> 1802
政治 @@</w> 1802
安 人</w> 1801
参考 资料</w> 1801
印第 安人</w> 1801
议 事</w> 1800
构 架</w> 1800
日 刊</w> 1799
模 糊</w> 1799
太 阳</w> 1798
个 人@@</w> 1798
弗 朗 1798
天 然</w> 1797
4 10</w> 1797
一 至</w> 1796
国 旗</w> 1796
营 @@</w> 1796
信息 安全</w> 1796
阿根廷 共和国</w> 1796
发 点</w> 1795
护 送</w> 1795
出 发点</w> 1795
谢 赫</w> 1795
社会 活动</w> 1795
萨 拉</w> 1794
驻 @@</w> 1794
贯彻 落实</w> 1794
f f@@</w> 1793
M at@@</w> 1793
公 国</w> 1793
尤 为重要</w> 1793
D C</w> 1792
现实 情况</w> 1792
拉 政府</w> 1791
范 本</w> 1791
拖 @@</w> 1791
毗 邻</w> 1791
发 援 1790
A O</w> 1789
F AO</w> 1789
两 大</w> 1789
课 题</w> 1789
性 病</w> 1788
嫌 犯</w> 1788
原 文</w> 1788
纪 要</w> 1788
D D</w> 1788
立足 于</w> 1788
频 道</w> 1787
充分 就业</w> 1787
组织 者</w> 1787
伯 特</w> 1786
递 解</w> 1786
s a</w> 1785
大 为</w> 1785
哥伦比 亚政府</w> 1785
迫击 炮弹</w> 1785
水 文</w> 1784
卫 @@</w> 1784
未 作</w> 1784
营 运</w> 1784
欧洲 议会</w> 1784
格 尔</w> 1783
人 工 1782
公共 信息</w> 1782
CO M 1782
人工 流产</w> 1782
东 北</w> 1781
4 80</w> 1780
er o</w> 1780
城市 规划</w> 1780
不 容 1779
宣 扬</w> 1779
蚊 帐</w> 1779
技术 开发</w> 1779
土地 改革</w> 1779
看 @@</w> 1778
日 增</w> 1778
舞 弊</w> 1778
城市 论坛</w> 1778
瑞士 法郎</w> 1778
凡 是</w> 1777
M an@@</w> 1777
率 先</w> 1777
科学 院</w> 1777
毛利 人</w> 1777
一 职</w> 1776
此 举</w> 1776
性 能</w> 1776
附 文</w> 1775
索 引</w> 1775
怀 @@</w> 1775
L. 5</w> 1774
证据 规则</w> 1774
尼 奥</w> 1773
数据 交换</w> 1773
第三十 三届</w> 1773
密集 型</w> 1773
下 载</w> 1772
3 87</w> 1772
J oh 1772
违 规 1772
自由 @@</w> 1772
国际 协会</w> 1771
an o</w> 1771
利息 收入</w> 1771
棉 花</w> 1770
立陶 宛 1770
机 票</w> 1769
态 势</w> 1769
倾 倒</w> 1768
斯洛伐 克共和国</w> 1768
3 18</w> 1766
中 亚 1765
再 生</w> 1765
同 居</w> 1764
3 90</w> 1764
季 节</w> 1764
户 @@</w> 1764
多 国 1763
否 是</w> 1763
亚美 尼亚共和国</w> 1763
商业 @@</w> 1763
多国 部队</w> 1763
是 否是</w> 1762
听 证</w> 1762
30 8</w> 1762
不 太</w> 1761
六 名</w> 1761
跨 @@</w> 1761
内政 部长</w> 1761
委 派</w> 1760
性 循环</w> 1759
细 @@</w> 1759
性 化</w> 1758
决 不能</w> 1758
教育 工作者</w> 1758
第三十 五届</w> 1758
所 欠</w> 1757
隆 @@</w> 1757
不 善</w> 1756
复 中心</w> 1756
康 复中心</w> 1756
讲 @@</w> 1756
借 以</w> 1756
条 对</w> 1756
而 来</w> 1755
外 长</w> 1755
定 位 1754
采 购 1754
耕 作</w> 1754
放射 性 1754
并不 一定</w> 1754
缺 失</w> 1753
然 @@</w> 1753
北 美洲</w> 1753
主导 地位</w> 1753
举 证 1752
水 事</w> 1752
清 偿</w> 1752
区域 开发</w> 1752
AC. 26</w> 1752
举证 责任</w> 1752
高 不下</w> 1751
居 高不下</w> 1751
长 度</w> 1751
封 @@</w> 1751
19 65</w> 1751
和 善</w> 1750
等 同于</w> 1750
A s@@</w> 1749
分 销</w> 1749
3 25</w> 1749
牧 民</w> 1749
研究 院</w> 1749
要 件</w> 1748
S ar@@</w> 1748
战斗 机</w> 1748
绝 @@</w> 1747
C om 1747
税 @@</w> 1747
迟 于</w> 1747
医疗 机构</w> 1747
普通 法</w> 1747
而 作</w> 1746
广 @@</w> 1746
迟 交</w> 1746
公民 权</w> 1746
i z</w> 1745
尽 @@</w> 1745
早 已</w> 1745
去 世</w> 1744
工商 界</w> 1744
高加 索</w> 1744
同 仁</w> 1743
R I</w> 1743
第二 句</w> 1743
克罗地 亚共和国</w> 1743
既 往</w> 1742
关税 壁垒</w> 1742
征 @@</w> 1741
越 过</w> 1741
官 方 1741
编 撰</w> 1741
信息 网</w> 1741
情报 机构</w> 1741
退休 年龄</w> 1741
成 功 1740
正 规 1740
美洲 开发银行</w> 1740
可 观</w> 1739
安 大 1739
赫勒 拿</w> 1739
当 量</w> 1738
旧 @@</w> 1738
项 中</w> 1738
人 教育</w> 1737
成 人教育</w> 1737
转 让 1737
投 了</w> 1737
有 时候</w> 1736
S G</w> 1735
基 文</w> 1734
潘 基文</w> 1734
棘 手</w> 1734
第五 节</w> 1734
参 政</w> 1733
廉 价</w> 1733
2. 8</w> 1733
斯 基</w> 1732
L. 9</w> 1732
17 37</w> 1732
农 田</w> 1731
参与 率</w> 1731
同 侪</w> 1730
私营 企业</w> 1730
教 室</w> 1729
最 易</w> 1729
局 限</w> 1729
o t</w> 1728
空 袭</w> 1728
出 国</w> 1728
热 情</w> 1728
轻 @@</w> 1728
体 上</w> 1728
3 6%</w> 1728
触 犯</w> 1728
业务 流程</w> 1728
艺术 家</w> 1728
制 改革</w> 1727
体 制改革</w> 1727
各 区</w> 1727
纺 织 1726
放 宽</w> 1726
咎 于</w> 1726
久 @@</w> 1726
打 开</w> 1726
引 爆</w> 1726
执法 机关</w> 1726
内 所</w> 1725
年 限</w> 1725
世 @@</w> 1725
3 2%</w> 1725
3 8%</w> 1725
检查 员</w> 1725
归 咎于</w> 1724
童 婚</w> 1723
含 糊</w> 1722
康 @@</w> 1721
3 13</w> 1721
5 30</w> 1721
今天 上午</w> 1721
其 间</w> 1720
下 设</w> 1720
V ol</w> 1720
打击 犯罪</w> 1720
子 弹</w> 1719
适 于</w> 1719
礼 拜</w> 1719
农业 部</w> 1719
0. 5%</w> 1719
国务 秘书</w> 1719
轮 流</w> 1717
系 @@</w> 1717
紧急 措施</w> 1717
内 有</w> 1716
本 文</w> 1716
连 带</w> 1716
托 运人</w> 1716
火 箭 1716
16 12</w> 1716
股 份</w> 1715
el l</w> 1715
定 额</w> 1714
分 会</w> 1713
有 赖于</w> 1712
小 农</w> 1712
弃 物</w> 1712
第三十 届</w> 1712
外 侨</w> 1711
长 久</w> 1711
什 么样</w> 1711
积极 行动</w> 1711
此 处</w> 1710
捕 获</w> 1710
敦 请</w> 1709
6 .5</w> 1709
始 终 1709
形 @@</w> 1709
20 50</w> 1709
一 读</w> 1708
一 封</w> 1708
下 滑</w> 1708
欣 慰</w> 1708
开 庭</w> 1707
管 控</w> 1707
佩 斯</w> 1707
NP T</w> 1707
所 能</w> 1706
该 届</w> 1706
第二 年</w> 1706
轻 型</w> 1705
4 2%</w> 1705
9 50</w> 1705
突 破</w> 1705
4 70</w> 1704
交通 管制</w> 1704
需 求 1703
号 召</w> 1703
安全 性</w> 1703
自愿 性</w> 1703
明 显 1702
政 令</w> 1702
上 岗</w> 1702
故 @@</w> 1702
废 弃物</w> 1702
挽 救</w> 1702
探 视</w> 1701
未 付</w> 1701
在 下文</w> 1700
相 连</w> 1700
清 算</w> 1700
护 @@</w> 1699
_ _ 1699
典 范</w> 1699
警 报</w> 1699
非洲 地区</w> 1699
自 给 1697
T r@@</w> 1697
谈 及</w> 1697
另 行</w> 1696
视频 会议</w> 1696
诚 地</w> 1695
3 15</w> 1695
3 27</w> 1695
专 属 1695
交 道</w> 1695
焚 烧</w> 1695
饥 荒</w> 1694
勤 @@</w> 1694
哨 所</w> 1694
at t@@</w> 1694
尚 @@</w> 1693
平 道路</w> 1693
铺 平道路</w> 1693
L. 10</w> 1693
行政 @@</w> 1693
in t</w> 1693
普及 教育</w> 1693
罗 的 1692
同 一天</w> 1692
波 罗的 1692
共 产 1692
访 者</w> 1692
国 为</w> 1691
回 避</w> 1691
病 学</w> 1691
寻 常</w> 1691
200 @@</w> 1691
3 67</w> 1690
去 @@</w> 1690
市 @@</w> 1690
主席 国</w> 1690
管辖 区</w> 1690
危险 性</w> 1690
t on</w> 1689
进 驻</w> 1689
5 .5</w> 1689
脑 @@</w> 1689
电子 @@</w> 1689
as s 1689
马 科</w> 1688
怎 么</w> 1688
生 理</w> 1687
解 体</w> 1687
en n@@</w> 1687
民族 @@</w> 1687
保险 公司</w> 1687
之 用</w> 1686
持 人质</w> 1686
架 飞机</w> 1686
劫 持人质</w> 1686
真 诚地</w> 1684
3 26</w> 1684
甲 @@</w> 1684
电视 节目</w> 1684
参谋 长</w> 1684
对话 者</w> 1684
一 个 1682
航 @@</w> 1682
友 谊</w> 1682
目 @@</w> 1681
1 .6</w> 1681
置 @@</w> 1681
科学 @@</w> 1681
am b@@</w> 1681
un d@@</w> 1681
多 么</w> 1680
本 期</w> 1680
全 日制</w> 1680
酗 酒</w> 1680
单 据</w> 1680
第一 句</w> 1680
中 长期</w> 1679
贬 值</w> 1679
紧 @@</w> 1678
C R@@</w> 1678
升 温</w> 1678
国 土</w> 1677
彼 此 1677
欠 缺</w> 1677
附加 值</w> 1677
成 套</w> 1676
e ch@@</w> 1676
5 40</w> 1676
武器 弹药</w> 1676
期 刊</w> 1675
e f@@</w> 1675
八 次</w> 1675
递 送</w> 1675
政治 局势</w> 1675
CN .3</w> 1675
A k@@</w> 1674
聚 @@</w> 1674
送 达</w> 1674
级 @@</w> 1673
本 专题</w> 1673
最 迟</w> 1673
第十 三条</w> 1673
分配 资源</w> 1673
转让 技术</w> 1673
G r@@</w> 1672
稳 固</w> 1672
巴西 政府</w> 1672
续 @@</w> 1671
祖 @@</w> 1671
3 7%</w> 1671
沦 为</w> 1671
迈 @@</w> 1670
维 埃</w> 1670
I T@@</w> 1670
传 输</w> 1670
感 受</w> 1670
有 损</w> 1669
混 淆</w> 1669
运输 @@</w> 1669
迈 向</w> 1668
审 问</w> 1668
会 后</w> 1668
飞 行 1668
显 得</w> 1668
洗 @@</w> 1668
碳 @@</w> 1668
藐 视</w> 1668
行政 长官</w> 1668
责任 制</w> 1668
过 剩</w> 1667
汗 人</w> 1667
阿富 汗人</w> 1667
凯 恩</w> 1666
被 忽视</w> 1665
M or@@</w> 1665
陆 上</w> 1665
死 者</w> 1665
招 待 1665
研究 成果</w> 1665
友好 关系</w> 1665
章 制度</w> 1664
e z@@</w> 1664
i h@@</w> 1664
发援 会</w> 1664
万 个</w> 1663
规 章制度</w> 1663
海 报</w> 1663
送 给</w> 1663
9 9.@@</w> 1663
工作 @@</w> 1663
服务 @@</w> 1663
全面 落实</w> 1663
开幕 词</w> 1663
院 @@</w> 1662
管理 科</w> 1662
Ahm ed</w> 1662
柬埔寨 政府</w> 1662
变 量</w> 1661
道 义</w> 1661
姓 氏</w> 1661
圆满 成功</w> 1661
定位 系统</w> 1661
加 尼</w> 1660
I n@@</w> 1660
打 交道</w> 1660
亚太 地区</w> 1660
水 灾</w> 1659
民 防</w> 1659
专属 经济区</w> 1659
o k</w> 1658
集 结</w> 1658
健 @@</w> 1658
不 向</w> 1657
爱 国</w> 1657
终 于</w> 1657
毁 灭</w> 1657
别 @@</w> 1657
所 长</w> 1657
尺 度</w> 1657
指 引</w> 1657
s en</w> 1656
大 学生</w> 1656
S E@@</w> 1656
C H@@</w> 1656
难 以@@</w> 1656
村 民</w> 1656
参加 国</w> 1656
立陶宛 共和国</w> 1656
不 间断</w> 1655
拉 克</w> 1655
大 门</w> 1655
修 缮</w> 1655
贫 民</w> 1655
三 人</w> 1655
分 包</w> 1654
供 电</w> 1654
谨 请</w> 1654
司法 官员</w> 1654
新闻 处</w> 1654
犯罪 分子</w> 1654
重 罪</w> 1653
政治 家</w> 1653
战 机</w> 1652
泛 美</w> 1652
领 @@</w> 1651
筹 款</w> 1651
执 政</w> 1650
战 @@</w> 1650
技术 厅</w> 1650
1. 5%</w> 1650
坎 @@</w> 1649
深入 研究</w> 1649
居民 区</w> 1649
挪 威 1648
休 @@</w> 1647
缺 @@</w> 1647
政治 部</w> 1647
大大 减少</w> 1647
土耳其 共和国</w> 1647
加 特</w> 1646
过 失</w> 1646
湿 地</w> 1646
专业 人士</w> 1646
在 发言 1645
吻 合</w> 1645
人身 保护</w> 1645
在发言 中</w> 1645
游 @@</w> 1643
天 数</w> 1643
诉 状</w> 1643
官 @@</w> 1643
令人 @@</w> 1643
博 拉</w> 1642
r ah</w> 1642
全 权 1642
萨 拉姆</w> 1642
上 一年</w> 1642
增 拨</w> 1642
读 @@</w> 1642
尼 诺</w> 1641
科 研</w> 1641
成 品</w> 1641
临 床</w> 1641
略 @@</w> 1641
上 级</w> 1641
协商 会</w> 1641
易 斯</w> 1640
加 达</w> 1640
路 易斯</w> 1640
坎 昆</w> 1640
是 如此</w> 1639
巴 尔</w> 1638
尚 有</w> 1638
小 计</w> 1638
单 边</w> 1638
象 征</w> 1638
齐 兹</w> 1638
归 入</w> 1637
由 该</w> 1637
令人 信服</w> 1637
一 堂</w> 1636
价 @@</w> 1636
3 46</w> 1636
注 目</w> 1636
积极 合作</w> 1636
贯彻 执行</w> 1636
分 权</w> 1635
义 @@</w> 1635
安全 @@</w> 1635
暴力 犯罪</w> 1635
2 5@@</w> 1634
写 入</w> 1634
有 期徒刑</w> 1633
小 儿 1633
分 派</w> 1632
内 陆 1631
O L</w> 1631
7 80</w> 1631
M al@@</w> 1631
伤 @@</w> 1631
小 型企业</w> 1630
边 际</w> 1630
3 23</w> 1630
三 位</w> 1630
完 工</w> 1630
液 体</w> 1630
各种 因素</w> 1630
高 危</w> 1629
梅 托</w> 1629
哺 乳</w> 1629
比 照</w> 1628
求 偿</w> 1628
皮 特</w> 1628
客观 性</w> 1628
报 刊</w> 1627
案 文@@</w> 1627
N A@@</w> 1627
培 育</w> 1627
19 45</w> 1627
en t 1627
调 配</w> 1626
莱 斯</w> 1626
妥 当</w> 1626
陛 下</w> 1626
这 段</w> 1625
占 @@</w> 1625
意 志 1625
讲习 会</w> 1625
与会 代表</w> 1625
明文 规定</w> 1625
比 赛</w> 1624
S PL 1624
监 @@</w> 1624
声 @@</w> 1624
万国 宫</w> 1624
SPL OS</w> 1624
人 为本</w> 1623
有 损于</w> 1623
布 琼 1623
以 人为本</w> 1623
放 松</w> 1623
宣传 材料</w> 1622
通过 培训</w> 1622
布琼 布拉</w> 1622
精 算 1621
卫生 条件</w> 1621
不 如</w> 1620
e an</w> 1620
比 利亚</w> 1620
休 息</w> 1620
见 度</w> 1620
6 60</w> 1620
前 来</w> 1619
套 @@</w> 1619
财务 @@</w> 1619
ham mad</w> 1619
Mu hammad</w> 1619
精算 师</w> 1619
此 项 1618
因 数</w> 1618
4 3%</w> 1618
此项 工作</w> 1618
不 起</w> 1617
太 子 1617
濒 危</w> 1617
第三 @@</w> 1617
金融 交易</w> 1617
教育 @@</w> 1617
ov i</w> 1617
太子 港</w> 1617
信 徒</w> 1616
4 0@@</w> 1616
无 人 1615
无 遗</w> 1615
基 里 1615
业 界</w> 1615
维护 和平</w> 1615
基里 巴斯</w> 1615
F ar@@</w> 1614
日 程 1614
违规 行为</w> 1614
组 长</w> 1613
硕 士</w> 1613
猛 虎</w> 1613
砍 伐</w> 1613
资金 不足</w> 1613
维 拉</w> 1612
轮 值</w> 1612
决 @@</w> 1612
第二十 四条</w> 1612
里 斯 1611
透 过</w> 1611
优 秀</w> 1611
5 10</w> 1611
款 人</w> 1611
毫无 根据</w> 1611
惠 国</w> 1610
帝 力</w> 1610
仇 视</w> 1610
急 性</w> 1609
s p@@</w> 1608
转 送</w> 1608
拆 毁</w> 1608
把 握</w> 1608
内 载</w> 1607
夏 季</w> 1607
医 @@</w> 1606
集 合</w> 1606
求 意见</w> 1606
毛 派</w> 1606
3 19</w> 1606
征 求意见</w> 1606
祖 国</w> 1605
获 @@</w> 1605
10 . 1605
29 %</w> 1605
3 33</w> 1604
受 训</w> 1604
安 东 1603
折 磨</w> 1603
试验 性</w> 1603
R am@@</w> 1602
体 内</w> 1602
3 1%</w> 1602
办 事</w> 1602
缴 费</w> 1602
在 世界 1601
大 体上</w> 1601
上 作</w> 1601
数 月</w> 1601
会议 记录</w> 1601
在世界 上</w> 1601
期 满</w> 1600
涌 入</w> 1600
扮 演</w> 1599
糟 糕</w> 1599
朝 @@</w> 1599
冻 结 1599
下 向</w> 1598
海 湾</w> 1598
拟 于</w> 1598
草 @@</w> 1597
较 少</w> 1597
国民 经济</w> 1597
文 件 1596
多 媒体</w> 1596
居 所</w> 1596
经 合</w> 1596
可 供</w> 1595
转 账</w> 1595
I D@@</w> 1595
第二十 五条</w> 1595
监护 权</w> 1595
英 属 1594
写 @@</w> 1594
3 28</w> 1594
迄今 已</w> 1594
嫌疑 犯</w> 1594
贝 尔</w> 1593
扼 要</w> 1593
二十 周年</w> 1593
边界 地区</w> 1593
英属 维尔京群岛</w> 1593
A t@@</w> 1592
早 就</w> 1592
商 店</w> 1592
还 给</w> 1592
工业 界</w> 1592
尔 科</w> 1591
尽 职</w> 1591
告 诫</w> 1591
3 75</w> 1591
L. 13</w> 1591
r y</w> 1590
B en@@</w> 1590
德 国 1589
不 负 1589
大 院</w> 1589
多数 票</w> 1589
为 时 1588
日 持久</w> 1588
助 者</w> 1588
旷 日持久</w> 1588
房 @@</w> 1588
第三 项</w> 1588
稳 定 1586
摩洛 哥 1586
第八 章</w> 1586
编制 工作</w> 1586
小儿 麻 1586
苏 维埃</w> 1585
中 以</w> 1585
览 会</w> 1585
资 深</w> 1585
劳 资 1585
充分 认识</w> 1585
摩洛哥 王国</w> 1585
样 品</w> 1584
据 @@</w> 1584
即 时</w> 1584
国际 事务</w> 1584
ic e</w> 1584
红 @@</w> 1583
E A</w> 1583
派 @@</w> 1583
植 被</w> 1582
抗 灾</w> 1582
命 @@</w> 1582
I U</w> 1582
J IU</w> 1582
增加 额</w> 1582
自给 自足</w> 1582
最 高级别</w> 1581
L. 15</w> 1581
全体 成员</w> 1581
实施 者</w> 1581
推 动力</w> 1580
厕 所</w> 1580
原 产地</w> 1580
每 位</w> 1580
少数 几个</w> 1580
恫 吓</w> 1578
国 营</w> 1578
伟 大</w> 1578
留 住</w> 1578
顾 客</w> 1578
镇 @@</w> 1578
指挥 部</w> 1578
波罗的 海</w> 1578
信 奉</w> 1577
毛 @@</w> 1577
公 开 1577
四分 之三</w> 1577
尔 尼诺</w> 1576
e x@@</w> 1576
大 幅 1576
旅 @@</w> 1576
名 录</w> 1575
泽 @@</w> 1575
N a 1575
硫 化物</w> 1575
公共 财政</w> 1575
L. 11</w> 1575
at i@@</w> 1575
保障 制度</w> 1575
v a</w> 1574
非 军事化</w> 1573
订 单</w> 1573
E n@@</w> 1572
ou r</w> 1572
德 意志 1571
圣 地</w> 1571
行 证</w> 1570
里 夫</w> 1570
如 能</w> 1570
通 行证</w> 1570
接 入</w> 1570
拟 将</w> 1570
al e</w> 1570
渔 业 1569
厄 尔尼诺</w> 1569
不 前</w> 1568
e x</w> 1568
就 学</w> 1568
负 债 1568
3 21</w> 1568
更 是如此</w> 1568
收 入 1568
详 见</w> 1568
每 季度</w> 1568
债 权</w> 1568
自 助</w> 1567
家庭 事务</w> 1567
多种 形式</w> 1567
赛 因</w> 1566
被 动</w> 1566
原 材料</w> 1566
7 20</w> 1566
月 @@</w> 1566
iy a</w> 1566
春 季</w> 1565
糖 尿 1565
罗 斯</w> 1564
该 省</w> 1564
均 @@</w> 1564
外交 关系</w> 1564
止 @@</w> 1563
3 35</w> 1563
但 应</w> 1563
比 勒 1562
十 七</w> 1562
惊 人</w> 1562
陀 利亚</w> 1562
比勒 陀利亚</w> 1562
产 物</w> 1561
公 诉</w> 1561
查 找</w> 1561
侯 赛因</w> 1561
尔 国</w> 1560
原 油</w> 1560
海 港</w> 1560
哺 乳 1560
高级 法院</w> 1560
卡塔 尔国</w> 1560
认 罪</w> 1559
吉尔吉斯 共和国</w> 1559
不 分 1558
里 斯</w> 1558
3 17</w> 1558
民主 党</w> 1558
系统 化</w> 1558
爆炸 性</w> 1558
P l@@</w> 1557
三 类</w> 1557
市 民</w> 1557
分 遣队</w> 1556
相 处</w> 1556
导 @@</w> 1556
商业 化</w> 1556
重新 安排</w> 1556
认 @@</w> 1555
盛 行</w> 1555
制 宪</w> 1554
所 持</w> 1554
圣 城</w> 1553
最 早</w> 1553
发 症</w> 1552
为 数</w> 1552
收 购</w> 1552
电子 政务</w> 1552
开 创</w> 1551
外 贸</w> 1551
维 权</w> 1551
评 述</w> 1551
女 议员</w> 1551
击 中</w> 1551
夜 间</w> 1551
蔑 视</w> 1551
数 码</w> 1550
彼 得</w> 1550
保护 性</w> 1550
并 发症</w> 1549
4 4%</w> 1549
6 .6</w> 1549
扩 建</w> 1549
战略 武器</w> 1549
u t</w> 1548
圆 满</w> 1548
数以 百 1548
巴尔 干</w> 1548
不 时</w> 1547
影 @@</w> 1547
洄 游</w> 1547
P ar@@</w> 1546
支 撑</w> 1546
颠 覆</w> 1546
3 22</w> 1545
照 射</w> 1545
创 业 1545
巴基 斯坦 1545
难 所</w> 1544
避 难所</w> 1544
瓦 利</w> 1543
资 本 1543
调 研</w> 1543
即 审</w> 1543
监督 制度</w> 1543
3 29</w> 1542
3 .6</w> 1542
交 谈</w> 1542
升 高</w> 1542
第二十 条</w> 1542
婚姻 状况</w> 1542
而 言之</w> 1541
坦 率</w> 1541
令 @@</w> 1541
存 档</w> 1541
警 卫队</w> 1541
固 @@</w> 1541
看 护</w> 1540
水 泥</w> 1540
3 4%</w> 1540
科学 知识</w> 1540
域 网</w> 1539
明 天</w> 1539
麻 疹</w> 1539
网 播</w> 1539
诸 @@</w> 1539
充分 反映</w> 1539
交通 @@</w> 1539
部 级</w> 1538
印 刷 1538
北 亚</w> 1538
车 间</w> 1538
L. 18</w> 1538
社区 服务</w> 1538
4 90</w> 1537
侧 重点</w> 1537
魁 北 1537
降 @@</w> 1537
而 已</w> 1536
雅 加达</w> 1536
爵 士</w> 1536
阿根廷 政府</w> 1536
迫击 炮</w> 1536
糖尿 病</w> 1536
非 关税壁垒</w> 1535
克 隆</w> 1535
胜 任</w> 1535
归 化</w> 1535
传 播 1535
斯 特@@</w> 1534
核 计划</w> 1534
搬 @@</w> 1534
水 电</w> 1533
谋 杀 1533
未 予</w> 1532
转 发</w> 1532
CO 2</w> 1532
八 年</w> 1531
斯 特 1531
机 械 1531
5 7@@</w> 1531
减 除</w> 1531
欧 亚</w> 1529
w a</w> 1529
服务 处</w> 1529
专题 报告</w> 1529
m ed</w> 1528
慰 问</w> 1528
6 40</w> 1528
妻 制</w> 1528
er s@@</w> 1528
辩 方</w> 1527
理 应</w> 1527
L. 14</w> 1527
分配 情况</w> 1527
勒 索</w> 1526
克 里</w> 1526
养 殖</w> 1526
评 @@</w> 1526
界 @@</w> 1526
施 暴</w> 1526
凭 借</w> 1526
ar y</w> 1526
基 桑 1525
时 有</w> 1525
移 @@</w> 1525
氯 苯</w> 1525
基桑 加尼</w> 1525
一 张</w> 1524
水 处理</w> 1524
致 死</w> 1524
做 @@</w> 1524
特 里</w> 1523
电 站</w> 1523
优 @@</w> 1523
L. 16</w> 1523
系统 管理</w> 1523
澳 门</w> 1522
赫尔 辛基</w> 1522
歪 曲</w> 1521
锡 @@</w> 1521
L. 12</w> 1521
巴 马科</w> 1520
华 @@</w> 1520
情 感</w> 1520
归 功 1520
较 长</w> 1520
经济 衰退</w> 1520
归功 于</w> 1520
干 部</w> 1519
护 车</w> 1519
一 番</w> 1519
救 护车</w> 1519
赤 道</w> 1519
减 弱</w> 1519
大西 洋 1519
真 实 1518
公 约组织</w> 1518
北 大西洋 1518
兼 并</w> 1518
合作 委员会</w> 1518
国民 大会</w> 1518
避孕 套</w> 1518
海湾 合作委员会</w> 1518
不负 责任</w> 1518
北大西洋 公约组织</w> 1518
布 雷</w> 1517
经 受</w> 1517
问 @@</w> 1517
劳工 部</w> 1516
看 守</w> 1515
特 拉特</w> 1515
比 尔</w> 1515
来 访</w> 1515
渔 民</w> 1515
r an 1514
马 尔@@</w> 1514
上 以</w> 1514
落 入</w> 1514
尼泊 尔政府</w> 1514
纽约 市</w> 1514
容 量</w> 1513
生 化</w> 1513
宏 观</w> 1513
丢 失</w> 1513
航空 航天</w> 1513
应 使</w> 1512
此 时</w> 1512
埃 及 1512
格 斯</w> 1512
到 困难</w> 1512
世界 气象 1512
企业 界</w> 1512
世界气象 组织</w> 1512
文 人</w> 1511
适 时</w> 1511
未 遂</w> 1511
都 市</w> 1511
家庭 收入</w> 1511
解放 阵线</w> 1511
业 主</w> 1510
承 @@</w> 1510
使用 率</w> 1510
流 感</w> 1509
未 交</w> 1509
洛 尔科</w> 1509
数 个</w> 1509
专 属</w> 1509
破 @@</w> 1509
一 是</w> 1508
3 66</w> 1508
最 新 1508
创 始</w> 1508
权威 性</w> 1508
合 约</w> 1507
再 循环</w> 1507
遵 从</w> 1507
隶 属于</w> 1506
品 种</w> 1506
总 面积</w> 1506
减 半</w> 1506
以下 内容</w> 1506
德 罗</w> 1505
应 适当</w> 1505
奖 金</w> 1505
有 偿</w> 1504
私人 资本</w> 1504
一 同</w> 1503
检 @@</w> 1503
疏 忽</w> 1503
供应 国</w> 1503
位 @@</w> 1502
接 洽</w> 1502
几 份</w> 1501
体育 @@</w> 1501
巴 博</w> 1500
其 下</w> 1500
大 区</w> 1500
瘫 痪</w> 1500
折 @@</w> 1500
3 31</w> 1500
取 样</w> 1500
技 经</w> 1500
假 释</w> 1500
e i</w> 1499
电 力 1499
外 资</w> 1499
现 出</w> 1499
记 名</w> 1499
第十 二次</w> 1499
3 49</w> 1498
群 @@</w> 1498
环境 监测</w> 1498
土 壤 1497
十 四</w> 1497
体育 部</w> 1497
亚 斯</w> 1496
讲 述</w> 1496
症 状</w> 1496
尼亚 人</w> 1496
应 分</w> 1495
纳 粹</w> 1495
末 尾</w> 1495
H RI</w> 1495
情报 @@</w> 1495
瑞士 政府</w> 1495
得 多</w> 1494
不 止</w> 1494
伊 比利亚</w> 1494
一 边</w> 1494
关 怀</w> 1494
en a</w> 1494
财政 部长</w> 1494
热烈 欢迎</w> 1494
u ra</w> 1493
斟 酌</w> 1493
L. 20</w> 1493
具体 地说</w> 1493
不 定</w> 1492
C or@@</w> 1492
起 源</w> 1492
第二十 九届</w> 1492
特殊 性</w> 1492
e f</w> 1491
引 擎</w> 1491
便 @@</w> 1491
L. 19</w> 1491
解放 组织</w> 1491
控制 系统</w> 1491
2. 5%</w> 1491
矿 @@</w> 1490
战 士</w> 1490
4 8%</w> 1490
场 @@</w> 1490
沉 积 1490
荷 兰 1490
抛 弃</w> 1490
逐 字</w> 1490
沉积 物</w> 1490
约 瑟 1489
能 为</w> 1489
明 斯克</w> 1489
B u@@</w> 1489
相 关联</w> 1489
留 存</w> 1489
蓝 图</w> 1489
保障 部</w> 1489
明 示</w> 1488
3 24</w> 1488
3 45</w> 1488
技术 员</w> 1488
阿 斯 1487
开 启</w> 1487
一 经</w> 1487
a z</w> 1487
千 计</w> 1487
规 避</w> 1487
数 十年</w> 1487
调查 小组</w> 1487
运输 系统</w> 1487
住房 问题</w> 1487
比 索</w> 1486
之 日</w> 1486
己 烷</w> 1486
刊 物</w> 1486
宽 @@</w> 1485
酸 @@</w> 1485
经验 交流</w> 1485
发 出 1484
巴 萨</w> 1484
贸易 区</w> 1484
严格 执行</w> 1484
发出 通知</w> 1484
驱 回</w> 1483
抚 恤金</w> 1483
劳工 市场</w> 1483
专业 培训</w> 1483
换 @@</w> 1482
M an 1482
鱼 @@</w> 1482
调查 局</w> 1482
Re s@@</w> 1482
恶 性循环</w> 1481
麻 管局</w> 1481
喀 什</w> 1481
别 人</w> 1481
痹 症</w> 1481
3 37</w> 1481
驻 留</w> 1481
每 种</w> 1480
管理 工具</w> 1480
环境 治理</w> 1480
引人 注目</w> 1480
六 氯</w> 1479
3 54</w> 1479
轮 胎</w> 1479
在 政治 1478
立 足</w> 1478
陈 @@</w> 1478
7 .3</w> 1478
联 运</w> 1478
司 在</w> 1478
细 胞</w> 1478
人民 解放军</w> 1478
在政治 上</w> 1478
普 惠 1477
接 口</w> 1477
一 视 1476
广播 节目</w> 1476
约瑟 夫</w> 1476
一视 同仁</w> 1476
学 历</w> 1475
州 政府</w> 1475
沮 丧</w> 1475
第八 @@</w> 1475
和 睦</w> 1474
复 会</w> 1474
哀 悼</w> 1474
经济 损失</w> 1474
西班牙 政府</w> 1474
u el</w> 1473
机 枪</w> 1473
作 贡献</w> 1472
差 @@</w> 1472
寄 养</w> 1472
每 隔</w> 1472
卫生 @@</w> 1472
空间 站</w> 1472
水 质</w> 1471
原 子</w> 1471
羞 辱</w> 1471
咨 委</w> 1471
第二 天</w> 1471
各个 部门</w> 1471
私 立学校</w> 1470
库 尔 1470
今 日</w> 1469
环 己烷</w> 1469
称 @@</w> 1469
第四 @@</w> 1469
一个 多</w> 1469
各 界</w> 1468
入 账</w> 1468
储 @@</w> 1468
遇 到困难</w> 1468
大 都</w> 1467
致 辞</w> 1467
诺 夫</w> 1467
a w</w> 1467
外 汇 1467
希 德</w> 1467
转 而</w> 1466
退 @@</w> 1466
马 诺 1465
比 拉</w> 1465
4 7%</w> 1465
乔 治</w> 1465
马诺 河</w> 1465
与 @@</w> 1464
呼 吸 1464
18 74</w> 1464
分析 表明</w> 1464
人 才 1463
马 格 1463
海 牙 1463
宣 判</w> 1463
劳动 @@</w> 1463
马格 里 1463
为 数 1462
紧 要</w> 1462
反 腐</w> 1462
海 里</w> 1462
种 姓</w> 1462
武 @@</w> 1462
小儿麻 痹症</w> 1462
绝 育</w> 1461
过 期</w> 1461
毛 坯</w> 1461
6 31</w> 1461
款 次</w> 1461
il a</w> 1461
偏 @@</w> 1460
第 十</w> 1460
两 家</w> 1460
中 未</w> 1460
列 表</w> 1460
补 给</w> 1460
努力 争取</w> 1460
载 @@</w> 1459
19 55</w> 1459
无 核 1458
不 成 1458
安 卡拉</w> 1458
b r 1458
这 为</w> 1458
色 @@</w> 1458
申 @@</w> 1458
最 惠国</w> 1458
不成 比例</w> 1458
科 尔多 1457
通 信 1457
简 @@</w> 1457
途 中</w> 1457
烧 @@</w> 1457
再次 发生</w> 1457
无法 控制</w> 1457
讲 授</w> 1456
6 20</w> 1456
荷 兰政府</w> 1456
触 发</w> 1456
意大 利政府</w> 1456
国 对</w> 1455
塑 造</w> 1455
公共 场所</w> 1455
行政 事务</w> 1455
互动 式</w> 1455
论 据</w> 1454
黄 @@</w> 1454
跨 学科</w> 1454
or t@@</w> 1454
海牙 公约</w> 1454
巴 塞 1453
这 套</w> 1453
c h 1453
D E</w> 1453
H A@@</w> 1453
宣 誓</w> 1453
买 @@</w> 1453
净 @@</w> 1453
使用 暴力</w> 1453
马拉 喀什</w> 1453
奥林匹 克</w> 1453
促进 作用</w> 1453
常务 副</w> 1453
就 座</w> 1452
轻 微</w> 1452
终 端</w> 1452
六 项</w> 1452
更 为重要</w> 1452
检 控</w> 1452
携 式</w> 1452
矫 正</w> 1452
二 者</w> 1451
夏 @@</w> 1451
获 知</w> 1451
不 法</w> 1450
掘 业</w> 1450
两 条</w> 1450
新 生</w> 1450
购 @@</w> 1450
in i</w> 1450
伊 科</w> 1449
性 工作者</w> 1449
a u</w> 1449
采 掘业</w> 1449
L. 17</w> 1449
R EP</w> 1448
普 里</w> 1448
疫 情</w> 1448
国际 商会</w> 1448
il l 1448
装 修</w> 1447
打 印机</w> 1447
输 @@</w> 1447
能源 安全</w> 1447
现 正</w> 1446
取 得 1446
继 @@</w> 1446
5 6%</w> 1446
留 出</w> 1446
敌 人</w> 1446
在 经济 1445
a k 1445
7 .5</w> 1445
世界 性</w> 1445
在经济 上</w> 1445
谋 @@</w> 1444
衣 服</w> 1444
抱 怨</w> 1444
财政 政策</w> 1444
七 名</w> 1443
陪审 团</w> 1443
流 亡</w> 1442
绿 @@</w> 1442
3 4.@@</w> 1442
波 里</w> 1441
风 暴</w> 1441
恋 者</w> 1441
转 到</w> 1441
象 征 1441
舒 @@</w> 1441
综合 症</w> 1441
权 票</w> 1440
西 北</w> 1440
展 @@</w> 1440
弃 权票</w> 1440
增 幅</w> 1439
递 延</w> 1439
层 级</w> 1439
多 份</w> 1438
开 除</w> 1438
B ou@@</w> 1438
数 十 1438
铁 路 1438
炮 击</w> 1438
掌 控</w> 1438
不 易</w> 1437
大 有</w> 1437
热 烈</w> 1437
梅 纳</w> 1437
船 员</w> 1437
哈 桑</w> 1436
探 @@</w> 1436
a f</w> 1436
已 登记</w> 1436
残 暴</w> 1436
鼓 吹</w> 1436
终 结</w> 1435
九 年</w> 1435
数 学</w> 1435
Ab d@@</w> 1435
信 给</w> 1434
泰 勒</w> 1434
放 置</w> 1434
写 信给</w> 1434
4 6%</w> 1434
据 点</w> 1434
签 订 1434
跨 文化</w> 1434
慈 善 1434
发 交</w> 1433
人 日</w> 1433
4 26</w> 1433
筹 划</w> 1433
联 接</w> 1433
立法 者</w> 1433
科 科长</w> 1432
e in</w> 1432
第十 四次</w> 1432
on t@@</w> 1432
推 断</w> 1431
和 准</w> 1431
乘 坐</w> 1431
聚 会</w> 1431
o d</w> 1430
对 口</w> 1430
致 残</w> 1430
3 57</w> 1430
预 付</w> 1430
承包 人</w> 1430
WG .6</w> 1430
法 国政府</w> 1429
婚 @@</w> 1429
阳 性</w> 1429
留 给</w> 1429
补充 性</w> 1429
蒙 古 1428
本 土</w> 1428
R os@@</w> 1428
例 证</w> 1428
i er</w> 1427
婚 内</w> 1427
组 在</w> 1427
翻 @@</w> 1427
Moham med</w> 1426
埃塞俄比 亚政府</w> 1426
用 地</w> 1425
涅 @@</w> 1425
睦 邻 1425
积极 开展</w> 1425
里 昂</w> 1424
弹 性</w> 1424
耕 地</w> 1424
数以 千计</w> 1424
中 载列</w> 1423
幼 @@</w> 1423
字 母</w> 1423
I C@@</w> 1423
5 2%</w> 1423
忠 实</w> 1423
工作 效率</w> 1423
供 参考</w> 1422
兼 职</w> 1422
缔 造</w> 1422
哥伦比亚 特区</w> 1422
Int ern 1422
Intern ational</w> 1422
恶 意</w> 1421
S p@@</w> 1421
P ro@@</w> 1421
青 @@</w> 1421
许 诺</w> 1421
C l@@</w> 1420
像 @@</w> 1420
不 用</w> 1419
诋 毁</w> 1419
并 视</w> 1419
主 观</w> 1419
3 32</w> 1419
沿 着</w> 1419
党 @@</w> 1419
便 携式</w> 1419
最 起码</w> 1418
3 36</w> 1417
输 送</w> 1417
寄 宿</w> 1416
尼日 利 1416
德 国政府</w> 1415
多 国</w> 1415
水 产</w> 1415
甚 @@</w> 1415
机 动 1415
参 议员</w> 1415
M ah@@</w> 1415
修订 版</w> 1415
节 能</w> 1414
减 刑</w> 1414
保持 稳定</w> 1414
心 协力</w> 1413
协 同 1413
30 .@@</w> 1413
加 班 1412
保 释</w> 1412
全面 性</w> 1412
加班 费</w> 1412
标 界</w> 1411
6 80</w> 1411
断 言</w> 1411
a in</w> 1410
清 偿 1410
清偿 债务</w> 1410
放射 源</w> 1409
微 妙</w> 1408
版 权</w> 1408
不 高</w> 1407
型 飞机</w> 1407
诚 信</w> 1407
更 广</w> 1407
置 疑</w> 1407
中 是</w> 1406
化 武</w> 1406
5 80</w> 1406
若干 次</w> 1406
里 亚尔</w> 1405
手 语</w> 1405
耶 夫</w> 1405
准 @@</w> 1405
盈 利</w> 1405
am m@@</w> 1405
制 服</w> 1404
边 @@</w> 1404
欺 骗</w> 1403
X X</w> 1403
经济 学家</w> 1403
全权 代表</w> 1403
无 期徒刑</w> 1402
同 性 1402
推 销</w> 1402
和 表</w> 1402
求 助于</w> 1402
3 9%</w> 1402
同性 恋者</w> 1402
T ar@@</w> 1401
奥 巴 1401
分 居</w> 1400
M a 1400
正 教</w> 1400
喷 @@</w> 1400
开 端</w> 1399
一 如 1399
其 能</w> 1399
服 @@</w> 1399
房 间</w> 1399
一如 既往</w> 1399
s e</w> 1398
日 托</w> 1398
供 词</w> 1398
3 51</w> 1398
知识 产 1398
纺织 品</w> 1398
u c@@</w> 1397
租 @@</w> 1397
存 入</w> 1397
远 见</w> 1397
特 色</w> 1396
约 旦 1396
局 部</w> 1396
发展 趋势</w> 1396
搜 寻</w> 1395
朗 @@</w> 1395
晚 上</w> 1395
完全 同意</w> 1395
有 成效</w> 1394
确 凿</w> 1394
M c@@</w> 1394
卓 有成效</w> 1394
开 头</w> 1393
杜 夫</w> 1393
恰 @@</w> 1393
需 品</w> 1393
卖 @@</w> 1393
19 57</w> 1393
区域 环境</w> 1393
民族 解放</w> 1393
氯 化碳</w> 1392
四 氯化碳</w> 1392
坐 标</w> 1392
Ahm ad</w> 1392
迪 拜</w> 1391
化 解</w> 1391
柴 油</w> 1391
筛 查</w> 1391
小 学生</w> 1390
3 34</w> 1390
土耳其 政府</w> 1390
共产 党</w> 1390
这 部</w> 1389
两 族</w> 1389
富 国</w> 1389
见 证</w> 1389
触 @@</w> 1389
贸易 壁垒</w> 1389
自由 贸易区</w> 1389
教学 大纲</w> 1389
打 伤</w> 1388
R e@@</w> 1387
批 @@</w> 1387
商 界</w> 1387
3 48</w> 1387
3 47</w> 1387
全球 定位系统</w> 1387
16 24</w> 1387
偏 不 1386
不 偏不 1386
在 押</w> 1386
今 世</w> 1386
请 求 1386
妓 女</w> 1386
7 58</w> 1386
船 上</w> 1386
经济 制裁</w> 1386
合作 部</w> 1386
不偏不 倚</w> 1386
请求 书</w> 1386
流 浪</w> 1385
加 权</w> 1385
同 类</w> 1385
C C@@</w> 1385
5 70</w> 1385
定期 存款</w> 1385
A I</w> 1384
塞 梯</w> 1384
奥 塞梯</w> 1384
国际 收支</w> 1384
丹 麦 1383
强 加 1383
司 将</w> 1383
率 高</w> 1383
胎 儿</w> 1383
十 多年</w> 1382
5 90</w> 1382
增长 速度</w> 1382
哈 龙</w> 1381
日 渐</w> 1381
小 额 1381
以 向</w> 1381
业 经</w> 1381
联 性</w> 1381
关 联性</w> 1381
协调 局</w> 1381
双边 条约</w> 1381
小额 贷款</w> 1381
无 误</w> 1380
如 表</w> 1380
急 救</w> 1380
4 1%</w> 1380
3 41</w> 1380
配 有</w> 1380
兼 @@</w> 1380
派 往</w> 1380
玛 @@</w> 1380
负 起</w> 1379
归 纳</w> 1379
13 53</w> 1379
空 调</w> 1378
时 常</w> 1378
逐 @@</w> 1378
腐败 问题</w> 1378
里斯 本</w> 1378
制 药</w> 1377
游 戏</w> 1377
h t@@</w> 1377
万 计</w> 1377
大 城市</w> 1377
生 病</w> 1377
卓 越</w> 1377
9 8.@@</w> 1377
可信 性</w> 1377
年 头</w> 1376
转 载</w> 1376
装 有</w> 1376
工业 @@</w> 1376
文化 @@</w> 1376
内陆 国</w> 1376
雅 得</w> 1375
利 雅得</w> 1375
T C</w> 1375
5 7%</w> 1375
课 本</w> 1375
伤害 力</w> 1375
挪威 政府</w> 1375
南 非洲</w> 1374
广 阔</w> 1374
呼 声</w> 1374
计算 机@@</w> 1374
森林 资源</w> 1374
维 察</w> 1373
规 @@</w> 1373
配 套</w> 1373
触 及</w> 1373
那 次</w> 1372
北 欧国家</w> 1372
短 时间</w> 1372
迁 离</w> 1372
塑 料</w> 1372
故 事</w> 1372
社会 保障部</w> 1372
逮捕 证</w> 1372
润滑 油</w> 1372
权 组织</w> 1371
各 方对</w> 1371
沙 漠</w> 1371
3 52</w> 1371
10 00</w> 1371
世界 知识产 1371
提供 数据</w> 1371
第七 十三</w> 1371
ou d</w> 1371
世界知识产 权组织</w> 1371
适 @@</w> 1370
吸 纳</w> 1370
ar e</w> 1370
并 非 1369
种 @@</w> 1369
创 @@</w> 1369
三 倍</w> 1369
能 量</w> 1368
r u@@</w> 1368
沙 巴</w> 1368
诉 @@</w> 1368
授 @@</w> 1368
贫困 率</w> 1368
前 南</w> 1367
o z@@</w> 1367
私 有</w> 1367
蓄 @@</w> 1367
割 礼</w> 1367
G on 1366
对 称</w> 1366
终 生</w> 1366
4 32</w> 1366
辩 解</w> 1366
M on@@</w> 1366
5 07</w> 1366
进行 性</w> 1366
停 滞</w> 1365
航空 器</w> 1365
t er</w> 1364
第二十 三条</w> 1364
PB C.@@</w> 1364
一 篇</w> 1363
5 3%</w> 1363
岛 民</w> 1363
东 南</w> 1362
P er@@</w> 1362
C M</w> 1362
五 分之一</w> 1362
酒 精</w> 1362
碰 撞</w> 1362
本 节</w> 1361
库 尔德</w> 1361
譬 如</w> 1361
刑事 警察</w> 1361
常 委会</w> 1360
才 干</w> 1360
19 56</w> 1360
领 海</w> 1359
电 文</w> 1359
抗 辩</w> 1359
15 14</w> 1359
广播 公司</w> 1359
ah im</w> 1359
2 .9</w> 1358
受 损害</w> 1358
表 彰</w> 1357
信 守</w> 1357
滞 留</w> 1356
专 案</w> 1356
客 户 1356
渗 透</w> 1356
a a</w> 1355
以 考虑</w> 1355
7 30</w> 1355
予 以考虑</w> 1355
司法 独立</w> 1355
技术 上</w> 1355
平均 水平</w> 1355
道 @@</w> 1354
重 要 1354
3 55</w> 1354
程序 法</w> 1354
a o</w> 1353
瓶 颈</w> 1353
发言 稿</w> 1353
CRP .2</w> 1353
In s 1353
现实 意义</w> 1353
流 落</w> 1352
l os</w> 1352
放 射</w> 1352
郊 区</w> 1352
判 罪</w> 1351
细 分</w> 1351
富有 成果</w> 1351
品 质</w> 1350
经 纪 1350
结 转</w> 1350
食 品 1350
排 名</w> 1350
Add .6</w> 1350
A D</w> 1349
支 票</w> 1349
敌 意</w> 1349
洁 净</w> 1349
需求 量</w> 1349
纸 @@</w> 1348
确 保 1348
字 化</w> 1348
数 字化</w> 1348
I SB 1348
倾 销</w> 1348
宗 @@</w> 1348
qu e</w> 1348
确保 安全</w> 1348
ISB A</w> 1348
期 中</w> 1347
合 伙</w> 1347
氟 化</w> 1347
第十 五次</w> 1347
各项 任务</w> 1347
初 等</w> 1346
年 终</w> 1346
I s@@</w> 1346
h m@@</w> 1345
这 件</w> 1345
的 黎 1345
哪 里</w> 1345
共同 @@</w> 1345
的黎 波里</w> 1345
行 者</w> 1344
保 有</w> 1344
话 说</w> 1344
c a</w> 1344
民主 @@</w> 1344
积极 性</w> 1344
商业 银行</w> 1344
马尼 拉</w> 1344
巴 里</w> 1343
3 53</w> 1343
6 30</w> 1343
爆炸 事件</w> 1343
东 正教</w> 1342
放 缓</w> 1342
顽 固</w> 1342
ar t@@</w> 1342
An d 1342
一 侧</w> 1341
3 39</w> 1341
招 收</w> 1341
遥 远</w> 1341
火箭 弹</w> 1341
几 届</w> 1340
几 周</w> 1340
讲 师</w> 1340
4 .6</w> 1340
礼 宾</w> 1340
it a</w> 1340
墨西哥 城</w> 1340
SA T</w> 1339
现金 流量</w> 1339
电 离 1338
S im@@</w> 1338
投 掷</w> 1338
3 64</w> 1338
更 长</w> 1338
废 弃</w> 1338
暴力 行动</w> 1338
生物 @@</w> 1338
A P@@</w> 1337
调查 组</w> 1337
相互 理解</w> 1337
政治 性</w> 1336
参与 权</w> 1336
无 助于</w> 1335
复 核</w> 1335
属 @@</w> 1335
狭 隘</w> 1335
功 效</w> 1335
复杂 化</w> 1335
不 大 1334
因 果 1334
地 缘</w> 1334
入 籍</w> 1334
围 @@</w> 1334
第十 六次</w> 1334
不大 可能</w> 1334
A L</w> 1333
未 用</w> 1333
3 44</w> 1333
犯 @@</w> 1333
球 @@</w> 1333
A N@@</w> 1332
一 无 1332
o c 1332
违 犯</w> 1332
沉 @@</w> 1332
行政 法</w> 1332
尔 南 1331
启 发</w> 1331
时 地</w> 1330
意 外 1330
0 01</w> 1330
无 记名</w> 1329
主 审</w> 1329
3 56</w> 1329
L. 22</w> 1329
e p 1328
罗 德 1328
普 斯卡</w> 1328
6 10</w> 1328
设 @@</w> 1328
改 派</w> 1328
在 短期内</w> 1327
8 60</w> 1327
查 看</w> 1327
i b</w> 1326
顿 @@</w> 1326
未 经 1326
吸 取 1326
秋 季</w> 1326
国民 军</w> 1326
责任 感</w> 1326
因果 关系</w> 1326
未经 许可</w> 1326
流 动 1325
文 物</w> 1325
生 涯</w> 1325
红 利</w> 1325
罗 那</w> 1324
请 拨</w> 1324
资 历</w> 1324
7 60</w> 1324
巴塞 罗那</w> 1324
动 会</w> 1323
多 式</w> 1323
运 动会</w> 1323
并 作</w> 1323
之 初</w> 1323
知 悉</w> 1323
转 用</w> 1323
换 句 1323
入 口</w> 1323
叛 军</w> 1323
短 暂</w> 1323
保险 @@</w> 1323
顺 应</w> 1322
刑 @@</w> 1322
面 面</w> 1322
微 生物</w> 1322
核 生化</w> 1322
北 朝鲜</w> 1322
往 返</w> 1322
开发 @@</w> 1322
活动 分子</w> 1322
Joh n</w> 1322
人 解</w> 1321
汇 辑</w> 1321
机 油</w> 1321
换 取</w> 1321
3 74</w> 1321
区 政府</w> 1321
繁 重</w> 1321
长期 投资</w> 1321
宣传 教育</w> 1321
立 大学</w> 1320
耻 辱</w> 1320
房 子</w> 1320
巨 额</w> 1320
第三 世界</w> 1320
安全 法</w> 1320
in o</w> 1320
而 驰</w> 1319
进 攻 1319
道 而驰</w> 1319
终 @@</w> 1319
3 3.@@</w> 1319
歇 尔</w> 1319
只 不过</w> 1319
背 道而驰</w> 1319
流行 病学</w> 1319
调解 员</w> 1319
若干 项</w> 1319
香港 特区</w> 1319
s k@@</w> 1318
中 作</w> 1318
研 所</w> 1318
音 @@</w> 1318
近几 个月</w> 1318
方 方 1317
一 百 1317
立 刻</w> 1317
已 久</w> 1317
单 纯</w> 1317
继 任</w> 1317
等 候</w> 1317
切 断</w> 1317
信息 @@</w> 1317
库尔 德 1317
方方 面面</w> 1317
自 行 1316
防 灾</w> 1316
报 名</w> 1316
已 故</w> 1316
条 至</w> 1316
世界 旅游 1316
换句 话说</w> 1316
世界旅游 组织</w> 1316
子 孙 1315
本 年度</w> 1315
R A</w> 1315
排 序</w> 1315
囚 禁</w> 1315
糊 不清</w> 1315
COP . 1315
算 @@</w> 1314
i ri@@</w> 1314
型 @@</w> 1314
6 61</w> 1314
故 障</w> 1314
分 辨 1313
同 性</w> 1313
卢 比</w> 1313
该 署</w> 1313
阴 谋</w> 1313
患 病</w> 1313
授 课</w> 1313
废 @@</w> 1313
XX @@</w> 1313
在 校</w> 1312
4 97</w> 1312
以 防</w> 1311
重 重</w> 1311
折 扣</w> 1311
遗 留 1311
似 @@</w> 1311
蔬 菜</w> 1311
暴 @@</w> 1310
定 制</w> 1310
历 届</w> 1310
伐 木</w> 1310
6 0@@</w> 1310
方 共同市场</w> 1309
变 暖</w> 1309
同 年</w> 1309
南 方共同市场</w> 1309
B l@@</w> 1309
厄 @@</w> 1309
合同 规定</w> 1309
在 册</w> 1308
接 壤</w> 1308
招 @@</w> 1308
吉 普 1308
外交 人员</w> 1308
运载 火箭</w> 1308
G ar@@</w> 1307
前 线</w> 1307
大 体</w> 1307
近几 年来</w> 1307
催化 剂</w> 1307
团 在</w> 1306
编 排</w> 1306
冰 @@</w> 1306
服务 费</w> 1306
相互 信任</w> 1306
危 急</w> 1305
总 括</w> 1305
联 阵</w> 1305
四 周</w> 1305
三 十@@</w> 1305
号 @@</w> 1305
留 用</w> 1304
近 海</w> 1304
后 于</w> 1304
国际 公法</w> 1304
国 应</w> 1303
w e</w> 1303
等 同</w> 1303
票 数</w> 1303
过渡 性</w> 1303
布 尼亚</w> 1302
非 人</w> 1302
十 八</w> 1302
泛 滥</w> 1302
降 解</w> 1302
裨 益</w> 1302
民主 选举</w> 1302
知名 度</w> 1302
争 夺</w> 1301
3 72</w> 1301
台 @@</w> 1301
专题 会议</w> 1301
出 所</w> 1300
体 报道</w> 1300
源 码</w> 1300
C A</w> 1300
所 附</w> 1300
媒 体报道</w> 1300
er t@@</w> 1300
牵 涉 1299
生 意</w> 1299
以 利于</w> 1299
著 作</w> 1299
8 .1</w> 1299
底 @@</w> 1299
播 出</w> 1299
分辨 率</w> 1299
前 所述</w> 1298
如 前所述</w> 1298
休 闲</w> 1298
保 守</w> 1298
所 含</w> 1298
依 赖 1298
摒 弃</w> 1298
国际 私法</w> 1298
el a</w> 1298
训练 班</w> 1298
适应 性</w> 1298
一夫多 妻制</w> 1298
贾 梅纳</w> 1297
O E 1297
讲 台</w> 1297
海 员</w> 1297
征 用</w> 1297
逃 @@</w> 1297
15 59</w> 1297
互 相@@</w> 1296
周边 地区</w> 1296
期 为</w> 1295
希 腊 1295
普 森</w> 1295
改 正</w> 1295
炸 死</w> 1295
霍 乱</w> 1295
自然 环境</w> 1295
滞 不前</w> 1294
奈 @@</w> 1294
知 晓</w> 1294
寄 @@</w> 1294
恩 贾梅纳</w> 1294
潜 @@</w> 1294
3 43</w> 1293
H us 1293
迟 迟</w> 1293
跟 上</w> 1293
or t</w> 1293
er r@@</w> 1293
表达 意见</w> 1293
不 均</w> 1292
法 特</w> 1292
人 因</w> 1292
b er</w> 1292
日 子</w> 1292
停 滞不前</w> 1292
血 液</w> 1292
兼 容</w> 1292
朱 @@</w> 1292
泥 @@</w> 1292
哲 学</w> 1292
赛 @@</w> 1291
白 皮书</w> 1291
B a@@</w> 1291
任 满</w> 1291
施 以</w> 1291
脚 @@</w> 1291
L. 24</w> 1291
十二 个</w> 1291
会 同</w> 1290
4 88</w> 1290
完 @@</w> 1290
宿 舍</w> 1290
裁 @@</w> 1290
利害 攸关</w> 1290
长 老</w> 1289
降 落</w> 1289
函 @@</w> 1289
ur i</w> 1289
犹太 主义</w> 1289
举 @@</w> 1288
5 1%</w> 1288
住 @@</w> 1288
世界 市场</w> 1288
牵涉 到</w> 1288
S ect 1287
3 42</w> 1287
哪 些 1287
疏 散</w> 1287
15 72</w> 1287
生物 学</w> 1287
塔吉 克斯坦共和国</w> 1287
符合 条件</w> 1287
Sect .@@</w> 1287
不 了</w> 1286
互 联 1286
察 @@</w> 1286
管理 费用</w> 1286
第二十 一条</w> 1286
中 起</w> 1285
总 预算</w> 1285
村 @@</w> 1285
第六 节</w> 1285
in g 1285
B ur@@</w> 1284
门 诊</w> 1284
杀 @@</w> 1283
4 9%</w> 1283
N g@@</w> 1283
张 @@</w> 1283
中央 @@</w> 1283
子孙 后代</w> 1283
证据 不足</w> 1282
隔 绝</w> 1281
应 邀 1281
尽 可能 1281
瘘 管</w> 1281
Na q 1281
从 前</w> 1280
公 会</w> 1280
常 用</w> 1280
五 天</w> 1280
松 @@</w> 1280
盐 @@</w> 1280
匿 名</w> 1280
非常 高兴</w> 1280
哈 利 1279
A sh@@</w> 1279
7 .4</w> 1279
粮食 价格</w> 1279
召 集 1278
3 73</w> 1278
9 9%</w> 1278
严 密</w> 1278
好 几个</w> 1278
召集 人</w> 1278
A f@@</w> 1277
持 不懈</w> 1277
字 样</w> 1277
位 数</w> 1277
联 安</w> 1277
5 4%</w> 1277
四 种</w> 1277
遗 址</w> 1277
围 栏</w> 1277
坚 持不懈</w> 1277
离 任</w> 1276
4 87</w> 1276
住 民</w> 1276
阿拉伯 联盟</w> 1276
CN .6</w> 1276
实施 方案</w> 1276
经纪 人</w> 1276
子 公司</w> 1275
人民 共和 1275
红新 月</w> 1275
无 形</w> 1274
E N@@</w> 1274
6 3%</w> 1274
挪 用</w> 1274
价格 指数</w> 1274
一 律 1273
享 用</w> 1273
一律 平等</w> 1273
P ol@@</w> 1272
重 量</w> 1272
服务 提供商</w> 1272
不 公</w> 1271
管 教</w> 1271
急 @@</w> 1271
征 兵</w> 1271
五 氯</w> 1271
多 大</w> 1270
赛 人</w> 1270
必 需品</w> 1270
一 台</w> 1270
对 立</w> 1270
氧 化@@</w> 1270
牧 场</w> 1270
19 59</w> 1270
检察 署</w> 1270
美利坚合众 国政府</w> 1270
i v 1269
候 选</w> 1269
树 木</w> 1269
F ran 1268
大 笔</w> 1268
完 成 1268
粗 暴</w> 1268
登 载</w> 1267
录 @@</w> 1267
记 住</w> 1267
平均 值</w> 1267
人身 自由</w> 1267
出生 日期</w> 1267
如 本</w> 1266
折 旧</w> 1266
胜 @@</w> 1266
学 士</w> 1265
各 款</w> 1265
更 强</w> 1265
牙 科</w> 1265
制 成品</w> 1264
年 末</w> 1264
4 12</w> 1264
4 14</w> 1264
临 近</w> 1264
5 09</w> 1264
隐 藏</w> 1264
人 于</w> 1263
出 卖</w> 1263
植 物 1263
零 售 1263
5 8%</w> 1263
管理 程序</w> 1263
质量 标准</w> 1263
自 立</w> 1262
制 冷</w> 1262
拉 尼</w> 1262
一 小 1262
i f</w> 1262
i da</w> 1262
政 和</w> 1262
衷 心 1262
第二 种</w> 1262
性别 差异</w> 1262
德意志 联邦共和国</w> 1262
一小 部分</w> 1262
奥 马尔</w> 1261
装 载</w> 1261
中间 人</w> 1261
阿 勒 1260
求 职者</w> 1260
1 .7</w> 1260
3 86</w> 1260
un g@@</w> 1260
条 目</w> 1259
马其 顿</w> 1259
劳资 关系</w> 1259
足 @@</w> 1258
随 意</w> 1258
3 81</w> 1258
贷 @@</w> 1258
阿拉伯 王国</w> 1258
沙特 阿拉伯王国</w> 1258
科威特 政府</w> 1258
方 框</w> 1257
卡 比拉</w> 1257
燃 油</w> 1257
内部 事务</w> 1257
进攻 性</w> 1257
萨 马</w> 1256
思 路</w> 1256
调 往</w> 1256
洪 灾</w> 1256
第十 一</w> 1256
其 他 1255
放 牧</w> 1255
体 制性</w> 1255
3 9@@</w> 1255
创 作</w> 1255
还 于</w> 1255
巡 回</w> 1255
量 刑</w> 1255
缓 急</w> 1255
腺 癌</w> 1255
畜 牧业</w> 1255
目 击者</w> 1254
空间 信息</w> 1254
开放 式</w> 1254
适 度</w> 1253
4 17</w> 1253
4 23</w> 1253
所 受</w> 1253
3 69</w> 1253
升 至</w> 1253
控制 @@</w> 1253
伊拉克 人</w> 1253
行 星</w> 1252
古 柯</w> 1252
联 席</w> 1252
该 组</w> 1252
趋 于</w> 1252
谷 物</w> 1252
L. 23</w> 1252
得 税</w> 1251
拉 丹</w> 1251
P et@@</w> 1251
雷 场</w> 1251
物 力</w> 1251
所 得税</w> 1251
3 68</w> 1251
K am@@</w> 1251
普通 教育</w> 1251
方 米</w> 1250
a el</w> 1250
立 方米</w> 1250
征 询</w> 1250
渔 获</w> 1250
an k@@</w> 1250
人民 军</w> 1250
j i</w> 1249
绝 望</w> 1249
秘 鲁 1249
别 于</w> 1249
听 讯</w> 1249
甲 烷</w> 1249
卡 纳克</w> 1248
禁 核 1248
来 往</w> 1248
象 @@</w> 1248
须 @@</w> 1248
井 @@</w> 1248
am p@@</w> 1248
0. 0@@</w> 1248
里 格斯</w> 1247
知 @@</w> 1247
论 证</w> 1247
4 06</w> 1247
母 @@</w> 1247
残疾 者</w> 1247
贸易 @@</w> 1247
资料 库</w> 1247
官方 语言</w> 1247
罗德 里格斯</w> 1247
A L@@</w> 1246
必 @@</w> 1246
合 乎</w> 1246
旗 帜</w> 1246
浓 缩 1246
提供 方便</w> 1246
招待 会</w> 1246
为 例</w> 1245
阿 拉</w> 1245
加 拉</w> 1245
4 16</w> 1245
7 51</w> 1245
5 .6</w> 1245
牧 @@</w> 1245
首 要 1245
殿 下</w> 1245
项目 表</w> 1245
成功 经验</w> 1245
u k</w> 1244
医 师</w> 1244
有 别于</w> 1244
I br 1244
拥 有者</w> 1244
6 90</w> 1244
深入 分析</w> 1244
Ibr ahim</w> 1244
出 租</w> 1243
议 席</w> 1243
生 动物</w> 1243
压 倒 1243
诚 实</w> 1243
路 障</w> 1243
劳 务</w> 1243
激 进</w> 1243
货币 政策</w> 1243
能源 供应</w> 1243
直升 飞机</w> 1243
放射性 物质</w> 1243
汇 聚</w> 1242
l a@@</w> 1242
外 展</w> 1242
3 85</w> 1242
数 千</w> 1242
6 7%</w> 1242
首 批</w> 1242
X VII</w> 1242
绝 大部分</w> 1241
身 为</w> 1241
4 15</w> 1241
往 @@</w> 1241
伊拉 克共和国</w> 1241
卫星 通信</w> 1241
居留 证</w> 1241
科尔多 凡</w> 1241
凡 @@</w> 1240
当 前 1240
中 均</w> 1240
出 去</w> 1240
轻 重 1240
公 署</w> 1240
测 绘</w> 1240
投标 人</w> 1240
轻重 缓急</w> 1240
转 变成</w> 1239
少 将</w> 1239
长 短</w> 1239
3 59</w> 1239
倾 听</w> 1239
at e</w> 1239
s ki</w> 1238
必 将</w> 1238
生 素</w> 1238
i es</w> 1238
4 28</w> 1238
瑞典 政府</w> 1238
G O</w> 1237
调 停</w> 1237
建筑 材料</w> 1237
组织 协调</w> 1237
美洲 国家</w> 1237
权 衡</w> 1236
夺 取</w> 1236
报 价</w> 1236
妇 @@</w> 1236
好 转</w> 1236
岛 国</w> 1236
重大 成就</w> 1236
ber t</w> 1236
腐败 现象</w> 1236
E m@@</w> 1235
养 人</w> 1235
到 底</w> 1235
第七 十届</w> 1235
贝 克</w> 1234
用 处</w> 1234
前 几次</w> 1234
应 得</w> 1234
同 其</w> 1234
苯 酚</w> 1234
穆 萨</w> 1234
3 77</w> 1234
核 军备</w> 1234
决 不</w> 1234
帐 目</w> 1234
is s@@</w> 1234
诚 挚</w> 1233
原 住民</w> 1233
3 71</w> 1233
技 合</w> 1233
忠 诚</w> 1233
详细 信息</w> 1233
大大 提高</w> 1233
充满 活力</w> 1233
万 吨</w> 1232
代 行</w> 1232
有 没有</w> 1232
私 下</w> 1232
速 @@</w> 1232
4 13</w> 1232
C ar 1232
区 法院</w> 1232
消 防</w> 1232
第四 季度</w> 1232
热 窝</w> 1231
四 大</w> 1231
退 役</w> 1231
L. 29</w> 1231
相互 了解</w> 1231
b er@@</w> 1230
微 观</w> 1230
思 @@</w> 1230
L. 21</w> 1230
Rev .2</w> 1230
尼 罗</w> 1229
容 @@</w> 1229
f or</w> 1229
重 伤</w> 1229
国 务</w> 1229
路 径</w> 1229
it ed</w> 1229
正规 化</w> 1229
L u@@</w> 1228
实 习 1228
庭 @@</w> 1228
育 @@</w> 1227
B er@@</w> 1227
份 子</w> 1227
9 86</w> 1227
交通 工具</w> 1227
A z@@</w> 1226
十 六</w> 1226
交 出</w> 1226
6 25</w> 1226
第九 @@</w> 1226
课 @@</w> 1225
酒 店</w> 1225
因 应</w> 1224
意 度</w> 1224
投 机</w> 1224
3 89</w> 1224
满 意度</w> 1224
违 禁</w> 1224
最新 进展</w> 1224
眼 @@</w> 1223
F C</w> 1223
兄 弟 1223
巨 @@</w> 1223
实际 行动</w> 1223
无 理</w> 1222
投 入 1222
虫 害</w> 1222
3 58</w> 1222
M C</w> 1222
情报 部门</w> 1222
投入 使用</w> 1222
透 彻</w> 1221
民 解</w> 1221
贫 @@</w> 1221
3 63</w> 1221
向 本</w> 1221
驯 鹿</w> 1221
J ab 1221
净 增</w> 1221
惊 讶</w> 1221
投资 人</w> 1221
活动 家</w> 1221
Jab al</w> 1221
表 演</w> 1220
电 信 1220
坚 称</w> 1220
第二十 七条</w> 1220
en g@@</w> 1220
资料 袋</w> 1220
s h</w> 1219
F A@@</w> 1219
分 类 1219
从 纳</w> 1219
销 @@</w> 1219
狱 警</w> 1219
乡 @@</w> 1219
并 用</w> 1218
休 息 1218
杂 @@</w> 1218
发射 器</w> 1218
儿 所</w> 1217
托 马斯</w> 1217
托 儿所</w> 1217
4 75</w> 1217
给 @@</w> 1217
马格里 布</w> 1217
这 批</w> 1216
报 案</w> 1216
各 派</w> 1216
生产 @@</w> 1216
基 数</w> 1215
马 丁 1215
小 于</w> 1215
L A 1215
属 性</w> 1215
派 出所</w> 1215
保护 局</w> 1215
马丁 内斯</w> 1215
方 同意</w> 1214
兵 营</w> 1214
o st@@</w> 1214
4 08</w> 1214
公 安 1214
8 .2</w> 1214
住 处</w> 1214
双 方同意</w> 1214
建筑 @@</w> 1214
MIS C.5</w> 1214
地方 法院</w> 1214
员 @@</w> 1213
还 同</w> 1213
第十 三次</w> 1213
纪念 日</w> 1213
t h</w> 1212
前 沿</w> 1212
运 营 1212
3 82</w> 1212
惩 罚 1212
较 差</w> 1212
地理 信息</w> 1212
3 78</w> 1211
引 信</w> 1211
第二 卷</w> 1211
巴基斯坦 政府</w> 1211
加 班</w> 1210
电 气</w> 1210
m an 1210
司 令</w> 1210
宾 @@</w> 1210
以色列 国</w> 1210
水 量</w> 1209
地 形</w> 1209
广 场</w> 1209
6 2%</w> 1209
岛 @@</w> 1209
第五 @@</w> 1209
无人 驾驶</w> 1209
大 洋</w> 1208
待 定</w> 1208
倒 @@</w> 1208
C N</w> 1208
偏 向</w> 1207
ec t@@</w> 1207
里 敦</w> 1206
南 非政府</w> 1206
观 @@</w> 1206
弗 里敦</w> 1206
整 修</w> 1206
衍 生</w> 1206
冬 季</w> 1206
姿 态</w> 1206
达 佩斯</w> 1205
布 达佩斯</w> 1205
人 有</w> 1204
租 人</w> 1204
创 始 1204
猖 獗</w> 1204
直 属</w> 1204
信息 管理系统</w> 1204
司法 权</w> 1204
前 夕</w> 1203
程 @@</w> 1203
z i</w> 1203
悖 于</w> 1203
逐 案</w> 1203
第十 七次</w> 1202
Sh a</w> 1202
集中 精力</w> 1202
就 绪</w> 1201
i ma</w> 1201
额 为</w> 1201
极 力</w> 1201
6 70</w> 1201
第七 @@</w> 1201
7. 5%</w> 1201
为 首</w> 1200
时 起</w> 1200
迟 延</w> 1200
遭 @@</w> 1200
星期 六</w> 1200
相互 之间</w> 1200
看 起来</w> 1199
马 丁</w> 1199
西 南亚</w> 1199
书面 通知</w> 1199
ag h@@</w> 1199
负债 表</w> 1199
托 人</w> 1198
体 废物</w> 1198
试 用</w> 1198
突 显</w> 1198
固 体废物</w> 1198
仿 效</w> 1198
计算 方法</w> 1198
依赖 性</w> 1198
滞 后</w> 1197
拉 热窝</w> 1197
加 入 1197
中 国@@</w> 1197
萨 拉热窝</w> 1197
洛 美</w> 1197
参 赞</w> 1197
4 36</w> 1197
4 .7</w> 1197
3 62</w> 1197
生产 量</w> 1197
加入 书</w> 1197
有 悖于</w> 1196
3 79</w> 1196
城 @@</w> 1196
呈 件</w> 1196
国际 化</w> 1196
新闻 @@</w> 1196
第四十 @@</w> 1196
意见 分歧</w> 1196
兴 @@</w> 1195
驱逐 令</w> 1195
惩罚 性</w> 1195
来 源于</w> 1194
3 92</w> 1194
19 47</w> 1194
共同 点</w> 1194
危地 马拉 1194
团结 起来</w> 1194
塔 纳</w> 1193
答 卷</w> 1193
纪念 碑</w> 1193
中 毒</w> 1192
a kh@@</w> 1192
1 10.@@</w> 1192
3 76</w> 1192
奖 @@</w> 1192
激 @@</w> 1192
CO NF</w> 1192
交易 成本</w> 1192
两国 之间</w> 1192
令 部</w> 1191
穿 越</w> 1191
司 令部</w> 1191
9 73</w> 1191
薪 水</w> 1191
阿 勒</w> 1190
面 试</w> 1190
各 点</w> 1190
个 区</w> 1190
填 @@</w> 1190
金融 体制</w> 1190
AC. 51</w> 1190
巴 哈</w> 1189
卡 武</w> 1189
布 卡武</w> 1189
季 节 1189
季节 性</w> 1189
不 齐</w> 1188
防 务</w> 1188
印 件</w> 1188
美 好 1188
摩 @@</w> 1188
互 式</w> 1188
4 22</w> 1188
交 互式</w> 1188
高级 顾问</w> 1188
奥林匹 克 1188
同 伴</w> 1187
因 果</w> 1187
有 害 1187
化 石</w> 1187
阴 @@</w> 1187
谈 判 1187
野 @@</w> 1187
第一 位</w> 1187
年 均</w> 1186
辅 之以</w> 1186
有所 改进</w> 1186
不 复 1185
前 期</w> 1185
英 格兰</w> 1185
十 六条</w> 1185
评 估 1185
零 件</w> 1185
迁 往</w> 1185
不复 存在</w> 1185
任 一</w> 1184
惊 @@</w> 1184
公务 人员</w> 1184
优惠 待遇</w> 1184
水 生</w> 1183
肯 尼亚 1183
演 @@</w> 1183
农 产</w> 1183
联络 人</w> 1183
责任 者</w> 1183
坦 诚</w> 1182
i on@@</w> 1182
拓 宽</w> 1182
市 级</w> 1182
XX IX</w> 1182
人 应</w> 1181
南 奥塞梯</w> 1181
3 .7</w> 1181
决 议案</w> 1181
薪 @@</w> 1181
昂 山</w> 1181
极端 分子</w> 1181
难以 获得</w> 1181
u ez</w> 1180
生 存 1180
请 洽</w> 1180
老 化</w> 1180
公共 开支</w> 1180
关键 所在</w> 1180
注 视</w> 1179
室 内</w> 1179
叶 @@</w> 1179
at h@@</w> 1179
it y</w> 1179
按 规定</w> 1178
基 尔</w> 1178
阿 什</w> 1178
森 @@</w> 1178
T R 1178
3 83</w> 1178
受 阻</w> 1178
隐 瞒</w> 1178
驳 斥</w> 1178
亵 渎</w> 1178
顶 @@</w> 1178
林 业 1177
密切 关系</w> 1177
审计 长</w> 1177
马尔维纳 斯</w> 1177
一 款</w> 1176
归 者</w> 1176
甄 别</w> 1176
第十 二</w> 1176
无家可 归者</w> 1176
S O@@</w> 1175
B al@@</w> 1175
标 的</w> 1175
9 7%</w> 1175
衷 心</w> 1175
3 1.@@</w> 1174
命 名</w> 1174
受 人</w> 1174
鱼 种</w> 1174
野 生动物</w> 1174
公共 交通</w> 1174
法律 责任</w> 1174
使用 费</w> 1174
执 @@</w> 1173
乌 萨马</w> 1173
辅 助 1173
局 局长</w> 1173
骚 乱</w> 1173
经济 效益</w> 1173
一 百@@</w> 1172
波 哥 1172
亲 家庭</w> 1172
他 国</w> 1172
安全 形势</w> 1172
营养 @@</w> 1172
以 北</w> 1171
非 军事 1171
维 修 1171
凸 显</w> 1171
新闻 报道</w> 1171
持续 时间</w> 1171
非军事 区</w> 1171
为 严重</w> 1170
透 @@</w> 1170
平 价</w> 1170
值 @@</w> 1170
联 尼</w> 1170
更 为严重</w> 1170
5 12</w> 1170
鉴 别</w> 1170
知识 库</w> 1170
为 人 1169
真 空</w> 1169
旋 风</w> 1169
5 03</w> 1169
吉 隆 1169
遇 害</w> 1169
L. 27</w> 1169
Abd el@@</w> 1169
不足 道</w> 1169
吉隆 坡</w> 1169
单 亲家庭</w> 1168
卫生 领域</w> 1168
研究 组</w> 1168
保留 地</w> 1168
动 者</w> 1167
不 宜</w> 1167
高 棉</w> 1167
s k 1167
一 生</w> 1167
独 自</w> 1167
或 愿</w> 1167
女 人</w> 1167
遗 属</w> 1167
背 离</w> 1167
19 52</w> 1167
管理 @@</w> 1167
安哥 拉政府</w> 1167
双边 关系</w> 1167
科威特 国</w> 1167
4 56</w> 1166
折 衷</w> 1166
坐 @@</w> 1166
波哥 大</w> 1166
勇 敢</w> 1165
方 索</w> 1164
阿 方索</w> 1164
产 品 1164
4 39</w> 1164
J ean</w> 1164
再 接 1164
第六 十@@</w> 1164
建筑 业</w> 1164
在 家</w> 1163
l er</w> 1163
微 不足道</w> 1163
经 纪</w> 1163
七 项</w> 1163
盆 地</w> 1163
罗姆 族</w> 1163
不 太 1162
意 性</w> 1162
N d@@</w> 1162
管理 法</w> 1162
信息 网络</w> 1162
评估 所</w> 1162
不太 可能</w> 1162
五 周年</w> 1161
病 媒</w> 1161
扣 @@</w> 1161
龙 @@</w> 1161
计算机 设备</w> 1161
科 医生</w> 1160
P a 1160
化 铀</w> 1160
冗 长</w> 1160
人员 培训</w> 1160
肯尼亚 政府</w> 1160
制 于</w> 1159
观 测 1159
受 制于</w> 1159
5 25</w> 1159
例 @@</w> 1159
公平 竞争</w> 1159
方 位</w> 1158
手 枪</w> 1158
写 信</w> 1158
列 有</w> 1158
3 91</w> 1158
上 任</w> 1158
示 @@</w> 1158
污 名</w> 1158
朝 向</w> 1158
署 @@</w> 1158
核心 内容</w> 1158
自 发</w> 1157
阿 齐兹</w> 1157
一 个@@</w> 1157
劫 @@</w> 1157
不可 @@</w> 1157
开 讨论</w> 1156
中 方</w> 1156
展 开讨论</w> 1156
陷 入 1156
M ich 1156
何 @@</w> 1156
市 区</w> 1156
L. 26</w> 1156
AC. 96</w> 1156
巴拿 马 1156
浓缩 铀</w> 1156
高 得</w> 1155
探 矿</w> 1155
以 利</w> 1155
最 快</w> 1155
竭 力</w> 1155
婚姻 关系</w> 1155
运 动员</w> 1154
空 中 1154
的 @@</w> 1154
条 所载</w> 1154
备 有</w> 1154
古巴 共和国</w> 1154
加 丹 1153
贪 污 1153
务 局</w> 1153
伤 亡 1153
甘 @@</w> 1153
第二 季度</w> 1153
证明 文件</w> 1153
改善 生活</w> 1153
自 评</w> 1152
无 可 1152
r ez</w> 1152
比 勒</w> 1152
新 能源</w> 1152
4 37</w> 1152
C S</w> 1152
所 订</w> 1152
盲 人</w> 1152
工 会 1151
历 年</w> 1151
官 兵</w> 1151
军事 基地</w> 1151
有 不同</w> 1150
遣 散</w> 1150
含 汞</w> 1150
月 度</w> 1150
飞行 器</w> 1150
确 有</w> 1149
年 计划</w> 1149
上 报</w> 1149
服务 部</w> 1149
暴 者</w> 1148
阿 马</w> 1148
o w</w> 1148
O z 1148
深 受</w> 1148
D A@@</w> 1148
数 最多</w> 1148
历 次</w> 1148
第三 类</w> 1148
性别 角色</w> 1148
Oz L</w> 1148
一 共</w> 1147
大 力 1147
统 @@</w> 1147
国 有 1147
3 61</w> 1147
归 档</w> 1147
市 值</w> 1147
敌 视</w> 1147
第十 三</w> 1147
地 以</w> 1146
克 族</w> 1146
采 掘</w> 1146
坚 @@</w> 1146
填 补 1146
CRP .3</w> 1146
拉巴 特</w> 1146
彼此 之间</w> 1146
填补 空缺</w> 1146
凌 辱</w> 1145
施 暴者</w> 1145
逐 一</w> 1145
Add .7</w> 1145
运 到</w> 1143
m ent</w> 1143
下 级</w> 1143
普及 率</w> 1143
a c</w> 1142
埃 拉</w> 1142
l es</w> 1142
过 重</w> 1142
未 婚</w> 1142
4 02</w> 1142
些 年来</w> 1142
耗 费</w> 1142
L. 25</w> 1142
技术 标准</w> 1142
俄罗斯 联邦政府</w> 1142
期 末</w> 1141
G E@@</w> 1141
能 以</w> 1141
戈 尔</w> 1141
苏 人解</w> 1141
视 力</w> 1141
I M@@</w> 1141
默 许</w> 1141
咨询 组</w> 1141
合理 性</w> 1141
大 洋 1140
优 越</w> 1140
阶 级</w> 1140
刑事 管辖</w> 1140
实地 考察</w> 1140
食品 安全</w> 1140
连 通</w> 1139
既 定 1139
预 制</w> 1139
An t 1139
接收 国</w> 1139
应 同</w> 1138
和 部队</w> 1138
维 和部队</w> 1138
简 明</w> 1138
误 导</w> 1138
犯罪 团伙</w> 1138
犯罪 现场</w> 1138
具体 任务</w> 1138
ev a</w> 1138
雨 水</w> 1137
贷 项</w> 1137
出版 社</w> 1137
军事 @@</w> 1137
运 河</w> 1136
R S</w> 1136
带 动</w> 1136
逐 出</w> 1136
隔离 区</w> 1136
强烈 建议</w> 1136
平 民 1135
零 售</w> 1135
去 除</w> 1135
完 备</w> 1135
台 式</w> 1135
死亡 威胁</w> 1135
充分 行使</w> 1135
ac e</w> 1135
大洋 洲</w> 1135
平民 百姓</w> 1135
学 童</w> 1134
营 企业</w> 1134
瓜 @@</w> 1134
劳 资</w> 1134
凭 证</w> 1134
通报 会</w> 1134
冻结 资产</w> 1134
安 的 1133
5 21</w> 1133
安的 列 1133
罗 先生</w> 1132
S an 1132
复 查</w> 1132
4 05</w> 1132
交 织</w> 1132
摄 影</w> 1132
15 21</w> 1132
对 外 1131
预 支</w> 1131
基 层 1130
电 缆</w> 1130
英 才</w> 1130
R u@@</w> 1130
新 一代</w> 1130
别 国</w> 1130
L. 38</w> 1130
第四 款</w> 1130
伊朗 政府</w> 1130
收入 水平</w> 1130
为 生</w> 1129
S e@@</w> 1129
O N@@</w> 1129
4 11</w> 1129
宣 布 1129
处 理@@</w> 1129
难 度</w> 1129
缓 刑</w> 1129
纤 维</w> 1129
枢 纽</w> 1128
存 有</w> 1128
下 才</w> 1128
家庭 环境</w> 1128
滥用 职权</w> 1128
有 形资产</w> 1127
固 体</w> 1127
重大 意义</w> 1127
分 化</w> 1126
遣 送</w> 1126
枪 击</w> 1126
陆 运</w> 1126
撒 @@</w> 1126
乙 @@</w> 1126
5. 5%</w> 1126
无 国界</w> 1125
扎 伊尔</w> 1125
塞 建</w> 1125
7 0@@</w> 1125
8 20</w> 1125
清 点</w> 1125
扣 减</w> 1125
开发 新</w> 1125
G DP</w> 1124
3 95</w> 1124
aw i</w> 1124
尽可能 减少</w> 1124
t r@@</w> 1123
有 史 1123
道 德 1123
选 用</w> 1123
O r@@</w> 1123
M as@@</w> 1123
拘 捕</w> 1123
有史 以来</w> 1123
手 机</w> 1122
米 亚</w> 1122
M e@@</w> 1122
收 据</w> 1122
北 南</w> 1122
感 情</w> 1122
6 6%</w> 1122
校 园</w> 1122
X VI</w> 1122
CE R</w> 1122
银行 业务</w> 1122
不 详</w> 1121
内 地</w> 1121
S ab@@</w> 1121
中 低收入</w> 1121
青 春 1121
下 于</w> 1121
泄 漏</w> 1121
农业 @@</w> 1121
合 用</w> 1120
分 离 1120
大 化</w> 1120
苏 尔</w> 1120
代 际</w> 1120
埃 米尔</w> 1120
M ad@@</w> 1120
最 大化</w> 1120
该 市</w> 1120
汉 普森</w> 1120
戏 剧</w> 1120
at i</w> 1120
Kh al 1120
期 性</w> 1119
e b</w> 1119
救 济 1119
原 件</w> 1119
参 差 1119
周 期性</w> 1119
真实 性</w> 1119
参差 不齐</w> 1119
驾 驶 1118
外 籍 1118
V al@@</w> 1118
5 65</w> 1118
H ass 1118
片 @@</w> 1118
15 03</w> 1118
Hass an</w> 1118
4 35</w> 1117
死 于</w> 1117
on g@@</w> 1117
离 岸</w> 1116
待 审</w> 1116
N y@@</w> 1116
3 93</w> 1116
联 塞建</w> 1116
卫生 部长</w> 1116
出生 率</w> 1116
领 事 1115
电 器</w> 1115
通 性</w> 1115
路 上</w> 1115
总 会</w> 1115
研 讨</w> 1115
领事 馆</w> 1115
人 命</w> 1114
道 义 1114
k h</w> 1114
还 须</w> 1114
查 尔斯</w> 1114
辨 认</w> 1114
决策 权</w> 1114
职业 妇女</w> 1114
下 落 1113
维 多 1113
左 @@</w> 1113
器 具</w> 1113
in t@@</w> 1113
下落 不明</w> 1113
行 李</w> 1112
d ez</w> 1112
这 应</w> 1112
嫌 疑</w> 1112
X IX</w> 1112
国际 联盟</w> 1112
工程 @@</w> 1112
法 中</w> 1111
代 码</w> 1111
九 名</w> 1111
射 入</w> 1111
7 2%</w> 1111
3 98</w> 1111
起 初</w> 1111
卷 宗</w> 1111
重新 启动</w> 1111
高 速</w> 1110
M ak@@</w> 1110
罪 恶</w> 1110
社会 科学</w> 1110
失业 问题</w> 1110
有 条 1109
受 援</w> 1109
感 器</w> 1109
起 始</w> 1109
片 剂</w> 1109
主义 者</w> 1109
文 版</w> 1108
地 面 1108
轻 重</w> 1108
全 国@@</w> 1108
0 00@@</w> 1108
第一 卷</w> 1108
市场 @@</w> 1108
Al ma</w> 1108
临时 政府</w> 1108
开放 源码</w> 1108
斯 科 1107
常 备</w> 1107
效 仿</w> 1107
传 感器</w> 1107
再 厉</w> 1107
抚 养费</w> 1107
控制 中心</w> 1107
XX I</w> 1107
再接 再厉</w> 1107
青春 期</w> 1107
巴 德</w> 1106
国 名</w> 1106
随 即</w> 1106
农 作物</w> 1106
卡 洛斯</w> 1105
尽 责</w> 1105
持 有者</w> 1105
H al@@</w> 1105
综 复杂</w> 1105
迟 @@</w> 1105
错 综复杂</w> 1105
王 @@</w> 1105
W al@@</w> 1104
非 成员国</w> 1104
停 顿</w> 1104
全 新</w> 1104
身 体 1104
验 @@</w> 1104
协 联</w> 1104
订 @@</w> 1104
执行 官</w> 1104
一 带</w> 1103
中 等 1103
B o@@</w> 1103
十 年代</w> 1103
J os</w> 1103
遗 骸</w> 1103
苦 @@</w> 1103
19 07</w> 1103
4 43</w> 1102
人口 老龄化</w> 1102
居住 区</w> 1102
西 斯</w> 1101
有 幸</w> 1101
4 78</w> 1101
赠 者</w> 1101
端 @@</w> 1101
巴 库</w> 1100
开 通</w> 1100
梅 尔</w> 1100
4 44</w> 1100
7 10</w> 1100
重新 @@</w> 1100
变 通</w> 1099
医 治</w> 1099
单 亲</w> 1099
评 判</w> 1099
注 册 1099
补 偿金</w> 1099
偶 尔</w> 1099
ou n</w> 1099
it h</w> 1099
举 出</w> 1098
4 24</w> 1098
4 29</w> 1098
乘 数</w> 1098
6 4%</w> 1098
设 计 1098
武 断</w> 1098
4. 5%</w> 1098
网络 安全</w> 1098
e w</w> 1097
一 谈</w> 1097
K u@@</w> 1097
牧 师</w> 1097
掌 管</w> 1097
3 84</w> 1096
扫 射</w> 1096
退 学</w> 1096
钢 @@</w> 1096
世界 卫生</w> 1096
贸易 条件</w> 1096
en s@@</w> 1096
主管 人员</w> 1096
3. 5%</w> 1096
克里 斯 1096
俄 @@</w> 1095
温 得</w> 1095
雅 温得</w> 1095
国 立大学</w> 1095
软 @@</w> 1095
入 境 1095
房 产</w> 1095
L. 34</w> 1095
特别 感谢</w> 1095
增加 一倍</w> 1095
S ol@@</w> 1094
政 见</w> 1094
4 04</w> 1094
米 歇尔</w> 1094
仍 旧</w> 1094
第十 八次</w> 1094
共同 行动</w> 1094
人民 @@</w> 1094
不 相称</w> 1093
期 所</w> 1093
肢 体</w> 1093
择 @@</w> 1093
惟 一</w> 1093
版 @@</w> 1093
安全 事件</w> 1093
程序 @@</w> 1093
丝 毫</w> 1092
非 农业</w> 1092
死 因</w> 1092
越 界</w> 1092
著 @@</w> 1092
6 8@@</w> 1092
组 件</w> 1092
破 裂</w> 1092
横 @@</w> 1092
隔 @@</w> 1091
会 外</w> 1091
4 19</w> 1091
4 38</w> 1091
4 77</w> 1091
次 访问</w> 1091
第二十 二条</w> 1091
实 在</w> 1090
微 克</w> 1090
喜 @@</w> 1090
平均 工资</w> 1090
装甲 车</w> 1090
发 性</w> 1089
举 证</w> 1089
比 前</w> 1089
扫 描</w> 1089
受 托</w> 1089
耐 心</w> 1089
喜 欢</w> 1089
发展 前景</w> 1089
相互 间</w> 1089
国务 部长</w> 1089
aw a</w> 1089
阿 巴斯</w> 1088
达 累 1088
斯 萨拉姆</w> 1088
放 映</w> 1088
4 33</w> 1088
首 位</w> 1088
逐 年</w> 1088
扬 @@</w> 1088
im ana</w> 1088
达累 斯萨拉姆</w> 1088
哈 尔</w> 1087
应 负</w> 1087
水 果</w> 1087
托 儿</w> 1087
3 97</w> 1087
总 费用</w> 1087
9 .1</w> 1087
减 小</w> 1087
让 步</w> 1087
从业 者</w> 1087
操作 性</w> 1087
帮 派</w> 1086
测 定</w> 1086
偷 窃</w> 1086
讯 息</w> 1085
面 对面</w> 1085
拒 @@</w> 1085
4 18</w> 1085
0 50</w> 1085
M ur@@</w> 1085
订 有</w> 1085
组 和</w> 1085
国务 卿</w> 1085
B e@@</w> 1084
5 13</w> 1084
违 法 1084
拍 摄</w> 1084
第十 @@</w> 1084
业务 @@</w> 1084
方 省</w> 1083
斯 塔</w> 1083
衔 接</w> 1083
渊 源</w> 1083
街 道</w> 1083
19 29</w> 1083
环境 @@</w> 1083
相互 支持</w> 1083
分析 员</w> 1083
发 动机</w> 1082
无 阻</w> 1082
筹 @@</w> 1082
I N</w> 1082
8 40</w> 1082
乳 腺癌</w> 1082
全面 实现</w> 1082
日 报</w> 1081
了 @@</w> 1081
政策 性</w> 1081
u b 1080
眼 前</w> 1080
表 二</w> 1080
第 一种</w> 1080
残 余</w> 1080
绘 图</w> 1080
转 诊</w> 1080
盟 军</w> 1080
导 游</w> 1080
齐 下</w> 1080
烧 毁</w> 1080
政府 军</w> 1080
实习 生</w> 1080
认 明</w> 1079
曾 多次</w> 1079
原则 立场</w> 1079
泰 国政府</w> 1078
援 @@</w> 1078
谈 @@</w> 1078
会议 员</w> 1078
外 围</w> 1077
E d@@</w> 1077
稀 少</w> 1077
盛 @@</w> 1077
第十九 次</w> 1077
人事 管理</w> 1077
为 患</w> 1076
分 隔</w> 1076
推 选</w> 1076
作 家</w> 1076
4 65</w> 1076
4 48</w> 1076
配 件</w> 1076
I I@@</w> 1076
图 片</w> 1076
IS O</w> 1076
人 满 1075
G er@@</w> 1075
已 使</w> 1075
计算机 化</w> 1075
人满 为患</w> 1075
一 块</w> 1074
东 北亚</w> 1074
实 工作</w> 1074
过 长</w> 1074
6 8%</w> 1074
落 实工作</w> 1074
第三十 一条</w> 1074
东 南部</w> 1073
模 @@</w> 1073
4 55</w> 1073
教 学@@</w> 1072
达 卡</w> 1072
简 述</w> 1072
妨 害</w> 1072
代表 处</w> 1072
an da</w> 1072
化学 @@</w> 1072
个人 卫生</w> 1072
无 法@@</w> 1071
过 后</w> 1071
损 伤</w> 1071
3 88</w> 1071
核 弹头</w> 1071
首 领</w> 1071
狱 中</w> 1071
密切 注意</w> 1071
保持 警惕</w> 1071
拉 尔</w> 1070
分 机</w> 1070
利 性</w> 1070
或 经</w> 1070
K al@@</w> 1070
8 6%</w> 1070
逃 脱</w> 1070
逼 供</w> 1070
广播 @@</w> 1070
自 备</w> 1069
二 是</w> 1069
遏 止</w> 1069
公 诉人</w> 1069
5 32</w> 1069
创 设</w> 1069
使用 寿命</w> 1069
举例 说明</w> 1069
普惠 制</w> 1069
尼日利 亚政府</w> 1069
教 益</w> 1068
应 聘</w> 1068
这 届</w> 1068
阿拉 法特</w> 1068
支持 性</w> 1068
宣传 @@</w> 1068
投票 站</w> 1068
4 21</w> 1067
良 知</w> 1067
满 @@</w> 1067
循 环 1067
L. 32</w> 1067
审计 师</w> 1067
学术 @@</w> 1067
象征 性</w> 1067
行 文</w> 1066
而 异</w> 1066
美 阿</w> 1066
国 会议员</w> 1066
下 旬</w> 1066
竞 标</w> 1066
4 45</w> 1066
5 8@@</w> 1066
软 件 1065
星 @@</w> 1065
帐 篷</w> 1065
辆 车</w> 1065
L. 28</w> 1065
国 与</w> 1064
离 去</w> 1063
家 务 1063
m an@@</w> 1063
4 07</w> 1063
沿 用</w> 1063
抽 @@</w> 1063
树 @@</w> 1063
es s</w> 1063
Ro d 1063
中亚 国家</w> 1063
家务 劳动</w> 1063
动 摇</w> 1062
平 权</w> 1062
词 汇</w> 1062
物 质 1062
n i</w> 1062
4 03</w> 1062
4 8.@@</w> 1062
化 为</w> 1062
第六 @@</w> 1062
交通 事故</w> 1062
并不 认为</w> 1062
Kh an</w> 1062
o la</w> 1061
希 米</w> 1061
D av 1061
摊 派</w> 1061
敌 国</w> 1061
世界 @@</w> 1061
社会 学</w> 1061
服务 供应商</w> 1061
具体 做法</w> 1061
吉尔吉斯 斯坦共和国</w> 1061
人员 伤亡</w> 1061
Dav id</w> 1061
亚 历 1060
第 比利 1060
大 众 1060
议 者</w> 1060
配 量</w> 1060
宿 @@</w> 1060
疑 虑</w> 1060
善 @@</w> 1060
二十 世纪</w> 1060
os s@@</w> 1060
第比利 斯</w> 1060
人 种</w> 1059
既 @@</w> 1059
急 诊</w> 1059
4 58</w> 1059
务 科</w> 1059
电视 @@</w> 1059
伊 赫</w> 1058
h o</w> 1058
沙 伊赫</w> 1058
相 容</w> 1058
4 85</w> 1058
葡 语</w> 1058
更 是</w> 1058
等 到</w> 1058
条 下</w> 1058
短 语</w> 1058
13 90</w> 1058
供应 品</w> 1058
XX VI</w> 1058
婚姻 法</w> 1058
而 上</w> 1057
节 中</w> 1057
违 宪</w> 1057
E x@@</w> 1056
T E@@</w> 1056
治 罪</w> 1056
服务 局</w> 1056
实际 意义</w> 1056
男女 比例</w> 1056
负 @@</w> 1055
新 机制</w> 1055
照 明</w> 1055
五 年计划</w> 1055
衡 平</w> 1055
er n</w> 1055
航空 @@</w> 1055
ir e</w> 1055
安东 尼奥</w> 1055
创业 精神</w> 1055
签订 合同</w> 1055
异 性</w> 1054
联 机</w> 1054
疗 @@</w> 1054
生物 资源</w> 1054
历史 @@</w> 1054
致 敬</w> 1053
足 球</w> 1053
塔 拉</w> 1053
纽 带</w> 1053
求 职</w> 1053
敬 @@</w> 1053
第三 季度</w> 1053
1. 8</w> 1053
特 种</w> 1052
可 用性</w> 1052
一 面</w> 1052
i on 1052
6. 5%</w> 1052
份 文件</w> 1051
7 1%</w> 1051
M il@@</w> 1051
增 建</w> 1051
忍 受</w> 1051
洗 钱 1051
洪 @@</w> 1051
on e</w> 1051
石油 价格</w> 1051
不 言 1050
姆 沙伊赫</w> 1050
P h@@</w> 1050
沙 姆沙伊赫</w> 1050
雨 季</w> 1050
耐 @@</w> 1050
亦 可</w> 1050
无线 电台</w> 1050
腹 泻</w> 1049
中 性</w> 1049
有 过</w> 1049
走 出</w> 1049
5 57</w> 1049
近 几年</w> 1049
愿 @@</w> 1049
站 点</w> 1049
财务 处</w> 1049
人员 配备</w> 1049
分配 原则</w> 1049
达 巴</w> 1048
当 初</w> 1048
L E@@</w> 1048
努 美阿</w> 1048
4 09</w> 1048
上 期</w> 1048
务 虚 1048
预 备 1048
细 致</w> 1048
泡 沫</w> 1048
服务 项目</w> 1048
务虚 会</w> 1048
学 前</w> 1047
南 美</w> 1047
未 必</w> 1047
奥 斯</w> 1047
维 网</w> 1047
6 1%</w> 1047
师 @@</w> 1047
笔 @@</w> 1047
偏 高</w> 1046
地 被</w> 1046
轻 易</w> 1046
B .@@</w> 1046
物 理学</w> 1046
4 83</w> 1046
C L 1046
M O@@</w> 1046
失 散</w> 1046
5 26</w> 1046
慎 重</w> 1046
起 义</w> 1046
器 @@</w> 1046
月 球</w> 1046
基本 @@</w> 1046
or g@@</w> 1046
t i</w> 1045
反 倾销</w> 1045
音 像</w> 1045
5 9@@</w> 1045
隐 @@</w> 1045
灌 输</w> 1045
虽 @@</w> 1045
第二十 三</w> 1045
严重 不足</w> 1045
交换 所</w> 1045
通信 卫星</w> 1045
不 尽 1044
序 渐进</w> 1044
肆 意</w> 1044
伦 西亚</w> 1044
r ic@@</w> 1044
万 维网</w> 1044
a j</w> 1044
9 6%</w> 1044
充 资</w> 1044
返 国</w> 1044
循 序渐进</w> 1044
科 托 1043
8 9.@@</w> 1043
圆 @@</w> 1043
州 @@</w> 1043
基金 项目</w> 1043
an ga</w> 1043
4. 8</w> 1043
符合 国家</w> 1043
科托 努</w> 1043
地 使</w> 1042
费 尔南 1042
8 2%</w> 1042
兼 任</w> 1042
候 审</w> 1042
骨 @@</w> 1042
播 @@</w> 1042
e a</w> 1041
和 办</w> 1041
8 3%</w> 1041
昆 @@</w> 1041
建 和办</w> 1041
元 @@</w> 1041
星期 日</w> 1041
犯罪 案件</w> 1041
下 而上</w> 1040
千 百万</w> 1040
助 学金</w> 1040
交 涉</w> 1040
页 数</w> 1040
ad o</w> 1040
为时 过早</w> 1040
不 上</w> 1039
南 朝鲜</w> 1039
4 69</w> 1039
见 性</w> 1039
军 控</w> 1039
围 困</w> 1039
智 @@</w> 1039
屋 @@</w> 1039
保障 人权</w> 1039
CN. 17</w> 1039
人 案</w> 1038
没 @@</w> 1038
退 伍 1038
饱 受</w> 1038
新西 兰政府</w> 1038
开 拓</w> 1037
英 里</w> 1037
选 拔</w> 1037
塔 什</w> 1037
原 状</w> 1037
列 述</w> 1037
4 57</w> 1037
7 8%</w> 1037
拥 护</w> 1037
影 片</w> 1037
p ira</w> 1036
非 婚 1036
所 负</w> 1036
7 36</w> 1036
K af 1036
传 给</w> 1036
商业 界</w> 1036
Ins pira</w> 1036
秘鲁 政府</w> 1036
Kaf r</w> 1036
不 用 1035
马 上</w> 1035
以 补</w> 1035
U n 1035
4 34</w> 1035
4 86</w> 1035
5 01</w> 1035
15 91</w> 1035
L. 39</w> 1035
不用 说</w> 1035
干 维尔</w> 1034
兵 车</w> 1034
当 日</w> 1034
布 干维尔</w> 1034
照 护</w> 1034
9 2%</w> 1034
欠 @@</w> 1034
侦 测</w> 1034
州 长</w> 1034
an c@@</w> 1034
刑事 法</w> 1034
营养 状况</w> 1034
力 合作</w> 1033
运 兵车</w> 1033
孔 @@</w> 1033
青 人</w> 1033
通 力合作</w> 1033
年 青人</w> 1033
3 94</w> 1033
回 家</w> 1033
港 @@</w> 1033
荒 漠</w> 1033
第一 天</w> 1033
若干 年</w> 1033
管制 系统</w> 1033
OE WG</w> 1033
间 @@</w> 1032
P L</w> 1032
i al</w> 1032
利 共和国</w> 1032
B 型</w> 1032
争 @@</w> 1032
4 66</w> 1032
4 8@@</w> 1032
验 收</w> 1032
5 06</w> 1032
错 @@</w> 1032
很 差</w> 1032
日 致</w> 1031
有 增 1031
乌 克 1031
包 围</w> 1031
首 席 1031
管理 条例</w> 1031
电视 会议</w> 1031
可 受</w> 1030
西 尔</w> 1030
丹 @@</w> 1030
附 于</w> 1030
失 误</w> 1030
呈 文</w> 1030
ation s</w> 1030
名 前</w> 1029
7 40</w> 1029
5 45</w> 1029
5 37</w> 1029
盘 @@</w> 1029
第三 份</w> 1029
退伍 军人</w> 1029
纪 律 1028
J os 1028
6 03</w> 1028
耕 种</w> 1028
师 资</w> 1028
外交 事务</w> 1028
ur ah</w> 1028
水 井</w> 1027
差 不多</w> 1027
接 轨</w> 1027
梦 想</w> 1027
出口 @@</w> 1027
时 为</w> 1026
4 46</w> 1026
索 马里 1026
玛 丽</w> 1026
索马里 人</w> 1026
德 满 1025
人 次</w> 1025
加 德满 1025
电 网</w> 1025
来 函</w> 1025
现 值</w> 1025
更 能</w> 1025
储 藏</w> 1025
河 谷</w> 1025
慈善 机构</w> 1025
加德满 都</w> 1025
角 @@</w> 1024
未 爆</w> 1024
式 @@</w> 1024
人民共和 国政府</w> 1024
r ist@@</w> 1023
P E@@</w> 1023
P et 1023
保 密性</w> 1023
C on@@</w> 1023
v an</w> 1023
陆 路</w> 1023
5 05</w> 1023
8 .3</w> 1023
石 蜡</w> 1023
景 观</w> 1023
并非 如此</w> 1023
Pet er</w> 1023
丽 亚</w> 1022
哈 里 1022
续 设</w> 1022
而 论</w> 1022
一 员</w> 1022
马 伊</w> 1022
格 拉</w> 1022
残 害</w> 1022
残 障</w> 1022
讲 坛</w> 1022
4 53</w> 1022
D A</w> 1022
警 力</w> 1022
国际 航空</w> 1022
数据 分析</w> 1022
经验 丰富</w> 1022
Abd ul@@</w> 1022
哈里 里</w> 1022
自 称</w> 1021
万 至</w> 1021
轻 罪</w> 1021
肯 @@</w> 1021
各 有</w> 1021
盗 @@</w> 1021
总 长</w> 1021
总 付</w> 1021
库 克</w> 1021
8 80</w> 1021
城市 贫民</w> 1021
基督 徒</w> 1021
CA P</w> 1021
圆满 完成</w> 1021
埃 尔@@</w> 1020
硬 @@</w> 1020
增 派</w> 1020
认 真 1020
县 @@</w> 1020
剧 @@</w> 1020
强制 措施</w> 1020
当地 政府</w> 1020
A R</w> 1019
h an</w> 1019
恰 恰</w> 1019
粮食 供应</w> 1019
大 洲</w> 1018
罗 伯特</w> 1018
共 谋</w> 1018
提 要</w> 1018
标 示</w> 1018
M us@@</w> 1018
丰 @@</w> 1018
采 矿业</w> 1018
净 减</w> 1018
石油 换</w> 1018
少年 儿童</w> 1018
不 堪</w> 1017
学 徒</w> 1017
N e@@</w> 1017
更 进一步</w> 1017
L. 30</w> 1017
发电 厂</w> 1017
权 责</w> 1016
马 普 1016
独 一无 1016
D ar@@</w> 1016
H u@@</w> 1016
胡 安</w> 1016
输 出</w> 1016
奉 献</w> 1016
衣 @@</w> 1016
捷 克 1016
欧洲 法院</w> 1016
马普 托</w> 1016
独一无 二</w> 1016
贝 卡</w> 1015
这 起</w> 1015
中 仅</w> 1015
充 @@</w> 1015
办事 员</w> 1015
18 20</w> 1015
人 心</w> 1014
e k 1014
对 账</w> 1014
弱 环节</w> 1014
工 资 1014
获 得性</w> 1014
磁 @@</w> 1014
薄 弱环节</w> 1014
Mar t 1014
兰 德</w> 1013
7 70</w> 1013
普 选</w> 1013
9 7.@@</w> 1013
减 让</w> 1013
漏 @@</w> 1013
拟 出</w> 1013
军事 法院</w> 1013
各 异</w> 1012
年 纪念</w> 1012
入 点</w> 1012
联 会</w> 1012
5 29</w> 1012
障 碍 1012
20 25</w> 1012
er e</w> 1012
关键 时刻</w> 1012
生活 状况</w> 1012
数百 名</w> 1012
o f@@</w> 1011
印 尼</w> 1011
管 齐下</w> 1011
4 42</w> 1011
7 6%</w> 1011
D S</w> 1011
弗 拉 1011
8 7%</w> 1011
6 05</w> 1011
客 @@</w> 1011
酬 金</w> 1011
il la</w> 1011
书面 材料</w> 1011
不 便</w> 1010
案 卷</w> 1010
4 27</w> 1010
辩 论会</w> 1010
戴 @@</w> 1010
黎巴 嫩 1010
地 区 1009
喀 @@</w> 1009
i am</w> 1009
巡 @@</w> 1009
领导 力</w> 1009
合法 利益</w> 1009
奥巴 马</w> 1009
d el</w> 1008
相 吻合</w> 1008
规 程</w> 1008
货 人</w> 1008
钥 匙</w> 1008
抬 头</w> 1008
凭 单</w> 1008
国家 有关</w> 1008
1. 6%</w> 1008
种植 园</w> 1008
加 利 1007
L a</w> 1007
飞 往</w> 1007
然 不同</w> 1007
9 .2</w> 1007
整 体 1007
ar do</w> 1007
丹麦 政府</w> 1007
在 技术上</w> 1006
颁 布 1006
工 资@@</w> 1006
7 3%</w> 1006
k er</w> 1006
增 援</w> 1006
财 物</w> 1006
财 @@</w> 1006
撞 击</w> 1006
船 队</w> 1006
国际 会计</w> 1006
10 6.@@</w> 1006
反 抗</w> 1005
六 十周年</w> 1005
氯 化 1005
照 看</w> 1005
深 深</w> 1005
另 据</w> 1005
译 文</w> 1005
契 机</w> 1005
硫 @@</w> 1005
捐 赠者</w> 1005
妇女 节</w> 1005
监测 中心</w> 1005
氯化 石蜡</w> 1005
4 76</w> 1004
标 书</w> 1004
7 18</w> 1004
7 7%</w> 1004
结 壳</w> 1004
L. 36</w> 1004
英 国政府</w> 1003
商 标</w> 1003
人民 代表</w> 1003
中 约</w> 1002
出 任</w> 1002
道 歉</w> 1002
只 应</w> 1002
en ce</w> 1002
巴勒斯坦 解放组织</w> 1002
魁北 克</w> 1002
衷心 感谢</w> 1002
华 沙</w> 1001
战 后</w> 1001
任 地</w> 1001
瓦 斯</w> 1000
听 众</w> 1000
渔业 资源</w> 1000
方 会谈</w> 999
干 旱 999
推 动者</w> 999
价 格@@</w> 999
六 方会谈</w> 999
心 态</w> 999
从 速</w> 999
政治 危机</w> 999
具体 来说</w> 999
民族 主义</w> 999
长期 有效</w> 999
INF .@@</w> 999
戈 兰 998
爱 滋 998
下 游</w> 998
4 74</w> 998
9 17</w> 998
票 @@</w> 998
乙 烯</w> 998
耽 搁</w> 998
保持 沉默</w> 998
戈兰 高地</w> 998
行 长</w> 997
议 @@</w> 997
证 券 997
是 不是</w> 997
塔 什 997
7 33</w> 997
母 国</w> 997
军 民</w> 997
截 @@</w> 997
创造 力</w> 997
塔什 干</w> 997
担 当</w> 996
该 所</w> 996
突 @@</w> 996
阿尔巴 尼亚 996
心理 学</w> 996
日 及</w> 995
有 违</w> 995
B h@@</w> 995
l ez</w> 995
4 51</w> 995
5 11</w> 995
依 循</w> 995
山 脉</w> 995
劣 势</w> 995
法律 条文</w> 995
香港 特别行政区</w> 995
爱 德 994
甚 微</w> 994
亲 人</w> 994
极 有</w> 994
工 地</w> 994
宵 禁</w> 994
乳 @@</w> 994
呼 @@</w> 994
巴 士 993
举 动</w> 993
通 信@@</w> 993
玛 伊</w> 993
财务 科</w> 993
犯罪 率</w> 993
财政 @@</w> 993
审判 权</w> 993
巴士 拉</w> 993
发 送给</w> 992
潘 @@</w> 992
连 通性</w> 992
塔 尼</w> 992
橡 胶</w> 992
4 92</w> 992
N O@@</w> 992
9 20</w> 992
量 权</w> 992
裁 量权</w> 992
职业 病</w> 992
自 杀 991
古 拉</w> 991
精 心</w> 991
雅 典</w> 991
千 美元</w> 991
该 党</w> 991
车 臣</w> 991
er v@@</w> 991
消费 品</w> 991
自 该</w> 990
用 意</w> 990
b i</w> 990
请 参阅</w> 990
4 67</w> 990
毛 利</w> 990
奋 斗</w> 990
5 15</w> 990
协 约</w> 990
仓 储</w> 990
o od</w> 989
八 名</w> 989
大 片</w> 989
西 岛</w> 989
副 司长</w> 989
3 99</w> 989
警察 局长</w> 989
审判 程序</w> 989
被 遗弃</w> 988
L. 31</w> 988
非常 感谢</w> 988
3. 8</w> 988
手 法</w> 987
远 镜</w> 987
心 脏 987
氯 @@</w> 987
任 意性</w> 987
[...]
