t h 36722240
t i 30954520
th e</w> 25992479
a n 23531554
i n 21718839
r e 21605824
e n 19868571
o n 18606791
o n</w> 17006982
o f</w> 16964952
e r 16199326
a ti 13594305
an d</w> 13437567
e d</w> 13209168
o r 12498500
i t 11910402
a r 11446454
e s</w> 10743111
t o</w> 10500815
a l</w> 10471598
r o 9807659
i n</w> 8274145
i s 8231616
e c 8072667
in g</w> 7959449
a t 7919446
o u 7659135
m en 7400482
a l 6891492
o m 6741631
e r</w> 6717859
i c 6540485
ati on</w> 6363333
o r</w> 6193665
s t 6180589
a c 5970219
s i 5467226
on s</w> 5368954
p ro 5364514
e l 5120527
a t</w> 5027702
s u 4936627
i l 4566330
t s</w> 4540536
c on 4446139
a s</w> 4419615
men t</w> 4333608
e s 4295717
r i 4293194
o l 4080805
f or</w> 4026214
a n</w> 4016275
ti on</w> 3992863
r a 3931618
o p 3714168
re s 3648763
e v 3584464
u r 3577477
T h 3516900
c e</w> 3510035
u n 3474472
b l 3364213
p l 3346614
th at</w> 3282847
v e</w> 3224982
e m 3155886
a s 3146215
c i 3121598
a p 3075682
i s</w> 3062426
o s 3042554
c om 2977225
ati ons</w> 2971244
e n</w> 2957570
q u 2956344
on al</w> 2937800
t er 2911031
v i 2859150
a d 2799697
Th e</w> 2796573
p or 2751350
a g 2727784
it y</w> 2557946
ti n 2542278
i m 2530283
f or 2473304
u l 2469442
p ar 2454063
ou n 2428572
e x 2427025
2 0 2391689
c l 2387224
d i 2343814
it h</w> 2280289
b y</w> 2276282
o t 2207771
w ith</w> 2186630
o v 2151120
h a 2135081
at e</w> 2132724
l y</w> 2118437
f f 2099524
g h 2016336
ati onal</w> 1996481
t r 1949552
e g 1940798
u s 1897257
w h 1889385
t ed</w> 1862477
d e 1761394
b e</w> 1735557
b e 1729617
u d 1728965
m e 1680914
en t</w> 1677096
d u 1675225
ti es</w> 1671902
p er 1670975
it s</w> 1648037
tin g</w> 1642620
i c</w> 1641716
l d</w> 1634989
n ational</w> 1621816
t e 1610787
ev el 1607091
U n 1598134
20 0 1570625
C om 1559251
c h 1555967
th e 1547089
s h 1543842
a bl 1529573
u m 1528954
i z 1528847
S t 1528423
re n 1523925
a m 1462064
si on</w> 1462064
it ed</w> 1458133
Com m 1453291
an ce</w> 1424353
a in 1392986
l o 1389761
evel op 1388261
ov er 1351247
ou ld</w> 1346009
w or 1336226
ar e</w> 1335877
p ec 1335048
er s</w> 1333015
c oun 1328935
por t</w> 1328042
at ed</w> 1319338
th er</w> 1314815
re g 1278229
i r 1275282
i t</w> 1267481
Un ited</w> 1265252
a b 1258421
n e 1252268
n o 1244939
w as</w> 1242601
d er</w> 1218359
t ri 1214439
er al</w> 1213136
er e</w> 1208702
ti ons</w> 1205252
p e 1197836
in ter 1195909
a k 1184932
l i 1163043
ar y</w> 1163025
d is 1161412
men ts</w> 1158813
at es</w> 1153401
t h</w> 1148856
al l</w> 1141223
ro m</w> 1126006
e ment</w> 1124899
d s</w> 1123802
c o 1117692
b er</w> 1116878
a r</w> 1106390
for m 1105713
f rom</w> 1105063
C on 1092265
I n 1080656
d evelop 1078407
p re 1077466
N ations</w> 1067237
ap os 1056930
& apos 1056800
i r</w> 1053945
m in 1052356
qu ot 1051504
ro u 1040530
& quot 1039515
&quot ;</w> 1039515
d ing</w> 1038971
ou r 1035468
ti c 1028880
s ec 1019170
e p 1015954
du c 1005138
men t 1004042
i d 996299
st r 989146
s e 988689
m e</w> 977232
es s</w> 971014
g ra 960509
ff ic 959668
abl e</w> 959538
re d</w> 957688
it te 955894
com m 953803
o c 946251
cl ud 945644
ic h</w> 938244
en eral</w> 931882
over n 929212
wh ich</w> 924074
gh ts</w> 923910
itte e</w> 922931
t y</w> 922742
v en 917818
&apos ; 915095
s o</w> 914026
p res 905974
m an 902458
e st 895221
the ir</w> 893658
c h</w> 884247
b u 877700
pl e 875417
S ec 871668
Comm ittee</w> 870311
&apos; s</w> 864911
i g 861623
no t</w> 855107
an t</w> 852188
is i 846560
re l 843331
I n</w> 841862
re c 840418
ti ve</w> 838397
g an 835323
in clud 831163
1 9 821434
c es</w> 816511
h as</w> 811583
en t 809998
p os 806669
ha ve</w> 805633
d ed</w> 802672
er v 798530
G eneral</w> 796506
a y</w> 792354
St ates</w> 791085
gra m 789312
as s 789208
ar i 777487
U N 776583
pec i 775936
t u 773850
p o 771463
re t 769866
en ce</w> 763670
inter national</w> 756282
su p 754473
ci al</w> 751563
d er 751026
um an</w> 748890
gan iz 748658
es s 734959
p ol 733667
e f 733584
re s</w> 732884
t ec 731356
d e</w> 726240
op er 723667
su b 721455
al so</w> 719357
ha d</w> 718981
20 1 718216
p ri 711020
t ra 709034
be en</w> 707392
ur e</w> 706610
g e 704108
pro vi 702410
ol u 700055
o ther</w> 698005
i v 695817
re qu 695479
f e 694583
i ties</w> 693019
t er</w> 691837
em ber</w> 687784
en ti 686557
P ro 685491
tri es</w> 685275
om en</w> 681703
y - 680852
p r 680202
w e 676369
l e 675873
is sion</w> 675526
ac c 671471
wor k</w> 671407
ati ve</w> 668959
i es</w> 667595
l a 667134
th is</w> 667005
g en 666230
t o 662963
u bl 661167
f in 658768
pro c 657957
w ere</w> 656520
develop ment</w> 653237
s ti 652993
il l</w> 642728
C oun 635957
s t</w> 634919
ri ghts</w> 633089
d ec 623532
f i 623521
ou t</w> 623086
coun tries</w> 622726
al ly</w> 619722
l e</w> 618143
h i 611724
c re 611189
j ec 609009
su r 608480
is t 603718
w ill</w> 602443
t ak 599972
pro v 599965
pro gram 598499
ou s</w> 596164
res olu 594690
s s 594177
t en 590444
s erv 588757
sh ould</w> 585386
gh t</w> 583940
e l</w> 583524
in form 583434
ur ity</w> 583220
c ri 574331
G overn 573093
is h 572016
im ple 570749
e ar 570435
ac ti 565760
e m</w> 564615
19 9 564083
ci l</w> 562489
e w</w> 561862
re port</w> 559832
Coun cil</w> 557898
ven tion</w> 557056
ubl ic</w> 554715
g e</w> 553979
con c 549925
includ ing</w> 549107
l eg 548944
p on 545299
or ganiz 544247
w omen</w> 543461
al s</w> 540987
A ss 538922
or d 536493
i a</w> 536266
s y 531657
per s 531055
ar d</w> 530629
w ould</w> 530544
reg i 526830
o b 522736
ff ec 522472
s o 521602
g n 517700
sti tu 517292
f ac 516969
ati n 516242
h uman</w> 515686
ment ation</w> 514232
il ity</w> 511658
atin g</w> 511631
el y</w> 509508
con t 509453
k ing</w> 506081
en d 505702
me e 505483
Sec ret 504302
g u 503326
lo w 499918
ic al</w> 496283
o w 494623
u p 493572
sup port</w> 492474
or e</w> 491757
su ch</w> 491124
in v 488611
resolu tion</w> 485881
as e</w> 485462
In ter 485428
pol ic 485124
tr y</w> 482594
con tin 482412
un der</w> 482383
a f 481264
h e 479771
m s</w> 479616
is su 476256
ac e</w> 474898
w el 473221
or s</w> 472259
su l 471818
a u 471339
m a 470526
g h</w> 469168
fe ren 467458
ag e</w> 465244
e qu 465059
por t 464276
st an 463374
os e</w> 462235
St ate</w> 461897
com men 461355
sy st 461086
o d</w> 460530
al l 458258
on e</w> 449860
con si 448999
tr an 448955
inform ation</w> 448545
isi on</w> 447837
v es</w> 446612
str u 446367
or y</w> 444404
s es 444035
bl y</w> 442343
contin u 440507
p a 439929
ou r</w> 437746
e d 436891
ch il 436501
s peci 436197
r ic 436164
om ic</w> 431437
i th 431063
in g 430241
us e</w> 429938
e ar</w> 429624
em bly</w> 427686
imple mentation</w> 423981
f un 422371
h n 419489
Ass embly</w> 419037
m o 417621
u s</w> 417493
est abl 417289
ic ation</w> 417214
I t</w> 414666
res pon 413607
as ed</w> 413549
k e 412592
ad e</w> 411936
comm un 411746
ti cl 411644
tic al</w> 408718
u m</w> 408336
in t 408029
a re 406804
Govern ment</w> 406750
re commen 404525
A c 404077
be t 403229
d ra 402993
per i 399662
ti onal</w> 399559
A f 399376
vi ties</w> 399191
t ure</w> 398178
Con vention</w> 397763
conc er 396939
w ith 395850
p er</w> 395827
es e</w> 395778
on - 394858
bl e</w> 394466
feren ce</w> 394222
d el 394118
th rou 393696
oper ation</w> 391932
vi ew</w> 389396
rou p</w> 388723
e ffec 388642
ra p 388606
re por 388512
R ep 387612
a v 387155
ec on 386998
Comm ission</w> 385169
ci p 384660
acti vities</w> 382452
f l 381949
m ore</w> 381320
tri bu 380604
h an 378699
ses sion</w> 375743
us t</w> 375688
r an 374821
el d</w> 373543
me a 371423
f u 371278
re at 370919
D ec 370139
d re 369627
ment al</w> 368909
ap pro 368584
serv ic 368580
tran s 367288
tic ul 367085
i ti 366760
i al</w> 366673
m ade</w> 365200
res s</w> 363952
sur e</w> 363863
P ar 363274
c y</w> 362677
ain st</w> 362645
pl o 362635
m on 362375
f t</w> 361515
es ti 360718
o g 359173
om e</w> 358361
m es</w> 357958
m il 356444
our ces</w> 356308
es t</w> 356041
g overn 355302
c ap 355051
ag ainst</w> 354209
n ot 352273
par ticul 351674
A d 351614
su res</w> 351020
r u 350462
si ons</w> 350374
sh i 350153
v is 348414
Inter national</w> 348093
par t 347730
in cre 347340
ad op 347253
a i 347133
Secret ar 347024
em b 346758
throu gh</w> 345944
at eg 345522
s e</w> 345340
dre n</w> 344841
tec hn 344464
ticl e</w> 344016
ti cip 343883
we en</w> 343304
a il 340943
ef for 340933
fin an 340925
v er 340438
la w</w> 340017
vi ol 339935
establ ish 339576
c ent</w> 338753
y- General</w> 338638
Secretar y-General</w> 336192
ol low 336114
in to</w> 335399
bet ween</w> 333502
il l 333066
ag ement</w> 331540
t e</w> 331291
ag rap 331014
th ose</w> 330111
k s</w> 329332
un der 328128
o ffic 326499
regi onal</w> 326329
g es</w> 326059
os t</w> 324658
stru c 324238
C h 324009
an y</w> 322014
program me</w> 321817
W or 321669
mea sures</w> 320413
ur ing</w> 320119
ur al</w> 319865
au th 319128
s ed</w> 318117
sec urity</w> 317819
re pres 317661
0 0</w> 316927
m ain 315320
ol og 314779
par agrap 314477
as t</w> 313347
Af ric 312903
pro tec 312485
coun try</w> 311755
r on 311352
n um 310862
d ic 310375
f ul 309998
D evelop 309848
al ity</w> 309760
ac h</w> 309742
on g</w> 308922
syst em</w> 308660
m ar 308382
n ing</w> 306631
cri min 305886
par ticip 304958
organiz ations</w> 304616
si gn 303359
requ i 302701
R i 302305
lo c 302181
O ffic 301267
s it 300426
f ollow 300223
i f 300115
chil dren</w> 299181
t w 298382
or der</w> 298044
l ev 297264
effor ts</w> 296312
ist ance</w> 295662
ne w</w> 295572
wel l</w> 295299
im port 294066
l in 293993
mee ting</w> 293894
co operation</w> 293357
pe op 293072
ag re 291964
t or</w> 290990
c ur 290532
an s</w> 289600
si d 289584
e duc 288207
st at 288191
ar ds</w> 287913
res ources</w> 287550
il e</w> 287083
ad d 286624
g o 286398
lev el</w> 285208
f ir 284335
is m</w> 283757
f o 283628
m at 283620
al th</w> 283619
P re 282060
econ omic</w> 281735
ab ility</w> 281696
Rep ublic</w> 281661
n u 280819
A l 280117
f ra 280072
b o 279547
pro pos 279025
ch an 277778
a d</w> 277757
min is 277584
Con ference</w> 275817
ord in 275814
ren t</w> 275676
con tribu 275668
u ation</w> 275194
si s</w> 275170
lo b 275157
dra ft</w> 274578
al iz 274106
Develop ment</w> 273927
p s</w> 272748
st s</w> 271632
Ri ghts</w> 271283
num ber</w> 270562
pro jec 270490
ur ther</w> 270164
p en 268222
ud ge 267821
m emb 267174
issu es</w> 266988
l ar 266856
plo y 266064
en sure</w> 265949
si ble</w> 265192
m ak 264404
res pec 263962
provi de</w> 263783
e ments</w> 263137
ac t</w> 263067
in ing</w> 262797
Sec urity</w> 262294
the y</w> 261639
servic es</w> 261348
paragrap h</w> 261211
r it 260604
ap pl 260378
a in</w> 260203
r is 259629
G roup</w> 259489
ass istance</w> 259078
n ed</w> 259018
ou t 258530
en tr 258129
E x 257643
for e</w> 257558
si ve</w> 257523
re e</w> 257111
finan cial</w> 256664
re sul 256643
ov er</w> 256401
in stitu 255902
a y 255705
M r 255351
ter s</w> 255248
proc ess</w> 254876
n on- 254293
ren g 254083
vi ron 253374
h is</w> 253294
em s</w> 253086
recommen d 250900
th ese</w> 250320
so cial</w> 250231
is t</w> 248561
Mr .</w> 248402
n ec 246919
p h 246458
M in 246061
provi ded</w> 245974
el ec 245711
in di 245286
shi p</w> 244954
S peci 244935
isi ons</w> 244758
cap ac 244475
eg r 243965
program mes</w> 243051
i an</w> 243009
reng th 242723
af f</w> 242564
leg al</w> 242468
p ur 242403
A r 242330
Offic e</w> 242298
tak en</w> 242144
man agement</w> 241992
ac coun 241986
i tical</w> 241002
n er 240992
ad di 240693
ati ves</w> 240684
ti me</w> 240650
ar ticle</w> 240324
sub m 239888
bu il 239345
rel ev 239075
f urther</w> 239069
oc u 238890
1 0</w> 238464
memb ers</w> 238247
u p</w> 238107
O r 237871
I s 236985
pro duc 236813
lob al</w> 235771
as es</w> 235660
m ay</w> 235381
rel ated</w> 234967
C o 234959
repres ent 234824
c or 234567
i en 233830
H uman</w> 232898
str ateg 232691
st ain 232679
develop ing</w> 232547
is h</w> 232261
g ro 232153
it ted</w> 231996
are as</w> 231393
Speci al</w> 230781
b udge 230649
par ty</w> 229442
d em 229413
auth or 229305
ne ed</w> 229114
b a 228820
ev er</w> 227553
for m</w> 226950
with in</w> 225411
b ased</w> 225361
pers ons</w> 225151
tak e</w> 225091
ac tion</w> 224566
p end 224537
p ublic</w> 224246
peri od</w> 223797
c ould</w> 223727
il ities</w> 223588
in ci 223296
ac hi 222393
relev ant</w> 222337
particul ar</w> 222091
achi ev 221866
wh o</w> 221472
d ocu 221218
S u 221144
ot e</w> 220951
educ ation</w> 220605
ic e</w> 220238
a ir 219507
st aff</w> 219312
ex t</w> 219094
reg ul 218882
st rength 218681
ri ght</w> 218416
he alth</w> 217641
in iti 217366
po si 217344
th ere</w> 217327
d uring</w> 216839
m is 216473
Th is</w> 216436
e - 216370
peop le</w> 216233
h eld</w> 216054
en ts</w> 216021
cl ear</w> 215446
us ed</w> 215275
tw o</w> 213452
com pl 212317
r ati 212246
bu t</w> 211611
Min is 211543
i on</w> 211526
minis tr 210950
l an 210338
c an</w> 210289
ne e 210089
con s 210053
h ol 209947
s ome</w> 209430
iv er 209425
re view</w> 209274
tra ining</w> 209210
c ed</w> 208608
g s</w> 207891
ing s</w> 207808
der ation</w> 207656
n o</w> 207007
ari at</w> 206353
d ate</w> 205750
y ear 205715
th an</w> 205283
int egr 204792
si b 204649
& # 204558
&# 9 204558
Or ganiz 204378
R e 204214
m ed</w> 203391
on ly</w> 203371
com e</w> 202411
reg ard</w> 202182
protec tion</w> 202048
g ress</w> 201471
c ol 201393
adop ted</w> 201192
f ic</w> 201114
is l 200984
in ce</w> 199938
un d</w> 199458
sid ent</w> 199038
a st 198698
ain ed</w> 198586
hi gh 198481
dis c 198294
fir st</w> 197766
ic ations</w> 197286
A u 196795
en viron 196758
il it 196688
polic y</w> 195850
di es</w> 195849
year s</w> 195775
ac h 195486
be ing</w> 195434
l im 195113
pol itical</w> 194568
del eg 194473
t ly</w> 194345
e w 193623
acc ess</w> 192669
l ed</w> 192664
wor k 192346
m ust</w> 192300
y ear</w> 192220
the m</w> 192041
d at 191681
u ro 191678
i um</w> 190813
am e</w> 190527
j o 190411
fi ed</w> 190350
us ti 190081
m ost</w> 189712
id enti 189532
so ci 189384
1 5</w> 189253
li on</w> 189208
su stain 189086
1 2</w> 188808
c ul 188652
Pro gram 188650
ec han 188617
in t</w> 187304
t ors</w> 187072
s el 186943
s es</w> 186714
p u 186667
E n 186567
effec tive</w> 186426
co ordin 186383
E uro 186218
dec ision</w> 186159
requ est 185702
A s</w> 185628
our t</w> 185412
par ties</w> 184726
ten tion</w> 184643
recommend ations</w> 184588
th er 184363
r ul 184268
o m</w> 184231
disc us 183608
acc ord 183587
a im 183520
s p 183402
w e</w> 183189
ot h</w> 182893
A t</w> 182757
ad v 182630
ow ever</w> 182402
Dec ember</w> 181888
3 0</w> 181574
ar ly</w> 181380
continu e</w> 181342
fl ic 181278
cl u 180726
m er 180557
pro m 180083
Program me</w> 179689
follow ing</w> 179602
I I</w> 179585
inci pl 179300
commun ity</w> 179091
l es</w> 179081
on d</w> 178993
B o 178800
um an 178265
con sul 178150
rec e 177813
proc e 177782
appro pri 177433
v ely</w> 177109
s ch 176817
viol ence</w> 176588
v ing</w> 176550
f er 176524
M ember</w> 176475
a w 176403
h e</w> 176384
em ploy 176197
s ing</w> 175892
am il 175789
ex pres 175397
am ong</w> 175394
Pre sident</w> 175293
se t</w> 175166
in dic 174972
establish ed</w> 174948
en c 174521
Organiz ation</w> 174301
200 5</w> 174235
sit uation</w> 173915
ou ra 173866
respec t</w> 173845
buil ding</w> 173630
man y</w> 173520
accord ance</w> 173186
j ud 173181
me work</w> 172436
o w</w> 172403
I C 172354
2 0</w> 172151
nec ess 172074
t or 171969
S o 171961
repor ts</w> 171807
ul ation</w> 171789
s ev 171770
is e</w> 171391
C ha 171290
pro gress</w> 170887
par t</w> 170497
in e</w> 170343
1 1</w> 170309
g lobal</w> 170225
r or 169841
t ural</w> 169760
c ar 169503
ti on 169267
or ity</w> 169203
D e 168855
ab out</w> 168784
ro le</w> 168578
ci es</w> 167967
b ec 167136
vi l</w> 167135
P e 167025
con flic 166956
m echan 166904
techn ical</w> 166415
b oth</w> 166312
e ty</w> 166274
F or 166242
on g 166183
col l 166000
A n 165958
import ant</w> 165918
ff e 165484
ou th</w> 165361
wor king</w> 164938
speci al</w> 164823
N ational</w> 164550
ex am 164541
wh ere</w> 164476
im p 163905
i b 163884
an ts</w> 163267
1 4</w> 163070
ai d</w> 162962
ari an</w> 162737
olog y</w> 162402
Par ties</w> 162376
y ing</w> 162371
govern mental</w> 162283
200 9</w> 162264
usti ce</w> 162149
g rou 161692
budge t</w> 161622
b el 161610
chan ge</w> 161609
D is 161596
ig h</w> 161342
k no 161306
com ple 161188
leg isl 160952
f oc 160433
P er 160274
ac e 160208
s er 160125
1 0 160084
ati on 159979
the re 159905
crimin ation</w> 159887
ob jec 159653
me di 159544
Afric a</w> 159293
inv ol 158870
un e</w> 158489
tin gs</w> 158432
i d</w> 158426
I D 158148
b en 158096
c ing</w> 158076
ag en 158062
v ari 158059
ag end 157854
ass ess 157788
Bo ard</w> 157542
c ases</w> 157472
g ed</w> 157397
t reat 157308
av ail 157169
sh all</w> 157163
p an 156985
mon it 156502
consul t 156355
institu tions</w> 156154
v al 155888
pr incipl 155524
de red</w> 155460
grou ps</w> 155114
J une</w> 154926
ul ti 154830
L e 154668
stan d 154578
gen der</w> 154553
iz ed</w> 154461
i p 153987
enti al</w> 153944
, 0 153922
1 3</w> 153883
ba sis</w> 153379
mil lion</w> 153319
200 7</w> 153259
n ium</w> 153082
pe ace</w> 153025
agend a</w> 152956
200 6</w> 152800
ec u 152679
M ar 152571
201 0</w> 152519
pri v 152416
polic ies</w> 152285
sib ility</w> 152203
h uman 152175
or ing</w> 152115
de pend 151860
sup por 151757
o re 151581
ep t 151481
l at 151251
f ication</w> 151224
appropri ate</w> 151105
200 8</w> 150867
W e</w> 150711
capac ity</w> 150495
im pl 150442
necess ary</w> 150315
o p</w> 150197
Afric an</w> 149868
201 1</w> 149536
we ap 148970
pres ent</w> 148730
u r</w> 148718
ac k</w> 148699
gu id 148589
ul y</w> 148403
it arian</w> 148272
ig n</w> 148038
1 8</w> 147961
add res 147944
f amil 147913
pro mo 147852
v ic 147635
E con 147167
en ing</w> 147139
p op 146550
di rec 146545
all en 146438
ay s</w> 146136
re duc 146086
im prov 145972
requi re 145875
bl ig 145770
1 6</w> 145413
P ol 145177
co gn 145144
con duc 145111
at t 145109
n al</w> 144796
O c 144786
comm it 144613
kno w 144364
Wor ld</w> 144006
200 4</w> 144001
pl an 143815
dat a</w> 143659
o blig 143620
i f</w> 143514
ex per 143376
imple men 143359
F e 143352
pos sible</w> 143323
k ed</w> 143285
loc al</w> 143097
pl ac 143061
re cogn 142929
mee tings</w> 142801
ter ror 142799
t y- 142798
fra mework</w> 142566
a ff 142523
not ed</w> 142519
pr ac 142366
o ci 142339
ben ef 142237
wor ld</w> 141925
cont ro 141923
n eg 141885
l and</w> 141753
&apos ;</w> 141705
es tin 141379
pr is 141211
R eg 141022
ch allen 140554
speci fic</w> 140480
oc c 140391
oun d</w> 140266
. 1</w> 139953
includ e</w> 139899
incre ase</w> 139782
pl ace</w> 139518
O n</w> 139484
C entr 139465
s ame</w> 139438
is ting</w> 139411
prov isions</w> 139369
regi on</w> 139366
200 3</w> 139353
t ain</w> 139194
d ay</w> 139014
So cial</w> 138988
Econ omic</w> 138920
ma j 138195
su m 138189
propos ed</w> 138144
W omen</w> 137785
e y</w> 137725
T o</w> 137500
sustain able</w> 137466
ag es</w> 137095
pre par 137066
develop ed</w> 136988
c ase</w> 136770
over ty</w> 136661
P al 136530
nee ds</w> 136509
vi du 136337
iver s 136152
ent ly</w> 135499
soci ety</w> 135469
be fore</w> 135385
g eneral</w> 135352
s ince</w> 135319
c er 135132
sec tor</w> 135100
res t</w> 134943
consi deration</w> 134862
Wor king</w> 134850
se e</w> 134845
b an 134608
con di 134513
em p 134152
J uly</w> 134117
C ourt</w> 133539
ac ts</w> 133537
vi ew 133461
mak e</w> 133139
ter min 133114
al e</w> 132978
1 7</w> 132974
W h 132831
enc oura 132811
it em</w> 132529
L a 132253
s c 132185
iz ation</w> 132183
th ree</w> 131982
indi vidu 131972
ow n</w> 131582
h ar 131495
e t</w> 131403
it e</w> 131374
are a</w> 131201
ati s 131153
continu ed</w> 130971
avail able</w> 130737
200 0</w> 130716
ke ep 130641
u e</w> 130582
en d</w> 130484
o ff 130403
issu e</w> 130356
ad ministr 130175
al y 130165
in es</w> 130032
particip ation</w> 130006
N o 130005
Is ra 129641
add ress</w> 129639
concer ned</w> 129614
rece iv 129568
ful l</w> 129549
prom ote</w> 129428
it ary</w> 129384
re li 129216
g roup</w> 129090
F und</w> 129066
h en 128839
l evel 128834
wh ile</w> 128750
nu clear</w> 128626
lo w</w> 128576
projec t</w> 128472
keep ing</w> 128470
3 1</w> 128461
port un 128446
a m</w> 128427
d om 128416
am oun 128351
en g 128345
tra de</w> 128264
to w 128236
wh en</w> 128221
S erv 128160
1 9</w> 128071
id e</w> 128042
Pal estin 127787
consi dered</w> 127784
with out</w> 127781
ma in</w> 127606
air s</w> 127513
particul arly</w> 127451
conflic t</w> 127393
g iv 127295
2 5</w> 127198
,0 00</w> 127126
200 2</w> 127110
m ulti 126974
part ment</w> 126952
accoun t</w> 126893
Euro pe 126833
H e 126828
i tion</w> 126783
level s</w> 126457
pre hen 126443
con tr 126381
pl an</w> 126356
i ous</w> 126250
d ers</w> 126116
u st 125840
Europe an</w> 125788
ab or 125621
di ffe 125443
fac ilit 125328
h el 125222
e t 125221
i ed</w> 125209
200 1</w> 125098
fun c 125066
2 1</w> 125035
pro bl 124672
re main 124592
por te 124307
p overty</w> 124271
ot al</w> 124253
ci vil</w> 124153
th ir 124048
lar ation</w> 123894
D i 123858
ob serv 123762
deleg ation</w> 123539
import ance</w> 123479
in ation</w> 123387
h al 123382
201 2</w> 123242
human itarian</w> 123118
qu es 123068
o ds</w> 122857
in te 122817
mat er 122704
esti g 122635
addi tion</w> 122545
n at 122435
d es</w> 122255
requi red</w> 122078
author ities</w> 121938
bo dies</w> 121733
com b 121573
require ments</w> 121445
d es 121434
t re 121329
Ac tion</w> 120857
at ors</w> 120759
s aid</w> 120736
w ay</w> 120719
ar ma 120506
s m 120420
subm itted</w> 120377
op portun 120334
gen cy</w> 120310
en ces</w> 120251
dis crimination</w> 120224
c all 120160
vari ous</w> 120092
gen ous</w> 120055
co l</w> 119958
to col</w> 119902
vis ory</w> 119767
la w 119749
mil itary</w> 119673
Secret ariat</w> 119610
ter m</w> 119582
ke y</w> 119435
- -</w> 119321
prehen sive</w> 119298
sec u 119206
fi eld</w> 119150
if ic 119091
A mer 119075
si a</w> 119067
cur rent</w> 118930
De partment</w> 118913
projec ts</w> 118892
i ght</w> 118826
I V</w> 118745
wh e 118707
UN D 118567
al ia</w> 118529
for ce</w> 118287
Amer ic 118269
ne l</w> 118149
oper ations</w> 117984
up on</w> 117943
ne x</w> 117909
agen cies</w> 117727
at ory</w> 117712
G u 117693
Un ion</w> 117677
R ap 117476
C ri 117460
arma ment</w> 117304
u al</w> 117259
A ra 117088
aliz ation</w> 116951
a ffec 116819
T ra 116737
el l 116727
2 2</w> 116695
e ach</w> 116688
ful ly</w> 116606
se qu 116519
199 9</w> 116507
ac y</w> 116418
chil d</w> 116351
F in 116223
pers on 115885
g re 115804
ap pe 115656
R ec 114876
2 3</w> 114817
sign ific 114754
le d 114731
addi tional</w> 114606
ar ding</w> 114587
S ept 114560
Rap porte 114487
M ission</w> 114476
vic ti 114411
a use</w> 114293
imp act</w> 114266
c our 114234
Sept ember</w> 113920
lin e</w> 113862
k e</w> 113854
ecu tive</w> 113846
g ing</w> 113710
pl e</w> 113704
201 3</w> 113639
N ov 113525
n s</w> 113523
La w</w> 113516
stan ding</w> 113427
M I 113213
fu l</w> 113179
request ed</w> 113147
ace keeping</w> 113133
M e 112972
2 4</w> 112913
le ad 112850
o k</w> 112801
cont ext</w> 112691
repor ting</w> 112349
C O 112322
pur pos 112283
R es 112280
af ter</w> 112267
f y</w> 112210
weap ons</w> 112207
H owever</w> 112139
Oc to 111643
Govern ments</w> 111575
gro w 111493
Rapporte ur</w> 111325
appro ach</w> 111284
Octo ber</w> 111054
M ay</w> 110823
Nov ember</w> 110776
docu ment</w> 110651
not e</w> 110588
an aly 110212
sch o 110154
pop ulation</w> 110122
agre ed</w> 110030
o l</w> 109939
ef u 109921
de b 109896
sub jec 109848
ev al 109575
1 5 109569
ol s</w> 109567
esti c</w> 109406
i als</w> 108954
inv estig 108883
de termin 108752
f re 108555
tow ards</w> 108521
y p 108486
tic es</w> 108403
establish ment</w> 108347
d o</w> 108304
priv ate</w> 108261
fu ture</w> 108122
polic e</w> 108081
struc tion</w> 108032
sub stan 107922
man date</w> 107805
th ou 107788
I m 107610
ch ar 107497
i gh 107484
condi tions</w> 107465
d on 107430
an u 107410
c ement</w> 107354
N ew</w> 107345
Pro tocol</w> 107331
t otal</w> 107163
er ia</w> 107135
A ff 106920
si on 106881
know led 106819
monit oring</w> 106794
ess es</w> 106781
is ms</w> 106775
o d 106741
c c 106678
person nel</w> 106616
represent atives</w> 106553
legisl ation</w> 106482
resolu tions</w> 106296
o ti 106295
organiz ation</w> 106192
re ad 106059
Mar ch</w> 106059
G en 105849
S outh</w> 105841
Ac t</w> 105548
m ig 105472
in stru 105405
in a</w> 105083
fo re 105028
o f 104999
ab ilities</w> 104936
s en 104931
m ember</w> 104559
m ission</w> 104412
c ent 104353
i ent</w> 104288
our ce</w> 104255
d ated</w> 104138
h ou 104123
ar ge 104071
c an 103987
pur su 103905
l s</w> 103784
j ustice</w> 103755
it al</w> 103740
posi tion</w> 103652
2 6</w> 103649
ac tions</w> 103637
1 ;</w> 103601
&#9 1;</w> 103601
t ary</w> 103474
sec ond</w> 103445
cont ained</w> 103439
c are</w> 103405
contro l</w> 103300
Ar ticle</w> 103277
Aff airs</w> 103262
syst ems</w> 103126
se t 103064
incre ased</w> 103000
ap prov 102886
concer n</w> 102816
i ve</w> 102801
hal f</w> 102779
st ri 102715
ist an</w> 102651
199 8</w> 102641
pro ve</w> 102570
su cc 102562
at ely</w> 102558
b ro 102144
F or</w> 102144
fl ec 102083
inv est 101835
dom estic</w> 101834
re flec 101788
employ ment</w> 101622
v ed</w> 101533
mechan isms</w> 101529
maj or</w> 101468
d a</w> 101457
oc rati 101421
po w 101372
stat us</w> 101024
at er</w> 101019
prov ision</w> 101016
3 ;</w> 100957
&#9 3;</w> 100957
tic s</w> 100946
de t 100935
s ol 100865
du res</w> 100849
com prehensive</w> 100677
giv en</w> 100672
ir e</w> 100583
de fin 100568
effec ti 100544
at tention</w> 100534
enti t 100407
ad equ 100378
ex ten 100320
res ent 100317
fi f 100236
d o 100176
ati c</w> 100151
aliz ed</w> 100093
ex isting</w> 100075
coordin ation</w> 99993
h er</w> 99888
ear ch</w> 99821
prac tices</w> 99660
Minis try</w> 99557
requ est</w> 99482
tak ing</w> 99454
g g 99345
form s</w> 99285
ic es</w> 99140
ffic king</w> 99091
J anu 99038
m ary</w> 98833
pers on</w> 98655
gen er 98648
rel ating</w> 98568
com pe 98328
it ation</w> 98306
ar med</w> 98290
en ted</w> 98231
mar ke 98209
2 7</w> 98144
expres sed</w> 98142
struc ture</w> 98059
Dec laration</w> 98049
Cha ir 98026
con stitu 97857
co sts</w> 97850
al o 97805
neg oti 97753
No .</w> 97745
Janu ary</w> 97733
man ent</w> 97648
strength en</w> 97620
B an 97461
equ ality</w> 97459
includ ed</w> 97356
ex peri 97182
n ers</w> 97171
gu e</w> 97095
in depend 97083
impl ement</w> 97073
C . 96848
st ud 96741
A pri 96708
Apri l</w> 96698
consi der</w> 96692
M on 96681
sec ret 96670
2 8</w> 96624
represent ative</w> 96583
ric ul 96563
concer ning</w> 96536
proce dures</w> 96486
receiv ed</w> 96461
Rep resent 96345
S up 96235
stand ards</w> 96230
techn ology</w> 96049
th em 95976
tu al</w> 95958
mak ing</w> 95815
e f</w> 95749
1 3 95720
ab our</w> 95642
challen ges</w> 95570
st e 95501
resul t</w> 95328
s pec 95111
S y 95033
there fore</w> 94945
pa red</w> 94917
v il 94874
es peci 94769
po in 94676
especi ally</w> 94620
econ om 94584
int ro 94583
M an 94527
ter rit 94479
T A 94319
b ien 94279
m an</w> 94154
Di rec 94048
m u 94046
p ubl 93921
ocrati c</w> 93904
indi genous</w> 93747
li f 93743
ti ves</w> 93577
UN C 93529
t able</w> 93402
de f 93388
s ex 93331
m un 93290
ev er 93289
H e</w> 93153
si x 93149
R ev 92958
im prove</w> 92941
t en</w> 92800
servic e</w> 92661
b un 92658
Th ere</w> 92563
ear ly</w> 92504
reg arding</w> 92260
stat ement</w> 92126
com p 92121
crimin al</w> 92080
me ans</w> 91890
m it</w> 91879
g o</w> 91706
me th 91686
t arge 91672
ris k</w> 91458
whe ther</w> 91408
per form 91377
Ch il 91346
ex c 91342
Ex ecutive</w> 91317
ab o 91263
alo gue</w> 91149
i l</w> 91114
ter ms</w> 90835
famil y</w> 90795
addres sed</w> 90780
t ro 90722
entit led</w> 90666
ex pec 90593
repor ted</w> 90565
principl es</w> 90511
UND P</w> 90487
respon sibility</w> 90398
2 9</w> 90394
du e</w> 90329
si an</w> 90140
provi ding</w> 90127
respon se</w> 90046
rul es</w> 89940
ag ed</w> 89896
T ri 89883
ver y</w> 89863
g y</w> 89835
qu ar 89772
fun ds</w> 89744
wel com 89722
oblig ations</w> 89673
environ ment</w> 89658
pro f 89429
abo ve</w> 89340
it er 89328
ci vil 89261
m ov 89237
Ad visory</w> 89113
Su b 88992
adop tion</w> 88987
assess ment</w> 88915
evel op</w> 88850
si z 88775
victi ms</w> 88591
iz e</w> 88549
em er 88492
b r 88454
b i 88398
6 0</w> 88203
coll ec 88110
5 0</w> 87996
m en</w> 87955
pre vi 87887
environ mental</w> 87662
qu ality</w> 87594
n ation 87303
re as 87287
v e 87240
s em 87158
N or 87110
Ara b</w> 87065
sign ed</w> 87052
amoun t</w> 87050
initi atives</w> 87015
I ra 86961
con ven 86939
strength ening</w> 86904
H C 86839
an nu 86830
in ess</w> 86819
provi des</w> 86729
L . 86721
cl aim 86705
terror ism</w> 86703
par a</w> 86675
esti m 86549
ffic ient</w> 86527
jud ic 86464
secret ariat</w> 86436
v ol 86391
du ce</w> 86360
re fu 86292
efu l</w> 86261
Palestin ian</w> 86188
1 4 86097
form ation</w> 85814
incre as 85767
se e 85739
u re 85718
pr acti 85660
agre ement</w> 85625
thir d</w> 85531
ar ran 85528
o di 85419
diffe rent</w> 85258
b al 85161
u t 85130
P l 85060
m y</w> 85043
Re port</w> 85040
in ed</w> 84981
dec id 84980
occ up 84899
thou gh</w> 84832
or ies</w> 84628
ra is 84518
olog ical</w> 84506
a ren 84479
no w</w> 84433
ner ship</w> 84398
l ong 84331
ass oci 84303
sp ace</w> 84292
l ack</w> 84205
l ess</w> 84054
w ater</w> 84017
sev eral</w> 83906
n er</w> 83873
tra fficking</w> 83794
el ines</w> 83700
strateg y</w> 83598
l l</w> 83594
P an 83584
signific ant</w> 83582
contribu tions</w> 83543
di d</w> 83474
ar ms</w> 83393
ci r 83360
pre v 83271
g reat 83245
n or 83230
D em 83174
pe acekeeping</w> 83093
treat ment</w> 83035
mis sions</w> 82753
is ts</w> 82744
d evelop</w> 82683
T er 82561
en th</w> 82518
or ities</w> 82494
b ru 82468
adv an 82455
dec isions</w> 82259
ov en 82153
resul ts</w> 82143
refu ge 82095
a men 82068
fre ed 82068
intro duc 81744
lif e</w> 81744
in ten 81661
fer red</w> 81661
commit ment</w> 81559
si c</w> 81538
integr ation</w> 81456
subjec t</w> 81327
si de</w> 81210
ed ure</w> 81138
adequ ate</w> 81034
pre vention</w> 80996
Th ese</w> 80985
1 8 80915
f er</w> 80910
W ith</w> 80891
- up</w> 80835
h ow</w> 80731
Ad ministr 80725
c a 80627
pro per 80604
cur ren 80545
exam ple</w> 80516
ain ing</w> 80447
fo od</w> 80396
govern ment</w> 80306
H igh</w> 80298
ti c</w> 80115
ov e 80106
cul tural</w> 80054
plan ning</w> 80034
H IV</w> 80029
ac tive</w> 80015
Serv ice</w> 80014
regul ar</w> 79970
rul e</w> 79970
s .</w> 79968
emp ha 79947
fun ding</w> 79939
In di 79886
1 . 79799
r ation</w> 79766
read y</w> 79736
g ir 79708
ques tion</w> 79658
E S 79576
con f 79563
h igh</w> 79549
ID S</w> 79466
di alogue</w> 79273
plac ed</w> 79273
op e</w> 79268
sur ing</w> 79136
pos ed</w> 78901
b us 78884
Represent ative</w> 78691
con clud 78636
sex ual</w> 78577
Fe bru 78455
th s</w> 78356
st - 78340
19 8 78062
organiz ed</w> 78005
ou s 77989
er ing</w> 77845
Au g 77827
rec ent</w> 77765
ar an 77717
establ ish</w> 77700
clu sion</w> 77671
Febru ary</w> 77649
dis armament</w> 77597
consult ations</w> 77490
part ners</w> 77477
bel i 77448
an nex</w> 77433
bien nium</w> 77416
I O 77380
re form</w> 77366
sup pl 77280
bec ause</w> 77225
v ity</w> 77217
car ri 77151
be half</w> 77147
G o 76971
A IDS</w> 76867
Aug ust</w> 76724
foc us</w> 76722
aff ir 76656
Wh ile</w> 76557
T reat 76547
h o 76494
2 . 76484
sti ll</w> 76398
appl ication</w> 76319
ai m</w> 76266
d y</w> 76262
s an 76186
b il 76155
aw aren 76011
equ ip 75925
ex plo 75900
tran si 75899
li ght</w> 75896
comm on</w> 75851
en han 75831
is sion 75820
li a 75797
sm all</w> 75766
recommen ded</w> 75751
view s</w> 75730
Th ey</w> 75708
viol ations</w> 75668
str ic 75597
bun al</w> 75578
Ad d 75504
ex er 75495
s a 75441
b an</w> 75441
en nium</w> 75437
s s</w> 75245
s pe 75173
O n 75068
4 0</w> 75007
suppor ted</w> 74940
en for 74871
at or</w> 74865
it y- 74851
oper ational</w> 74825
ti m 74766
p ot 74721
peop les</w> 74704
grow th</w> 74691
stitu tion</w> 74677
r ac 74557
decid ed</w> 74521
fac t</w> 74513
St at 74465
ish ed</w> 74315
annu al</w> 74300
E F</w> 74272
th ers</w> 74243
c ris 74220
r ate</w> 74179
reduc tion</w> 74107
practi ce</w> 74099
us es</w> 74060
cor por 74034
strateg ies</w> 74009
pri ority</w> 73971
cl os 73893
res earch</w> 73766
administr ative</w> 73743
in come</w> 73709
c entr 73701
cri me</w> 73648
produc tion</w> 73637
promo tion</w> 73575
Centr e</w> 73280
M al 73258
ac k 73214
reg is 73199
for ces</w> 73166
k ill 73139
al leg 73087
le ast</w> 73059
strateg ic</w> 73059
us ing</w> 72993
law s</w> 72880
1 7 72814
pa ren 72732
di t</w> 72661
hel p</w> 72576
ffic ul 72459
nee ded</w> 72392
w ide</w> 72378
request s</w> 72297
implemen ting</w> 72289
con nec 72217
do es</w> 72214
M ill 72155
non- governmental</w> 72094
commun ities</w> 72088
Americ a</w> 72025
1 6 72014
en h 71958
ep t</w> 71900
f ree</w> 71844
reli g 71805
ec hn 71785
Al l</w> 71765
call ed</w> 71622
gir ls</w> 71577
di fficul 71541
ret ur 71519
M s.</w> 71447
e th 71363
quar ters</w> 71326
d ates</w> 71161
199 7</w> 71151
- term</w> 71103
shi ps</w> 71077
en er 71063
exer c 71055
Mill ennium</w> 71026
ti z 70886
p at 70837
agre ements</w> 70826
a z 70784
not es</w> 70755
implemen ted</w> 70704
in du 70696
auth or</w> 70695
b ia</w> 70628
su gg 70583
d a 70535
promo ting</w> 70466
c am 70426
E ast</w> 70351
D iv 70345
eval uation</w> 70345
h owever</w> 70259
ul ner 70249
s olu 70216
ne t 70213
lan ds</w> 70193
sec tion</w> 70146
L ib 70138
I II</w> 70114
v o 70017
b eg 69895
aim ed</w> 69849
id ence</w> 69844
affec ted</w> 69737
Isra el</w> 69729
respon sible</w> 69728
ven ess</w> 69716
li ke</w> 69662
pl ans</w> 69603
s ci 69591
S a 69573
po sts</w> 69563
knowled ge</w> 69559
ex pl 69551
he ad 69551
coll abor 69546
treat y</w> 69494
prev ent</w> 69381
perform ance</w> 69368
jo int</w> 69321
st ep 69279
si onal</w> 69226
offic es</w> 69214
docu ments</w> 69207
probl ems</w> 69204
Comm ission 69153
d ru 69034
comm itted</w> 69015
cer tain</w> 68979
de ploy 68897
w ays</w> 68816
Ira q</w> 68801
In formation</w> 68721
f our</w> 68700
Pan el</w> 68658
ge ther</w> 68633
er ship</w> 68591
v ulner 68524
b er 68503
go ing</w> 68484
invest ment</w> 68470
rec or 68466
to ok</w> 68451
equip ment</w> 68445
Div ision</w> 68381
compl i 68360
re st 68103
instru ments</w> 68085
ous ly</w> 68079
C oven 68012
achiev e</w> 67962
cl im 67933
wor ks</w> 67914
fi ve</w> 67883
analy sis</w> 67809
j ur 67736
objec tives</w> 67714
facilit ate</w> 67664
f - 67388
tra di 67350
or t 67312
ticl es</w> 67293
hol ders</w> 67289
proc edure</w> 67128
t ter</w> 67118
approv ed</w> 67096
previ ous</w> 67059
set t 66936
pu t</w> 66854
inform ed</w> 66844
fe ty</w> 66788
ic ally</w> 66737
in e 66703
an ti 66696
pa y 66686
work sh 66667
invol ved</w> 66652
conduc t</w> 66641
b it 66623
is sions</w> 66604
our th</w> 66501
te red</w> 66486
ev en</w> 66384
t ation</w> 66347
pend it 66332
T echn 66273
en suring</w> 66203
st ak 66200
individu al</w> 66174
Tri bunal</w> 66168
st ated</w> 66136
Coven ant</w> 66109
as pec 66092
recommend ation</w> 66092
enh ance</w> 66072
Dem ocratic</w> 66064
- based</w> 65964
al low 65816
n am 65751
Ch ina</w> 65691
expec ted</w> 65689
ti l 65650
c ha 65602
t ent</w> 65597
D uring</w> 65550
G lobal</w> 65545
ge ments</w> 65541
UN O 65531
r ural</w> 65530
al ready</w> 65516
opportun ities</w> 65482
proc esses</w> 65440
discus sion</w> 65422
en su 65403
gra ph 65367
m ight</w> 65256
un ivers 65207
aran te 65200
ra ft</w> 65147
ener gy</w> 65143
Centr al</w> 64963
S um 64934
Co ordin 64887
step s</w> 64861
In stitu 64781
carri ed</w> 64747
stat ements</w> 64704
u res</w> 64638
wh at</w> 64570
to gether</w> 64529
bet ter</w> 64523
Commission er</w> 64478
lan gu 64458
P - 64391
n ess</w> 64247
guid elines</w> 64240
Pl an</w> 64181
offic e</w> 64157
go od</w> 64012
R us 64007
equ al</w> 64007
s af 64003
pot ential</w> 63981
S ud 63931
x im 63928
en ed</w> 63928
r up 63918
great er</w> 63859
exper ts</w> 63774
Minis ter</w> 63763
C an 63742
iz ing</w> 63676
proper ty</w> 63614
mat ters</w> 63600
u ations</w> 63592
mee t</w> 63543
c ost</w> 63507
principl e</w> 63428
fac ilities</w> 63423
c um 63405
under taken</w> 63356
consi der 63289
S tr 63239
om s</w> 63229
b est</w> 63216
clim ate</w> 63211
stak e 63174
Treat y</w> 63144
T ran 63130
commun ication</w> 63124
finan cing</w> 63070
pre ci 63047
Cri min 62962
purpos e</w> 62912
l ing</w> 62903
b ur 62895
re at</w> 62759
mechan ism</w> 62742
ba sic</w> 62737
Pe op 62701
bus iness</w> 62697
ther n</w> 62671
ass ist</w> 62626
b ri 62620
our s</w> 62610
l os 62571
ser ious</w> 62523
lim ited</w> 62382
il y</w> 62381
st re 62345
el im 62322
gu arante 62307
201 4</w> 62281
propos als</w> 62239
st atis 62214
pro secu 62107
a ir</w> 62080
offic ial</w> 62063
ail ed</w> 62016
tion ed</w> 61944
judic ial</w> 61936
chan ges</w> 61917
fore ign</w> 61861
Me e 61830
ess ential</w> 61813
w ard</w> 61812
Ch ar 61769
O p 61751
hi b 61703
arran gements</w> 61684
Crimin al</w> 61678
under standing</w> 61651
Comm un 61647
in fra 61626
awaren ess</w> 61550
se ts</w> 61546
Sup port</w> 61495
curren tly</w> 61486
ci tiz 61476
work ers</w> 61448
go als</w> 61406
w it 61389
l abour</w> 61359
Per manent</w> 61268
compli ance</w> 61244
Man agement</w> 61166
m ob 61157
pen s 61155
stan ces</w> 61139
t as 61078
li ving</w> 61053
issu ed</w> 61037
en s</w> 61028
lat eral</w> 61010
cons ist 61003
E C 60902
an n 60844
A b 60771
O per 60729
independ ent</w> 60516
5 7</w> 60498
conduc ted</w> 60490
i ans</w> 60464
v ision</w> 60417
A p 60362
Ban k</w> 60339
increas ing</w> 60272
c e 60259
individu als</w> 60255
- level</w> 60214
recommen ds</w> 60179
J o 60114
benef its</w> 60034
stud y</w> 59912
mat ter</w> 59889
Isra el 59868
ing ly</w> 59860
Rev i 59849
dis tribu 59842
oun d 59824
re vis 59810
po int</w> 59771
ex pendit 59750
Co de</w> 59688
contribu te</w> 59676
y o 59672
c ro 59642
t es</w> 59590
olog ies</w> 59549
S e 59467
N G 59441
offic ials</w> 59430
d om</w> 59416
6 1</w> 59409
ar ing</w> 59330
p ast</w> 59278
integr ated</w> 59225
5 8</w> 59203
er n</w> 59197
identi fied</w> 59196
T ur 59170
inte rest</w> 59168
ar s</w> 59166
6 5</w> 59163
nat ure</w> 59096
Direc tor</w> 58901
compl ain 58854
la un 58829
propos al</w> 58810
cris is</w> 58792
Chair man</w> 58782
or ig 58777
1 , 58747
th - 58687
5 5</w> 58651
For um</w> 58632
C ol 58627
beli ev 58600
enti ties</w> 58573
A sia</w> 58566
protec t</w> 58554
ic s</w> 58544
marke t</w> 58499
Im ple 58491
vol un 58441
IC EF</w> 58427
J ustice</w> 58392
ag ricul 58332
Revi ew</w> 58168
recogn ized</w> 58165
al loc 58163
5 9</w> 58150
pre pared</w> 58133
at eral</w> 58127
Fe deration</w> 58101
ev a</w> 57998
t yp 57949
commit ments</w> 57924
func tions</w> 57876
tec tion</w> 57844
da mental</w> 57801
pursu ant</w> 57772
re ach 57714
cri mes</w> 57703
li fer 57674
ic it</w> 57643
ap preci 57628
d ical</w> 57585
pres ented</w> 57570
ity- building</w> 57543
concer ns</w> 57497
over all</w> 57447
de tention</w> 57441
res erv 57428
Af gh 57420
dis ast 57378
h s</w> 57329
Sud an</w> 57288
dra w 57286
3 5</w> 57266
ar ticles</w> 57235
ex change</w> 57195
6 7</w> 57167
A gre 57137
I N 57081
l ist</w> 57070
an g 56966
negoti ations</w> 56915
sem in 56820
bec ome</w> 56728
lifer ation</w> 56716
author ity</w> 56677
z er 56629
En viron 56608
Le ban 56565
Gen eva</w> 56559
infra structure</w> 56505
A gency</w> 56479
commun ications</w> 56469
u b 56459
aspec ts</w> 56410
i or</w> 56280
. 2</w> 56264
man ner</w> 56211
Per s 56188
ne t</w> 56176
jur is 56173
op s</w> 56157
an d 56127
dis abilities</w> 56115
6 4</w> 56039
th us</w> 56039
UN ICEF</w> 55901
of ten</w> 55861
6 2</w> 55850
deleg ations</w> 55833
5 3</w> 55790
Th at</w> 55765
enfor cement</w> 55732
i onal</w> 55703
nat ural</w> 55641
m b 55639
Rus sian</w> 55625
por ts</w> 55589
institu tional</w> 55582
Str ateg 55524
en cy</w> 55508
O ther</w> 55506
scho ol</w> 55500
K ing 55462
govern ance</w> 55459
6 3</w> 55457
ish ment</w> 55357
Tra de</w> 55350
Mee ting</w> 55332
Can ad 55277
E R 55265
m ing</w> 55225
trans fer</w> 55215
c ust 55091
lar ge</w> 55080
follow -up</w> 55044
contribu tion</w> 55041
ment ary</w> 54993
del iver 54974
freed om</w> 54951
He ad 54854
regi ons</w> 54817
bel ow</w> 54794
c ateg 54758
Israel i</w> 54727
sel f- 54632
ses sions</w> 54604
remain s</w> 54564
tor al</w> 54531
empha siz 54479
stake holders</w> 54438
pre ven 54351
al ities</w> 54332
re ach</w> 54330
on d 54330
Imple mentation</w> 54308
r ant</w> 54304
le ar 54280
opportun ity</w> 54260
King dom</w> 54180
enti fic</w> 54131
3 3</w> 54123
prepar ation</w> 54111
E duc 54082
re ferred</w> 54072
Co operation</w> 54036
pri mary</w> 54034
UNC TA 54020
p tion</w> 54018
medi a</w> 54014
feren ces</w> 53986
e i 53946
ter n 53891
E P</w> 53885
in ter</w> 53878
5 2</w> 53823
o thers</w> 53799
vi a</w> 53786
men tioned</w> 53764
fun damental</w> 53709
5 4</w> 53610
an other</w> 53591
me dical</w> 53590
cl ear 53584
UNCTA D</w> 53576
V i 53524
multi lateral</w> 53471
Reg ional</w> 53438
y s 53408
res ource</w> 53372
ac tors</w> 53352
l ast</w> 53350
Un it</w> 53337
re ference</w> 53334
g ive</w> 53333
di ver 53217
UN F 53194
is ted</w> 53155
paragrap hs</w> 53140
n ext</w> 53101
prof es 53056
appl ic 53047
on going</w> 52990
ain s</w> 52984
refuge es</w> 52901
c over 52833
co oper 52814
cent res</w> 52782
mon ths</w> 52744
199 6</w> 52688
out come</w> 52685
F ore 52649
en ter 52557
capac ity-building</w> 52553
S A 52543
. 4</w> 52536
Fin an 52518
On e</w> 52513
y et</w> 52507
5 6</w> 52500
connec tion</w> 52495
acc or 52493
em por 52463
ev idence</w> 52443
succ ess 52440
comm ittee</w> 52416
5 1</w> 52399
3 2</w> 52360
Con stitution</w> 52339
indic ated</w> 52197
w a 52189
P A</w> 52146
f ound</w> 52083
sib ilities</w> 52063
su fficient</w> 52058
exerc ise</w> 52046
l ement</w> 52039
i i</w> 52026
inter nal</w> 52021
probl em</w> 52019
val ue</w> 51966
de si 51931
J ap 51904
Char ter</w> 51890
c ourt</w> 51861
oun g</w> 51810
re main</w> 51799
4 5</w> 51793
Go als</w> 51762
effec t</w> 51726
re duce</w> 51674
ure ment</w> 51640
car r 51581
hol d</w> 51575
sel f</w> 51519
con struction</w> 51445
A n</w> 51352
elec ted</w> 51322
ur ther 51317
6 6</w> 51302
com pon 51275
com es</w> 51216
201 5</w> 51216
all ing</w> 51179
3 4</w> 51172
subm it</w> 51125
experi ence</w> 51111
g a 51049
un d 51015
bo dy</w> 51013
se par 50996
offic ers</w> 50996
inform al</w> 50953
o graph 50895
re stric 50883
B el 50849
ari es</w> 50844
claim s</w> 50836
welcom ed</w> 50834
rec ru 50812
achiev ed</w> 50790
con ference</w> 50749
gro und</w> 50661
substan tive</w> 50651
gh out</w> 50628
S ou 50625
ever y</w> 50592
o - 50584
in st 50519
ul ations</w> 50511
Sum mit</w> 50474
I T 50400
pe ac 50396
effecti vely</w> 50365
for ward</w> 50346
y a</w> 50332
g ran 50312
o od</w> 50250
Pro tection</w> 50198
des cri 50168
indic ators</w> 50161
P ac 50160
direc t</w> 50140
Sy ri 50138
ed ings</w> 50121
effecti veness</w> 50110
t ext</w> 50048
He alth</w> 50043
as s</w> 49973
posi tive</w> 49967
famil ies</w> 49935
st ar 49930
3 7</w> 49928
an ces</w> 49916
ac ro 49890
S i 49791
cir cum 49708
ex pan 49706
if ic</w> 49698
Ex per 49681
sec tors</w> 49656
ur ban</w> 49641
guid ance</w> 49640
tra v 49631
w ar 49618
d ays</w> 49577
revis ed</w> 49571
isi onal</w> 49569
p ite</w> 49521
st res 49509
ad or</w> 49461
3 6</w> 49455
discus sions</w> 49441
particip ate</w> 49395
C A 49375
en able</w> 49304
improv ing</w> 49300
Pac ific</w> 49286
p un 49283
syst em 49269
it ems</w> 49263
Institu te</w> 49237
st er</w> 49219
re sts</w> 49191
collabor ation</w> 49102
particip ants</w> 49049
Agre ement</w> 49040
at ten 49021
con sequ 49013
Ac cor 48997
L eg 48958
si x</w> 48828
juris dic 48810
com pens 48794
P ublic</w> 48793
sa fety</w> 48698
objec tive</w> 48678
territ ory</w> 48647
main t 48646
high er</w> 48640
cri tical</w> 48628
pri orities</w> 48615
purpos es</w> 48599
d ev 48584
comb at</w> 48584
bro ad 48554
e ffic 48511
t ability</w> 48480
initi ative</w> 48473
19 7 48459
proce edings</w> 48349
Ter rit 48315
administr ation</w> 48297
p ap 48239
produc tive</w> 48205
rup tion</w> 48198
im medi 48161
M o 48123
com pan 48110
UN EP</w> 48109
r e</w> 48076
Un ivers 48074
ha ving</w> 47994
4 8</w> 47981
il i 47934
ti l</w> 47932
K ore 47923
il ization</w> 47832
exper t</w> 47805
p e</w> 47802
S ince</w> 47790
ren ce</w> 47750
ien cy</w> 47680
Cri me</w> 47660
min im 47647
r ates</w> 47643
urther more</w> 47616
re iter 47597
Con go</w> 47589
odi c</w> 47567
de l</w> 47548
en jo 47474
abl y</w> 47442
fin al</w> 47398
poin ted</w> 47387
ten ance</w> 47373
y oung</w> 47360
al tern 47357
sh e</w> 47224
d eg 47202
tu res</w> 47197
regul ations</w> 47197
S ome</w> 47155
throu ghout</w> 47153
benef it</w> 47144
sit uations</w> 47140
civil ian</w> 47122
Canad a</w> 47121
w ish</w> 47085
t ur 47085
r a</w> 47036
Q u 47035
compe ti 47014
addres sing</w> 47009
3 9</w> 47007
effec ts</w> 46985
dem on 46968
pos t</w> 46927
Jap an</w> 46908
el ements</w> 46751
legisl ative</w> 46677
199 5</w> 46648
a u</w> 46619
ab use</w> 46617
scho ols</w> 46551
vulner able</w> 46529
C N 46512
UN HC 46441
f em 46439
H is</w> 46422
f ourth</w> 46410
3 8</w> 46400
ti al</w> 46358
ensu s</w> 46309
al low</w> 46304
E m 46302
4 9</w> 46299
Y or 46285
empor ary</w> 46280
l am 46275
mater ial</w> 46264
inter governmental</w> 46262
th reat 46213
an ia</w> 46210
reg im 46162
ran ge</w> 46124
pow er</w> 46106
mig ration</w> 46100
form er</w> 46091
estim ated</w> 46061
ad j 46029
demon str 46001
UNHC R</w> 45999
tor ture</w> 45968
Peop le</w> 45944
2 - 45936
R C</w> 45932
achiev ing</w> 45928
t al 45921
rou ght</w> 45879
fif ty- 45874
S om 45865
P ri 45858
at h</w> 45797
econom y</w> 45720
cl ose</w> 45702
ati es</w> 45695
cour se</w> 45672
as sets</w> 45664
un i 45659
Chil dren</w> 45647
Yor k</w> 45647
st ate</w> 45614
spe ak 45613
sit e</w> 45513
Sec tion</w> 45481
Euro pe</w> 45382
f ying</w> 45370
com ing</w> 45336
I A 45320
dru g</w> 45292
en ary</w> 45279
s ources</w> 45274
ph ys 45274
l ec 45272
Serv ices</w> 45261
rel ation</w> 45198
p ing</w> 45181
b ed</w> 45167
ub a</w> 45163
univers al</w> 45146
Pro c 45135
4 4</w> 45130
I S 45088
B ra 45018
o t</w> 45007
elec tion</w> 45003
C i 44996
v ote</w> 44973
circum stances</w> 44968
ha b 44943
d en 44855
sc ope</w> 44851
techn ologies</w> 44849
ol e</w> 44819
un til</w> 44798
Pol itical</w> 44790
g n</w> 44785
includ es</w> 44776
ner ships</w> 44769
po or</w> 44759
w id 44747
re view 44741
introduc ed</w> 44713
continu es</w> 44691
ch ed</w> 44686
N U 44659
h ours</w> 44644
F urthermore</w> 44625
effor t</w> 44583
N on- 44555
deliver y</w> 44549
form al</w> 44507
Accor ding</w> 44467
Is lam 44415
4 6</w> 44356
ac ting</w> 44351
h ear 44264
requ ire</w> 44264
or gan 44248
O s</w> 44241
le ad</w> 44231
pa id</w> 44231
ter nal</w> 44196
pro hib 44184
ex p 44161
W e 44111
P r 44042
posi tions</w> 43925
si mil 43921
val u 43914
4 1</w> 43883
suppor ting</w> 43860
eth n 43852
1 00</w> 43788
peri odic</w> 43788
ac qu 43757
ch o 43731
ol id 43726
mater ials</w> 43645
respon sibilities</w> 43627
deploy ment</w> 43587
ent y- 43582
D C</w> 43574
d en</w> 43567
N A 43553
trans port</w> 43511
identi fy</w> 43477
K u 43472
li gh 43463
acti vity</w> 43449
elec tions</w> 43439
w an 43429
ti vely</w> 43410
Tran s 43392
g ent</w> 43367
ques tions</w> 43366
For ce</w> 43311
. 3</w> 43310
R el 43248
ch em 43227
over y</w> 43226
po st- 43212
Su ch</w> 43171
de al 43105
4 2</w> 43104
op in 43069
d one</w> 43063
le tter</w> 43054
o s</w> 42994
Environ ment</w> 42992
C or 42978
amen d 42953
terror ist</w> 42951
associ ated</w> 42944
6 8</w> 42941
G er 42922
Ci vil</w> 42917
in d</w> 42904
pri or</w> 42900
sh are</w> 42823
improv ed</w> 42823
ari b 42820
th en</w> 42790
develop ments</w> 42782
tr ic 42772
I P 42741
inter pre 42729
volun tary</w> 42678
str y</w> 42654
part nership</w> 42648
sub sequ 42639
establish ing</w> 42633
c ore</w> 42631
si ght</w> 42629
yo u</w> 42597
respec tive</w> 42596
main tenance</w> 42567
pro liferation</w> 42560
t op 42527
F i 42486
B u 42451
ach es</w> 42423
dec isi 42414
bal ance</w> 42397
be an</w> 42387
f ar</w> 42353
y s</w> 42343
C arib 42331
can not</w> 42251
ic o</w> 42242
4 3</w> 42205
g l 42201
In v 42191
Carib bean</w> 42174
est s</w> 42164
cl aim</w> 42162
indu stri 42145
Educ ation</w> 42138
ar bit 42136
h os 42131
de ath</w> 42126
R A 42123
est ed</w> 42104
pl y</w> 42044
pris on 42031
hi m</w> 41953
4 7</w> 41945
cam pa 41939
Au str 41930
lar g 41921
Jo int</w> 41921
Afgh an 41867
I f</w> 41865
in f 41856
retur n</w> 41855
O b 41851
com ments</w> 41840
stre am 41832
C uba</w> 41804
u dies</w> 41786
R equ 41782
all s</w> 41728
rel e 41723
Islam ic</w> 41715
b order</w> 41704
Su stain 41676
continu ing</w> 41620
d ings</w> 41605
re d 41488
encoura ged</w> 41466
poin ts</w> 41454
Chil d</w> 41430
in corpor 41403
re f 41367
relig ious</w> 41318
l - 41317
Cha ir</w> 41307
n ov 41306
s ity</w> 41285
s ou 41270
Fore ign</w> 41258
transi tion</w> 41248
we e 41238
ti fication</w> 41229
E N 41224
0 - 41215
Afghan istan</w> 41126
t ren 41101
te am</w> 41066
trav el</w> 41049
r an</w> 41028
2 7 40993
Head quarters</w> 40991
meth ods</w> 40988
ul es</w> 40962
consist ent</w> 40934
c all</w> 40930
tre aties</w> 40907
ove red</w> 40899
ab s 40888
0 ,000</w> 40883
accoun tability</w> 40872
Ass oci 40855
Kore a</w> 40845
six ty- 40839
it self</w> 40826
ev ents</w> 40819
citiz ens</w> 40810
comm er 40809
. m 40808
coun ter 40799
viol ation</w> 40798
ex tent</w> 40759
Syri an</w> 40731
oblig ation</w> 40709
inte rests</w> 40694
w ar</w> 40683
F A 40679
UN MI 40674
op en</w> 40669
M ex 40616
Th e 40600
s ent 40599
s pon 40597
2 8 40579
peac eful</w> 40577
A gen 40566
sum ption</w> 40561
rel ation 40555
s ha 40547
sel ves</w> 40540
h on 40529
re affir 40473
accor ding</w> 40458
appl ied</w> 40455
id d 40454
An nex</w> 40446
encoura ge</w> 40414
dis placed</w> 40407
consult ation</w> 40394
c as 40386
. 5</w> 40386
investig ation</w> 40370
hou sing</w> 40322
cap ital</w> 40239
pl ay</w> 40189
br ing</w> 40180
n a</w> 40125
p ed</w> 40117
me t</w> 40104
av er 40092
2 , 40090
j u 40075
cour ts</w> 40071
inci d 40065
av o 40047
in c 40027
C am 39948
Al so</w> 39934
Indi a</w> 39933
speci alized</w> 39921
it able</w> 39900
jurisdic tion</w> 39884
str ong</w> 39876
Op tional</w> 39873
t ory</w> 39855
part nerships</w> 39825
Pers ons</w> 39820
Bra z 39791
mu ch</w> 39761
Americ an</w> 39647
sc ale</w> 39641
Ac c 39632
.m .</w> 39630
H R</w> 39629
st em</w> 39619
Ku wa 39501
ser ve</w> 39478
Dis crimination</w> 39463
c rit 39443
in ary</w> 39439
cre ation</w> 39395
s kill 39393
tri al</w> 39374
u til 39351
d am 39317
B ur 39316
Dis armament</w> 39301
In t 39254
phys ical</w> 39253
T H 39218
comple ted</w> 39212
ist ence</w> 39199
c tions</w> 39198
c ru 39158
ow ing</w> 39146
Sustain able</w> 39115
s al 39093
sur ance</w> 39058
ar ri 39040
P R 39036
deb t</w> 39005
buil d</w> 38958
UNF PA</w> 38903
wh ose</w> 38878
par ts</w> 38873
remain ed</w> 38864
UN ID 38860
cro ss 38852
hab ilit 38837
compens ation</w> 38831
sh aring</w> 38806
proc urement</w> 38778
adop t</w> 38756
man ag 38751
elim in 38682
cons olid 38676
ig n 38666
s atis 38660
produc ts</w> 38647
lin ed</w> 38644
ot ed</w> 38616
M a 38598
rel ations</w> 38571
S er 38553
ad ap 38553
Pe ace</w> 38455
4 - 38430
direc tly</w> 38429
call s</w> 38399
applic able</w> 38388
appreci ation</w> 38343
f av 38340
appl y</w> 38276
cre ate</w> 38269
ti mes</w> 38258
t a 38239
R o 38215
go ods</w> 38172
distribu tion</w> 38153
it ment</w> 38146
v ey</w> 38130
paren cy</w> 38119
centr al</w> 38079
te enth</w> 37990
fif th</w> 37990
res ol 37981
Administr ative</w> 37965
jud ges</w> 37938
long -term</w> 37937
effic iency</w> 37919
ac tual</w> 37913
initi al</w> 37912
educ ational</w> 37896
f il 37876
S ci 37833
dis pu 37831
th reat</w> 37818
simil ar</w> 37806
C y 37780
un ds</w> 37779
w ast 37759
reflec ted</w> 37755
acc es 37721
pl enary</w> 37712
c al 37695
for ced</w> 37692
foc used</w> 37669
ethn ic</w> 37669
capac ities</w> 37649
cons ensus</w> 37587
ag g 37574
e es</w> 37534
i m</w> 37519
Coun tries</w> 37508
contr act</w> 37476
rec overy</w> 37431
fun d</w> 37378
ove re 37365
agen cy</w> 37360
S he</w> 37347
a - 37338
ac ks</w> 37287
mar ri 37284
fac e</w> 37254
e igh 37230
j ust</w> 37195
N u 37192
clu sive</w> 37126
comple te</w> 37103
de sign 37099
advan t 37098
es ting</w> 37087
rais ed</w> 37083
p ay</w> 37052
subm ission</w> 37033
prov isional</w> 37030
y outh</w> 37026
L ati 37006
prac tical</w> 37005
rece ive</w> 36999
fl u 36981
ar ound</w> 36972
econom ies</w> 36965
Pol ic 36961
en abl 36956
l ong</w> 36927
d own</w> 36922
clear - 36916
Pre vention</w> 36910
emer gency</w> 36879
st ability</w> 36874
ran ts</w> 36852
el ess</w> 36849
C O</w> 36845
Mex ico</w> 36835
bil ateral</w> 36832
achiev ement</w> 36824
P A 36813
r ance</w> 36800
conclud ed</w> 36799
re ly</w> 36771
if ication</w> 36766
fem ale</w> 36758
tradi tional</w> 36750
determin ation</w> 36742
y ond</w> 36739
NG Os</w> 36729
acro ss</w> 36716
C E 36692
fac tors</w> 36673
mo d 36628
Lati n</w> 36568
V ic 36532
or ial</w> 36527
deb ate</w> 36519
adv oc 36500
t emporary</w> 36480
6 9</w> 36458
is ing</w> 36440
ar d 36439
Un der</w> 36436
ei ther</w> 36430
expendit ure</w> 36425
difficul t</w> 36373
per manent</w> 36361
det ailed</w> 36337
A t 36320
con ferences</w> 36320
ro ad</w> 36311
de struction</w> 36307
con fir 36298
i de 36292
fin ance</w> 36291
form ul 36258
regim e</w> 36251
Agen da</w> 36251
ex tre 36240
h ic 36213
i ble</w> 36210
a k</w> 36188
them selves</w> 36188
langu age</w> 36183
G e 36117
in nov 36115
p ace</w> 36080
discus sed</w> 36066
stand ard</w> 36058
inv ited</w> 36048
statis tics</w> 36043
wh ole</w> 36038
A .</w> 36023
adv ice</w> 36019
resul ting</w> 35984
gre at</w> 35977
2 9 35969
M O 35962
out side</w> 35958
rest ed</w> 35955
lead ership</w> 35950
explo itation</w> 35948
ex ternal</w> 35936
si m 35917
ol er 35901
Par ty</w> 35896
impl ications</w> 35892
F ollow 35853
F ir 35842
Par lia 35807
pen ding</w> 35776
appro aches</w> 35764
ra ther</w> 35758
V ien 35751
po int 35748
Au th 35734
er ad 35719
eg u 35702
C C 35700
per pe 35688
H a 35683
F ed 35675
end or 35675
as si 35636
Coordin ation</w> 35573
monit or</w> 35562
al - 35544
O F</w> 35524
reach ed</w> 35408
success ful</w> 35406
decisi on- 35402
UNID O</w> 35392
co he 35377
k a</w> 35375
rais ing</w> 35369
Fed eral</w> 35362
Administr ation</w> 35337
M ore 35329
dec re 35325
ap ter</w> 35319
I ran</w> 35316
h ist 35312
u te</w> 35286
maj ority</w> 35279
A g 35267
Vien na</w> 35261
tw enty- 35219
C ul 35211
follow s</w> 35183
an cy</w> 35172
ili ation</w> 35163
aver age</w> 35154
b rought</w> 35133
Al though</w> 35124
B y</w> 35112
F rance</w> 35101
crit eria</w> 35100
ish ing</w> 35093
speci f 35078
D es 35074
C ro 35072
st ates</w> 35057
E th 35055
il legal</w> 35047
E lim 35025
tr on 35025
sub regional</w> 34989
har mon 34965
ed ul 34930
un its</w> 34901
qu al 34898
pers pec 34892
challen ge</w> 34888
y cl 34854
al though</w> 34842
g ation</w> 34836
More over</w> 34821
inter - 34819
au dit</w> 34770
invol ving</w> 34764
observ ations</w> 34737
worksh ops</w> 34732
opin ion</w> 34728
der - 34726
W est</w> 34715
requi res</w> 34655
P ak 34653
pow er 34640
sugg ested</w> 34602
le a 34599
lead ers</w> 34598
acc ept 34564
suppl y</w> 34547
anti - 34513
sci entific</w> 34512
el s</w> 34504
lan d 34489
Oper ations</w> 34480
c overed</w> 34453
re in 34439
dis e 34421
Pol ice</w> 34421
habilit ation</w> 34418
7 7</w> 34413
st oc 34407
P h 34405
be yond</w> 34378
trans parency</w> 34349
nation ally</w> 34333
main tain</w> 34301
tim ely</w> 34292
L abour</w> 34258
ve hic 34245
I F 34239
ill icit</w> 34225
e an</w> 34218
ffe red</w> 34166
p il 34164
high ligh 34162
Braz il</w> 34108
can di 34102
C hi 34095
go al</w> 34072
e p</w> 34037
er ous</w> 34026
decision- making</w> 34024
to ols</w> 34009
T ak 34007
v ement</w> 33978
com pared</w> 33971
agricul tural</w> 33946
see k</w> 33896
Austr alia</w> 33893
Pro secu 33883
te ach 33862
stres sed</w> 33856
le ments</w> 33853
f ol 33841
sub si 33837
S en 33831
de signed</w> 33814
ter ial</w> 33786
8 - 33782
st udies</w> 33771
budge tary</w> 33748
char ac 33747
Leban on</w> 33741
tr ation</w> 33726
R om 33716
fe w</w> 33698
T IO 33688
dis crimin 33664
u g 33629
pl om 33619
B .</w> 33595
disast er</w> 33579
net work</w> 33568
laun ched</w> 33560
los s</w> 33558
don ors</w> 33546
sett lement</w> 33421
Fir st</w> 33417
pris es</w> 33394
en ded</w> 33388
C s</w> 33383
B a 33379
ex ecu 33343
contribu ting</w> 33334
N ig 33329
bri ef 33321
s overe 33315
cul ture</w> 33290
idd le</w> 33249
pro por 33223
dra f 33212
m itted</w> 33204
F ra 33196
th an 33136
reas ons</w> 33086
s ource</w> 33081
pap er</w> 33074
assess ments</w> 32998
K os 32988
civil ians</w> 32978
bil lion</w> 32975
Leg al</w> 32965
san ctions</w> 32962
dem and</w> 32960
del iv 32914
TH E</w> 32911
adj ust 32905
clu sions</w> 32886
ai l</w> 32836
depend ent</w> 32768
N e 32754
sh ort 32747
7 0</w> 32732
199 4</w> 32691
Elim ination</w> 32686
c u 32680
man dates</w> 32678
A N 32672
Som alia</w> 32650
Secret ary</w> 32643
Pak istan</w> 32635
ap s</w> 32623
Associ ation</w> 32598
instru ment</w> 32559
pres ence</w> 32549
m ate</w> 32541
Strateg y</w> 32538
meth od 32536
Gu ine 32535
Kos ov 32504
S T 32491
carr y</w> 32469
ent ation</w> 32458
qu e</w> 32444
f a 32442
recru itment</w> 32433
tion ing</w> 32429
tas k</w> 32416
D ar 32409
re me 32402
ar ity</w> 32390
oper ating</w> 32376
solu tion</w> 32366
cl ari 32299
li k 32297
enhan cing</w> 32290
O HC 32285
con st 32273
8 0</w> 32263
ex tra 32253
conflic ts</w> 32239
six th</w> 32196
ti se</w> 32188
skill s</w> 32182
repres ented</w> 32156
cor ruption</w> 32146
en try</w> 32100
tron ic</w> 32058
xim ately</w> 32024
B udge 32016
D ru 31996
ess ing</w> 31993
saf egu 31982
mig rants</w> 31959
pa rent</w> 31951
att emp 31948
. 7</w> 31943
Sec ond</w> 31940
improv ement</w> 31940
e fficient</w> 31939
l ess 31930
itte es</w> 31928
Rec alling</w> 31925
lo g 31910
ol d</w> 31903
cre ated</w> 31876
ven tions</w> 31872
T r 31866
b re 31830
E g 31810
D ep 31802
ace building</w> 31796
minim um</w> 31788
M or 31780
Requ ests</w> 31775
S B 31769
invol vement</w> 31749
high -level</w> 31730
Gen der</w> 31729
independ ence</w> 31721
worksh op</w> 31708
i red</w> 31703
T O</w> 31702
H igh 31696
consequ ences</w> 31677
b ack 31676
OHC HR</w> 31655
aliz e</w> 31635
In iti 31622
co - 31616
ap point 31607
it es</w> 31598
Ger many</w> 31593
str ong 31587
Commun ity</w> 31580
D raft</w> 31569
lin es</w> 31562
t - 31545
inten ded</w> 31511
e th</w> 31509
ev ent</w> 31493
welcom es</w> 31483
acti vely</w> 31478
Kosov o</w> 31472
exper tise</w> 31469
appe al</w> 31468
ro b 31424
re m 31414
un g 31399
orig in 31376
6 - 31368
c over</w> 31356
T im 31349
pre c 31347
c raft</w> 31333
is tic</w> 31331
UN - 31309
d ro 31237
Th ir 31216
w rit 31207
plan ned</w> 31205
pay ment</w> 31198
don e 31192
W el 31187
ar ch 31162
In done 31162
. 9</w> 31150
or g 31150
ic a</w> 31147
p ass 31142
reflec t</w> 31101
F urther</w> 31089
enhan ced</w> 31085
it i</w> 31083
st age</w> 31072
f ail 31067
respon d</w> 31050
particip ated</w> 31038
cl early</w> 31021
clos ely</w> 31016
re sid 30988
M emb 30979
ot es</w> 30957
B ure 30948
ag ain</w> 30926
av ing</w> 30902
We ap 30900
7 3</w> 30893
iz es</w> 30889
es tions</w> 30887
on es</w> 30865
h ost</w> 30853
plac ement</w> 30851
com par 30828
Polic y</w> 30814
ar t</w> 30808
rec ently</w> 30802
Eg yp 30791
. 6</w> 30785
an tly</w> 30759
c el 30740
grow ing</w> 30730
O ver 30716
li ber 30711
Kuwa it</w> 30681
ti t 30658
compan ies</w> 30639
g lob 30632
ra di 30616
lea ve</w> 30609
know n</w> 30577
approv al</w> 30559
abs ence</w> 30548
defin ed</w> 30518
mov ement</w> 30511
sch edul 30487
to day</w> 30483
perpe tr 30450
ph ase</w> 30440
Offic er</w> 30434
ex port</w> 30425
ne w 30425
all ed</w> 30330
m or 30329
Auth ority</w> 30312
it ors</w> 30308
pen al 30304
in clusion</w> 30293
T o 30272
Ass istance</w> 30246
coordin ated</w> 30240
acc ep 30236
off ences</w> 30216
desi gn</w> 30214
oler ance</w> 30209
3 0 30194
sen si 30169
comb ating</w> 30161
om in 30143
dis tin 30138
ret e</w> 30136
conven tions</w> 30136
emphasiz ed</w> 30132
reduc ed</w> 30126
or t</w> 30120
sub - 30112
I L 30101
as ked</w> 30090
sum mary</w> 30087
d ol 30086
arbit r 30081
oc r 30080
Chi ef</w> 30072
R ules</w> 30053
Pe acekeeping</w> 30040
low er</w> 30038
c tion</w> 30027
os la 30027
s ing 30004
P en 29968
en ced</w> 29949
gro unds</w> 29946
ay ed</w> 29936
commer cial</w> 29936
ur ged</w> 29918
ug osla 29907
review ed</w> 29906
Bure au</w> 29899
sev enth</w> 29895
Univers ity</w> 29895
defin ition</w> 29888
Y ugosla 29884
Techn ical</w> 29872
Fra mework</w> 29868
relation ship</w> 29854
in ning</w> 29853
men d 29851
g ement</w> 29830
or ation</w> 29826
F ren 29823
recogn ition</w> 29815
E st 29813
con clusion</w> 29723
prepar e</w> 29707
marke ts</w> 29706
du ty</w> 29690
profes sional</w> 29655
pos sibility</w> 29638
ad vis 29606
Exper ts</w> 29593
re habilitation</w> 29582
M iddle</w> 29573
on ce</w> 29571
ac ted</w> 29567
strength ened</w> 29556
ur gent</w> 29532
du m</w> 29529
est ern</w> 29529
targe t</w> 29492
occup ation</w> 29467
altern ative</w> 29460
R E 29438
ris ks</w> 29435
ep tion</w> 29426
de al</w> 29382
gen tin 29379
Ar gentin 29370
Govern ing</w> 29364
y an 29305
nor m 29305
sha red</w> 29297
b ir 29293
ste p</w> 29292
appro ximately</w> 29291
we b 29288
s po 29283
sen ior</w> 29254
UN A 29247
represent ation</w> 29230
neg ative</w> 29203
pris on</w> 29198
Sou th- 29197
con clusions</w> 29170
diffe ren 29135
reduc ing</w> 29129
conc ept</w> 29111
ocr acy</w> 29090
exten ded</w> 29089
att acks</w> 29083
highligh ted</w> 29069
collec tion</w> 29061
sh ow 29058
In cre 29057
lead ing</w> 29041
under take</w> 29022
ag u 28991
sec ond 28986
cur red</w> 28986
lik ely</w> 28966
Par t 28940
di plom 28931
ast ern</w> 28905
ren ew 28903
C .</w> 28867
op h 28849
Techn ology</w> 28842
ass ess</w> 28822
pr ise</w> 28821
I tal 28790
hon our</w> 28790
CO P</w> 28761
refuge e</w> 28761
G az 28744
is tics</w> 28733
stud ents</w> 28714
F if 28707
1 - 28705
f air</w> 28703
rac ial</w> 28694
vis it</w> 28685
pu ts</w> 28668
def ence</w> 28656
st ed</w> 28655
Sy stem</w> 28562
conc rete</w> 28538
St atis 28526
m ass</w> 28508
c ycl 28501
succ ess</w> 28500
S al 28490
N o</w> 28473
Col om 28467
Add .1</w> 28455
Weap ons</w> 28452
air craft</w> 28414
leg iti 28411
spon s 28407
Fi eld</w> 28403
su med</w> 28401
resul ted</w> 28399
ex pen 28387
con struc 28358
don or</w> 28339
mo del</w> 28323
er ra</w> 28312
re conc 28310
mea sure</w> 28299
gener ally</w> 28264
Finan cial</w> 28236
3 , 28235
Tra ining</w> 28223
jec t</w> 28197
des pite</w> 28191
m iti 28153
in th</w> 28150
Memb ers</w> 28141
out comes</w> 28123
difficul ties</w> 28107
ge ograph 28093
op tions</w> 28086
G re 28078
el abor 28067
comm od 28059
compon ent</w> 28049
descri bed</w> 28045
Si erra</w> 28035
mo ve</w> 28031
U S</w> 28019
W A</w> 28016
Territ ory</w> 28002
e z 27979
fi ght</w> 27968
f ig 27942
occup ied</w> 27916
satis fac 27909
9 0</w> 27895
encoura ges</w> 27891
ad em 27890
main ly</w> 27889
eng aged</w> 27882
centr e</w> 27870
author ized</w> 27866
al ong</w> 27861
ic ate</w> 27854
rel and</w> 27852
Indone sia</w> 27848
bro ad</w> 27838
D A 27831
w ise</w> 27829
us eful</w> 27827
- related</w> 27825
nu clear- 27815
immedi ate</w> 27802
199 0</w> 27791
I reland</w> 27775
is ed</w> 27774
ari a</w> 27762
langu ages</w> 27747
in - 27743
dat ab 27735
er y</w> 27723
dem ocratic</w> 27711
elec tronic</w> 27701
L i 27697
indu stry</w> 27693
targe ts</w> 27683
re al</w> 27668
ib er 27667
head quarters</w> 27626
wel l- 27601
ord ers</w> 27600
is c 27584
docu mentation</w> 27572
m ort 27560
enjo y 27557
E A</w> 27556
nam ely</w> 27532
cent age</w> 27524
S ev 27522
remain ing</w> 27518
k ind</w> 27511
H er 27510
v er</w> 27504
h op 27491
memb ership</w> 27451
appl ications</w> 27451
wan da</w> 27431
hou se 27426
cross - 27422
power ment</w> 27419
F ac 27401
E lec 27394
saf e</w> 27393
struc tures</w> 27388
at ure</w> 27379
at s</w> 27370
v ac 27368
n on 27332
eng agement</w> 27330
orig in</w> 27318
Lib eria</w> 27312
solu tions</w> 27306
b or 27297
inter nationally</w> 27295
h er 27265
Cul tural</w> 27248
tak es</w> 27243
se x</w> 27223
min d</w> 27220
Tur key</w> 27219
pers onal</w> 27211
in clusive</w> 27207
P O 27202
R wanda</w> 27185
z one</w> 27178
pre ad</w> 27176
d ou 27167
threat s</w> 27164
ti vity</w> 27159
cl o 27148
sy ch 27132
contribu ted</w> 27125
determin e</w> 27119
estim ates</w> 27111
H ab 27107
ma xim 27100
typ es</w> 27098
Palestin e</w> 27096
rati fication</w> 27094
199 3</w> 27084
su per 27059
han d 27055
d ly</w> 27043
freed oms</w> 27016
accoun ts</w> 27012
F amil 27010
Vi ol 26998
5 00</w> 26996
Egyp t</w> 26989
ac knowled 26956
specif ically</w> 26951
cor rec 26948
lat er</w> 26948
in cip 26942
J ud 26938
ic ip 26932
b ack</w> 26929
im posed</w> 26917
op tion</w> 26913
pl es</w> 26891
S pace</w> 26861
Int egr 26850
in spec 26833
emer ging</w> 26822
of f</w> 26819
fun ded</w> 26815
e al 26796
20 0</w> 26792
net works</w> 26789
pa in</w> 26773
eigh th</w> 26769
au t 26763
i op 26732
ca uses</w> 26730
tr ust</w> 26727
adv ance</w> 26723
regis tration</w> 26715
Ter ror 26705
el ds</w> 26694
7 5</w> 26693
de part 26693
produc ed</w> 26674
min e</w> 26669
man u 26661
ap pointed</w> 26658
S l 26650
D ef 26639
C D</w> 26637
ra in 26637
respon ses</w> 26628
avo id</w> 26607
fo rest</w> 26600
Eth iop 26586
Le one</w> 26581
it ting</w> 26569
ci pl 26557
h om 26529
c ell 26525
um s</w> 26517
del iber 26500
Dep u 26496
ser ies</w> 26468
is on</w> 26454
Ob serv 26437
follow ed</w> 26435
k ers</w> 26427
i ary</w> 26423
mo der 26421
un ity</w> 26412
C P 26410
reli ef</w> 26407
S wit 26390
investig ations</w> 26361
f lo 26359
inter n 26359
P op 26346
Minis ters</w> 26345
ir ing</w> 26338
main stream 26321
ad ver 26313
ra ise</w> 26305
cru cial</w> 26298
j usti 26286
deg ra 26282
low s</w> 26276
C ap 26273
re a</w> 26268
o gn 26267
B e 26265
cooper ate</w> 26265
isl and</w> 26244
f are</w> 26222
Swit zer 26207
mb ass 26189
am b 26184
Pro f 26178
A sian</w> 26176
olu tion</w> 26148
Switzer land</w> 26146
wor ds</w> 26113
s ent</w> 26107
Dar fu 26107
j an</w> 26105
beg inning</w> 26105
ound ation</w> 26103
particip ating</w> 26100
pres s</w> 26087
n inth</w> 26050
constitu te</w> 26034
h and</w> 26017
m al 26015
re mov 26014
me an 26003
mon th</w> 25997
at er 25981
ca used</w> 25978
S we 25977
fin dings</w> 25968
di men 25961
g ence</w> 25950
d ri 25936
perspec tive</w> 25929
ob t 25928
he al 25927
deal ing</w> 25920
as k</w> 25909
contr acts</w> 25898
st ac 25894
believ e</w> 25877
ur ges</w> 25871
respec tively</w> 25869
dec laration</w> 25840
er ve</w> 25832
Pro mo 25805
M E 25785
determin ed</w> 25785
h a</w> 25779
subsequ ent</w> 25763
end ers</w> 25758
them atic</w> 25757
par as</w> 25747
Rec ogn 25742
h ope</w> 25739
so on</w> 25735
fl ex 25734
ar m 25733
Nor way</w> 25728
func tion</w> 25715
Darfu r</w> 25703
M any</w> 25690
P S</w> 25688
ul ar</w> 25667
re integration</w> 25664
H uman 25635
in surance</w> 25633
Hab it 25620
Parlia ment</w> 25618
su ff 25611
char ge</w> 25608
statis tical</w> 25605
alleg ed</w> 25601
nuclear- weap 25595
categ ory</w> 25577
al a</w> 25572
collec tive</w> 25559
for um</w> 25549
Th ose</w> 25546
Is lands</w> 25543
r ing</w> 25516
eval u 25511
ha z 25503
organiz ational</w> 25499
par lia 25497
increas ingly</w> 25469
UNO DC</w> 25463
empha sis</w> 25459
hol ding</w> 25457
at ell 25451
Con tro 25444
ad visory</w> 25437
Habit at</w> 25430
sem ination</w> 25413
alleg ations</w> 25410
T able</w> 25407
f el 25400
t el 25392
Fren ch</w> 25388
avail ability</w> 25375
sh own</w> 25366
it t 25337
mar k</w> 25334
y our</w> 25317
g r 25312
pre - 25309
n esses</w> 25307
T w 25298
Ne ther 25298
Inter net</w> 25292
trans l 25287
me works</w> 25276
comple x</w> 25276
i fied</w> 25275
am s</w> 25268
min orities</w> 25225
Nether lands</w> 25222
ann oun 25220
E qu 25188
g ol 25179
Indi genous</w> 25174
whe re 25172
ist ant</w> 25153
cour ses</w> 25150
publ ished</w> 25145
he ad</w> 25136
ob stac 25135
sing le</w> 25130
y l 25124
Res earch</w> 25124
Al - 25123
e ding</w> 25114
re pe 25110
1 2 25084
discus s</w> 25080
eng age</w> 25073
Mon it 25064
ex istence</w> 25035
Gaz a</w> 25021
Al g 24996
Inter - 24990
sit es</w> 24965
di ary</w> 24954
nor ms</w> 24945
min es</w> 24923
id es</w> 24915
tu ally</w> 24913
Z eal 24907
Depu ty</w> 24897
t s 24879
mu tual</w> 24867
B os 24824
h ome</w> 24820
d - 24820
Pro v 24817
cas h</w> 24804
ati vely</w> 24802
reas on 24797
Argentin a</w> 24796
D el 24784
re productive</w> 24782
categ ories</w> 24771
U k 24764
Cy pr 24721
hou se</w> 24716
sur vey</w> 24695
comple tion</w> 24681
I vo 24679
199 1</w> 24666
Cypr us</w> 24635
4 , 24607
. 8</w> 24595
d ang 24586
re forms</w> 24567
es sion</w> 24567
Zeal and</w> 24561
high est</w> 24553
li ve</w> 24547
elimin ate</w> 24529
Tur k 24516
S pain</w> 24503
m ber</w> 24500
dam age</w> 24492
guarante e</w> 24486
p .m.</w> 24472
vis its</w> 24458
Ivo ire</w> 24455
territ ories</w> 24453
li ves</w> 24450
ud e</w> 24444
accep ted</w> 24437
C R 24431
wel come</w> 24429
V I</w> 24417
set ting</w> 24416
reg n 24377
pun ishment</w> 24361
at tribu 24339
Pre par 24338
require ment</w> 24327
A zer 24312
second ary</w> 24300
industri al</w> 24287
ail s</w> 24279
J am 24269
Inter nal</w> 24244
W estern</w> 24238
C ô 24204
integr ity</w> 24197
Cô te</w> 24190
Nu clear</w> 24156
Follow ing</w> 24154
expres s</w> 24151
fra meworks</w> 24150
c are 24147
T e 24145
candi dates</w> 24115
pre me</w> 24113
Terror ism</w> 24104
marri age</w> 24101
mar ine</w> 24095
tren ds</w> 24093
in flu 24073
ri ti 24063
7 2</w> 24062
lo o 24047
K en 24044
St rength 24042
199 2</w> 24029
cre d 24027
elec toral</w> 24026
agricul ture</w> 24015
ec h</w> 24012
ar gu 24004
rati fied</w> 23998
writ ten</w> 23992
consi ders</w> 23986
b ai 23985
pop ulations</w> 23982
fac ed</w> 23968
typ e</w> 23953
se en</w> 23948
fin d</w> 23948
ti f 23930
Azer bai 23930
U N</w> 23918
abl es</w> 23915
S E 23909
competi tion</w> 23906
mainstream ing</w> 23901
Direc tor 23899
ad ded</w> 23893
expres sion</w> 23876
Nor th</w> 23864
c ause</w> 23860
in form</w> 23831
Vic e- 23826
cre dit</w> 23804
ar di 23802
Le tter</w> 23780
Pr incipl 23774
identi fication</w> 23770
sur ve 23765
D P</w> 23749
less ons</w> 23745
ha m 23734
Human itarian</w> 23734
targe ted</w> 23732
multi - 23721
Ital y</w> 23718
sch em 23709
sec ure</w> 23707
IA EA</w> 23696
func tioning</w> 23694
ent er</w> 23693
endor sed</w> 23688
sub programme</w> 23682
sev en</w> 23672
Colom bia</w> 23672
ag ue</w> 23658
s eg 23657
sou ght</w> 23652
R efu 23649
off ence</w> 23647
employ ed</w> 23611
I M 23595
ac compl 23592
ear li 23585
i ri 23577
el er 23576
as h 23573
enter prises</w> 23569
gro ss</w> 23551
appoint ment</w> 23527
dra w</w> 23513
dis semin 23499
Finan cing</w> 23497
f ill 23493
preven ting</w> 23493
con vic 23487
Rec om 23484
Refu ge 23477
con sumption</w> 23473
ne igh 23473
dis cipl 23464
p sych 23440
separ ate</w> 23438
. .</w> 23435
intern ally</w> 23435
complain ts</w> 23415
Monit oring</w> 23388
ic als</w> 23380
relig ion</w> 23376
over sight</w> 23355
B ol 23342
t an 23338
N P 23326
comm ission</w> 23317
out standing</w> 23314
l isted</w> 23312
B i 23295
neigh b 23294
Prosecu tor</w> 23285
conclud ing</w> 23269
aff airs</w> 23255
dem ocracy</w> 23242
expendit ures</w> 23239
em powerment</w> 23229
al ways</w> 23202
b ase</w> 23196
p regn 23190
compon ents</w> 23189
Thir d</w> 23187
tas ks</w> 23182
cl assi 23178
M ig 23167
gr at 23166
em issions</w> 23163
St aff</w> 23161
fi elds</w> 23160
Initi ative</w> 23160
under st 23157
on ia</w> 23148
Nig eria</w> 23146
sci ence</w> 23130
cons ent</w> 23126
em or 23115
ner gy</w> 23104
re pl 23094
cre ating</w> 23092
signific antly</w> 23091
IL O</w> 23087
dis semination</w> 23083
accoun ting</w> 23082
So ci 23080
emb ar 23077
le ase</w> 23076
lin ked</w> 23067
a h</w> 23055
constitu tional</w> 23055
dis ability</w> 23014
Reg is 23001
pos e</w> 22996
re - 22993
L D 22991
f requ 22979
Par ticip 22968
V ol 22958
mun icip 22954
observ ers</w> 22944
5 , 22940
clos ed</w> 22933
amend ments</w> 22933
IC T</w> 22925
experi ences</w> 22903
observ ed</w> 22889
Stat us</w> 22868
n ial</w> 22861
un it</w> 22852
charac ter 22846
U gan 22827
amen ded</w> 22819
Bos n 22813
Mor occ 22788
m ar</w> 22786
UN ES 22785
form ed</w> 22743
respon ding</w> 22743
L an 22720
e red</w> 22702
a sion</w> 22692
elim ination</w> 22683
to ol</w> 22680
mob il 22666
wast e</w> 22654
exten d</w> 22653
recor ds</w> 22628
tric t</w> 22628
st aff 22627
i o</w> 22622
non- proliferation</w> 22621
Ge org 22621
Ad di 22614
Morocc o</w> 22614
g in 22584
re v 22584
und i</w> 22544
ex ecutive</w> 22529
l ic 22522
b ility</w> 22520
off er</w> 22519
ch apter</w> 22510
st an</w> 22501
gran ted</w> 22501
ro l 22495
Cha mber</w> 22486
per centage</w> 22481
Leban ese</w> 22474
7 4</w> 22471
indic ate</w> 22471
mort ality</w> 22468
regis tered</w> 22465
cir cul 22460
substan tial</w> 22458
enabl ing</w> 22438
Ro om</w> 22433
lear ned</w> 22427
Su preme</w> 22412
valu es</w> 22384
I L</w> 22378
equ itable</w> 22366
F ood</w> 22362
se l</w> 22361
form ulation</w> 22355
Chair person</w> 22354
il ip 22349
L A 22344
de ed</w> 22316
nation ality</w> 22304
recor ded</w> 22299
G reat</w> 22298
ed ly</w> 22294
draw n</w> 22294
allow ed</w> 22291
Nor thern</w> 22288
manu fac 22284
. ..</w> 22283
A mbass 22278
i ding</w> 22275
cont ains</w> 22256
fi l</w> 22245
Bur undi</w> 22232
compe tent</w> 22231
U r 22228
UN IF 22227
cont ent</w> 22208
nu tri 22202
pro mis 22186
UNES CO</w> 22181
Tr ust</w> 22169
Sev eral</w> 22168
campa ign</w> 22156
M D 22147
I C</w> 22144
E rit 22136
&apos; Ivoire</w> 22130
Ad v 22128
affec t</w> 22127
up dated</w> 22121
ful fil</w> 22120
regul atory</w> 22115
l u 22110
lear ning</w> 22103
v ill 22047
p ul 22046
long er</w> 22041
Ethiop ia</w> 22041
pen sion</w> 22033
suppor ts</w> 22029
et t 22027
re alization</w> 22024
t uring</w> 22022
Res pon 22003
C han 21997
fol low</w> 21989
Ac coun 21984
paren ts</w> 21980
Fif th</w> 21976
ign ty</w> 21972
comm issions</w> 21944
S O 21939
Con si 21931
as yl 21924
si vely</w> 21921
reconc iliation</w> 21916
pres entation</w> 21914
cover age</w> 21911
s ound</w> 21901
t oc 21895
in d 21865
mig rant</w> 21863
reserv ations</w> 21850
en ting</w> 21848
T or 21847
t on</w> 21838
enjoy ment</w> 21833
sustain ability</w> 21831
7 1</w> 21820
victi m</w> 21806
spo ke</w> 21797
con vention</w> 21772
i ons</w> 21755
port ation</w> 21751
Principl es</w> 21750
Ha iti</w> 21743
draf ting</w> 21729
M ov 21724
te ams</w> 21707
duc tion</w> 21702
b in 21700
f lows</w> 21692
consider ing</w> 21690
restric tions</w> 21684
aliz ing</w> 21680
im pe 21675
organ s</w> 21659
M echan 21645
plac es</w> 21637
assess ed</w> 21636
Ass istant</w> 21624
decre ase</w> 21623
initi ated</w> 21612
IO S</w> 21612
ra ine</w> 21604
c oura 21599
P o 21592
fail ure</w> 21587
Uk raine</w> 21578
sovere ignty</w> 21577
5 0 21574
Au stri 21562
loc ation</w> 21561
ar ising</w> 21555
3 . 21541
Pop ulation</w> 21541
reas on</w> 21521
er ies</w> 21508
ar ily</w> 21501
gra du 21501
top ic</w> 21500
pay ments</w> 21491
prosecu tion</w> 21485
toc ols</w> 21481
sol id 21473
o il</w> 21458
l d 21439
compl y</w> 21431
c op 21426
S h 21424
ag ing</w> 21422
maint ained</w> 21412
d r 21394
facilit ating</w> 21386
them e</w> 21383
depart ments</w> 21381
s om 21379
our ism</w> 21371
mar ily</w> 21369
hos p 21364
see king</w> 21359
adap tation</w> 21358
M A 21352
3 - 21347
Af ter</w> 21345
a vi 21339
cycl e</w> 21331
govern ing</w> 21323
min ority</w> 21318
O IOS</w> 21308
Ph ilip 21307
6 , 21273
imp acts</w> 21271
v ital</w> 21263
interpre tation</w> 21262
erad ication</w> 21261
N et 21253
amoun ts</w> 21226
al ism</w> 21225
acc eler 21222
disast ers</w> 21213
ra ble</w> 21210
t al</w> 21201
L u 21159
F O 21158
recogn ize</w> 21147
P ow 21134
Contro l</w> 21118
Swe den</w> 21112
men ted</w> 21080
Azerbai jan</w> 21078
Des pite</w> 21060
ho od</w> 21059
ic ro 21055
e . 21054
Res ources</w> 21034
aim s</w> 20985
dise ases</w> 20978
ow nership</w> 20911
alloc ation</w> 20904
s atell 20898
Bosn ia</w> 20898
speak ing</w> 20895
sustain ed</w> 20893
benef ic 20873
k istan</w> 20865
al ists</w> 20850
3 00</w> 20848
pri marily</w> 20835
ov ina</w> 20833
Vol un 20833
territ orial</w> 20830
8 7</w> 20826
consider able</w> 20824
cont act</w> 20814
vehic les</w> 20792
O D 20791
previ ously</w> 20790
for ty- 20788
cust om 20788
our n 20745
iti z 20740
iv ed</w> 20721
Ken ya</w> 20720
reiter ated</w> 20713
t ain 20709
z eg 20708
A no 20703
Philip p 20702
hol ds</w> 20698
aw are</w> 20675
al i</w> 20674
R ac 20673
en tered</w> 20672
strong ly</w> 20662
MI NU 20659
par ti 20652
Ano ther</w> 20648
7 6</w> 20633
del ay</w> 20633
Ag ricul 20619
system atic</w> 20617
Famil y</w> 20613
govern ments</w> 20612
e ight</w> 20611
Her zeg 20609
cont aining</w> 20606
penal ty</w> 20606
F rom</w> 20605
enti re</w> 20601
For ces</w> 20581
Ambass ador</w> 20570
n or</w> 20555
di a</w> 20542
ou gh</w> 20538
im prison 20529
Dru gs</w> 20529
atten ded</w> 20527
g res 20526
Herzeg ovina</w> 20526
proc essing</w> 20523
ex clud 20515
Pri me</w> 20513
fu el</w> 20510
al most</w> 20508
bir th</w> 20504
ver sion</w> 20502
publ ic 20491
ter - 20490
Ugan da</w> 20485
Dec ade</w> 20484
N ote</w> 20480
Jam a 20474
regul ation</w> 20473
conven ed</w> 20472
diver sity</w> 20470
th ly</w> 20462
qu anti 20461
dol lar 20457
er tification</w> 20449
Yugosla via</w> 20446
FA O</w> 20434
H O</w> 20433
diplom atic</w> 20432
ag o</w> 20425
O u 20419
ld wide</w> 20411
rac ism</w> 20410
Con sul 20406
ish es</w> 20403
law y 20399
comp any</w> 20397
introduc tion</w> 20394
5 - 20382
incid ents</w> 20382
Gu id 20373
ac adem 20371
Ch ile</w> 20366
ever th 20365
everth eless</w> 20364
es sional</w> 20359
datab ase</w> 20355
advoc acy</w> 20337
p ir 20330
leg ally</w> 20329
TIO N</w> 20328
e ded</w> 20314
ig ns</w> 20312
esti on 20306
Th us</w> 20305
pat ri 20301
in ven 20298
os y 20298
discrimin atory</w> 20298
200 8- 20279
The re 20276
comm ittees</w> 20270
Develop ing</w> 20269
Con tin 20267
glob alization</w> 20264
ad mis 20262
I ts</w> 20258
en vis 20242
immedi ately</w> 20228
g .</w> 20216
s elected</w> 20214
4 0 20200
subsi diary</w> 20196
rec alled</w> 20195
E .</w> 20192
de st 20191
B en 20180
trans parent</w> 20169
o ffered</w> 20165
sup ple 20161
ati c 20159
Part nership</w> 20154
P or 20150
por ting</w> 20150
se a</w> 20146
de priv 20144
M yan 20137
institu tion</w> 20129
spec ts</w> 20129
ob tain</w> 20126
web site</w> 20125
dru gs</w> 20124
bin ding</w> 20124
form ity</w> 20120
pre sid 20107
U S 20102
F ourth</w> 20090
prov in 20086
Wh en</w> 20077
dollar s</w> 20062
identi fying</w> 20061
us ers</w> 20054
Myan mar</w> 20051
san itation</w> 20047
no ti 20043
high ly</w> 20028
ad minis 20022
e. g.</w> 20003
protec ted</w> 20001
Dec ides</w> 19995
ti eth</w> 19993
t a</w> 19982
St and 19982
enti ty</w> 19981
confir med</w> 19976
amend ment</w> 19967
pur ch 19966
S r 19957
pro per</w> 19938
v en</w> 19935
a red</w> 19915
ol es 19911
S R 19908
perpetr ators</w> 19902
mo di 19888
dis appe 19886
acc used</w> 19884
CO N 19884
Bel ar 19874
t ative</w> 19870
For ms</w> 19865
P ur 19855
el i 19848
incip al</w> 19847
re views</w> 19815
rele ase</w> 19815
m id 19813
invest ments</w> 19809
to o</w> 19808
es h</w> 19805
ar ded</w> 19804
ris e</w> 19791
7 8</w> 19783
encoura ging</w> 19777
deploy ed</w> 19775
co st- 19761
Alg eria</w> 19752
alloc ated</w> 19750
l a</w> 19723
Pro ject</w> 19720
prepar ing</w> 19717
Guine a</w> 19705
Exper t</w> 19689
st ations</w> 19686
there by</w> 19678
In spec 19664
el ine</w> 19659
b as 19656
il ateral</w> 19651
I S</w> 19639
inst ance</w> 19633
tradi tion</w> 19624
pr ices</w> 19617
medi um 19612
F D 19606
th ing</w> 19600
employ ees</w> 19596
soci o- 19590
i tions</w> 19588
Sci entific</w> 19584
qu estion 19583
th y</w> 19582
ab ol 19576
Mal ay 19567
8 5</w> 19565
fac ing</w> 19545
Strateg ic</w> 19528
am p 19526
expan sion</w> 19518
loc ated</w> 19513
pre lim 19499
T ask</w> 19497
o red</w> 19481
Qu estions</w> 19478
S im 19476
num erous</w> 19467
v isi 19466
wor ldwide</w> 19463
dem an 19457
h y 19454
ar rest</w> 19443
P lease</w> 19429
st ation</w> 19423
South- South</w> 19422
oc k 19418
bec om 19411
prelim inary</w> 19401
publ ication</w> 19397
earli er</w> 19395
ex ist</w> 19394
pl ayed</w> 19376
Se a</w> 19362
ow ned</w> 19355
jo b</w> 19347
transi t</w> 19347
re jec 19346
i ii</w> 19342
ap p 19337
mar gin 19322
sent ence</w> 19321
en ding</w> 19315
judic iary</w> 19314
Th ail 19306
prepar atory</w> 19305
J ord 19288
er o 19283
Ap pe 19275
ch ec 19270
ir y</w> 19270
8 3</w> 19260
abl ed</w> 19258
su s 19255
Sa har 19255
head s</w> 19250
Thail and</w> 19244
clo sure</w> 19243
a ud 19235
A ud 19231
lat ter</w> 19224
direc tion</w> 19219
los ses</w> 19219
Cro ati 19214
pat ter 19207
fav our</w> 19204
rain ts</w> 19199
Sub committee</w> 19194
ti v 19182
ach ed</w> 19179
E S</w> 19172
im mun 19168
C. 2</w> 19161
di gn 19157
protec ting</w> 19146
NP T</w> 19146
obstac les</w> 19145
vi r 19137
foc al</w> 19132
deliv ered</w> 19114
maint aining</w> 19103
oc al</w> 19094
ail y</w> 19086
b ers</w> 19076
prom p 19073
sh el 19064
int ly</w> 19039
dec la 19033
con dem 19029
O f</w> 19028
legiti mate</w> 19017
exc e 19014
hist or 19002
coordin ate</w> 18979
ur ation</w> 18970
iter acy</w> 18968
Est abl 18961
LD Cs</w> 18942
extre m 18941
improv ements</w> 18940
j un 18935
D o 18933
chem ical</w> 18933
Mov ement</w> 18928
de pen 18927
Reg ulations</w> 18917
Refuge es</w> 18913
E nergy</w> 18911
con formity</w> 18906
inten si 18905
Com b 18897
S P 18896
c at 18895
Mechan ism</w> 18894
There fore</w> 18889
7 9</w> 18883
re si 18879
staff ing</w> 18875
identi ty</w> 18872
En coura 18867
I I 18866
Territ ories</w> 18864
Viol ence</w> 18856
man dated</w> 18854
Coordin ator</w> 18852
pre dic 18848
re ad</w> 18847
Philipp ines</w> 18845
expen ses</w> 18842
pl at 18836
Ban gl 18820
geograph ical</w> 18808
sec toral</w> 18804
Net work</w> 18804
reserv ation</w> 18798
ul g 18791
Acc ord 18785
campa igns</w> 18778
P lan 18776
val uation</w> 18747
T a 18728
inter im</w> 18725
af for 18722
8 2</w> 18709
Bangl ad 18709
reme dies</w> 18703
N E 18698
h ere</w> 18691
design ated</w> 18690
ver ification</w> 18675
T un 18671
ing ing</w> 18668
publ ications</w> 18667
wh om</w> 18665
Accord ingly</w> 18662
ther wise</w> 18637
un able</w> 18632
f ri 18627
E quality</w> 18624
e ing</w> 18621
re ven 18619
pos al</w> 18612
cre di 18609
hear d</w> 18608
E U</w> 18600
N ai 18588
4 . 18581
at em 18576
i qu 18571
B ar 18567
H o 18560
Com prehensive</w> 18551
Pre sid 18549
agg reg 18547
W ith 18546
W HO</w> 18536
satisfac tion</w> 18527
ple d 18525
wee k</w> 18525
Gu atem 18516
ro und</w> 18512
innov ative</w> 18510
jo intly</w> 18508
g aps</w> 18504
l ef 18504
Fin ally</w> 18494
safegu ards</w> 18489
m ul 18476
- General</w> 18471
sensi tive</w> 18469
consult ative</w> 18461
b arri 18455
J er 18454
recor d</w> 18450
carr ying</w> 18440
Austri a</w> 18440
guarante es</w> 18436
ex pe 18434
oph ob 18429
Con tr 18425
imp unity</w> 18424
om an</w> 18421
to - 18418
no ting</w> 18415
ari time</w> 18399
E l</w> 18395
Belar us</w> 18388
8 1</w> 18378
prison ers</w> 18377
mar ks</w> 18370
suppl ies</w> 18369
wid ely</w> 18366
in tention</w> 18337
exam ination</w> 18334
Recom mend 18330
pro duce</w> 18313
affec ting</w> 18297
9 8</w> 18294
ol der</w> 18288
Statis tics</w> 18286
Malay sia</w> 18282
f ailed</w> 18278
In dependent</w> 18270
origin al</w> 18268
op ening</w> 18263
Ar men 18262
tion ally</w> 18230
e ties</w> 18228
lin k 18218
conc entr 18201
Banglad esh</w> 18201
Bel g 18180
M y</w> 18177
rob i</w> 18173
Nai robi</w> 18169
tur n</w> 18167
li v 18166
work ed</w> 18166
pil ot</w> 18166
ec osy 18161
The ir</w> 18155
regul arly</w> 18152
propor tion</w> 18152
ud i</w> 18148
du ties</w> 18126
st ance</w> 18124
Stat ute</w> 18118
trans actions</w> 18110
const raints</w> 18110
lim it</w> 18096
9 5</w> 18092
ib ility</w> 18084
el ement</w> 18082
AN D</w> 18076
R educ 18075
e ds</w> 18064
t ations</w> 18064
G iv 18056
substan ces</w> 18053
Ira q 18038
inte rested</w> 18034
Georg ia</w> 18031
pursu e</w> 18004
Tran si 18004
serv ation</w> 17997
Prof essional</w> 17996
u su 17995
Em ploy 17995
viol ated</w> 17969
chem icals</w> 17963
tu red</w> 17962
8 6</w> 17960
9 7</w> 17959
D .</w> 17957
ho c</w> 17957
S m 17953
M ed 17947
ou ter</w> 17944
achiev ements</w> 17921
high - 17921
receiv ing</w> 17921
Sa udi</w> 17919
exam ine</w> 17915
complain ant</w> 17915
P- 3</w> 17895
com pu 17894
ta x</w> 17890
w ill 17878
sequ ently</w> 17878
con tra 17856
7 , 17852
n ations</w> 17841
pr ice</w> 17838
reason able</w> 17819
lef t</w> 17817
acc ur 17816
shi p 17812
Re affir 17807
Por tu 17805
hop ed</w> 17798
CN .4</w> 17797
ever y 17794
un less</w> 17778
w ing</w> 17751
m icro 17744
reaffir med</w> 17742
imprison ment</w> 17737
resol ve</w> 17731
sti pul 17729
mak es</w> 17721
ga p</w> 17708
P lat 17706
P- 4</w> 17702
V en 17701
E cu 17699
out lined</w> 17696
vulner ability</w> 17692
accept able</w> 17686
S ur 17685
B as 17676
9 6</w> 17662
C lim 17659
Per u</w> 17659
contro l 17654
C E</w> 17650
D ocu 17647
4 00</w> 17644
mea su 17614
w i 17610
thir ty- 17602
sh ow</w> 17593
com pris 17590
In du 17586
8 4</w> 17582
semin ars</w> 17577
En gl 17571
cohe rence</w> 17569
under ing</w> 17565
b ound 17564
D - 17562
Cam bo 17552
mod alities</w> 17547
A d</w> 17543
ak h 17539
CE DA 17537
er ation</w> 17535
High -level</w> 17534
n ar 17526
Me a 17526
in ju 17520
lo ok</w> 17518
- L 17516
associ ations</w> 17513
construc tive</w> 17511
n es 17510
MO NU 17509
i ting</w> 17507
cap abilities</w> 17507
sh ort</w> 17502
enter prise</w> 17502
un employment</w> 17501
w oman</w> 17489
E astern</w> 17480
ob ilization</w> 17475
pro stitution</w> 17472
som e 17464
star t</w> 17463
self- determination</w> 17460
teach ers</w> 17460
socio- economic</w> 17451
Con gress</w> 17448
br inging</w> 17436
loc ations</w> 17432
Tor ture</w> 17432
fac tor</w> 17428
UNO PS</w> 17421
ul t</w> 17420
profes sion 17420
ro les</w> 17412
bal an 17409
V II</w> 17407
Clim ate</w> 17405
M ore</w> 17401
our ing</w> 17399
C z 17382
sett lements</w> 17367
oc curred</w> 17366
N ep 17365
preven tive</w> 17358
el a</w> 17352
CEDA W</w> 17349
Giv en</w> 17345
maxim um</w> 17341
ts -based</w> 17331
nutri tion</w> 17329
il s</w> 17300
ph en 17300
D en 17291
C. 3</w> 17291
8 8</w> 17288
s h</w> 17282
Tw o</w> 17279
p ack 17273
ex plan 17268
agre e</w> 17260
UN R 17242
9 1</w> 17237
flo or</w> 17234
o therwise</w> 17233
speci fied</w> 17217
dispu te</w> 17215
expan ded</w> 17214
differen ces</w> 17213
Promo tion</w> 17194
coordin ating</w> 17189
- ended</w> 17183
j ob 17177
tro ops</w> 17172
ilit ary</w> 17160
Incre ased</w> 17153
m its</w> 17151
rap id</w> 17150
qu iry</w> 17146
believ es</w> 17140
ass isting</w> 17135
te dly</w> 17134
us al 17131
observ er</w> 17126
method ology</w> 17124
i ently</w> 17121
contro ls</w> 17119
Erit rea</w> 17117
201 0- 17104
Th rou 17091
B r 17082
Univers al</w> 17078
decla red</w> 17078
d aily</w> 17076
Jer usal 17072
R ef 17070
Prepar atory</w> 17070
et c</w> 17068
W TO</w> 17067
emor an 17064
equ iv 17063
re construction</w> 17061
i . 17060
0 s</w> 17056
repres ent</w> 17049
cover ing</w> 17048
Minis terial</w> 17031
M ost</w> 17027
n ame</w> 17026
N ic 17021
8 , 17016
exam ined</w> 17013
guid e</w> 17009
he av 17003
NG O</w> 16999
ish eries</w> 16998
ke ep</w> 16992
li ability</w> 16988
loc ked</w> 16988
recogn izes</w> 16967
N um 16966
s election</w> 16965
e .</w> 16964
counter - 16964
dign ity</w> 16962
No ting</w> 16954
mob ilization</w> 16946
en ophob 16936
Integr ated</w> 16935
ci ties</w> 16930
T u 16928
exten sive</w> 16924
schedul ed</w> 16924
de ter 16922
trans mitted</w> 16922
M u 16919
Fin land</w> 16912
Jerusal em</w> 16911
st ems</w> 16905
U p 16904
dec ide</w> 16897
200 6- 16884
w ishes</w> 16878
conf idence</w> 16876
acqu isi 16875
ardi z 16875
9 3</w> 16871
subsequ ently</w> 16871
ordin ary</w> 16870
broad er</w> 16865
tra ined</w> 16853
Sou thern</w> 16851
po st 16846
foc using</w> 16844
p ren 16829
C ar 16826
s - 16822
ic k 16798
Ad vis 16797
inter ventions</w> 16796
det ained</w> 16791
ran ch</w> 16788
oc ational</w> 16786
for th</w> 16781
ar rested</w> 16779
et ary</w> 16779
num bers</w> 16763
Un der- 16762
giv ing</w> 16757
lin k</w> 16751
atic ally</w> 16748
re fer</w> 16747
dispu tes</w> 16739
ha vi 16732
pre mis 16728
advant age</w> 16727
mar ked</w> 16726
i. e.</w> 16726
sur vi 16724
Guatem ala</w> 16716
A C. 16714
deg ree</w> 16712
6 00</w> 16701
inf ec 16701
An ti 16700
s ement</w> 16695
Y ear</w> 16693
techn ological</w> 16690
Engl ish</w> 16689
9 2</w> 16686
s av 16678
T an 16673
enc e- 16664
m ach 16663
chan ged</w> 16650
Par t</w> 16642
ff ic</w> 16633
v in 16626
Croati a</w> 16624
kno w</w> 16620
odi ver 16620
relev ance</w> 16614
9 , 16609
ess - 16607
nation als</w> 16596
arbitr ary</w> 16590
announ ced</w> 16577
manag ers</w> 16575
ti vities</w> 16573
prov ed</w> 16570
Is su 16569
9 9</w> 16560
c ity</w> 16560
up date</w> 16559
in struc 16544
ac compan 16542
S T</w> 16540
Se e</w> 16540
ph ere</w> 16535
Par agrap 16532
T E 16527
ur y</w> 16522
char ges</w> 16509
Jord an</w> 16508
em ed</w> 16504
H ou 16502
al i 16493
show s</w> 16487
Plat form</w> 16477
jud ge</w> 16474
Ven ez 16470
o men 16467
ul e</w> 16467
UNR WA</w> 16453
det ain 16450
Venez u 16446
c up 16442
exam ples</w> 16437
Cz ech</w> 16437
S pan 16436
C. 5</w> 16433
mater nal</w> 16425
minis terial</w> 16413
tren d</w> 16410
j ing</w> 16408
chan ging</w> 16394
det ails</w> 16392
pr incipal</w> 16391
m er</w> 16381
deliber ations</w> 16379
cl e 16358
Oc cup 16355
be havi 16342
Sr i</w> 16340
cur ricul 16338
iri t</w> 16338
Pe acebuilding</w> 16336
B ei 16328
struc tural</w> 16316
Peop les</w> 16311
- wide</w> 16309
ment ally</w> 16299
8 9</w> 16296
mak ers</w> 16296
r ace</w> 16294
ex ports</w> 16290
exten sion</w> 16276
t ex 16275
kill ed</w> 16273
budge ts</w> 16262
Bu t</w> 16257
9 4</w> 16254
F oundation</w> 16253
F ri 16246
al ed</w> 16245
agg res 16243
g rant</w> 16228
re ver 16225
1 st</w> 16224
0 . 16218
Sa fety</w> 16212
ic an</w> 16208
obt ained</w> 16203
ell ec 16198
cer tain 16197
Plan ning</w> 16195
Bei jing</w> 16185
conc ep 16175
lin ks</w> 16164
Ser bia</w> 16160
st a</w> 16157
sec tions</w> 16156
O mb 16150
200 4- 16148
sp irit</w> 16145
Omb ud 16140
att ack</w> 16136
odiver sity</w> 16136
v al</w> 16131
min ing</w> 16122
wh y</w> 16121
Nep al</w> 16110
M ad 16077
on om 16077
ur s</w> 16076
pan el</w> 16076
oci de</w> 16072
ser i 16071
Budge tary</w> 16066
t est</w> 16065
subjec ted</w> 16033
Sm all</w> 16033
acces sible</w> 16007
T S</w> 15998
envis aged</w> 15996
Ho c</w> 15994
Ecu ador</w> 15993
part ner</w> 15972
exc ep 15966
j ourn 15964
ad es</w> 15964
exp and</w> 15956
law ful</w> 15953
human ity</w> 15952
than k</w> 15950
cha ir 15931
H RC</w> 15924
out reach</w> 15914
n ine</w> 15908
Span ish</w> 15905
le t 15896
ast er</w> 15890
Strength ening</w> 15888
Sim il 15881
Belg ium</w> 15878
solid arity</w> 15872
as ting</w> 15868
program ming</w> 15863
A m 15862
con sum 15857
el ig 15846
s k 15835
jo ined</w> 15831
gen der 15824
l ate</w> 15820
ad oles 15820
Ac tivities</w> 15819
pres sion</w> 15817
y ed</w> 15815
re patri 15806
Ex cell 15806
pro gres 15798
Pur su 15797
extre me</w> 15785
f all</w> 15784
on e- 15783
top ics</w> 15780
Pol and</w> 15779
claim ed</w> 15771
Iraq i</w> 15753
K az 15751
P s</w> 15741
itt le</w> 15736
m ess 15732
hist ory</w> 15722
tic ally</w> 15711
speak ers</w> 15711
inter- agency</w> 15711
gra ve</w> 15709
un ilateral</w> 15707
an ticip 15703
cont ain</w> 15702
am a</w> 15698
reach ing</w> 15690
x ed</w> 15686
Addi tional</w> 15685
st ly</w> 15682
A C 15675
wit nesses</w> 15672
d ation</w> 15664
t ourism</w> 15658
wel fare</w> 15658
K yo 15648
produc t</w> 15648
c ut 15644
cam ps</w> 15643
CC C</w> 15641
y an</w> 15640
de av 15633
cust oms</w> 15633
si le</w> 15628
associ ation</w> 15628
auth ors</w> 15625
ess ed</w> 15622
in sufficient</w> 15615
Kyo to</w> 15614
ac king</w> 15612
substan ti 15606
investig ate</w> 15605
rap e</w> 15589
st or 15587
peri ods</w> 15587
n ever</w> 15585
as signed</w> 15585
sol di 15582
we alth</w> 15579
E M</w> 15571
fo ster</w> 15569
Represent atives</w> 15567
enjo y</w> 15557
An gol 15551
integr ate</w> 15546
demonstr ated</w> 15536
gen der- 15514
u n</w> 15513
B rit 15503
with draw 15499
ist ent</w> 15493
beg an</w> 15493
sm all 15490
Co sta</w> 15485
corpor ate</w> 15484
Al ban 15483
mun ition</w> 15480
t aining</w> 15479
Over sight</w> 15472
job s</w> 15468
for ums</w> 15465
trans ferred</w> 15463
embar go</w> 15461
pe acebuilding</w> 15460
fi gh 15460
spons ors</w> 15457
Turk ish</w> 15457
Bu il 15453
man age</w> 15448
att ached</w> 15439
Chan ge</w> 15435
cal cul 15426
Si x 15423
H ung 15422
am bia</w> 15422
m itting</w> 15421
prohib ited</w> 15414
n omin 15412
ellec tual</w> 15408
8 00</w> 15401
C alls</w> 15400
Oper ation</w> 15398
bel ong 15390
at a</w> 15378
de dic 15376
en deav 15369
Under- Secretary-General</w> 15350
per mit</w> 15344
nuclear-weap on</w> 15341
Brit ain</w> 15331
a si 15313
D ay</w> 15311
dest ro 15310
im bur 15305
Pro vi 15302
satell ite</w> 15298
Ar med</w> 15288
serv ing</w> 15278
acquisi tion</w> 15276
Tra fficking</w> 15272
re sumed</w> 15271
bur den</w> 15247
de p 15246
g as</w> 15243
I V 15242
bal ances</w> 15235
Venezu ela</w> 15229
SB I</w> 15227
minis tries</w> 15225
direc ted</w> 15212
l er</w> 15206
pow ers</w> 15206
expl ained</w> 15191
Lan ka</w> 15189
di v 15188
t ence</w> 15183
comb ined</w> 15177
s ale</w> 15172
n d</w> 15168
as set</w> 15162
li gence</w> 15159
ch es</w> 15156
su me</w> 15145
cur y</w> 15141
acknowled ged</w> 15141
repres ents</w> 15137
Pow er</w> 15137
a .m.</w> 15136
re ment</w> 15122
it ations</w> 15122
Ch em 15119
I .</w> 15112
w w 15101
reflec ts</w> 15092
ak e</w> 15085
Sen eg 15085
Rom a</w> 15079
de ad 15072
op ened</w> 15071
Con stitu 15070
dre w</w> 15068
Budge t</w> 15065
mon thly</w> 15059
m i 15056
incre ases</w> 15055
wee ks</w> 15054
low - 15053
ne ar</w> 15049
od y</w> 15045
Def ence</w> 15042
vol um 15034
id ation</w> 15032
Res olution</w> 15032
bun als</w> 15031
l ittle</w> 15029
ivers ary</w> 15028
asyl um</w> 15027
P un 15021
indic ates</w> 15021
balan ced</w> 15021
commun ic 15018
ac commod 15016
Cambo dia</w> 15010
G s</w> 15006
ste ad</w> 15004
lin ing</w> 14997
s on</w> 14995
condi tion</w> 14990
C .1</w> 14989
invol ve</w> 14981
Ass ess 14978
p ati 14971
li qu 14969
Mea sures</w> 14963
post- conflict</w> 14962
back ground</w> 14959
ti me 14943
at tr 14943
bo ys</w> 14943
multi ple</w> 14943
repres enting</w> 14933
2 nd</w> 14932
re sident</w> 14922
L ocal</w> 14921
comp il 14917
air space</w> 14915
Fin ance</w> 14911
d oc 14910
pe ti 14907
C l 14899
An y</w> 14896
al one</w> 14888
Wh at</w> 14886
in s</w> 14875
enophob ia</w> 14871
reiter ates</w> 14869
Excell ency</w> 14864
up gra 14863
incorpor ated</w> 14858
barri ers</w> 14848
Mo del</w> 14847
pri or 14846
serv ed</w> 14846
reg ards</w> 14840
O ur</w> 14838
A S</w> 14835
rele ased</w> 14834
semin ar</w> 14832
Recogn izing</w> 14825
Pursu ant</w> 14813
conf id 14810
Observ er</w> 14810
do ing</w> 14807
cris es</w> 14805
sm an</w> 14803
Soci ety</w> 14799
miti gation</w> 14798
Con cer 14792
conduc ting</w> 14787
soci eties</w> 14786
accept ance</w> 14785
v .</w> 14781
ust ed</w> 14781
trans national</w> 14774
ST A</w> 14774
S ing 14770
char ged</w> 14770
util ization</w> 14763
j a</w> 14755
oun ded</w> 14755
of - 14754
RA L</w> 14743
E ffec 14741
Tun isi 14736
M ac 14733
M ilitary</w> 14731
Aud itors</w> 14725
compe tence</w> 14723
larg ely</w> 14705
ci ve</w> 14700
X X 14696
premis es</w> 14691
fin ding</w> 14688
distribu ted</w> 14686
Guid elines</w> 14685
deal t</w> 14684
ard ous</w> 14678
exc ept</w> 14673
dis abled</w> 14671
Inter governmental</w> 14665
2008- 2009</w> 14650
ful fill 14649
t ot 14647
7 - 14641
suff ering</w> 14639
tr u 14625
SB STA</w> 14617
pren e 14604
ess- raising</w> 14602
as sign 14601
star ted</w> 14601
depend ence</w> 14593
ban k</w> 14592
siz e</w> 14590
Tan z 14581
ed ural</w> 14575
sid es</w> 14574
Tak ing</w> 14568
w ished</w> 14561
phen omen 14556
sav ings</w> 14553
or ien 14544
Inv est 14541
ent al</w> 14534
es pread</w> 14532
commen ded</w> 14531
M ulti 14525
beg in</w> 14524
ter ing</w> 14523
coun tr 14519
Par is</w> 14519
constitu tes</w> 14509
ell ing</w> 14504
t ack 14500
M us 14497
di vi 14491
appe als</w> 14479
laun ch</w> 14464
O pen 14462
trans portation</w> 14462
Num ber</w> 14461
ann iversary</w> 14456
degra dation</w> 14453
over come</w> 14441
Rev .1</w> 14434
op en 14431
adequ ately</w> 14430
T otal</w> 14426
discipl inary</w> 14420
adop ting</w> 14418
acc ept</w> 14414
air e</w> 14411
fig ures</w> 14405
prom oted</w> 14403
isc al</w> 14402
par tial</w> 14395
man if 14387
Employ ment</w> 14376
6 0 14364
Armen ia</w> 14364
n ation</w> 14361
ov e- 14358
bi ological</w> 14353
Agricul ture</w> 14353
S am 14351
let ters</w> 14348
el led</w> 14344
t un 14343
contr ary</w> 14342
v ocational</w> 14338
G han 14332
under taking</w> 14329
ab ove- 14327
ro om</w> 14324
Den mark</w> 14317
es tion</w> 14304
inven tory</w> 14299
ar ance</w> 14289
Proc ess</w> 14288
com ment</w> 14274
har ass 14269
su ffic 14263
enti ally</w> 14262
Kaz akh 14261
mon ey</w> 14259
man aged</w> 14253
Seneg al</w> 14252
equ ity</w> 14249
re ti 14239
al es</w> 14237
re imbur 14236
he re 14217
in adequate</w> 14215
dedic ated</w> 14215
link ages</w> 14208
per form</w> 14202
complain t</w> 14199
Wor k</w> 14197
in king</w> 14195
tw o- 14191
Kazakh stan</w> 14186
vari ety</w> 14185
wid espread</w> 14181
Te am</w> 14179
st able</w> 14175
at tit 14173
ju ven 14166
gender -based</w> 14166
prepar ations</w> 14164
de ep</w> 14156
Pro liferation</w> 14156
st ages</w> 14155
chil d 14154
d y 14153
recommen d</w> 14150
jun ction</w> 14150
well- being</w> 14149
liber ty</w> 14130
fac ts</w> 14126
resid ence</w> 14114
O S 14112
prohib ition</w> 14110
Issu es</w> 14110
ex tr 14108
orien ted</w> 14101
bo o 14098
fe a 14095
ch i 14088
ron t</w> 14087
C ur 14085
hol der</w> 14083
ban ks</w> 14081
g al</w> 14073
b on</w> 14071
detain ees</w> 14071
Afgh an</w> 14070
f ers</w> 14065
comp ati 14060
beli ef</w> 14059
R ica</w> 14039
de a 14035
F P</w> 14033
dem obilization</w> 14030
er - 14027
CO M 14014
at ar</w> 14008
Proc edure</w> 14003
Reduc tion</w> 13997
6 . 13980
G EF</w> 13980
ex tradition</w> 13965
be aring</w> 13960
clu ster</w> 13955
Assess ment</w> 13945
I G 13943
requ esting</w> 13939
projec ted</w> 13937
l ying</w> 13936
finan ced</w> 13936
qual ified</w> 13935
E ar 13933
en rol 13928
Tanz ania</w> 13926
her it 13922
dis posal</w> 13919
func tional</w> 13914
inv itation</w> 13913
Con ventions</w> 13908
Ara b 13908
O ut 13901
7 00</w> 13900
bre ak 13897
Bol i 13896
out puts</w> 13885
u d</w> 13878
MD Gs</w> 13878
Mal i</w> 13877
Palestin ians</w> 13875
S an 13871
ass isted</w> 13864
2010- 2011</w> 13864
lim its</w> 13862
B ased</w> 13860
ci d 13859
liv eli 13858
Do ha</w> 13853
advan cement</w> 13847
200 2- 13837
ill - 13827
gener ation</w> 13820
U ru 13818
s w 13817
Sci ence</w> 13817
Advis er</w> 13816
id ity</w> 13810
Angol a</w> 13801
ig ned</w> 13798
su ffered</w> 13796
la undering</w> 13790
influ ence</w> 13790
larg est</w> 13777
201 2- 13773
ra in</w> 13769
L E 13768
an im 13766
l abor 13763
UNC IT 13750
hel ped</w> 13747
el ligence</w> 13737
soldi ers</w> 13734
coun sel 13733
inter vention</w> 13733
pres sure</w> 13732
adver se</w> 13726
te m</w> 13717
or i 13716
UNCIT RAL</w> 13716
tra ding</w> 13714
Inv estig 13708
rel atively</w> 13703
U se</w> 13702
int olerance</w> 13701
con servation</w> 13700
organiz e</w> 13695
Rac ial</w> 13693
contr ac 13690
f arm 13686
e e</w> 13654
Uru gu 13643
UNA M 13639
ev id 13634
appe ar</w> 13632
f ishing</w> 13624
consider ations</w> 13618
expres ses</w> 13613
Throu gh</w> 13613
wi der</w> 13612
Sal v 13610
5 . 13604
se as</w> 13588
A li 13585
tra ffic</w> 13583
pres erv 13576
dec lar 13572
bi odiversity</w> 13566
N evertheless</w> 13565
C I</w> 13563
m ag 13560
S TA 13559
allow ance</w> 13558
indi rec 13556
fe d 13551
aw ay</w> 13544
p ill 13543
n ity</w> 13542
B us 13542
oper ate</w> 13537
M EN 13531
eval uations</w> 13523
Leg isl 13523
deman ds</w> 13523
advan ced</w> 13518
Rom ania</w> 13514
ch ing</w> 13511
m emoran 13509
fed eral</w> 13508
ast al</w> 13506
se ar 13501
awaren ess-raising</w> 13499
F re 13496
perform ed</w> 13489
dis trict</w> 13484
m a</w> 13469
Sub - 13464
above- mentioned</w> 13463
al ist</w> 13456
house holds</w> 13455
reg re 13454
we ak 13452
Ara bia</w> 13426
belong ing</w> 13424
Y outh</w> 13422
te ers</w> 13412
mer cury</w> 13410
C RC</w> 13406
valu able</w> 13405
f ications</w> 13394
lat est</w> 13392
Occup ied</w> 13392
w age</w> 13391
fac ility</w> 13391
adjust ment</w> 13387
profession als</w> 13383
seg ment</w> 13380
dep th</w> 13374
pl ication</w> 13367
CA P</w> 13357
experi enced</w> 13356
O ver</w> 13343
2006- 2007</w> 13342
I tem</w> 13341
K y 13332
b ul 13330
gra m</w> 13326
ed onia</w> 13322
inv o 13319
pap ers</w> 13314
review ing</w> 13314
St ock 13310
con junction</w> 13309
on ization</w> 13307
rem ote</w> 13306
bound ary</w> 13305
Ghan a</w> 13303
miti g 13300
cap it 13299
B is 13298
ex emp 13291
attemp t</w> 13291
IP SA 13288
om mun 13287
re vision</w> 13286
guarante ed</w> 13280
custom ary</w> 13275
moder n</w> 13273
see ks</w> 13266
subm issions</w> 13256
attribu table</w> 13254
bo ok</w> 13253
cent ury</w> 13247
nam es</w> 13247
radi o</w> 13239
heal th- 13237
coun sel</w> 13231
en ship</w> 13228
mo del 13227
10 5</w> 13227
ent re 13218
sev ere</w> 13198
reme dy</w> 13198
control led</w> 13198
facilit ated</w> 13196
Portu gal</w> 13190
b orders</w> 13189
S C</w> 13187
Cor r 13187
bec ame</w> 13186
believ ed</w> 13185
Buil ding</w> 13183
dec ade</w> 13182
proc edural</w> 13181
f isheries</w> 13174
equiv al 13174
C T 13173
em en</w> 13165
hel ping</w> 13165
dy nam 13164
sen se</w> 13155
dise ase</w> 13139
sub stance</w> 13124
ec e</w> 13123
me t 13117
uni que</w> 13114
m os 13112
Commun ications</w> 13101
UN- Habitat</w> 13098
tre ated</w> 13087
Treat ment</w> 13087
repor tedly</w> 13075
ann ex 13071
Urugu ay</w> 13069
entre prene 13057
E ach</w> 13051
Head s</w> 13050
becom ing</w> 13049
M au 13048
li ghts</w> 13040
E mer 13027
l asting</w> 13024
S te 13020
U z 13019
Paragrap h</w> 13018
d ow 13016
recogn izing</w> 13016
r y</w> 13015
e k</w> 13000
innov ation</w> 12998
harass ment</w> 12997
plat form</w> 12996
ot yp 12992
ev i 12982
S ett 12980
def enders</w> 12975
St an 12964
m ale</w> 12957
formul ated</w> 12957
re fer 12953
accoun table</w> 12946
resol ved</w> 12945
fri end 12940
cer tif 12937
le - 12936
trans mit</w> 12935
vehic le</w> 12935
dom in 12932
deliv er</w> 12932
cust ody</w> 12929
W G 12924
por ted</w> 12924
bien nial</w> 12918
dea ths</w> 12913
le aving</w> 12910
H ar 12909
sal ary</w> 12901
- scale</w> 12900
s la 12899
man dat 12895
over view</w> 12894
dec line</w> 12892
requ iring</w> 12890
al ien 12889
cover s</w> 12880
Uz be 12878
Sl ov 12874
R ed</w> 12870
polic y 12867
re otyp 12862
trans fers</w> 12861
accompan ied</w> 12859
C P</w> 12850
Cam ero 12849
con ver 12843
Ri o</w> 12843
fig ure</w> 12842
vac ancy</w> 12831
is es</w> 12830
. m</w> 12824
SR . 12821
Pen al</w> 12820
Coun ter- 12817
dou b 12815
continu ous</w> 12812
ha bit 12811
Tunisi a</w> 12811
Proc urement</w> 12810
i ers</w> 12807
Ch apter</w> 12807
constitu ted</w> 12807
aut om 12802
tro op 12795
Constitu tional</w> 12786
per taining</w> 12782
Q atar</w> 12776
rec alls</w> 12774
brief ing</w> 12772
integr al</w> 12769
C M 12766
N S</w> 12765
F as 12765
conclud e</w> 12764
it or</w> 12759
s ory</w> 12757
me dic 12757
Sl oven 12757
offic er</w> 12745
reli able</w> 12742
intro duce</w> 12737
Dec ision</w> 12727
withdraw al</w> 12722
l or 12721
ga ve</w> 12721
hosp it 12721
E C</w> 12706
Encoura ges</w> 12705
ograph ic</w> 12701
es sive</w> 12700
success fully</w> 12699
Boli via</w> 12689
ri gh 12685
elec ommun 12683
facilit ation</w> 12683
is ation</w> 12677
alleg edly</w> 12660
consolid ated</w> 12660
ten th</w> 12652
academ ic</w> 12645
om b 12643
S P</w> 12639
ass er 12637
f iscal</w> 12635
ol d 12635
ma p</w> 12635
negoti ation</w> 12635
bo ard</w> 12634
amoun ted</w> 12624
1 ,000</w> 12619
dec entr 12617
w ri 12616
ses sional</w> 12610
ati on- 12608
j i 12607
H aving</w> 12606
su s</w> 12606
O EC 12604
Corr .1</w> 12602
Mau riti 12602
oura ble</w> 12600
sa u</w> 12596
re ve 12594
hi bi 12593
ur ge</w> 12590
Bis sau</w> 12587
C had</w> 12583
har m</w> 12581
O P 12569
pro tocol</w> 12568
determin ing</w> 12568
mov ements</w> 12567
at ures</w> 12564
com position</w> 12558
Wel comes</w> 12556
ri g 12545
C - 12543
sub s 12536
H er</w> 12532
V er 12529
3 r 12528
dis placement</w> 12524
flex ibility</w> 12521
ar agu 12516
C H 12514
sh r 12513
E valuation</w> 12512
pre jud 12511
enfor ced</w> 12502
war ning</w> 12502
f low</w> 12500
atten d</w> 12499
expl ore</w> 12494
surve ys</w> 12494
deter i 12490
ro ad 12488
seri ously</w> 12488
G DP</w> 12487
Ac ting</w> 12487
hom es</w> 12484
compris ing</w> 12476
am munition</w> 12473
transi tional</w> 12460
respon d 12455
trans mitting</w> 12452
Transi tional</w> 12451
allow ing</w> 12450
Nic aragu 12449
op position</w> 12446
Ombud sman</w> 12443
fore sts</w> 12442
c ents</w> 12440
W FP</w> 12440
jo in</w> 12440
A mon 12438
lu tion</w> 12437
z ones</w> 12435
N otes</w> 12429
s elec 12427
h ung 12426
counter- terrorism</w> 12422
sou thern</w> 12421
Lib yan</w> 12418
d uration</w> 12416
dev oted</w> 12416
3r d</w> 12416
dis advant 12414
ru n</w> 12410
o ts</w> 12409
extra budgetary</w> 12405
ti veness</w> 12403
ste reotyp 12403
bus in 12402
N am</w> 12400
produc tivity</w> 12391
l ost</w> 12388
co de</w> 12386
re ply</w> 12385
gran ts</w> 12380
th re 12376
con grat 12372
ec h 12368
B et 12367
E CO 12365
if y</w> 12364
prec ed 12363
P overty</w> 12362
execu tion</w> 12360
retur ned</w> 12357
ta x 12355
s pread</w> 12353
Develop ed</w> 12352
mach in 12352
adjust ments</w> 12350
Simil arly</w> 12348
s co 12343
au di 12337
Vi et</w> 12332
e ous</w> 12330
vis ited</w> 12325
He ad</w> 12323
int ellectual</w> 12302
R ome</w> 12300
ac ked</w> 12298
Reg arding</w> 12296
assess ing</w> 12294
t esting</w> 12279
de ep 12278
m atic</w> 12275
house hold</w> 12271
im port</w> 12267
Dis abilities</w> 12265
est e</w> 12262
der ing</w> 12262
sc en 12259
ex ha 12250
explo sive</w> 12246
circul ated</w> 12246
g y 12245
Sing ap 12245
S cho 12242
lawy ers</w> 12241
2004- 2005</w> 12235
z ation</w> 12228
behavi our</w> 12226
b ar 12212
Hung ary</w> 12212
fir m</w> 12211
new ly</w> 12207
ide as</w> 12206
repatri ation</w> 12204
ES CAP</w> 12203
- year</w> 12202
stre am</w> 12201
Del eg 12200
demonstr ate</w> 12196
tr ue</w> 12191
in stances</w> 12187
ine ering</w> 12186
iqu es</w> 12185
Mauriti us</w> 12185
n e</w> 12182
ov a</w> 12182
I l 12181
system -wide</w> 12174
consolid ation</w> 12168
dis aggreg 12167
Organiz ed</w> 12163
as ing</w> 12161
re al 12152
al le 12152
9 00</w> 12145
in puts</w> 12144
prior itiz 12141
exc eption</w> 12139
sear ch</w> 12138
su spec 12134
del e 12134
Amon g</w> 12134
acces sion</w> 12129
cohe rent</w> 12128
N am 12127
respon ded</w> 12119
co astal</w> 12117
ev ol 12109
ple ased</w> 12107
countr y- 12098
Salv ador</w> 12095
neighb ouring</w> 12091
del ays</w> 12090
Stat ements</w> 12083
S el 12071
9 - 12067
li ance</w> 12065
Pro gress</w> 12065
Un der 12064
R a 12062
IPSA S</w> 12060
e- year</w> 12057
Add . 12050
conven tional</w> 12049
Stat ement</w> 12041
C D 12040
Mon ten 12038
di g 12033
bor n</w> 12031
conf identi 12025
stoc ks</w> 12020
p ha 12019
haz ardous</w> 12016
5 ,000</w> 12005
g ains</w> 12002
ish ments</w> 11993
t on 11988
inter action</w> 11986
2012- 2013</w> 11985
fir e</w> 11984
Environ mental</w> 11984
Monten egr 11983
si gn</w> 11977
provi ders</w> 11976
pro s 11974
or al</w> 11973
u ally</w> 11965
Cor ruption</w> 11960
competi tive</w> 11956
C A</w> 11955
ke t</w> 11953
rejec ted</w> 11950
volum e</w> 11950
ard less</w> 11944
t y 11938
altern atives</w> 11937
Tim or 11935
underst and</w> 11935
P . 11923
on line</w> 11923
figh ting</w> 11923
extrem ely</w> 11920
journ alists</w> 11912
aggres sion</w> 11909
B ulg 11907
form at</w> 11907
Sloven ia</w> 11906
if e</w> 11905
aut onom 11899
Indu stri 11893
t olerance</w> 11890
fra g 11886
cut ting</w> 11885
ex clusion</w> 11883
comb at 11882
def ic 11881
anticip ated</w> 11873
S - 11869
harmon ization</w> 11863
f ar 11860
we b</w> 11855
comm it</w> 11843
b ound</w> 11839
S S</w> 11834
sum mar 11834
Wor k 11829
rati fy</w> 11827
l ists</w> 11826
OEC D</w> 11825
gen u 11822
consult ants</w> 11819
har m 11815
Le ague</w> 11813
pre val 11807
pat ro 11804
a qu 11798
ab road</w> 11797
cor responding</w> 11794
proper ly</w> 11792
psych ological</w> 11790
question n 11786
Con tribu 11784
ail ing</w> 11783
Ri ght</w> 11775
Invest ment</w> 11770
schem e</w> 11761
proce ed</w> 11757
Ex pres 11752
Camero on</w> 11747
farm ers</w> 11746
Singap ore</w> 11739
Gu ide</w> 11733
Appe als</w> 11726
Six th</w> 11725
not ably</w> 11724
An nu 11716
En han 11707
explan ation</w> 11705
ab ilization</w> 11703
Pro tocols</w> 11700
evalu ate</w> 11697
dec ades</w> 11691
in put</w> 11689
an a</w> 11688
sus pen 11688
rel ate</w> 11687
& amp 11684
&amp ;</w> 11684
E sti 11677
all evi 11675
pres cri 11672
ref ers</w> 11672
c ou 11671
ben ch 11671
P- 5</w> 11671
schem es</w> 11671
i - 11670
Mon tre 11667
Wh ere</w> 11665
municip al</w> 11664
Ear th</w> 11663
l eng 11658
ES C 11658
flex ible</w> 11657
C u 11655
Comm ittees</w> 11654
Counter- Terrorism</w> 11646
reflec ting</w> 11643
den ied</w> 11639
sovere ign</w> 11636
FD I</w> 11635
ful fil 11633
hib ition</w> 11629
ast ly</w> 11626
inc enti 11623
10 9</w> 11621
equ ally</w> 11618
ill u 11615
usu ally</w> 11605
wri ting</w> 11602
in curred</w> 11598
land locked</w> 11598
Stan ding</w> 11597
si ties</w> 11591
V .</w> 11587
x enophobia</w> 11582
b and</w> 11581
c ame</w> 11579
ud es</w> 11570
ev ision</w> 11565
4 th</w> 11564
restric ted</w> 11552
occup ying</w> 11551
some times</w> 11548
ien ts</w> 11542
c en 11541
ill- treatment</w> 11538
Director -General</w> 11536
techn iques</w> 11533
Au dit</w> 11530
m aritime</w> 11527
im per 11526
annu ally</w> 11524
renew ed</w> 11524
MONU C</w> 11522
incorpor ate</w> 11517
Ch in 11516
S w 11514
Bas el</w> 11507
vin ced</w> 11507
viol ent</w> 11504
schedul e</w> 11500
as ef 11494
Or gan 11493
i aries</w> 11487
so f 11486
Sum mary</w> 11485
fil ed</w> 11484
L ith 11481
D omin 11481
op tim 11480
Annu al</w> 11476
l iteracy</w> 11472
ap ping</w> 11470
Bur k 11469
F un 11466
terror ists</w> 11466
Offic ial</w> 11451
Cap ac 11451
stor age</w> 11450
Ar ms</w> 11441
Uzbe kistan</w> 11441
With in</w> 11438
e y- 11429
H R 11425
comp ul 11424
dis cre 11422
diver si 11420
ag ents</w> 11419
appe ars</w> 11415
hung er</w> 11409
b ab 11408
sp ou 11404
Montenegr o</w> 11403
Lith u 11402
D j 11401
Montre al</w> 11394
re cip 11393
Mig ration</w> 11391
renew able</w> 11387
FO R</w> 11378
der ly</w> 11375
pl us</w> 11373
Nicaragu a</w> 11373
as c 11372
Gre ece</w> 11359
tw are</w> 11356
off ers</w> 11351
analy tical</w> 11351
patter ns</w> 11351
B oth</w> 11350
de pos 11349
o rest</w> 11346
coun ter</w> 11345
e ply</w> 11340
continu ation</w> 11340
defin e</w> 11338
N ar 11336
Jud ic 11336
presid ential</w> 11335
fi re 11331
th or 11328
Anti - 11327
PA D</w> 11326
inspec tion</w> 11326
hos ti 11323
O R 11318
V III</w> 11315
buil t</w> 11314
Timor -L 11310
Adv an 11304
reng th</w> 11303
ew s</w> 11291
mean ing 11290
Timor-L este</w> 11289
T arge 11287
In formal</w> 11284
environ mentally</w> 11284
in equality</w> 11283
Burk ina</w> 11283
show ed</w> 11282
remov al</w> 11281
UNIF IL</w> 11281
d able</w> 11280
fel t</w> 11279
Prov isional</w> 11279
reg ardless</w> 11278
Pro vision</w> 11278
Fas o</w> 11277
in stead</w> 11262
equival ent</w> 11261
distin ction</w> 11256
teach ing</w> 11251
Y emen</w> 11250
propor tion 11249
stoc k</w> 11242
asef ire</w> 11232
st rength</w> 11231
is tical</w> 11228
in deed</w> 11223
ang ible</w> 11218
M ong 11208
so red</w> 11201
enc ing</w> 11199
contr actual</w> 11198
Follow -up</w> 11193
exp ul 11190
W ater</w> 11188
Con duc 11187
car bon</w> 11187
mandat ory</w> 11186
wast es</w> 11184
A N</w> 11177
organiz ing</w> 11177
1 20</w> 11176
5 th</w> 11173
i v</w> 11171
S ha 11170
C ust 11170
medi ation</w> 11170
manag ing</w> 11170
arbit ration</w> 11166
Non- Proliferation</w> 11154
cho ice</w> 11149
ol onization</w> 11147
enti eth</w> 11145
ner g 11142
issu ance</w> 11141
e astern</w> 11134
employ ers</w> 11134
en ds</w> 11129
incenti ves</w> 11123
B . 11122
O M</w> 11122
i ther</w> 11121
an ese</w> 11114
ne arly</w> 11108
nor thern</w> 11107
men ting</w> 11105
N ation 11104
0 1</w> 11099
tr ack</w> 11099
Guine a- 11099
ab uses</w> 11098
B riti 11095
sign ing</w> 11091
expan ding</w> 11091
dimen sions</w> 11088
lia ison</w> 11078
P ap 11076
phenomen on</w> 11076
Ur ges</w> 11074
re ality</w> 11073
fe es</w> 11073
NE PAD</w> 11071
vi de 11067
ain t</w> 11064
Ou ter</w> 11064
oper ative</w> 11062
objec t</w> 11050
Guinea- Bissau</w> 11047
A si 11045
P ris 11042
ic ity</w> 11042
u es</w> 11041
ic it 11037
dissemin ate</w> 11037
vill age</w> 11036
combat ants</w> 11035
OD A</w> 11033
Briti sh</w> 11031
m acro 11026
des ertification</w> 11014
Ad option</w> 11013
citiz enship</w> 11007
Docu ment</w> 11006
pris ons</w> 11002
Dru g</w> 11002
li abilities</w> 10999
larg er</w> 10999
illu str 10993
ak ia</w> 10992
elig ible</w> 10987
dis t 10985
ver b 10978
en shr 10976
Mong ol 10974
disaggreg ated</w> 10972
s ay</w> 10968
Ap pro 10962
lim itations</w> 10940
Dec ree</w> 10933
pass ed</w> 10932
negoti ating</w> 10931
sol ven 10929
log istical</w> 10928
sti mul 10926
occ a 10925
L astly</w> 10919
fo res 10917
Director ate</w> 10916
declar ations</w> 10907
occ asion</w> 10906
jud gement</w> 10902
ac cid 10899
re struc 10898
h us 10897
y l</w> 10897
Inspec tion</w> 10894
wor d</w> 10892
UNA MI 10890
C ER 10888
li ties</w> 10888
Con sequently</w> 10888
rece ip 10883
Le ast</w> 10876
stoc k 10869
Ba h 10869
Jama ica</w> 10866
Com p 10859
198 9</w> 10858
mobil ize</w> 10856
Tak es</w> 10855
En sure</w> 10854
depriv ed</w> 10850
t esti 10849
juven ile</w> 10847
sy m 10835
appl ying</w> 10834
Is land</w> 10833
compul sory</w> 10833
h u 10820
Educ ational</w> 10817
sof tware</w> 10817
lo ad</w> 10816
benefic iaries</w> 10813
sugg estions</w> 10809
sp ac 10807
rel ative</w> 10805
res erve</w> 10802
Trans port</w> 10793
commod ity</w> 10793
d estin 10792
odi ties</w> 10791
1 1 10789
s l 10781
ul ts</w> 10778
suffic iently</w> 10774
y er</w> 10767
mob ility</w> 10767
w ron 10766
underst ood</w> 10766
t ables</w> 10763
purch ase</w> 10762
oc k</w> 10755
g rati 10752
gg ling</w> 10744
introduc ing</w> 10739
CA T</w> 10733
In deed</w> 10732
Ma j 10731
icit ly</w> 10731
ad he 10726
ne ither</w> 10725
US D</w> 10723
meth od</w> 10722
A R 10720
ay ing</w> 10719
Emer gency</w> 10719
e ans</w> 10717
quar ter</w> 10710
Bulg aria</w> 10709
r s</w> 10707
re place</w> 10702
spon sored</w> 10701
pr ud 10689
friend ly</w> 10686
stres ses</w> 10684
charac ter</w> 10683
6 th</w> 10682
admis sible</w> 10680
ar ts</w> 10676
cha p</w> 10672
separ ation</w> 10668
servic ing</w> 10663
counsel ling</w> 10662
conven ing</w> 10656
D urban</w> 10654
UNIF EM</w> 10654
chan n 10653
relation ships</w> 10652
lic en 10650
Sen ior</w> 10644
industri es</w> 10642
fulfil ment</w> 10642
aw ard</w> 10641
health- care</w> 10636
e asi 10633
con du 10632
machin ery</w> 10628
reven ue</w> 10626
Inv ites</w> 10625
com posed</w> 10623
sub paragraph</w> 10622
C a 10621
fin ds</w> 10612
com promis 10607
pol lution</w> 10607
st ering</w> 10606
vo y</w> 10604
pursu ed</w> 10601
them es</w> 10601
hear ing</w> 10601
R ad 10600
secu red</w> 10600
Ob jec 10597
fa ith</w> 10597
inv ite</w> 10595
h in 10594
Go al</w> 10592
harm ful</w> 10585
no tification</w> 10584
M at 10582
qu ick 10581
to p</w> 10581
Sel f- 10569
expul sion</w> 10564
Consi deration</w> 10563
mo thers</w> 10562
gener ated</w> 10561
super vision</w> 10554
UNAMI D</w> 10551
og o</w> 10550
M old 10549
198 8</w> 10542
id em 10533
appl ies</w> 10532
classi fication</w> 10531
Z ambia</w> 10516
ho sted</w> 10516
iv es</w> 10514
lo ans</w> 10511
Fac ility</w> 10509
B an</w> 10508
St ri 10508
y General</w> 10499
IC T 10499
A P 10498
inv asion</w> 10498
C C</w> 10496
long - 10494
Chin ese</w> 10493
arran gement</w> 10492
elabor ation</w> 10492
targe ting</w> 10487
id ly</w> 10485
reduc tions</w> 10483
C la 10481
accommod ation</w> 10481
mil iti 10478
co tic</w> 10476
UNMI K</w> 10473
S ession</w> 10471
pl ement</w> 10467
pres ents</w> 10464
Comb at</w> 10462
ut es</w> 10461
for tun 10459
jur y</w> 10459
fav ourable</w> 10458
inter active</w> 10453
re feren 10444
T ru 10443
IN G</w> 10439
solven cy</w> 10438
an cies</w> 10437
pre pa 10437
cooper ative</w> 10437
histor ical</w> 10436
accur ate</w> 10435
gen ocide</w> 10434
Ky r 10432
decid es</w> 10430
beg un</w> 10429
an i</w> 10427
medium -term</w> 10427
Lithu ania</w> 10427
allow s</w> 10425
occ ur</w> 10412
pack age</w> 10410
st ress</w> 10398
Kyr gy 10397
k in 10396
f our 10395
on- free</w> 10394
frequ ently</w> 10386
for th 10384
prosecu tors</w> 10383
accord ingly</w> 10378
collec ted</w> 10378
dow n 10376
be h 10375
buil dings</w> 10371
or ally</w> 10363
gener ate</w> 10362
Trans national</w> 10358
Ta ji 10342
en ough</w> 10340
m other</w> 10338
Inter ior</w> 10338
f ru 10331
pol i 10330
E R</w> 10326
con ten 10325
budge ting</w> 10324
K ar 10322
7 0 10319
pregn ancy</w> 10305
ence- building</w> 10296
Co - 10291
sy nerg 10290
is sile</w> 10288
L og 10279
san ds</w> 10278
respec ted</w> 10276
formul ate</w> 10275
noti ce</w> 10273
rec ur 10271
cha ired</w> 10267
star ting</w> 10267
L at 10266
B er 10266
stric t</w> 10260
adoles cents</w> 10259
cons ci 10258
t ely</w> 10256
head ed</w> 10255
te sts</w> 10250
w at 10248
repl ies</w> 10244
in dis 10240
mob ile</w> 10240
estim ate</w> 10237
compati ble</w> 10236
un iver 10235
ex ual</w> 10230
memoran dum</w> 10229
accompl ishments</w> 10228
gen cies</w> 10227
M ain 10225
there to</w> 10224
bur g</w> 10220
resul ts-based</w> 10213
e i</w> 10212
Slov akia</w> 10211
ho ods</w> 10210
instruc tions</w> 10207
incid ent</w> 10204
Cy pri 10203
thou sands</w> 10195
curren cy</w> 10195
S U 10192
Sec tor</w> 10187
draw ing</w> 10186
dev ices</w> 10183
Statis tical</w> 10182
i k 10180
Coun try</w> 10180
cap able</w> 10169
Stand ards</w> 10169
sim ply</w> 10157
acceler ate</w> 10153
A U</w> 10150
Mongol ia</w> 10144
Re ports</w> 10143
requ is 10142
grat eful</w> 10142
ori entation</w> 10139
Ar bit 10137
1 2. 10136
ent - 10131
ab il 10130
UN- Women</w> 10126
parlia mentary</w> 10126
under lined</w> 10119
dang erous</w> 10119
Mac edonia</w> 10119
util ized</w> 10117
ey- laundering</w> 10113
Secretar yGeneral</w> 10109
condu cive</w> 10109
Reg ion</w> 10108
beh ind</w> 10104
H am 10103
li ons</w> 10102
Alban ia</w> 10102
dis mis 10101
be red</w> 10098
PR O 10097
method ologies</w> 10097
St res 10096
d ication</w> 10091
ou red</w> 10086
supple mentary</w> 10085
model s</w> 10084
a us 10082
am bi 10082
character istics</w> 10082
every one</w> 10082
r un 10074
dimen sion</w> 10074
ma ster</w> 10071
provin ces</w> 10067
an y 10066
Up on</w> 10065
su itable</w> 10064
m ur 10056
sp ent</w> 10055
ri es</w> 10053
see kers</w> 10049
ro w 10048
acc red 10047
Mold ova</w> 10046
de emed</w> 10043
Al liance</w> 10041
per c 10031
Bar b 10030
under lying</w> 10027
objec ts</w> 10019
clari fy</w> 10017
provin cial</w> 10015
b reach</w> 10011
Particip ation</w> 10010
e ts</w> 10008
An aly 10006
prejud ice</w> 10005
ter re 10004
Ali gn 9993
der ived</w> 9989
ro w</w> 9987
Bus iness</w> 9978
Stri p</w> 9977
tri c</w> 9975
rel ates</w> 9972
mu tually</w> 9969
d ating</w> 9967
j i</w> 9959
Ref e 9957
stand ardiz 9956
T al 9955
Di alogue</w> 9955
congrat ul 9955
du al</w> 9954
ren tly</w> 9952
ex po 9950
inv ites</w> 9942
Z im 9937
I X</w> 9935
Sett lements</w> 9935
k ept</w> 9927
201 4- 9924
troop - 9920
ess or</w> 9919
Open -ended</w> 9919
de tec 9918
A s 9917
contin ent</w> 9914
E f 9911
n it 9909
twenty- first</w> 9904
claim ant</w> 9902
in human</w> 9898
advan ces</w> 9898
Fre ed 9895
Con flic 9891
appropri ation</w> 9890
Comm er 9888
non- discrimination</w> 9879
CON F 9876
sim pl 9872
observ ation</w> 9871
det ail</w> 9871
disadvant aged</w> 9867
t ment</w> 9866
heav y</w> 9861
ma il</w> 9857
Bi ological</w> 9856
L B</w> 9852
there on</w> 9851
expe di 9850
f oundation</w> 9845
meaning ful</w> 9834
t ari 9833
clari fication</w> 9830
200 0- 9829
ep idem 9825
sm u 9824
mean ing</w> 9824
dang er</w> 9822
mon ey-laundering</w> 9819
re par 9818
norm al</w> 9813
genu ine</w> 9799
Offic ers</w> 9798
compl ement</w> 9796
enshr ined</w> 9791
p i 9788
Conduc t</w> 9787
alle l</w> 9784
pro tocols</w> 9781
mo tiv 9781
pregn ant</w> 9776
regim es</w> 9774
oc ks</w> 9773
Ef for 9771
sec t</w> 9769
Bet ween</w> 9768
view ed</w> 9767
inju red</w> 9766
emphasiz e</w> 9763
cir cl 9759
sub region</w> 9755
Inter im</w> 9755
re min 9754
15 0</w> 9750
Rel ations</w> 9749
conf isc 9748
diffe rence</w> 9745
distin gu 9745
Acc ess</w> 9740
degra ding</w> 9737
concep ts</w> 9735
bri d 9731
dis par 9729
ab solu 9722
f le 9720
CN .9</w> 9719
Ar my</w> 9717
great ly</w> 9717
attemp ts</w> 9716
compl ex 9714
re placed</w> 9713
Equ al</w> 9708
i e</w> 9707
th ings</w> 9705
T ER 9704
R ule</w> 9700
tex ts</w> 9699
In tro 9697
graph y</w> 9689
herit age</w> 9689
elimin ating</w> 9688
L ist</w> 9686
Work sh 9682
sent enced</w> 9674
en comp 9672
L O 9671
Organiz ations</w> 9670
red ness</w> 9670
ar my</w> 9667
uni ons</w> 9666
tel evision</w> 9665
Effor ts</w> 9660
busin esses</w> 9659
short -term</w> 9658
sum mit</w> 9656
particip atory</w> 9652
An n 9652
aspec t</w> 9652
I TA 9651
integr ating</w> 9650
vo ting</w> 9649
Res ource</w> 9647
objec tion</w> 9644
gra de</w> 9639
rap idly</w> 9639
S O</w> 9638
Elec toral</w> 9638
liber alization</w> 9636
nuclear-weap on-free</w> 9636
di am 9635
call ing</w> 9625
reiter ate</w> 9622
conven e</w> 9621
transl ation</w> 9620
fac to</w> 9619
pers istent</w> 9617
ic k</w> 9615
inst all 9615
in k</w> 9614
sy n 9613
Zim bab 9612
UNMI L</w> 9611
er ian</w> 9593
tion ers</w> 9592
spe ak</w> 9590
reg arded</w> 9586
proce eds</w> 9581
emphasiz es</w> 9574
chec k 9569
1 1. 9564
admis sibility</w> 9560
macro economic</w> 9560
brief ings</w> 9559
on ds</w> 9553
penal ties</w> 9553
manif est 9549
ef ul 9548
Particip ants</w> 9544
Industri al</w> 9544
Reaffir ming</w> 9535
me an</w> 9533
un lawful</w> 9530
contr actors</w> 9530
great est</w> 9527
mon y</w> 9525
Ben in</w> 9525
in security</w> 9523
diver se</w> 9519
S aint</w> 9516
C ity</w> 9513
ide a</w> 9511
aus p 9510
di ed</w> 9507
Pro hibition</w> 9506
Establ ishment</w> 9506
consist ently</w> 9504
Align ed</w> 9500
LA C</w> 9498
Fri day</w> 9497
U R 9496
tri als</w> 9487
CR P 9487
MINU R 9487
v otes</w> 9483
ef s</w> 9480
fra ud</w> 9480
D ata</w> 9469
troop- contributing</w> 9464
UNO CI</w> 9462
de ple 9459
di ff 9458
Pen sion</w> 9456
il ian</w> 9454
ent ations</w> 9448
dec ent</w> 9446
confid ence-building</w> 9437
Em pha 9436
tor ne 9435
pos session</w> 9430
S em 9428
is ol 9427
Consul tative</w> 9427
ap pen 9426
l ab 9423
an - 9419
intensi fy</w> 9419
hospit als</w> 9419
our g</w> 9417
ste ad 9415
To k 9414
h ard</w> 9410
tri bunal</w> 9408
restruc turing</w> 9408
g ain</w> 9403
conf ron 9403
de eply</w> 9402
le t</w> 9402
re pa 9401
R econ 9399
Taji kistan</w> 9398
Em ir 9395
Ba sic</w> 9395
ecosy stems</w> 9391
rev it 9390
boo ks</w> 9389
off set</w> 9387
indic ator</w> 9385
ro ot</w> 9379
vill ages</w> 9376
w ant</w> 9372
ar ise</w> 9372
clear ance</w> 9369
cont acts</w> 9367
f ill</w> 9365
con vinced</w> 9364
Mal ta</w> 9362
decre ased</w> 9361
o v</w> 9359
la id</w> 9358
ad d</w> 9356
regul ated</w> 9355
sub- item</w> 9352
A SE 9346
pos s 9342
addres ses</w> 9342
forth coming</w> 9342
attit udes</w> 9336
Yugosla v</w> 9335
im migration</w> 9334
rein for 9334
S an</w> 9332
Mon day</w> 9331
b ill</w> 9330
cross- border</w> 9330
mor al</w> 9327
Targe t</w> 9326
s qu 9325
necess ity</w> 9324
destro yed</w> 9324
m ly</w> 9323
D om 9319
prosecu te</w> 9318
giv es</w> 9317
L im 9314
y m 9311
Im prov 9311
it ec 9310
enter ing</w> 9310
ausp ices</w> 9309
rein force</w> 9303
out put</w> 9302
fra me</w> 9301
ill ance</w> 9298
Asi a- 9295
b ing</w> 9294
foc uses</w> 9293
C er 9292
tal ks</w> 9290
convic ted</w> 9290
par allel</w> 9289
s am 9288
acqu ired</w> 9286
in gn 9279
re mun 9278
Ar ticles</w> 9278
att ain 9278
mess age</w> 9277
univer sities</w> 9277
tel ep 9276
Chem ical</w> 9272
Mo z 9259
fin alized</w> 9253
mat ely</w> 9253
Inter- Agency</w> 9245
M ain</w> 9244
h or 9242
int elligence</w> 9242
termin ation</w> 9241
receip t</w> 9240
Recommend ation</w> 9239
preval ence</w> 9239
subjec ts</w> 9236
tw entieth</w> 9232
rati on 9227
Zimbab we</w> 9227
2002- 2003</w> 9224
10 1</w> 9221
cle an 9221
Advan cement</w> 9221
vi g 9220
A MI 9219
coordin ator</w> 9219
199 0s</w> 9218
dro p 9215
10 2</w> 9214
recru ited</w> 9210
m acy</w> 9207
Scho ol</w> 9206
erad icate</w> 9200
cap ability</w> 9199
reserv es</w> 9197
ingn ess</w> 9196
n i 9194
synerg ies</w> 9193
gran ting</w> 9183
Log istics</w> 9183
Rel i 9182
Commun ication</w> 9177
por tion</w> 9171
id a</w> 9166
H ol 9164
en em 9164
T re 9153
connec ted</w> 9153
Emir ates</w> 9152
will ingness</w> 9147
suspec ted</w> 9145
Dis trict</w> 9144
plo y</w> 9143
k il 9142
convic tion</w> 9140
exc ell 9139
system atically</w> 9137
Sahar an</w> 9137
in tim 9135
ex ists</w> 9135
Dis aster</w> 9135
margin alized</w> 9134
d ite</w> 9133
t ons</w> 9132
ex ac 9131
hol m</w> 9127
be ar</w> 9124
trans action</w> 9122
E ven</w> 9120
in fl 9119
ri ya</w> 9119
under sco 9118
comple mentary</w> 9117
consequ ence</w> 9105
m oun 9097
Pan ama</w> 9095
Indi an</w> 9095
aw i</w> 9091
Fac ilit 9091
citiz en</w> 9089
For mer</w> 9086
ac tually</w> 9085
On ly</w> 9085
under mine</w> 9081
produc ing</w> 9080
Recommend ations</w> 9080
D E 9079
u tr 9076
Sahar a</w> 9075
9 . 9071
b es</w> 9069
necess arily</w> 9061
enrol ment</w> 9061
Stock holm</w> 9061
monit ored</w> 9057
be ings</w> 9051
to x 9051
al ition</w> 9042
Ad op 9036
loo ked</w> 9033
t ting</w> 9028
19 67</w> 9028
pro spects</w> 9026
mater nity</w> 9024
St ud 9023
mo stly</w> 9023
t angible</w> 9010
per mitted</w> 9007
log istics</w> 9005
col on 9003
collec t</w> 8997
resid ents</w> 8996
immun ity</w> 8991
Cu ban</w> 8985
fores e 8982
guid ed</w> 8981
I cel 8980
8 0 8979
predic table</w> 8978
main stream</w> 8973
rati o</w> 8970
questionn aire</w> 8969
t ude</w> 8968
clos ing</w> 8967
Cro ss</w> 8966
fir ms</w> 8963
er ial</w> 8959
fre ely</w> 8958
sign ature</w> 8956
in qu 8954
ass es</w> 8952
ID B. 8952
expo sure</w> 8952
draf ted</w> 8945
te sted</w> 8944
2 3 8943
establish es</w> 8941
p age</w> 8940
competi tiveness</w> 8934
depriv ation</w> 8932
at or 8931
cam p</w> 8931
tit le</w> 8931
our se</w> 8924
Pun ishment</w> 8922
contr acting</w> 8919
in side</w> 8918
with standing</w> 8916
mal aria</w> 8915
a me 8913
pos ing</w> 8909
obt aining</w> 8908
Sub- Commission</w> 8903
reaffir ms</w> 8899
F - 8898
on wealth</w> 8895
there in</w> 8893
in- depth</w> 8893
tow n</w> 8890
inter ference</w> 8889
fre ez 8888
dri ven</w> 8887
at mos 8885
mun itions</w> 8885
perspec tives</w> 8881
trans mission</w> 8879
propos e</w> 8879
sal aries</w> 8877
disappe arance</w> 8877
Non- Aligned</w> 8874
dig ital</w> 8874
ce asefire</w> 8872
em pl 8869
credi bility</w> 8864
in equ 8861
ak es</w> 8859
R em 8856
cons ists</w> 8853
L and</w> 8849
mis sing</w> 8849
reaffir m</w> 8848
1 10</w> 8847
A rea</w> 8842
ge t</w> 8841
TIO NS</w> 8841
gre en 8840
ste in</w> 8835
Cust oms</w> 8835
v ent</w> 8834
- to- 8832
re fra 8831
7 th</w> 8828
enhan cement</w> 8827
where by</w> 8826
H . 8823
emer gencies</w> 8820
docu mented</w> 8819
8 th</w> 8818
pre ce 8818
af ter 8812
1 11</w> 8809
cl ean</w> 8808
EC A</w> 8807
form ing</w> 8803
Lat via</w> 8802
Jama hi 8799
f ur 8796
Moz ambi 8795
H ond 8791
P u 8791
Vic ti 8790
Hond ur 8787
l icit</w> 8786
Nam ib 8786
credi ble</w> 8782
F CCC</w> 8781
B ranch</w> 8780
ev ent 8779
cul tures</w> 8779
S ol 8774
comm odities</w> 8774
el ev 8772
re placement</w> 8771
Comm onwealth</w> 8770
so - 8764
subm its</w> 8764
Jamahi riya</w> 8764
tra in 8760
strong er</w> 8756
Mozambi que</w> 8756
mov ing</w> 8754
10 3</w> 8753
Th ur 8751
as sumed</w> 8751
exclud ed</w> 8750
En g 8749
ad ults</w> 8745
Volun tary</w> 8745
st en 8744
S ch 8743
at ories</w> 8743
pres entations</w> 8743
analy se</w> 8743
ECO W 8743
At omic</w> 8741
p tions</w> 8740
depen d</w> 8735
st op</w> 8731
expl icitly</w> 8730
Asia- Pacific</w> 8730
um - 8727
S A</w> 8725
an sw 8725
clos er</w> 8724
cru el</w> 8722
st ers</w> 8721
B al 8718
il es</w> 8718
accoun ted</w> 8718
acces sibility</w> 8715
IM F</w> 8714
atten d 8712
Wel coming</w> 8712
sur ances</w> 8710
wit ness</w> 8710
care er</w> 8709
I d 8707
reg ret 8702
resi li 8696
Legisl ative</w> 8692
pros per 8691
am ation</w> 8690
enabl ed</w> 8690
F ran 8689
tric ity</w> 8689
UNC CD</w> 8688
por no 8686
or g</w> 8685
F u 8684
so- called</w> 8681
b y- 8675
cross- cutting</w> 8673
justi fied</w> 8672
har d 8665
kill ing</w> 8663
mitig ate</w> 8662
du plication</w> 8660
p ic 8659
C F 8658
co er 8658
in jury</w> 8656
in s 8655
de - 8655
ke ts</w> 8655
adminis tering</w> 8655
ne utr 8653
exc essive</w> 8652
s ely</w> 8650
mid - 8647
val id</w> 8646
Conflic t</w> 8642
ECOW AS</w> 8642
regis ter</w> 8640
h one</w> 8639
subsi dies</w> 8639
post- 2015</w> 8634
pos es</w> 8633
sent ences</w> 8633
rap porte 8632
s mo 8628
ten sion</w> 8628
author ization</w> 8627
l ers</w> 8625
ven d 8621
stake holder</w> 8619
r ich</w> 8616
concer ted</w> 8615
su red</w> 8612
invol ves</w> 8612
W ed 8606
Nu clear- 8604
consist ency</w> 8602
En voy</w> 8595
ar c 8593
d in 8589
Institu tions</w> 8586
OS CE</w> 8585
ass embly</w> 8584
ASE AN</w> 8581
eng aging</w> 8580
Domin ican</w> 8578
min ors</w> 8574
cl in 8567
Govern mental</w> 8565
iz ations</w> 8563
pro hibi 8562
hand ling</w> 8562
prepa redness</w> 8560
Thur s 8559
inten sive</w> 8551
consolid ate</w> 8551
work load</w> 8547
Sur vey</w> 8547
dis closure</w> 8543
Wor kers</w> 8542
Par agu 8537
plac ing</w> 8537
progres sive</w> 8537
pro b 8534
nor th</w> 8534
high light</w> 8533
benef ited</w> 8533
pres erve</w> 8532
indic ating</w> 8531
Thurs day</w> 8526
enem y</w> 8520
du rable</w> 8515
Rel ated</w> 8514
elecommun ications</w> 8511
d or 8510
de par 8509
hou ses</w> 8507
expl oration</w> 8500
st and</w> 8495
Contin ue</w> 8489
surve illance</w> 8479
c e- 8478
lin gu 8478
2 50</w> 8471
Wed nes 8464
Volun teers</w> 8459
f issile</w> 8458
D F</w> 8451
enti als</w> 8450
Contr acting</w> 8450
preven ted</w> 8449
Lib ya</w> 8447
a head</w> 8446
fe ar</w> 8445
aran ces</w> 8445
di vision</w> 8444
Lu x 8442
b ian</w> 8440
il eg 8438
Wednes day</w> 8435
Ag ainst</w> 8434
stru gg 8432
discrimin ate</w> 8432
ti ous</w> 8431
W ar</w> 8426
regre ts</w> 8425
shel ter</w> 8420
reimbur sement</w> 8420
del ayed</w> 8417
o a</w> 8416
Dj ib 8416
entr usted</w> 8414
eng ineering</w> 8412
de x</w> 8411
expec tations</w> 8411
1. 2</w> 8404
hosp ital</w> 8404
appro ve</w> 8402
imper ative</w> 8402
10 4</w> 8399
fire arms</w> 8399
ex changes</w> 8398
s outh</w> 8395
as surances</w> 8393
ment - 8393
mo ment 8393
priv ileg 8392
cer tification</w> 8392
norm ative</w> 8392
cons isting</w> 8391
ten stein</w> 8390
Kuwa iti</w> 8386
Th ree</w> 8382
el derly</w> 8377
sh or 8367
Pro per 8364
Li ech 8362
comm and</w> 8356
SO M</w> 8356
initi ate</w> 8354
minis ters</w> 8353
ur g 8349
liveli hoods</w> 8346
Lux emb 8343
red ress</w> 8339
excep tional</w> 8339
Tu es 8338
occa sions</w> 8338
re fin 8336
ren dered</w> 8335
ul tan 8334
arch itec 8334
ti an</w> 8333
Liech tenstein</w> 8333
compar ative</w> 8331
expl ain</w> 8328
succ e 8322
Ger man</w> 8322
N a 8318
in he 8316
Tues day</w> 8314
an der</w> 8313
un ion</w> 8312
n ur 8309
Con gol 8303
Worksh op</w> 8303
H el 8300
j e 8295
is s 8295
Tri al</w> 8289
requis ite</w> 8289
Tim or</w> 8288
G E 8286
st ain</w> 8285
mer its</w> 8283
hy dro 8282
ri d</w> 8275
z ed</w> 8269
commun ity- 8266
ab a</w> 8262
Comm on</w> 8253
To day</w> 8251
Som ali</w> 8248
man ual</w> 8245
tack le</w> 8245
C iv 8244
per s</w> 8243
Reg ulation</w> 8242
min ent</w> 8239
2 5 8237
s cre 8235
Mon terre 8234
promp t</w> 8234
certain ty</w> 8231
Monterre y</w> 8230
inten ds</w> 8228
i ally</w> 8227
budge ted</w> 8223
I R 8219
program s</w> 8219
fo stering</w> 8219
gre en</w> 8218
Luxemb ourg</w> 8215
Est onia</w> 8212
Re form</w> 8211
Sup plement</w> 8211
municip alities</w> 8207
s or 8203
it ative</w> 8202
ensu red</w> 8202
. org</w> 8200
i er</w> 8197
C re 8196
P R</w> 8194
re marks</w> 8190
E ra 8189
Syri a</w> 8189
scen ari 8189
f ound 8188
Namib ia</w> 8186
f air 8185
bri ef</w> 8184
ex clu 8183
ris ing</w> 8179
min or</w> 8177
Congol ese</w> 8176
prohib it</w> 8174
M ater 8173
re move</w> 8173
ab in 8171
10 6</w> 8163
I . 8160
m ation</w> 8155
tra ffic 8154
S ource</w> 8153
suff er</w> 8148
oc cur 8145
Hondur as</w> 8145
deleg ates</w> 8139
per cent</w> 8138
8 . 8137
Icel and</w> 8136
shi ft</w> 8130
in habit 8128
d rought</w> 8127
Econ om 8126
six tieth</w> 8126
G A 8121
ret ained</w> 8121
un anim 8120
compar ison</w> 8119
wron g 8119
com prises</w> 8118
there of</w> 8117
in quiry</w> 8116
sugg est</w> 8115
appe ared</w> 8114
lawy er</w> 8114
A mend 8112
mis si 8111
Bah rain</w> 8111
as sume</w> 8110
satisfac tory</w> 8110
f ish</w> 8106
work place</w> 8102
out line</w> 8101
Parlia mentary</w> 8097
will ing</w> 8097
im partial</w> 8096
leng th</w> 8095
stat ute</w> 8094
ap point</w> 8091
Promo ting</w> 8089
super vis 8087
affor dable</w> 8086
cul tiv 8080
moder n 8078
scho ol 8077
w ent</w> 8075
maint ains</w> 8075
Proper ty</w> 8068
ga ther 8064
hus band</w> 8064
h im 8063
F .</w> 8063
signific ance</w> 8063
IC A 8062
g ained</w> 8061
An d</w> 8057
appoint ments</w> 8056
tri ed</w> 8047
Bol iv 8046
g er</w> 8044
Ex ternal</w> 8044
moment um</w> 8042
im pose</w> 8038
execu tions</w> 8036
pir acy</w> 8035
li es</w> 8032
A w 8027
k en</w> 8026
Reli ef</w> 8025
as sum 8024
consul t</w> 8023
- of- 8021
head ing</w> 8021
1 .1</w> 8017
en coun 8017
L and 8016
v ate</w> 8014
gu il 8014
wel f 8014
St udies</w> 8013
heal thy</w> 8013
7 . 8012
Arab ic</w> 8012
ó n</w> 8010
cont am 8009
mil lions</w> 8009
I U</w> 8008
c au 8007
p ic</w> 8006
G ol 8006
Concer ning</w> 8006
H ague</w> 8004
vi able</w> 8004
dr inking</w> 7996
9 th</w> 7995
H. E.</w> 7992
ien cies</w> 7989
manufac ture</w> 7987
up dating</w> 7985
em ission</w> 7984
continu ity</w> 7984
Judic ial</w> 7983
Oc ean</w> 7982
end ar</w> 7981
Ban g 7981
stipul ated</w> 7979
f iv 7977
gener ating</w> 7975
b ranch</w> 7974
10 7</w> 7973
we ak</w> 7972
r o</w> 7970
se ized</w> 7965
la h</w> 7963
10 8</w> 7963
Op portun 7960
subs istence</w> 7959
porno graphy</w> 7959
Boliv arian</w> 7955
r ary</w> 7953
speak er</w> 7950
substanti ally</w> 7950
compil ation</w> 7944
stan ds</w> 7941
distin c 7939
rest oration</w> 7938
acc um 7935
out i</w> 7933
a ult</w> 7932
than ks</w> 7931
2 4 7929
en force</w> 7927
multi- year</w> 7927
ur gency</w> 7925
enc um 7919
dynam ic</w> 7919
indirec t</w> 7915
welf th</w> 7915
is ations</w> 7911
bu re 7911
Cor por 7910
adminis tered</w> 7910
ut ory</w> 7909
CO P 7905
non governmental</w> 7902
parti ally</w> 7902
fi xed</w> 7898
ess els</w> 7895
curricul a</w> 7895
subm itting</w> 7893
fe atures</w> 7891
where as</w> 7891
t ou 7888
Paragu ay</w> 7888
read iness</w> 7882
green house</w> 7882
elec tricity</w> 7881
defin ing</w> 7881
de partment</w> 7879
tric ts</w> 7877
ecosy stem</w> 7877
prud ence</w> 7877
ment ari 7875
en acted</w> 7873
as pir 7867
tro op</w> 7867
se ats</w> 7864
ic op 7863
post pon 7863
in solvency</w> 7860
st ay</w> 7860
per mits</w> 7860
we red</w> 7854
consum er</w> 7850
us er</w> 7849
Kyrgy z 7849
C enter</w> 7844
complex ity</w> 7844
13 73</w> 7841
analy ses</w> 7839
reti rement</w> 7834
Austr al 7833
manufac turing</w> 7833
h un 7831
S exual</w> 7831
Ma ur 7828
remun eration</w> 7828
opin ions</w> 7826
commer ce</w> 7826
as sive</w> 7824
threat ened</w> 7818
transl ated</w> 7813
dis charge</w> 7806
Djib outi</w> 7804
stric tly</w> 7803
Kyrgyz stan</w> 7803
ref used</w> 7802
D eg 7799
y i 7798
J u 7797
verb ale</w> 7797
inhabit ants</w> 7797
Con sen 7796
amen d</w> 7793
prev ailing</w> 7792
EC E</w> 7792
contin gent</w> 7790
S it 7787
0 0 7786
be l</w> 7785
patter n</w> 7785
G M</w> 7784
promp tly</w> 7784
A . 7778
e rely</w> 7774
form ally</w> 7770
tion ary</w> 7770
contribu tes</w> 7766
dead line</w> 7766
urg ently</w> 7763
observ ance</w> 7762
fortun ately</w> 7761
e br 7759
I s</w> 7759
Effec tive</w> 7759
qual if 7754
1 12</w> 7753
c ast</w> 7752
b omb 7746
safegu ard</w> 7744
B ill</w> 7743
1 15</w> 7742
Gre ek</w> 7740
negoti ated</w> 7739
Out come</w> 7733
incid ence</w> 7731
prom otes</w> 7725
hosti lities</w> 7725
iv er</w> 7723
I v 7720
stereotyp es</w> 7720
1 30</w> 7719
acqu ire</w> 7719
2 ,000</w> 7718
employ er</w> 7717
formul ating</w> 7716
d il 7714
I N</w> 7713
trans formation</w> 7711
A h 7707
medi um</w> 7703
regis try</w> 7703
Consen sus</w> 7697
con fin 7693
rec all</w> 7690
g ent- 7686
care fully</w> 7686
Com pl 7684
pill ars</w> 7681
Il licit</w> 7678
men tion</w> 7673
univers ity</w> 7673
k ly</w> 7672
Sec ond 7670
defin itions</w> 7670
re alize</w> 7668
sev erely</w> 7664
occup ational</w> 7664
pot entially</w> 7664
telep hone</w> 7664
u c 7654
ro r</w> 7651
org an</w> 7650
h at 7649
Or der</w> 7648
pl ant</w> 7646
ret ain</w> 7644
Fore sts</w> 7643
Wel fare</w> 7642
ric h 7641
corpor ations</w> 7634
off enders</w> 7630
inequ alities</w> 7626
Be fore</w> 7624
til ity</w> 7623
ti n</w> 7620
ro un 7618
v essels</w> 7614
loo king</w> 7607
ai ting</w> 7605
in ser 7602
a i</w> 7600
c ited</w> 7599
st em 7597
ME s</w> 7597
Empha siz 7594
ab sten 7593
se ems</w> 7593
ag h 7592
2 6 7589
curricul um</w> 7589
Tri bunals</w> 7587
speci es</w> 7583
advan cing</w> 7581
er b 7579
s par 7574
ten sions</w> 7572
res ett 7571
smu ggling</w> 7571
2 .1</w> 7570
adhe rence</w> 7570
correc t</w> 7567
e di 7562
tor ies</w> 7562
po orest</w> 7560
B h 7557
Dom estic</w> 7557
Nig er</w> 7556
S S 7554
Col on 7553
re deployment</w> 7550
dis tricts</w> 7550
refra in</w> 7549
li br 7546
fe ed 7546
doub t</w> 7546
sum mits</w> 7545
suppl iers</w> 7541
ke wise</w> 7539
hel icop 7538
CONF . 7538
chann els</w> 7537
m m</w> 7535
est - 7535
ro c 7534
or ian</w> 7533
remov ed</w> 7530
dec lined</w> 7527
O ff 7523
character ized</w> 7523
peti tion</w> 7521
D ivers 7520
Q a 7520
descri ption</w> 7518
z e</w> 7516
Divers ity</w> 7515
w ages</w> 7514
G ab 7514
1 13</w> 7512
per ce 7511
il ing</w> 7510
ch ron 7508
UNMI S</w> 7502
N on 7498
2014- 2015</w> 7497
Victi ms</w> 7497
1 14</w> 7496
encoun tered</w> 7495
weap on</w> 7494
ww w 7494
0 7</w> 7492
T ogo</w> 7487
Fi ji</w> 7486
pled ges</w> 7485
repe ated</w> 7480
C op 7477
cho ose</w> 7477
r al</w> 7476
ag eing</w> 7474
abor tion</w> 7473
Contribu tions</w> 7467
Med ical</w> 7462
fir mly</w> 7461
Jud ge</w> 7461
classi fied</w> 7459
me ant</w> 7453
in cum 7452
pos sibilities</w> 7448
harmon ized</w> 7446
de pending</w> 7445
serv ants</w> 7445
tri bunals</w> 7444
Self- Governing</w> 7444
encum bered</w> 7440
ic ated</w> 7439
found ations</w> 7437
lan tic</w> 7436
us al</w> 7435
y al</w> 7432
h aps</w> 7431
abin et</w> 7430
h um 7429
referen dum</w> 7427
Ap pl 7426
me rely</w> 7425
Mon etary</w> 7423
upgra ding</w> 7420
s low</w> 7418
sugg ests</w> 7418
A ir</w> 7417
f ies</w> 7414
an e</w> 7414
Appe al</w> 7414
s pending</w> 7411
UND CP</w> 7411
avo id 7411
o u</w> 7408
c ils</w> 7407
advis ers</w> 7407
le y</w> 7405
N at 7401
welcom ing</w> 7401
cal endar</w> 7398
fulfill ing</w> 7398
se where</w> 7397
gir l</w> 7393
rati fying</w> 7392
d am</w> 7391
repe at 7391
1 16</w> 7389
compe ten 7389
bre ak</w> 7389
absolu te</w> 7389
gu iding</w> 7386
exclu sively</w> 7384
investig ated</w> 7378
collabor ative</w> 7374
appreci ated</w> 7373
Reaffir ms</w> 7373
Deleg ations</w> 7371
as surance</w> 7370
cop y</w> 7370
v ast</w> 7368
2 12</w> 7366
const ant</w> 7359
ESC WA</w> 7358
M ic 7354
Turk men 7354
B ec 7353
ari ous</w> 7351
fi able</w> 7351
Jo han 7350
strugg le</w> 7349
re alized</w> 7348
mu til 7346
vol ati 7345
endeav our</w> 7345
grati tude</w> 7345
fea sible</w> 7342
ro g 7337
ad ing</w> 7337
road s</w> 7337
0 9</w> 7336
or b 7335
A id</w> 7334
gener ations</w> 7333
sensi tiz 7333
ran ging</w> 7332
B ot 7329
th ink</w> 7328
secret ari 7327
Analy sis</w> 7325
refer ring</w> 7324
www . 7324
o x 7323
app rais 7323
exac erb 7319
pursu ing</w> 7315
cha in</w> 7310
A l</w> 7309
so il</w> 7309
si bly</w> 7308
o ting</w> 7305
Vice- President</w> 7304
Tal ib 7304
Pro ce 7303
Non- Self-Governing</w> 7302
Re iter 7292
ri s</w> 7287
B ase</w> 7281
suspen ded</w> 7274
R A</w> 7271
laun ching</w> 7269
desi rable</w> 7269
avi ation</w> 7267
A D 7266
P- 2</w> 7266
O l 7265
se iz 7265
non- State</w> 7259
candi date</w> 7259
alloc ate</w> 7258
im ports</w> 7257
p up 7256
ex isted</w> 7253
off ering</w> 7252
comb ination</w> 7252
open -ended</w> 7250
Pro m 7246
w all</w> 7244
C ru 7243
Des ertification</w> 7238
Turkmen istan</w> 7238
ful l- 7236
G N 7232
Cypri ot</w> 7232
SA R</w> 7230
amoun ting</w> 7226
serv es</w> 7224
Nar cotic</w> 7224
I R</w> 7223
os ting</w> 7221
wor th</w> 7221
assign ment</w> 7221
Ac adem 7220
marri ed</w> 7220
infl ation</w> 7219
cel ebr 7218
MINU STA 7215
gen ital</w> 7208
desi re</w> 7203
MINUSTA H</w> 7199
f ront</w> 7198
as y</w> 7195
R w 7193
aw arded</w> 7188
Ha iti 7187
im possible</w> 7186
Sup pression</w> 7185
exce ed</w> 7185
expres sing</w> 7184
E D</w> 7182
off en 7181
anti- personnel</w> 7180
R ural</w> 7179
sugg estion</w> 7179
Canad ian</w> 7179
sti g 7178
pat h</w> 7176
is s</w> 7174
cost- effective</w> 7174
stipul ates</w> 7171
thor ough</w> 7168
f ile</w> 7165
L aw 7162
es cal 7161
ib id</w> 7159
oblig ed</w> 7159
wat ers</w> 7159
he ar</w> 7158
thou ght</w> 7158
ad a</w> 7157
juris prudence</w> 7157
pr in 7153
under took</w> 7153
mb ers</w> 7153
siz ed</w> 7152
ci a</w> 7147
prof ile</w> 7147
bench marks</w> 7145
Maur it 7143
Mat ters</w> 7142
D r 7139
UN AIDS</w> 7139
Fin al</w> 7139
fl ag 7133
o z 7130
emer ged</w> 7130
1 18</w> 7126
tr acking</w> 7124
legiti macy</w> 7124
bas eline</w> 7124
Bang k 7123
H ow</w> 7120
AMI SOM</w> 7120
Incre ase</w> 7118
capit a</w> 7115
Talib an</w> 7115
ren der</w> 7114
Presid ents</w> 7113
S MEs</w> 7109
ex posed</w> 7101
f alls</w> 7100
norm ally</w> 7097
gather ing</w> 7091
Con ferences</w> 7088
sec uring</w> 7088
sch ol 7087
1 22</w> 7081
eth eless</w> 7081
Bangk ok</w> 7081
eth ics</w> 7079
minim ize</w> 7079
in no 7078
depen ds</w> 7077
C S 7074
Cul ture</w> 7074
t t 7073
1 17</w> 7071
af ore 7071
w ife</w> 7070
sh ar 7070
Cur rently</w> 7069
s end</w> 7066
Austral ian</w> 7066
el sewhere</w> 7065
pro of</w> 7061
consider ably</w> 7061
Johan nes 7061
F M 7060
respon sive</w> 7060
Ch ris 7060
Johannes burg</w> 7056
in ations</w> 7055
O N</w> 7053
Pro posed</w> 7053
Con ven 7052
fi red</w> 7049
sa w</w> 7047
Freed om</w> 7046
F ree</w> 7044
te en</w> 7043
lim itation</w> 7039
kill ings</w> 7036
Le t</w> 7035
T ob 7034
S IL</w> 7032
mon etary</w> 7031
ti on- 7027
ca su 7027
ad ult</w> 7026
Gol an</w> 7026
f al 7025
H y 7024
prov ince</w> 7022
L A</w> 7021
inju ries</w> 7016
f ran 7015
La o</w> 7015
is tr 7012
10 0,000</w> 7010
condem ned</w> 7010
en tion</w> 7006
attend ance</w> 7003
differen ti 7000
D u 6998
dou ble</w> 6998
compu ter</w> 6998
deb ates</w> 6997
2. 2</w> 6990
Sub sequently</w> 6988
1 ,0 6983
J IU</w> 6983
ai res</w> 6982
0 8</w> 6981
def end 6981
datab ases</w> 6981
ban king</w> 6980
Tak e</w> 6979
T R 6974
sh ap 6974
n es</w> 6972
high lights</w> 6972
si ves</w> 6971
rest ore</w> 6971
policy makers</w> 6970
D an 6965
su stain</w> 6965
C ent 6963
wan a</w> 6961
difficul ty</w> 6960
f ounded</w> 6959
iv ing</w> 6958
Pro duction</w> 6957
cat aly 6955
Multi lateral</w> 6953
E U 6950
198 6</w> 6949
lo t</w> 6948
initi ally</w> 6947
institu tion 6946
adjust ed</w> 6945
community- based</w> 6945
1. 5</w> 6944
f light</w> 6943
C itiz 6943
de tection</w> 6942
sim ultan 6942
h i</w> 6941
Prosecu tion</w> 6941
elabor ate</w> 6941
dis proportion 6940
vo ice</w> 6940
op posed</w> 6937
e- based</w> 6935
ulti mately</w> 6935
repeat edly</w> 6935
co des</w> 6933
acc ru 6932
elabor ated</w> 6930
li m</w> 6929
dis bur 6929
CA R 6928
J S 6923
cont emporary</w> 6922
quick ly</w> 6922
re ferences</w> 6919
g ar 6918
di ag 6917
undersco red</w> 6917
o sis</w> 6913
l ar</w> 6910
Rus sia</w> 6908
prof it</w> 6907
P rac 6906
public ly</w> 6904
20 20</w> 6903
0 5</w> 6902
sol ely</w> 6902
fe w 6900
ob vi 6900
Viol ations</w> 6899
Coordin ating</w> 6894
B ri 6893
199 8- 6893
Provi de</w> 6893
en sures</w> 6888
presid ency</w> 6884
C ase</w> 6883
recip ient</w> 6883
on ally</w> 6882
as sumption</w> 6880
At torne 6879
afore mentioned</w> 6879
n one</w> 6877
R ound</w> 6875
exten ding</w> 6873
M aritime</w> 6871
Min e</w> 6871
at ri 6869
cl ients</w> 6868
out set</w> 6867
f f</w> 6862
lar ge 6862
inst al 6859
ten ure</w> 6857
reinfor cing</w> 6855
ev ac 6854
at e- 6852
trans boundary</w> 6852
alloc ations</w> 6851
con version</w> 6850
Rec or 6850
sol id</w> 6849
time - 6849
un employed</w> 6848
govern ed</w> 6848
summar ized</w> 6847
employ ee</w> 6844
organ isations</w> 6842
oper ation 6832
inst ability</w> 6832
leg e</w> 6831
min utes</w> 6830
gent- owned</w> 6830
s wana</w> 6829
Mal awi</w> 6829
n a 6828
10 . 6823
comple tely</w> 6822
ph ases</w> 6821
14 0</w> 6819
here with</w> 6819
Y et</w> 6818
in admissible</w> 6818
UND A 6817
hop es</w> 6817
mobil izing</w> 6815
Accoun ting</w> 6812
c iliation</w> 6810
arbitr al</w> 6810
Hou se</w> 6808
wh at 6807
oc eans</w> 6807
ca using</w> 6804
resol ving</w> 6804
p .m</w> 6803
medium - 6803
suppor tive</w> 6801
reven ues</w> 6801
Intro duction</w> 6801
cop ies</w> 6799
n evertheless</w> 6796
lat er 6794
pursu it</w> 6792
Bh ut 6791
relig ions</w> 6790
squ are</w> 6790
Program mes</w> 6789
preserv ation</w> 6789
sla very</w> 6785
ur ship</w> 6784
al ties</w> 6780
dem ographic</w> 6780
proce eding</w> 6778
fel l</w> 6778
ad os</w> 6775
sur roun 6771
real istic</w> 6768
v acc 6767
Id enti 6767
iter ran 6766
Deg ra 6765
V al 6761
n ings</w> 6760
stock pil 6758
en cies</w> 6757
Dis pu 6750
9 6 6749
net working</w> 6749
S igned</w> 6744
advant ages</w> 6744
I ran 6743
o active</w> 6742
Bot swana</w> 6740
fore stry</w> 6737
tra in</w> 6736
div or 6735
1 19</w> 6733
C B 6732
bu yer</w> 6732
Respon sible</w> 6731
reve aled</w> 6731
ev el</w> 6728
decentr alization</w> 6726
Elec tion</w> 6724
W o 6723
hol istic</w> 6723
Med iterran 6722
produc ers</w> 6721
Man ual</w> 6721
R ot 6720
m idd 6718
Administr ator</w> 6713
architec ture</w> 6713
S CO</w> 6709
fea sibility</w> 6708
au g 6707
su m</w> 6705
autonom y</w> 6705
regul ate</w> 6700
Esti mate</w> 6699
P a 6698
e ast</w> 6697
b ran 6694
ind ication</w> 6694
Mediterran ean</w> 6693
des cent</w> 6691
C al 6688
certif icate</w> 6688
ex clusive</w> 6687
cro w 6684
survi val</w> 6684
d uly</w> 6683
pe ace 6683
ak ing</w> 6683
alien able</w> 6683
t elecommunications</w> 6682
Cla im 6682
inf r 6681
atmos phere</w> 6681
survi v 6680
wor ding</w> 6679
A L 6676
practi tioners</w> 6676
exerc ises</w> 6676
fulfill ed</w> 6676
port fol 6671
go es</w> 6671
M os 6668
ph ra 6668
attribu ted</w> 6668
inv al 6667
H ong</w> 6666
cer ti 6666
Me di 6666
n om 6663
jurisdic tions</w> 6662
kil om 6661
par ame 6658
sus pension</w> 6656
Rw and 6653
l isting</w> 6650
mov ed</w> 6650
avi gation</w> 6647
Sam oa</w> 6647
in ated</w> 6645
easi ly</w> 6645
volun te 6644
divi ded</w> 6643
compar able</w> 6642
apprais al</w> 6636
counter ing</w> 6633
wit n 6631
id ated</w> 6630
prom ulg 6629
Over all</w> 6629
inter sessional</w> 6628
or dered</w> 6627
G - 6625
confidenti al</w> 6625
p ages</w> 6624
elev enth</w> 6622
l ut 6621
D- 1</w> 6620
pro gram</w> 6619
Respon se</w> 6618
destin ation</w> 6618
198 2</w> 6615
Hou sing</w> 6615
ing ton</w> 6614
le ts</w> 6610
2. 5</w> 6610
UNF CCC</w> 6610
ati zation</w> 6607
geograph ic</w> 6605
we ight</w> 6597
investig ating</w> 6596
ex - 6594
ch ers</w> 6592
al ing</w> 6589
lear n</w> 6587
large -scale</w> 6585
198 0</w> 6584
EC LAC</w> 6584
er to</w> 6582
C T</w> 6581
perform ing</w> 6580
e able</w> 6578
min ed</w> 6578
evid ent</w> 6578
tra r</w> 6577
ma d</w> 6577
b is</w> 6573
K ong</w> 6573
mutil ation</w> 6572
invest ors</w> 6571
separ ately</w> 6571
environ ments</w> 6566
sp ir 6566
rob ust</w> 6566
n ine 6565
at al</w> 6562
ra f 6562
dec olonization</w> 6561
calcul ated</w> 6561
pro spec 6560
sp ic 6560
A S 6559
i res</w> 6558
I MI 6555
Bo dy</w> 6553
op tional</w> 6552
On ce</w> 6552
se em</w> 6551
stat utory</w> 6551
Rac ism</w> 6551
abol ition</w> 6550
Haiti an</w> 6547
1 25</w> 6546
15 40</w> 6546
dec ree</w> 6543
dam ages</w> 6542
pled ged</w> 6539
can c 6537
su spic 6536
ha ble</w> 6534
NA L</w> 6534
absten tions</w> 6533
D P 6531
A vi 6529
or m 6527
IN TER 6527
aud its</w> 6527
ul ated</w> 6526
L ond 6525
ed - 6523
propos es</w> 6523
Mus lim</w> 6523
ic ide</w> 6521
ut most</w> 6519
sol e</w> 6518
S pe 6517
resili ence</w> 6517
T est- 6516
epidem ic</w> 6515
R T</w> 6513
accor ded</w> 6513
sim ple</w> 6513
mur der</w> 6513
deliver ing</w> 6512
interpre ted</w> 6512
compromis e</w> 6512
gra v 6509
part ly</w> 6508
dol lar</w> 6507
D a 6506
ach ing</w> 6506
gen e 6505
Un ity</w> 6504
Bec ause</w> 6504
reach es</w> 6503
th res 6502
oper ated</w> 6502
0 3</w> 6501
indis pens 6501
conf ig 6499
us sel 6498
dispar ities</w> 6497
prosper ity</w> 6496
bir ths</w> 6495
Addi tionally</w> 6494
neg lec 6492
S c 6488
Pers on 6488
J os 6487
er a</w> 6487
adap t</w> 6485
fo rec 6484
Maurit ania</w> 6484
s ports</w> 6481
I b 6478
exam ining</w> 6478
skill ed</w> 6478
Inter- American</w> 6477
an ian</w> 6476
Test- Ban</w> 6475
st op 6474
brief ed</w> 6474
parti ality</w> 6474
mater i 6468
Sit uation</w> 6468
ic ates</w> 6467
Chair s</w> 6467
Add .2</w> 6466
Lond on</w> 6464
feed back</w> 6463
contrac tor</w> 6459
CD M</w> 6457
Mr s.</w> 6449
sci enti 6448
histor ic</w> 6448
un paid</w> 6446
Barb ados</w> 6446
ber cul 6445
s phere</w> 6444
Recogn izes</w> 6442
circl ed</w> 6442
Br ussel 6439
indispens able</w> 6439
B on 6438
constitu tion</w> 6438
coordin ators</w> 6436
yan a</w> 6434
os en</w> 6433
cont ex 6433
glob ally</w> 6433
exerc ised</w> 6429
Pers onal</w> 6429
secretari ats</w> 6428
spons oring</w> 6426
k o</w> 6424
confir m</w> 6424
evol ving</w> 6424
b ot 6423
Vi ews</w> 6423
perce ived</w> 6422
Ste ering</w> 6418
Expres ses</w> 6417
prescri bed</w> 6417
Cap ital</w> 6416
oc ean</w> 6414
K h 6412
as h</w> 6412
incorpor ating</w> 6410
pol y 6409
inspec tions</w> 6409
deteri or 6409
al igned</w> 6405
CE B</w> 6402
incum b 6399
ret ention</w> 6398
Govern ance</w> 6398
forese en</w> 6397
qu ite</w> 6396
non- compliance</w> 6394
dissemin ated</w> 6391
Stres ses</w> 6391
clari fied</w> 6389
ud a</w> 6382
im position</w> 6381
ir respective</w> 6381
Mad ag 6381
G .</w> 6379
with draw</w> 6379
sal es</w> 6378
Ex am 6376
bercul osis</w> 6374
Stand ard</w> 6373
s in 6372
Prom ote</w> 6372
1 23</w> 6371
investig ative</w> 6371
ph ot 6369
asc ar</w> 6368
manifest ations</w> 6368
en orm 6365
1 21</w> 6364
no thing</w> 6362
sh e 6361
Madag ascar</w> 6360
becom es</w> 6358
D on 6357
pro p 6352
inhe rent</w> 6350
ren tal</w> 6349
mentari ans</w> 6349
pl ays</w> 6346
E l 6345
cl ause</w> 6345
allow ances</w> 6345
198 5</w> 6342
di ves</w> 6340
contin gency</w> 6340
id ad</w> 6339
Qa ida</w> 6338
c ensus</w> 6335
execu ted</w> 6334
econom ically</w> 6333
198 7</w> 6333
en ever</w> 6331
bor ne</w> 6327
Mal dives</w> 6326
M er 6325
resett lement</w> 6325
mal nutrition</w> 6324
la g</w> 6321
argu ed</w> 6319
div isions</w> 6319
aspir ations</w> 6319
P ubl 6315
fifty- ninth</w> 6315
is hable</w> 6310
prece ding</w> 6310
new s</w> 6307
cl ass</w> 6306
u t</w> 6304
prohib its</w> 6303
im pa 6300
ch osen</w> 6295
than ked</w> 6293
extra judicial</w> 6293
S M 6292
distinc t</w> 6291
G ren 6289
ret ro 6287
righ ts-based</w> 6286
pati ents</w> 6283
15 3</w> 6282
en rich 6279
Kore an</w> 6279
read ing</w> 6278
g in</w> 6272
y ah</w> 6270
Qu estion</w> 6270
es sions</w> 6268
abs or 6268
low- income</w> 6268
sub stitu 6267
intim idation</w> 6264
gro und 6259
Brussel s</w> 6256
pol iti 6255
vac ancies</w> 6255
em atic</w> 6253
affec ts</w> 6253
conc ur 6251
Maj or</w> 6251
acc eded</w> 6249
ple ase</w> 6248
N ot 6247
modi fied</w> 6244
Im proved</w> 6241
re alities</w> 6240
pu tting</w> 6239
Ser ious</w> 6236
re es</w> 6234
preced ented</w> 6234
im in 6233
den ial</w> 6232
com mentary</w> 6230
Accoun t</w> 6228
asyl um- 6228
Stud y</w> 6227
inter views</w> 6225
maxim ize</w> 6221
pen al</w> 6219
Sw iss</w> 6214
few er</w> 6214
parame ters</w> 6214
Pe ac 6213
ber y</w> 6213
fifty- eighth</w> 6213
inter medi 6212
guid eline</w> 6210
Integr ation</w> 6210
diversi fication</w> 6208
C abinet</w> 6206
fa ther</w> 6206
fifty- seventh</w> 6205
program matic</w> 6204
Person nel</w> 6202
contin gent-owned</w> 6199
im partiality</w> 6197
justi fication</w> 6194
excell ent</w> 6194
Agricul tural</w> 6193
attr act</w> 6192
s car 6191
B T</w> 6191
In human</w> 6191
pun ished</w> 6189
2000- 2001</w> 6189
M is 6187
visi ble</w> 6187
Degra ding</w> 6186
un acceptable</w> 6183
co tics</w> 6183
a ther</w> 6180
With out</w> 6179
G lob 6178
ne es</w> 6177
ow ed</w> 6176
spar e</w> 6176
n on</w> 6175
G ul 6174
un precedented</w> 6172
dev ast 6171
c r 6169
er t</w> 6168
hos ting</w> 6167
frequ ent</w> 6167
pup ils</w> 6167
Gu yana</w> 6166
Arbit ration</w> 6166
res ort</w> 6164
it ement</w> 6163
pa ying</w> 6163
UN IT 6162
D evelop</w> 6161
1. 3</w> 6161
e y 6159
Ex plo 6154
Cap e</w> 6154
work force</w> 6149
At lantic</w> 6149
G H 6147
r al 6146
cultiv ation</w> 6144
201 7</w> 6143
sh owing</w> 6139
ear ing</w> 6137
o dic 6136
fore ig 6133
i tive</w> 6132
lead er</w> 6126
t ail 6125
3 ,000</w> 6124
pres sing</w> 6123
Cer tain</w> 6122
Regis trar</w> 6120
Oper ational</w> 6119
Mee tings</w> 6118
b s</w> 6117
hat red</w> 6111
G C. 6110
Pri vate</w> 6109
prec ise</w> 6107
qualif ications</w> 6107
appropri ately</w> 6104
3 .1</w> 6102
appreci ate</w> 6100
heav ily</w> 6100
the red</w> 6098
expl icit</w> 6095
mar k 6094
sp ite</w> 6094
sub- Saharan</w> 6094
guarante eing</w> 6092
vi c</w> 6087
Pro gram</w> 6086
fi x 6086
surroun ding</w> 6086
effic iently</w> 6085
ref usal</w> 6083
com prise</w> 6081
deteri oration</w> 6080
1 24</w> 6073
tru th</w> 6073
applic ant</w> 6072
2. 3</w> 6071
year - 6069
col le 6069
han ds</w> 6068
N eg 6067
set tings</w> 6067
vide o</w> 6066
ar ticul 6063
13 8</w> 6063
u a</w> 6061
militi a</w> 6058
I T</w> 6056
Opportun ities</w> 6056
L o 6049
incorpor ation</w> 6048
c y 6044
in sul 6041
pro active</w> 6041
prosecu ted</w> 6040
rul ing</w> 6037
I D</w> 6036
extra ordinary</w> 6036
I ES</w> 6034
appe aled</w> 6034
advis e</w> 6034
small er</w> 6031
ro se</w> 6029
ulti mate</w> 6029
W ash 6027
Nuclear- Test-Ban</w> 6027
ess ation</w> 6026
annex es</w> 6024
t ar</w> 6023
c us 6023
enti rely</w> 6023
Re porting</w> 6021
em bl 6020
18 2</w> 6019
challen ging</w> 6018
IO N</w> 6018
patro l</w> 6016
0 6</w> 6013
manag erial</w> 6013
f alling</w> 6012
mar king</w> 6009
si l 6006
Add is</w> 6005
aff ili 6004
Sy stems</w> 6003
1 60</w> 6002
multi later 6001
B ret 5997
a .m</w> 5996
L akes</w> 5996
pl ants</w> 5996
deb ris</w> 5995
comm ission 5991
B l 5989
arch ing</w> 5986
ss - 5985
medic ines</w> 5983
evalu ating</w> 5978
sixty- first</w> 5976
obstac le</w> 5976
f res 5975
po ol</w> 5972
spou ses</w> 5970
b at 5969
ign ment</w> 5969
per haps</w> 5967
ear marked</w> 5966
inf ant</w> 5965
Ab aba</w> 5964
contra dic 5964
midd le- 5964
dre ds</w> 5963
attain ment</w> 5962
Tr in 5960
ob serve</w> 5959
In dic 5958
hear ings</w> 5958
amb ular</w> 5956
Wash ington</w> 5956
Ur ban</w> 5954
Recor ds</w> 5954
quanti ty</w> 5953
In clud 5952
R O 5950
ab an 5948
Pr acti 5948
E L 5946
ab duc 5946
Sem in 5946
prohibi ting</w> 5946
Iran ian</w> 5945
tr uly</w> 5943
struc tured</w> 5943
l ay</w> 5942
fiv e-year</w> 5942
st ating</w> 5941
South- East</w> 5940
UN ITA 5939
loc ally</w> 5937
st ood</w> 5936
CER D</w> 5936
commen ced</w> 5934
speci alists</w> 5934
re sume</w> 5933
tradi tions</w> 5933
val idity</w> 5930
et res</w> 5929
as sure</w> 5928
rele ases</w> 5928
Pu erto</w> 5928
ro ots</w> 5925
ur ban 5925
z a</w> 5924
ac knowledge</w> 5924
V ir 5923
condi tional</w> 5922
claim ants</w> 5922
disappe arances</w> 5921
nomin ated</w> 5918
cas ting</w> 5917
benefic ial</w> 5917
h ot 5915
prov en</w> 5915
inc itement</w> 5915
Enhan ced</w> 5909
excep tions</w> 5907
Wo ods</w> 5906
b a</w> 5905
13 4</w> 5904
dec l 5903
C are</w> 5898
organ ic</w> 5898
justi fy</w> 5897
in o</w> 5896
il and</w> 5893
rem itt 5893
au x</w> 5892
ter ly</w> 5891
paren tal</w> 5887
st abilization</w> 5886
Rwand an</w> 5886
u red</w> 5884
M un 5884
spe ech</w> 5882
equip ped</w> 5879
b att 5876
ic ating</w> 5876
pay able</w> 5873
arri ved</w> 5872
ar ti 5869
L es 5868
M ay 5868
C our 5868
e ously</w> 5865
w arran 5861
o th 5861
ten d</w> 5861
phra se</w> 5861
ag en</w> 5860
Ab d 5859
A ir 5857
ch lor 5857
cl ient</w> 5855
ver ify</w> 5855
ther ap 5855
18 0</w> 5854
ac tment</w> 5853
Reg ular</w> 5852
congratul ate</w> 5849
Bret ton</w> 5849
p han 5846
corpor al</w> 5846
exerc ising</w> 5846
f ec 5841
Investig ation</w> 5840
entreprene urship</w> 5838
e de</w> 5837
pre ambular</w> 5837
de ploy</w> 5835
Cru el</w> 5835
is lands</w> 5833
sev en 5833
for war 5831
prosecu tor</w> 5831
re sumption</w> 5829
mis conduct</w> 5829
u l</w> 5828
Nation s- 5828
viol ate</w> 5827
bu l</w> 5826
e- mail</w> 5825
affir med</w> 5824
tin e</w> 5823
IC RC</w> 5823
surviv ors</w> 5823
rapporte urs</w> 5822
in struction</w> 5820
ear th 5820
sha res</w> 5819
Me th 5818
10 ,000</w> 5817
Sud anese</w> 5815
fore station</w> 5814
Academ y</w> 5814
pun ishable</w> 5810
measu rement</w> 5810
Regis ter</w> 5809
IM O</w> 5805
m ates</w> 5802
deb tor</w> 5801
Famil ies</w> 5801
gradu ally</w> 5800
gen ts</w> 5798
conclud es</w> 5797
frequ ency</w> 5796
e pers</w> 5795
measu red</w> 5795
Dr .</w> 5795
advoc ate</w> 5794
T D</w> 5793
Mad rid</w> 5793
commun icate</w> 5788
peri odic 5786
w on 5778
ar re 5778
gu ardi 5777
fo ot 5776
13 2</w> 5776
X I</w> 5775
mo ment</w> 5775
air port</w> 5775
CM P</w> 5774
R en 5773
thir ds</w> 5772
wee kly</w> 5772
g aining</w> 5771
res ear 5771
ph as 5770
stre et</w> 5770
aw ards</w> 5769
enorm ous</w> 5767
m em 5766
oun ding</w> 5766
reli ance</w> 5765
Regis try</w> 5765
atten ding</w> 5760
public - 5760
C los 5759
F ig 5755
S hi 5753
perpetr ated</w> 5752
patro ls</w> 5751
ch ap 5750
car go</w> 5750
tw ice</w> 5748
th ro 5747
ke epers</w> 5747
m assive</w> 5745
U mo 5744
politi ci 5744
A B 5741
v ers</w> 5741
L U 5740
fe eding</w> 5740
st u 5730
en dum</w> 5729
No t</w> 5728
cont ain 5727
marke ting</w> 5726
EN T</w> 5724
ev olution</w> 5721
ap parent</w> 5720
uni form</w> 5720
F R 5719
satis fied</w> 5719
C le 5718
tu re 5717
Re sident</w> 5717
kilom etres</w> 5716
em an 5712
e z</w> 5709
Dem ocracy</w> 5709
commen cement</w> 5707
work plan</w> 5706
visi bility</w> 5704
t empor 5703
lo an</w> 5703
el les</w> 5702
d ad</w> 5701
Umo ja</w> 5701
decl are</w> 5699
per tin 5695
cro ps</w> 5692
201 6</w> 5691
repar ation</w> 5691
Trin idad</w> 5688
rel atives</w> 5687
197 8</w> 5687
up coming</w> 5686
1 28</w> 5685
poin ting</w> 5685
A L</w> 5684
dis tur 5683
Bhut an</w> 5683
lead s</w> 5681
Speci fic</w> 5679
dis h</w> 5678
tax es</w> 5678
Or din 5677
portfol io</w> 5676
1 26</w> 5673
ali en</w> 5673
R am 5672
pic ture</w> 5669
aw a</w> 5668
b ases</w> 5663
retur ning</w> 5663
negoti ate</w> 5662
exha us 5662
no tion</w> 5661
enjoy ed</w> 5661
Avi ation</w> 5655
Pro jec 5654
collec ting</w> 5653
aban don 5653
c o</w> 5651
ce ase</w> 5650
CAR IC 5650
D . 5649
k i</w> 5649
ac o</w> 5649
instal ment</w> 5649
eth ical</w> 5648
I P</w> 5647
land mines</w> 5647
pun ish</w> 5644
c ements</w> 5643
bran ches</w> 5643
with drawn</w> 5641
Ch allen 5641
guil ty</w> 5641
t old</w> 5640
radi oactive</w> 5638
doc tr 5638
evalu ated</w> 5637
19 49</w> 5636
16 9</w> 5635
priv acy</w> 5634
sec re 5631
exclud ing</w> 5629
Recon ciliation</w> 5629
N O 5627
ill s</w> 5627
attemp ted</w> 5626
Objec tive</w> 5626
cred itor</w> 5625
indirec tly</w> 5625
P C</w> 5618
lo d 5617
intensi fied</w> 5617
ad mission</w> 5615
shi f 5615
Rot ter 5614
Era dication</w> 5612
standardiz ed</w> 5608
ev ic 5606
s al</w> 5605
A C</w> 5604
inter ven 5603
Im migration</w> 5603
Gen ocide</w> 5599
st y</w> 5598
w est</w> 5597
d imin 5596
radi ation</w> 5596
Iv orian</w> 5595
lo g</w> 5593
certif icates</w> 5592
Rotter dam</w> 5591
A I</w> 5590
anti- corruption</w> 5590
Sub stan 5589
separ ated</w> 5589
in compatible</w> 5588
In dependence</w> 5588
impe di 5588
Tob ago</w> 5588
diam onds</w> 5586
s ly</w> 5584
stri ke</w> 5584
PR ES 5584
UN IS 5583
cred itors</w> 5581
Al- Qaida</w> 5580
cap e</w> 5579
testi mony</w> 5578
3 .2</w> 5576
h our</w> 5576
N LB</w> 5575
R ati 5575
him self</w> 5574
middle- income</w> 5574
UNITA R</w> 5574
expe dite</w> 5573
thre e-year</w> 5573
ES A</w> 5571
mor ning</w> 5569
univers ality</w> 5568
discipl ine</w> 5568
R is 5567
uni fied</w> 5566
dele ted</w> 5566
acc ede</w> 5565
e- building</w> 5565
Le ad 5565
ak a</w> 5563
he res</w> 5563
cooper ating</w> 5562
Pre vent</w> 5561
G ran 5560
power ful</w> 5560
earth qu 5557
Mig rant</w> 5555
Amend ment</w> 5555
D A</w> 5554
Ac ts</w> 5552
analy sed</w> 5552
iqu é</w> 5551
Tok el 5551
ow ners</w> 5549
syn the 5548
ra h</w> 5546
ar a</w> 5545
CARIC OM</w> 5543
9 0 5542
Mar ine</w> 5536
expres sly</w> 5535
e ase</w> 5534
tr ying</w> 5534
G ra 5533
1 27</w> 5532
Indu stry</w> 5532
arre ars</w> 5532
com ings</w> 5531
3 6 5529
En ter 5529
w ater 5528
in dex</w> 5528
c tu 5525
offic ially</w> 5525
Gul f</w> 5525
man t 5524
ess entially</w> 5523
e asy</w> 5519
Par ticul 5519
particip ant</w> 5517
Strength en</w> 5516
conten ts</w> 5512
- sharing</w> 5511
S af 5511
R ole</w> 5508
ap por 5508
sur plus</w> 5508
Ro yal</w> 5508
origin ally</w> 5508
g one</w> 5506
recur rent</w> 5505
13 5</w> 5504
ga thered</w> 5501
Im p 5500
wan ted</w> 5500
policy making</w> 5499
Ex peri 5498
argu ment</w> 5497
pertin ent</w> 5497
frag ile</w> 5495
exc ess</w> 5492
retur ns</w> 5491
witn essed</w> 5491
sel ler</w> 5490
G ib 5489
continu ously</w> 5486
receiv able</w> 5486
eful ly</w> 5486
stan bul</w> 5485
pos sibly</w> 5484
Li a 5484
twenty- third</w> 5483
comm o 5482
ist ants</w> 5482
Dis cus 5482
Comb ating</w> 5481
an da</w> 5479
en quiry</w> 5479
counter parts</w> 5478
Lib rary</w> 5477
wh enever</w> 5476
mess ages</w> 5476
Ordin ance</w> 5476
Cop enh 5474
Prov ince</w> 5473
pen sions</w> 5471
IG H 5469
Practi ce</w> 5468
s ors</w> 5466
liveli hood</w> 5465
Tru ste 5465
pro long 5464
institu tes</w> 5463
repa ir</w> 5463
Y P</w> 5462
w ards</w> 5461
analy sing</w> 5460
loo ks</w> 5458
je op 5458
K iv 5457
k g</w> 5456
Copenh agen</w> 5456
incumb ent</w> 5454
s low 5453
ren sic</w> 5453
jud g 5453
explo sives</w> 5450
hun dreds</w> 5450
dro p</w> 5448
I stanbul</w> 5447
regul ating</w> 5447
FA R 5447
197 3</w> 5446
kin ds</w> 5445
D am 5443
parlia ment</w> 5443
depar ture</w> 5443
Gab on</w> 5443
rec alling</w> 5442
de als</w> 5438
spe ed</w> 5436
i ance</w> 5435
Pow ers</w> 5435
util ize</w> 5433
cl amation</w> 5430
commo date</w> 5430
cl arity</w> 5429
pres enting</w> 5428
han ded</w> 5428
e u 5427
B agh 5427
C. 4</w> 5427
motiv ated</w> 5427
un certainty</w> 5426
advis ed</w> 5426
A spects</w> 5425
di x</w> 5424
B earing</w> 5420
ac commodate</w> 5420
a b</w> 5419
tow ns</w> 5416
lev er 5413
spou se</w> 5413
as a</w> 5410
concentr ated</w> 5410
confisc ation</w> 5407
fe ature</w> 5406
Improv ing</w> 5402
ator ium</w> 5402
ag grav 5401
Co alition</w> 5399
sp ap 5399
ro - 5398
consul ted</w> 5398
t welfth</w> 5394
an g</w> 5390
F o 5389
rein forced</w> 5388
ad o</w> 5387
short comings</w> 5387
accid ents</w> 5386
Rec ent</w> 5384
200 5- 5382
pro - 5381
broad ly</w> 5381
O AU</w> 5380
scre ening</w> 5380
y o</w> 5379
Accoun ts</w> 5379
UNDA F</w> 5379
V . 5378
rac ist</w> 5376
vig or 5376
speci ally</w> 5375
198 1</w> 5373
b al</w> 5371
ci ally</w> 5371
re location</w> 5370
IT C</w> 5370
oun ds</w> 5368
tr ac 5368
sp heres</w> 5368
dissemin ating</w> 5368
li able</w> 5365
polic y- 5365
I SA 5364
ton nes</w> 5361
F A</w> 5358
mo tion</w> 5357
14 1</w> 5357
time table</w> 5357
adver sely</w> 5354
dem ocrati 5352
appe arance</w> 5352
contra st</w> 5351
y ers</w> 5349
wrong ful</w> 5348
k id 5347
re ments</w> 5347
a e</w> 5346
1 29</w> 5346
J e 5343
200 1- 5343
marri ages</w> 5340
ligh tly</w> 5339
sex ually</w> 5338
fin e</w> 5337
d u</w> 5335
h app 5333
fac es</w> 5327
Ac knowled 5325
fifty- fifth</w> 5323
lut ants</w> 5322
ra int</w> 5320
discus sing</w> 5320
pe er</w> 5318
G rou 5317
missi les</w> 5317
inno cent</w> 5315
retur nees</w> 5314
em power</w> 5313
P P 5312
associ ate</w> 5312
ff s</w> 5311
suppl ement</w> 5308
Eth ics</w> 5307
Contin u 5307
I A</w> 5306
Lib erian</w> 5306
gu es</w> 5305
li fe 5304
ex pend 5303
proc essed</w> 5303
annex ed</w> 5298
up dates</w> 5296
UNF IC 5294
ship ment</w> 5294
Chem icals</w> 5294
avo iding</w> 5293
s our 5292
Adv ice</w> 5292
w estern</w> 5291
Refe ren 5290
B order</w> 5289
sur face</w> 5289
sixty- second</w> 5288
break down</w> 5287
UNFIC YP</w> 5287
rev isions</w> 5286
fifty- sixth</w> 5282
Al i</w> 5281
argu ments</w> 5280
E very</w> 5279
gh ly</w> 5277
esti ci 5277
chi ef</w> 5277
deple ting</w> 5276
Nat ural</w> 5275
M og 5271
certain ly</w> 5271
ac i 5266
bi o 5266
acknowled ges</w> 5266
MEN T</w> 5266
alien s</w> 5265
13 3</w> 5263
Capac ity</w> 5263
endeav ours</w> 5261
Tw enty- 5259
ren ov 5258
F our</w> 5257
ir o</w> 5255
2 35</w> 5252
coun cils</w> 5252
dil ig 5252
Gib ral 5251
weak nesses</w> 5250
Man date</w> 5249
Ex ecu 5247
unanim ously</w> 5247
l iter 5245
dis mant 5244
pre clud 5243
Tokel au</w> 5243
D ate</w> 5242
ed y</w> 5241
E M 5240
5 0,000</w> 5240
UNC DF</w> 5240
CR IC</w> 5240
brid ge</w> 5239
Second ly</w> 5237
gro w</w> 5236
cross ing</w> 5236
vir tu 5236
no on</w> 5235
cor respond 5233
Col lege</w> 5233
t am 5232
speci fy</w> 5232
there after</w> 5231
parlia mentarians</w> 5231
neighb our 5231
casu alties</w> 5231
de pu 5230
adap ted</w> 5230
fem ales</w> 5229
elec t</w> 5228
mod ules</w> 5228
o economic</w> 5227
si veness</w> 5227
Un fortunately</w> 5226
accred itation</w> 5226
commen ds</w> 5225
consequ ently</w> 5223
pan dem 5222
inven tories</w> 5222
Comm itted</w> 5221
op ol 5220
ac tu 5219
ar m</w> 5218
can cell 5216
contex ts</w> 5216
t em 5214
Z one</w> 5214
3 3 5213
chil d- 5213
Pl enary</w> 5213
usu al</w> 5213
fin ally</w> 5211
shel ters</w> 5210
en se</w> 5209
harmon ize</w> 5207
mis sile</w> 5206
depart mental</w> 5204
amen ding</w> 5203
Bagh dad</w> 5202
new spap 5200
objec tions</w> 5199
mil it 5197
Ba ham 5197
appropri ations</w> 5194
thre e- 5194
S .</w> 5191
T RA 5191
ess ness</w> 5191
f ron 5190
acti vis 5190
event ually</w> 5190
promulg ated</w> 5189
communic ated</w> 5186
rec ourse</w> 5182
distingu ished</w> 5182
de tri 5180
ne sty</w> 5178
Presid ency</w> 5177
design ing</w> 5173
K in 5172
Me an 5170
Presid ential</w> 5170
ill iteracy</w> 5169
expend able</w> 5166
pre cur 5162
correc tions</w> 5162
allevi ation</w> 5162
K ab 5161
in consistent</w> 5159
or phan 5158
sign s</w> 5158
att ain</w> 5156
def end</w> 5156
commen d</w> 5155
cons ist</w> 5152
Ab y 5152
thres hold</w> 5150
1 2- 5147
at orial</w> 5147
freez e</w> 5145
Trans fer</w> 5144
Pap ua</w> 5142
on ing</w> 5140
iti ous</w> 5140
c essation</w> 5139
ar i</w> 5139
develop mental</w> 5134
cha ir</w> 5133
Lia ison</w> 5133
cl asses</w> 5132
peace keepers</w> 5131
pass eng 5130
fer tility</w> 5128
g ri 5127
pl ed</w> 5127
W C</w> 5125
acceler ated</w> 5125
C ST</w> 5124
S he 5119
W il 5119
J an 5119
di fication</w> 5118
Per i 5118
discre tion</w> 5111
st er 5110
in alienable</w> 5108
Recom men 5108
compris ed</w> 5108
Peac eful</w> 5108
lic ence</w> 5106
tu tion</w> 5105
lin king</w> 5105
confidenti ality</w> 5105
lim iting</w> 5104
1 31</w> 5103
cu t</w> 5103
MINUR SO</w> 5103
arri val</w> 5102
inform ation- 5099
H os 5098
w an</w> 5094
succ ession</w> 5094
ir regular</w> 5093
Dispu te</w> 5092
tu s</w> 5091
foreig ners</w> 5091
hear t</w> 5090
cel lan 5090
highligh ting</w> 5088
W ar 5087
f ail</w> 5086
recor ding</w> 5085
3 4 5084
Americ as</w> 5083
per secu 5079
oth o</w> 5078
Mog ad 5078
respec ting</w> 5073
up hold</w> 5072
Aby ei</w> 5072
concentr ation</w> 5070
M T 5069
liqu idation</w> 5068
invo ked</w> 5068
answ er</w> 5068
Mogad ish 5068
ass ault</w> 5067
En suring</w> 5067
mea suring</w> 5065
2. 4</w> 5065
ent ail</w> 5060
b id 5055
v is</w> 5053
Comm ander</w> 5053
revis e</w> 5053
ill a</w> 5051
Min im 5051
t om 5050
mer cen 5049
Cha mbers</w> 5048
Mon aco</w> 5048
cellan eous</w> 5048
ac ute</w> 5047
agu es</w> 5047
K ey</w> 5045
se emed</w> 5041
UNAM A</w> 5038
St abilization</w> 5037
C air 5035
im migrants</w> 5031
Lib eration</w> 5029
regre t</w> 5029
14 5</w> 5028
fill ed</w> 5027
dis tor 5025
author ize</w> 5025
C. 6</w> 5025
gender- sensitive</w> 5025
assum ptions</w> 5025
asylum- seekers</w> 5025
a o</w> 5024
MONU SCO</w> 5022
communic able</w> 5022
s port</w> 5020
En forced</w> 5020
N A</w> 5017
Per centage</w> 5014
Erit re 5013
threat en</w> 5012
divor ce</w> 5012
f it</w> 5009
T E</w> 5009
pl aying</w> 5008
train ers</w> 5008
F ul 5006
seg reg 5006
protec tive</w> 5005
emphasiz ing</w> 5003
Les otho</w> 5003
thir teenth</w> 5002
pill ar</w> 5002
method ological</w> 5001
res sing</w> 5000
Mogadish u</w> 5000
Un i 4998
De struction</w> 4995
ro ster</w> 4994
work er</w> 4994
Rep ubl 4992
Provi ding</w> 4992
Conven tional</w> 4991
1. 4</w> 4989
sixty- fifth</w> 4988
int ent</w> 4987
system ic</w> 4986
r ations</w> 4985
udge ments</w> 4984
IC C</w> 4982
13 9</w> 4982
soci ally</w> 4981
fif tieth</w> 4981
ys ical</w> 4981
Gibral tar</w> 4981
sixty- third</w> 4980
Semin ar</w> 4979
v ary</w> 4977
D D 4975
res our 4974
decentr alized</w> 4974
Add ress</w> 4969
secre t</w> 4969
f lag</w> 4968
m ative</w> 4968
Pre ven 4967
se as 4965
ro oms</w> 4962
Min orities</w> 4962
proper ties</w> 4957
war rant</w> 4956
Commer cial</w> 4956
mor atorium</w> 4955
K im 4954
as sured</w> 4952
knowled ge 4950
dam aged</w> 4950
mee ts</w> 4949
Bon n</w> 4949
monit ors</w> 4948
Compl iance</w> 4947
under p 4945
scienti sts</w> 4945
ari al</w> 4942
f lights</w> 4941
te or 4941
conflic t- 4941
cent red</w> 4940
Sub si 4940
In surance</w> 4939
defin es</w> 4939
s lightly</w> 4938
G S</w> 4938
collec tively</w> 4937
adoles cent</w> 4937
Polic ies</w> 4935
qual itative</w> 4935
soci oeconomic</w> 4933
NA TO</w> 4933
des erv 4930
dis rup 4928
resid ential</w> 4927
descri be</w> 4925
demonstr ation</w> 4925
IMI S</w> 4925
13 6</w> 4924
se ments</w> 4923
Part nerships</w> 4922
14 3</w> 4920
14 2</w> 4920
ven ue</w> 4917
a h 4915
Con solid 4914
al ign</w> 4912
small -scale</w> 4912
bo ards</w> 4911
receiv es</w> 4910
Prof essor</w> 4910
tari ff</w> 4909
licen sing</w> 4908
Civ ilian</w> 4907
li ved</w> 4904
mi xed</w> 4904
fin alize</w> 4902
Col lec 4899
met res</w> 4898
ad mitted</w> 4897
15 5</w> 4896
fifty- fourth</w> 4896
ten ed</w> 4895
orb it</w> 4894
care ful</w> 4891
dismis sed</w> 4891
projec tions</w> 4890
Cair o</w> 4890
autonom ous</w> 4889
16 2</w> 4888
4 .1</w> 4887
seg ments</w> 4886
gene tic</w> 4884
n ight</w> 4883
un g</w> 4883
stri ve</w> 4883
ing - 4882
or i</w> 4880
posi um</w> 4880
e v</w> 4879
chi ev 4879
viol ating</w> 4878
Reiter ates</w> 4878
S o</w> 4876
medium- sized</w> 4876
G E</w> 4875
non- discriminatory</w> 4872
al ignment</w> 4871
we ather</w> 4869
R iver</w> 4868
ur ch</w> 4868
Gu iding</w> 4868
M .</w> 4867
t ancy</w> 4863
revit alization</w> 4860
draw s</w> 4859
el essness</w> 4858
micro finance</w> 4854
pan ell 4853
i ka</w> 4852
ari ties</w> 4852
fu els</w> 4852
al k 4850
Per form 4849
man ship</w> 4848
plat forms</w> 4848
Cur rent</w> 4843
R ES 4842
tribu te</w> 4842
consolid ating</w> 4841
prolong ed</w> 4841
e x</w> 4840
n avigation</w> 4839
satell ites</w> 4838
4 .2</w> 4836
consum ers</w> 4836
child hood</w> 4836
d é 4835
T ow 4835
fe el</w> 4835
commen ce</w> 4834
en actment</w> 4833
A chiev 4832
I E 4832
Consi der</w> 4832
as hi 4831
poli tics</w> 4824
Coun sel</w> 4823
nine teenth</w> 4820
de ferred</w> 4819
indic ative</w> 4819
flu ctu 4819
sc our 4818
Pro tec 4815
ul ative</w> 4814
inv est</w> 4814
Agre ements</w> 4813
CC W</w> 4813
G EN 4810
su nam 4810
198 4</w> 4810
infec tion</w> 4809
elig ibility</w> 4808
Sa h 4807
IN F</w> 4807
pre dec 4806
D E</w> 4804
g ien 4803
ab ed</w> 4803
in tra 4802
argu es</w> 4802
Establ ish</w> 4801
reflec tion</w> 4799
rever se</w> 4799
Rad io</w> 4798
Baham as</w> 4798
Fu ture</w> 4797
ec ological</w> 4796
Su per 4795
15 7</w> 4795
S olid 4794
G A</w> 4791
H .</w> 4790
jeop ardiz 4789
13 7</w> 4788
explo red</w> 4788
st one</w> 4787
adver ti 4786
pan els</w> 4785
exemp tion</w> 4783
N i 4780
Ab k 4780
fifty- third</w> 4780
A TION</w> 4779
k m</w> 4779
po wered</w> 4777
- off</w> 4775
con vey</w> 4774
F ive</w> 4772
UN U</w> 4772
Tre aties</w> 4772
install ations</w> 4769
fif teenth</w> 4767
Sh ould</w> 4767
Prac tices</w> 4767
G ambia</w> 4766
CN . 4764
entreprene urs</w> 4763
pr int</w> 4761
install ation</w> 4761
country- specific</w> 4758
Mean while</w> 4756
fal se</w> 4755
Cent res</w> 4755
issu ing</w> 4754
Organiz ational</w> 4753
aim ing</w> 4752
noti fied</w> 4751
ir s</w> 4750
FAR DC</w> 4750
b ol 4747
non- nuclear-weapon</w> 4747
exce eded</w> 4745
def icit</w> 4743
Ital ian</w> 4741
trans fer 4740
Pris on</w> 4740
volun teers</w> 4739
14 4</w> 4737
I FA 4736
cl a 4736
n ants</w> 4735
Ris k</w> 4735
proce eded</w> 4733
ID Ps</w> 4733
4 ,000</w> 4732
Rev ised</w> 4732
te l</w> 4731
Con struction</w> 4730
pens ation</w> 4730
l it 4729
emer gence</w> 4729
not withstanding</w> 4728
chron ic</w> 4726
3 .3</w> 4724
individu ally</w> 4723
canc er</w> 4723
L ight</w> 4722
po sted</w> 4721
Tra v 4720
s or</w> 4719
accred ited</w> 4718
commun iqué</w> 4717
h appen 4716
ar sen 4715
Commer ce</w> 4715
ro ll</w> 4712
sol ve</w> 4711
int enti 4710
ell s</w> 4710
P N 4708
st abil 4708
pers istence</w> 4708
Corpor ation</w> 4708
Grou ps</w> 4708
commit ting</w> 4707
grow n</w> 4707
independ ently</w> 4707
Consi dering</w> 4707
Perform ance</w> 4707
ou ts</w> 4706
pe tro 4706
Jap anese</w> 4706
decisi ve</w> 4706
restric tive</w> 4704
low est</w> 4703
G B 4702
ph ased</w> 4702
coun t</w> 4701
chair s</w> 4700
T O 4699
wor thy</w> 4699
leg ality</w> 4698
14 7</w> 4698
High er</w> 4697
T ourism</w> 4695
m apping</w> 4695
tradi tionally</w> 4695
dist ance</w> 4695
the - 4694
enabl es</w> 4694
ar y- 4693
entit lements</w> 4693
Govern or</w> 4691
amb itious</w> 4690
Imp act</w> 4690
P B 4689
R IGH 4689
ous ness</w> 4687
ri d 4686
cri tic 4686
II . 4685
quar terly</w> 4683
SA DC</w> 4683
CP R</w> 4683
what ever</w> 4682
O IC</w> 4681
O wing</w> 4681
ro und 4681
0 2</w> 4680
Di plom 4679
stud ent</w> 4678
aqu if 4678
Main tenance</w> 4678
Nor th- 4676
15 - 4675
O man</w> 4674
af ter- 4674
UN ME 4672
Dis ability</w> 4671
ro tation</w> 4669
tot alling</w> 4669
hel p 4668
quanti ties</w> 4668
Substan tive</w> 4668
exam inations</w> 4667
multilater alism</w> 4667
di an</w> 4666
exclud e</w> 4665
restric t</w> 4664
ar rests</w> 4663
fir st- 4662
w ood</w> 4661
rec ycl 4661
famil i 4661
won dered</w> 4661
design ate</w> 4660
3 7 4659
4 8 4657
Com petition</w> 4657
0 4</w> 4655
establish ments</w> 4654
Refe rence</w> 4654
kid n 4654
j udgements</w> 4653
clin ics</w> 4653
pop ular</w> 4652
margin alization</w> 4647
dimen sional</w> 4645
exemp tions</w> 4645
bl ock 4644
16 6</w> 4644
Com ple 4643
un ification</w> 4641
S ir</w> 4640
defic iencies</w> 4640
under - 4639
abol ished</w> 4638
lingu istic</w> 4636
suppl ied</w> 4632
ten d 4631
Jud ges</w> 4631
er ic</w> 4630
w ishing</w> 4628
co c 4627
expec t</w> 4625
T N 4623
hel ps</w> 4623
o k 4622
T ai 4622
14 6</w> 4622
stan tly</w> 4621
tion ality</w> 4621
v ar 4620
in ability</w> 4620
cho ices</w> 4618
om a</w> 4617
su spects</w> 4616
un known</w> 4616
contin gents</w> 4615
iss ance</w> 4615
Mo ha 4614
for cement</w> 4613
D ue</w> 4612
comple ting</w> 4612
confid ent</w> 4611
colon ial</w> 4611
Go ods</w> 4610
haz ards</w> 4610
neutr al</w> 4610
certi fied</w> 4610
ou ght</w> 4608
oper ates</w> 4607
h ence</w> 4605
Ex c 4605
prosecu tions</w> 4605
F em 4604
ur o</w> 4604
Cour ts</w> 4603
la m</w> 4601
stres sing</w> 4601
Col labor 4599
comm emor 4598
Rel ig 4597
gradu al</w> 4597
ot echn 4596
neighb ours</w> 4596
Dan ish</w> 4596
vend ors</w> 4593
restric tion</w> 4592
exce eding</w> 4592
beli efs</w> 4589
a side</w> 4588
W M 4588
por ters</w> 4588
pre fer 4588
fo rensic</w> 4588
Minim um</w> 4588
f ate</w> 4586
add endum</w> 4586
d wel 4585
agend as</w> 4584
prof ound</w> 4583
R ob 4582
oper ators</w> 4582
urban ization</w> 4582
ti ously</w> 4581
Pro duc 4580
visi ting</w> 4580
inc eption</w> 4579
acc o</w> 4576
comple mented</w> 4576
H ence</w> 4575
Comp any</w> 4574
1998- 1999</w> 4574
res ti 4572
De t 4572
contin ental</w> 4571
Expres sing</w> 4570
Dec isions</w> 4567
w ind 4566
descri bes</w> 4566
20 ,000</w> 4563
v oted</w> 4562
applic ants</w> 4562
mod ule</w> 4562
parti te</w> 4562
Ver de</w> 4561
inter dependence</w> 4560
15 1</w> 4560
tin ational</w> 4559
diver sion</w> 4558
ch - 4556
collabor ate</w> 4555
concep tual</w> 4555
S chem 4554
200 7- 4554
long- standing</w> 4554
Appro ach</w> 4553
du m 4552
De tention</w> 4552
sen sing</w> 4552
quanti tative</w> 4550
Portu gu 4550
Ex pendit 4549
UND OF</w> 4549
harmon y</w> 4549
Swe dish</w> 4549
privileg es</w> 4549
Re habilitation</w> 4547
inc ere</w> 4546
meth yl</w> 4545
J .</w> 4542
run ning</w> 4542
3 8 4541
att acked</w> 4541
g un 4539
Dec olonization</w> 4539
UN V</w> 4538
infec tions</w> 4537
nation wide</w> 4536
sixty- fourth</w> 4536
T IV 4535
mercen aries</w> 4534
colle agues</w> 4531
interpre tative</w> 4527
smo oth</w> 4527
isol ation</w> 4526
B ali</w> 4525
ad ding</w> 4525
En ti 4525
Kiv u</w> 4525
mar ital</w> 4524
expl oring</w> 4522
under lines</w> 4521
A ge 4519
b reaches</w> 4517
Refuge e</w> 4517
chap ters</w> 4517
st ra 4516
ad here</w> 4516
flu or 4513
CT BT</w> 4512
poli tically</w> 4512
coun cil</w> 4511
vari ed</w> 4511
cooper atives</w> 4511
stream lining</w> 4511
wh el 4510
affor d</w> 4509
ar ming</w> 4507
where ver</w> 4504
T A</w> 4503
dou bl 4501
m ere</w> 4499
s incere</w> 4498
multi- stakeholder</w> 4498
l acking</w> 4497
ex es</w> 4496
attit ude</w> 4496
sett led</w> 4495
Int elligence</w> 4495
s a</w> 4493
sub programmes</w> 4491
six teenth</w> 4491
att aches</w> 4490
typ ically</w> 4490
B ack 4489
N ag 4489
Br un 4489
Sub .2</w> 4488
subsi di 4488
15 6</w> 4487
M ag 4486
pre requisite</w> 4486
far ming</w> 4486
thir d- 4485
Enhan cing</w> 4483
t ant</w> 4481
en nial</w> 4481
un necessary</w> 4481
um n</w> 4481
10 , 4480
pre domin 4479
Al tern 4479
St .</w> 4478
Neg oti 4478
Cri mes</w> 4477
ship ping</w> 4477
tox ic</w> 4477
L E</w> 4474
demonstr ations</w> 4472
remitt ances</w> 4472
coer cive</w> 4470
ph arm 4468
remin ded</w> 4468
We b</w> 4467
ro wing</w> 4465
medic ine</w> 4465
v i</w> 4463
br ings</w> 4461
over whel 4459
mil est 4459
Capac ity-building</w> 4458
à - 4457
k er</w> 4456
i ds</w> 4456
U ses</w> 4455
UN MO 4454
aud ited</w> 4453
desi red</w> 4452
valu ed</w> 4450
a . 4448
ear nings</w> 4447
short age</w> 4447
Ab u</w> 4446
non- post</w> 4445
Braz ilian</w> 4445
any one</w> 4444
197 9</w> 4443
Go od</w> 4442
Vice- Chairman</w> 4442
w il 4441
com prehen 4441
config uration</w> 4440
Wor ks</w> 4439
13 25</w> 4439
vis - 4438
ce re 4437
15 4</w> 4436
parlia ments</w> 4435
commen ted</w> 4433
Me dia</w> 4431
zer o</w> 4431
vac ant</w> 4430
ow s</w> 4428
introduc tory</w> 4428
Ro ad</w> 4427
Y oung</w> 4426
prof its</w> 4426
aw aiting</w> 4425
GH G</w> 4425
p ass</w> 4424
direc tors</w> 4424
under mined</w> 4423
MD G</w> 4423
schol ar 4422
seven teenth</w> 4422
poss ess</w> 4420
obvi ous</w> 4419
simultan eously</w> 4417
oc curren 4415
6 ,000</w> 4414
pl ay 4414
Com pensation</w> 4414
G ir 4413
cancell ation</w> 4413
p our</w> 4412
à- vis</w> 4412
Organ isation</w> 4411
ar ization</w> 4410
con stantly</w> 4407
ren ew</w> 4407
allevi ate</w> 4407
PR ST</w> 4406
help ful</w> 4406
re alizing</w> 4405
H all</w> 4402
In come</w> 4402
15 2</w> 4402
c ope</w> 4400
C IS 4400
fil es</w> 4400
cap ture</w> 4399
log ical</w> 4398
contrac ep 4396
categ or 4392
hy gien 4392
der og 4390
tim ing</w> 4389
tack ling</w> 4388
Challen ges</w> 4388
m ide</w> 4386
dem ining</w> 4386
substanti ated</w> 4386
pre ferred</w> 4384
dec lining</w> 4384
E - 4383
20 8</w> 4383
H eld</w> 4382
acc essing</w> 4382
COM MI 4382
pandem ic</w> 4381
tu berculosis</w> 4380
5 7 4379
un .org</w> 4378
dr y</w> 4378
school ing</w> 4378
spons or</w> 4376
virtu e</w> 4375
En forcement</w> 4374
volun t 4374
de portation</w> 4373
hal t</w> 4372
traffic ked</w> 4372
consult ant</w> 4370
vis- à-vis</w> 4370
contribu tors</w> 4366
co w</w> 4364
Adop ted</w> 4364
ur an 4363
Bl ue</w> 4363
H U 4361
hard ship</w> 4360
es sion 4359
civil izations</w> 4359
Indi vidu 4358
L in 4357
l ler</w> 4355
- time</w> 4354
X II</w> 4352
od - 4352
al li 4350
olu tions</w> 4350
question ed</w> 4350
periodic ally</w> 4350
tion ment</w> 4349
refer ral</w> 4349
Age ing</w> 4349
Investig ations</w> 4346
expen se</w> 4345
th inking</w> 4344
posi tively</w> 4343
in flic 4342
3 9 4341
exha usted</w> 4341
n os 4338
comm an 4337
UNME E</w> 4337
ti ci 4335
Minis tries</w> 4335
shor tly</w> 4335
Elec tronic</w> 4334
mag nit 4334
P ress</w> 4333
AC. 109</w> 4331
P os 4330
erad icating</w> 4330
divi de</w> 4330
n ance</w> 4329
s k</w> 4329
Subsi diary</w> 4329
ri ties</w> 4328
g am 4325
our selves</w> 4325
human kind</w> 4325
Kim ber 4325
UND G</w> 4324
S atell 4323
er ion</w> 4323
un encumbered</w> 4323
no w 4323
l as</w> 4322
pre trial</w> 4321
respond ents</w> 4321
par ity</w> 4320
design ation</w> 4320
scenari o</w> 4320
teach er</w> 4319
L ife</w> 4315
oc ation</w> 4315
ge red</w> 4315
Proce dures</w> 4314
Schem e</w> 4313
resti tution</w> 4310
acc eding</w> 4309
ethn icity</w> 4308
competen cies</w> 4308
pre ference</w> 4307
our nal</w> 4307
14 9</w> 4307
iri es</w> 4306
pro minent</w> 4305
ch e 4305
L ine</w> 4303
con ve 4302
alo gues</w> 4301
C L 4300
ra y</w> 4299
sign atories</w> 4298
substitu te</w> 4298
Con servation</w> 4296
ol ic</w> 4295
197 4</w> 4294
stimul ate</w> 4293
UNAM SIL</w> 4292
5 .2</w> 4291
Hol y</w> 4291
nomin ations</w> 4290
R U 4289
rou tes</w> 4288
identi fies</w> 4288
endor sement</w> 4287
helicop ters</w> 4287
k - 4286
polic ing</w> 4286
d i</w> 4284
i ć</w> 4284
re ci 4284
h n</w> 4281
earthqu ake</w> 4281
inc en 4280
stead y</w> 4280
magnit ude</w> 4280
Be ir 4279
M il 4278
vis a</w> 4278
Rec overy</w> 4275
2 48</w> 4273
upgra de</w> 4272
Mo ham 4270
infec ted</w> 4270
14 8</w> 4269
Solid arity</w> 4268
it ably</w> 4267
cro p</w> 4266
Non etheless</w> 4266
s aving</w> 4265
hin dered</w> 4265
deliber ate</w> 4264
15 8</w> 4263
Ta x</w> 4262
F er 4259
adequ acy</w> 4259
self- defence</w> 4258
O thers</w> 4256
UNAM I</w> 4256
17 0</w> 4255
Qu ar 4255
stream line</w> 4254
Fig ure</w> 4254
mag istr 4253
accompl ishment</w> 4252
re pu 4251
pl ur 4251
cha ins</w> 4250
X V</w> 4249
per mission</w> 4248
disc oura 4248
t ac 4245
en ess</w> 4244
re habilit 4243
ad s</w> 4243
UNMI T</w> 4243
Ver ification</w> 4243
fair ly</w> 4242
Mos cow</w> 4242
L ab 4240
le tin</w> 4239
crit erion</w> 4239
immun ities</w> 4239
conc e 4238
fil ing</w> 4237
dis closed</w> 4236
sc ru 4236
sixty- sixth</w> 4236
S ar 4235
coordin ates</w> 4234
m ass 4233
ag ent</w> 4233
res c 4232
quot a</w> 4231
vulner abilities</w> 4231
LO S</w> 4231
Ap plication</w> 4226
R S</w> 4225
tr acted</w> 4225
cas e- 4225
qual ification</w> 4225
P at 4224
tr ical</w> 4224
occur ring</w> 4224
subs cri 4223
hol e</w> 4222
197 0</w> 4220
A F 4218
Li kewise</w> 4217
expedi tiously</w> 4217
Abd ul 4217
10 - 4216
transl ate</w> 4216
doc tors</w> 4216
2 42</w> 4214
3 .5</w> 4214
MI S 4214
labor atory</w> 4214
M en</w> 4212
benef iting</w> 4209
spec tr 4209
recip ients</w> 4209
R T 4208
speci alist</w> 4208
in comes</w> 4204
dang ers</w> 4204
mat h</w> 4203
propos ing</w> 4203
ti le</w> 4202
ad ed</w> 4202
Lan gu 4202
4 7 4200
or os</w> 4200
dilig ence</w> 4200
modern ization</w> 4197
C IS</w> 4196
accid ent</w> 4195
em powered</w> 4192
agre es</w> 4192
MA N</w> 4192
Ad ap 4191
16 1</w> 4191
Argentin e</w> 4191
Beir ut</w> 4191
ci vic</w> 4190
ESC R</w> 4190
Execu tives</w> 4190
sett lers</w> 4189
s and</w> 4188
inter cultural</w> 4188
pow ering</w> 4188
Em powerment</w> 4187
expec ts</w> 4186
carri er</w> 4186
cred entials</w> 4186
re bel</w> 4185
Sup ple 4185
5 .1</w> 4184
ear ning</w> 4184
Equ atorial</w> 4184
S ig 4182
defic iency</w> 4182
M i 4181
an thro 4180
har v 4180
postpon ed</w> 4180
CP . 4179
eigh teenth</w> 4178
Emphasiz es</w> 4178
disappe ared</w> 4177
confir mation</w> 4176
na issance</w> 4176
over arching</w> 4175
da y- 4175
acceler ating</w> 4174
bound aries</w> 4173
W P. 4172
19 2</w> 4172
peac e-building</w> 4172
accompl ished</w> 4172
Back ground</w> 4172
t i</w> 4170
l en 4170
Pri or</w> 4170
high- quality</w> 4170
land - 4169
V arious</w> 4168
scour ge</w> 4167
C B</w> 4165
inter regional</w> 4163
sti c</w> 4163
10 -year</w> 4163
K har 4162
Rec alls</w> 4161
res ting</w> 4159
Comp act</w> 4159
PRES ID 4157
neg atively</w> 4154
E arly</w> 4153
drop ped</w> 4153
M S</w> 4151
20 1</w> 4151
cons ensu 4150
Kimber ley</w> 4150
Is lam</w> 4149
safegu arding</w> 4149
T el 4146
st ation 4146
direc tives</w> 4145
v als</w> 4144
cy ber 4143
appor tionment</w> 4143
t sunam 4142
m ist 4142
chair manship</w> 4142
acti v 4140
pos ite</w> 4139
commen sur 4138
re con 4136
comm only</w> 4136
preserv ing</w> 4136
k es</w> 4135
and - 4135
earli est</w> 4135
d ful</w> 4133
in sur 4133
wor st</w> 4133
Adv oc 4132
l ity</w> 4131
es cor 4130
sol ic 4130
C ris 4128
IN ST 4127
UNMI SS</w> 4127
IO M</w> 4126
oz one- 4125
ord nance</w> 4122
inspec tors</w> 4119
Mon t 4118
volunt arily</w> 4118
16 5</w> 4117
accur acy</w> 4116
respec ts</w> 4115
aud itors</w> 4114
Commun ities</w> 4112
ot ro 4111
cre ative</w> 4109
ur in 4108
27 0</w> 4108
TE D</w> 4105
hu ge</w> 4105
l ending</w> 4103
To gether</w> 4103
il legally</w> 4102
est ock</w> 4102
b o</w> 4101
arch ives</w> 4100
S ign 4099
fin alization</w> 4097
out lines</w> 4097
198 3</w> 4097
B ou 4096
F unds</w> 4096
er -term</w> 4096
Moha med</w> 4094
Fri ends</w> 4093
compu ters</w> 4092
Not withstanding</w> 4092
super visory</w> 4091
tur ned</w> 4090
D O 4089
tre at</w> 4089
4 .5</w> 4086
mal es</w> 4085
paren tly</w> 4084
Prov isions</w> 4084
g a</w> 4083
prob ably</w> 4083
PRESID ENT</w> 4081
ad i</w> 4080
cel l</w> 4080
herit ance</w> 4080
depos its</w> 4080
Fun damental</w> 4078
inform ing</w> 4077
elecommun ication</w> 4075
e h</w> 4074
f all 4074
pe red</w> 4073
Po si 4073
a th 4071
broad cast</w> 4071
impe tus</w> 4070
ic ians</w> 4069
sh ocks</w> 4069
over coming</w> 4069
if ying</w> 4069
after math</w> 4068
devast ating</w> 4067
RIGH TS</w> 4066
4 6 4065
Com oros</w> 4065
An dor 4065
ts - 4065
connec tivity</w> 4064
public- private</w> 4063
rem nants</w> 4062
E vi 4061
l or</w> 4061
affir mative</w> 4061
militi as</w> 4058
Mar ket</w> 4057
R ico</w> 4056
elimin ated</w> 4056
Eritre an</w> 4055
twenty- fourth</w> 4053
child care</w> 4052
Sw az 4052
Gran ting</w> 4051
scru tin 4051
1. 6</w> 4049
L R</w> 4045
commensur ate</w> 4045
eful ness</w> 4044
regret ted</w> 4044
recon naissance</w> 4044
el l</w> 4043
W at 4042
2 13</w> 4041
over seas</w> 4041
sy nergy</w> 4041
ment arity</w> 4039
resear chers</w> 4038
acknowled ging</w> 4037
h ur 4036
challen ged</w> 4036
renew al</w> 4035
ass embl 4034
4 .3</w> 4032
2 20</w> 4031
19 61</w> 4031
otro pic</w> 4029
m al</w> 4027
sixty- seventh</w> 4027
ID F</w> 4026
197 7</w> 4025
hor iz 4025
defend ant</w> 4022
ab duction</w> 4021
investig ators</w> 4020
18 3</w> 4020
18 9</w> 4019
Regis tration</w> 4019
end - 4017
deb ted</w> 4017
Requ est</w> 4017
PO L</w> 4016
consci ence</w> 4015
Spe ak 4015
full- time</w> 4014
pa th 4013
perc eption</w> 4013
p ra 4012
atri c</w> 4012
persecu tion</w> 4012
incen tive</w> 4012
ph eric</w> 4011
consul ting</w> 4010
prioritiz e</w> 4008
noti fy</w> 4006
publ ish</w> 4005
tif ications</w> 4004
sum m 4003
f ab 4002
Del iver 4002
compil ed</w> 4002
uran ium</w> 4002
2 51</w> 4000
TIO NAL</w> 4000
197 5</w> 3998
impe de</w> 3997
Har mon 3997
long er-term</w> 3996
2. 6</w> 3996
W ast 3995
entit lement</w> 3995
four teenth</w> 3995
tra um 3994
sen ding</w> 3994
15 9</w> 3993
Appl ications</w> 3993
Land locked</w> 3991
O ri 3990
e an 3989
IP CC</w> 3989
v es 3988
ph il 3988
tem per 3987
tur n 3985
for ci 3984
escal ation</w> 3984
g ases</w> 3983
altern ate</w> 3981
advoc ated</w> 3981
p us 3979
Sol om 3977
t ful</w> 3976
diplom acy</w> 3976
re mind</w> 3974
2 10</w> 3973
stockpil es</w> 3973
un likely</w> 3972
rec re 3972
Sup ply</w> 3971
repl ied</w> 3971
Mun icip 3971
5 9 3970
al- use</w> 3970
St ra 3968
evac uation</w> 3968
bal lot</w> 3967
til l 3967
Institu tional</w> 3966
alleg ation</w> 3963
threat ening</w> 3962
perpe tu 3962
er ly</w> 3961
ga ther</w> 3959
Citiz ens</w> 3959
19 51</w> 3958
clu sters</w> 3958
vari ance</w> 3957
Gre en</w> 3956
dri ving</w> 3956
ill ness</w> 3955
reserv ed</w> 3955
b om 3954
ã o</w> 3954
autom atically</w> 3954
ou l 3953
cre ates</w> 3953
d ar 3952
S hel 3952
Bel ize</w> 3951
il - 3950
prec au 3950
Sur in 3950
201 1- 3949
2 11</w> 3948
m ot 3948
demonstr ates</w> 3948
nom ination</w> 3947
Clos ed</w> 3947
Ma h 3946
nit ure</w> 3944
pre feren 3943
96 3- 3943
Tai wan</w> 3942
Sign ific 3942
ag e- 3941
liqu idated</w> 3941
low ship</w> 3940
Cam pa 3940
tra g 3938
o res 3937
F el 3937
is ely</w> 3937
Ab original</w> 3937
f ically</w> 3935
E A 3935
haz ard</w> 3934
0 00</w> 3933
u ated</w> 3932
ig u 3932
De part 3932
Pl urin 3932
1 1, 3931
rejec tion</w> 3931
tail ored</w> 3929
G reat 3927
199 6- 3927
link age</w> 3927
mis cellaneous</w> 3926
block ade</w> 3926
Plurin ational</w> 3926
w eg 3924
dis pat 3922
receiv ables</w> 3922
aggreg ate</w> 3922
industri alized</w> 3920
sett le</w> 3918
im posing</w> 3917
ace u 3917
Contr acts</w> 3917
see ing</w> 3916
f ashi 3915
country- level</w> 3915
respon ds</w> 3913
loc k</w> 3913
occur s</w> 3912
E mbass 3910
z en</w> 3910
over see</w> 3910
Gen er 3910
convic tions</w> 3909
Embass y</w> 3909
e uro 3908
Ethiop ian</w> 3908
CIS G</w> 3908
discre pan 3907
C F</w> 3906
g - 3904
impl ies</w> 3904
stat eless</w> 3903
Solom on</w> 3903
back log</w> 3901
detec t</w> 3899
w ounded</w> 3898
T C</w> 3898
5 8 3898
multi pl 3898
im age</w> 3896
expec tancy</w> 3896
ater rit 3896
two- year</w> 3896
res istance</w> 3895
control ling</w> 3894
calcul ation</w> 3894
s ka</w> 3892
b on 3891
P ay 3891
facilit ates</w> 3891
us efulness</w> 3890
claim ing</w> 3890
C S</w> 3888
H IP 3888
FM CT</w> 3888
Enter prise</w> 3888
ozone- depleting</w> 3888
A WG 3884
appreci ates</w> 3884
De b 3882
g old</w> 3881
Gu am</w> 3881
accru ed</w> 3881
vend or</w> 3879
con feren 3878
UN S 3878
endor se</w> 3878
H on 3877
after- service</w> 3876
I B 3874
ig no 3874
web sites</w> 3874
at u</w> 3873
mobil ized</w> 3873
Alban ian</w> 3873
avoid ed</w> 3873
ap pointing</w> 3871
prac tic 3871
D- 2</w> 3871
pack ages</w> 3871
C red 3869
resi ding</w> 3869
IFA D</w> 3869
exacerb ated</w> 3868
Evi d 3868
remov ing</w> 3867
t -up</w> 3865
Ar ran 3865
nar row</w> 3865
Ann exes</w> 3865
se at</w> 3863
Nor weg 3862
Projec ts</w> 3862
circul ation</w> 3861
UN LB</w> 3860
tex t 3860
pati ent</w> 3860
applic ability</w> 3859
Great er</w> 3858
ener g 3857
benefic iary</w> 3856
cla uses</w> 3856
formul a</w> 3853
su icide</w> 3852
pre si 3851
Con t 3850
reason ably</w> 3847
ment -related</w> 3845
com e- 3844
17 3</w> 3843
h und 3842
contam inated</w> 3842
broad en</w> 3840
fe e</w> 3839
Min es</w> 3839
bro mide</w> 3839
Swaz iland</w> 3839
E D 3838
F Cs</w> 3838
E . 3837
L ack</w> 3837
Tow ards</w> 3837
197 1</w> 3836
chan nel</w> 3834
cohe sion</w> 3833
M anu 3832
ong a</w> 3832
16 4</w> 3832
easi er</w> 3832
ab ide</w> 3831
mil l 3830
in heritance</w> 3829
sign atory</w> 3829
dri vers</w> 3829
judg ment</w> 3826
comple mentarity</w> 3825
vir tually</w> 3825
F isheries</w> 3824
over crow 3824
Chris tian</w> 3823
dic tion</w> 3822
Al mat 3822
tempor arily</w> 3822
4 9 3821
cust odi 3821
Colon ial</w> 3821
in ev 3819
ver ified</w> 3819
de posi 3818
m aps</w> 3817
impe ded</w> 3815
libr ary</w> 3815
lic ences</w> 3814
re medi 3811
le um</w> 3811
br ac 3811
profes sion</w> 3811
correc ted</w> 3809
Almat y</w> 3809
a sur 3808
predec essor</w> 3807
z ing</w> 3806
explan ations</w> 3806
mat ri 3805
explo ded</w> 3805
cycl es</w> 3805
segreg ation</w> 3803
v a</w> 3802
A M 3801
ap ped</w> 3801
col our</w> 3801
sh ore</w> 3800
co ast</w> 3799
Norweg ian</w> 3799
de forestation</w> 3798
hund red</w> 3798
fifty- second</w> 3796
success or</w> 3795
ham pered</w> 3795
en acting</w> 3794
self- sustain 3794
im ported</w> 3793
enti ous</w> 3793
16 7</w> 3793
encomp ass 3793
di alogues</w> 3792
ash es</w> 3792
ves sel</w> 3791
tak ings</w> 3789
ob il 3789
institu ted</w> 3789
U s</w> 3788
as certain</w> 3788
ep tions</w> 3787
contro ver 3787
L .1</w> 3786
accor d</w> 3785
V in 3782
Exam ples</w> 3782
us age</w> 3781
Gre en 3780
prop ag 3779
Kin sh 3779
am ble</w> 3778
neglec t</w> 3778
inten d</w> 3776
es hi 3775
diag nos 3775
under mining</w> 3774
dem ol 3774
Se y 3774
inst alled</w> 3774
perpetr ator</w> 3774
gradu ate</w> 3774
emb odi 3773
lo s</w> 3772
ir rever 3772
forwar ded</w> 3772
ear ned</w> 3771
w are 3770
f ish 3770
N ear</w> 3770
Trans parency</w> 3770
otechn ology</w> 3770
asur y</w> 3770
sensitiz ation</w> 3769
p estici 3768
un de 3766
Ex change</w> 3766
-to- date</w> 3765
extr aterrit 3764
Surin ame</w> 3764
ot er</w> 3762
us ha</w> 3762
tou m</w> 3762
Int olerance</w> 3761
tax ation</w> 3761
Rel ev 3760
2 27</w> 3758
in sp 3758
cred its</w> 3758
Jos é</w> 3758
Eng ineering</w> 3756
are r</w> 3755
rec over</w> 3754
satis fy</w> 3754
S har 3753
ak h</w> 3753
rou te</w> 3753
succe ed</w> 3753
Kinsh asa</w> 3752
den y</w> 3751
n ab 3750
scenari os</w> 3750
cri p 3749
17 5</w> 3747
instru mental</w> 3746
mo ther 3745
part -time</w> 3745
16 3</w> 3745
dynam ics</w> 3745
activis ts</w> 3745
i alism</w> 3743
v ol</w> 3743
um b 3741
man - 3741
heal th 3741
re bel 3740
polic e- 3739
Jo hn</w> 3739
isol ated</w> 3738
198 0s</w> 3737
S D 3736
l ist 3736
Georg ian</w> 3736
mod est</w> 3735
announ cement</w> 3735
resi dual</w> 3735
inv esting</w> 3734
read ily</w> 3734
sa ve</w> 3732
pati al</w> 3732
sh ells</w> 3731
predic tability</w> 3730
gu a</w> 3729
Ben ef 3728
progres sively</w> 3728
rig or 3728
e te</w> 3727
broad casting</w> 3727
dri ve</w> 3727
ten ded</w> 3726
er r 3725
Re stric 3725
et te</w> 3725
Adap tation</w> 3725
proc uring</w> 3724
end ang 3724
dem arc 3724
t- finding</w> 3720
no - 3719
A re 3718
Fun ding</w> 3718
reci proc 3717
Lu cia</w> 3716
s en</w> 3715
on e 3713
un equiv 3712
AC C</w> 3712
3 5 3711
Ap point 3711
enrol led</w> 3711
sam ple</w> 3711
k it</w> 3710
F a 3710
ong side</w> 3710
Re sul 3709
seiz ure</w> 3708
Peri odic</w> 3708
il a</w> 3707
compati bility</w> 3707
Fif ty- 3702
manag er</w> 3701
Organ ic</w> 3700
H u 3699
F orest</w> 3699
Non- Governmental</w> 3699
K hal 3697
sol d</w> 3696
acqu iring</w> 3696
Khar toum</w> 3696
IA L</w> 3695
Attorne y</w> 3695
actu arial</w> 3694
du ms</w> 3691
reaffir ming</w> 3691
six - 3690
Pr incip 3690
ic ing</w> 3689
li e</w> 3689
govern or 3689
Lib er 3689
E T 3687
tor tured</w> 3685
util ity</w> 3685
13 , 3684
priv atization</w> 3681
l acked</w> 3679
16 8</w> 3679
sh o 3678
ust er</w> 3678
gener ic</w> 3678
Im mun 3677
17 2</w> 3677
mill ennium</w> 3676
2 2 3675
oun ced</w> 3675
stead ily</w> 3675
var ying</w> 3675
H az 3673
reli ability</w> 3673
u ality</w> 3672
star t-up</w> 3672
ir a</w> 3670
fair ness</w> 3667
disproportion ate</w> 3667
panell ists</w> 3667
bien ni 3666
cons isted</w> 3665
mitig ating</w> 3665
T F</w> 3664
inter related</w> 3664
compl ied</w> 3663
stu died</w> 3663
pass age</w> 3662
Ch er 3661
hand led</w> 3661
direc tions</w> 3660
a p</w> 3659
C au 3659
end -of- 3659
measu rable</w> 3658
Offic es</w> 3657
trag ic</w> 3657
os o 3654
graph ic</w> 3654
univers ally</w> 3654
Inspec tors</w> 3654
inter face</w> 3653
ent ails</w> 3653
assign ments</w> 3653
rec osting</w> 3652
particip ates</w> 3652
multi sectoral</w> 3652
Add .3</w> 3652
up -to-date</w> 3649
m iddle</w> 3648
20 3</w> 3648
fo reg 3648
amb igu 3648
hygien e</w> 3648
affor ded</w> 3647
under takings</w> 3645
Mar ri 3645
Ar ch 3644
co alition</w> 3643
In stead</w> 3642
infr ing 3642
K now 3641
In stru 3641
supple mented</w> 3641
liv estock</w> 3641
carri es</w> 3640
Sen ate</w> 3640
1 2, 3639
par amount</w> 3639
In nov 3639
nor th- 3639
Glob alization</w> 3639
doctr ine</w> 3639
pres sures</w> 3637
197 2</w> 3634
fur niture</w> 3634
W hole</w> 3633
no tifications</w> 3632
fre ight</w> 3632
preferen tial</w> 3631
academ ia</w> 3630
invest ed</w> 3628
appen dix</w> 3628
U PR</w> 3626
dead lines</w> 3626
i ological</w> 3625
remain der</w> 3625
construc ted</w> 3625
S la 3623
J ur 3623
Sub ject</w> 3622
Anti gua</w> 3622
p ain 3621
to b 3619
c ence</w> 3618
P sych 3618
ang ular</w> 3618
F C</w> 3617
em powering</w> 3617
Ap prov 3617
G U 3616
Secret ari 3616
A D</w> 3615
re deployed</w> 3615
prof iles</w> 3615
Mal aria</w> 3615
dev ote</w> 3614
modi fy</w> 3614
3 .4</w> 3612
ver i 3611
deg rees</w> 3611
correspond ence</w> 3610
innov ations</w> 3608
P D</w> 3607
mean time</w> 3607
A y 3606
V anu 3604
fa ith 3604
vis ual</w> 3603
att aining</w> 3603
optim al</w> 3603
O NU 3602
tow ard</w> 3602
14 , 3602
chec ks</w> 3602
C e 3600
contr acted</w> 3600
teor ological</w> 3600
Ab id 3598
f ast</w> 3597
human e</w> 3595
ast ro 3594
Stock pil 3594
h it</w> 3593
victi m 3593
clear ing</w> 3593
institu te</w> 3592
ain e</w> 3591
Accor d</w> 3590
volati le</w> 3590
l item</w> 3588
Comm itment</w> 3588
gen ic</w> 3588
suppl ier</w> 3588
17 4</w> 3588
sixty- eighth</w> 3588
in mates</w> 3587
Volun te 3587
hosti le</w> 3587
nab is</w> 3587
ro unds</w> 3586
mis use</w> 3586
M issions</w> 3585
Ex tra 3585
U . 3584
phas e- 3583
Vanu atu</w> 3583
the ast</w> 3582
administr ations</w> 3582
at ro 3581
Ac tions</w> 3581
volati lity</w> 3581
ren nial</w> 3580
experi encing</w> 3580
util izing</w> 3580
asser ted</w> 3579
provi der</w> 3578
f urther 3577
c ards</w> 3577
Mar ino</w> 3575
know - 3575
cooper ated</w> 3575
tra ge 3574
et al</w> 3574
Add ressing</w> 3574
renov ation</w> 3574
re action</w> 3573
quot as</w> 3573
ric e</w> 3573
Andor ra</w> 3572
2 43</w> 3570
C W</w> 3570
Effec ts</w> 3569
grou p 3568
[...]
