的 18653047
, 14859516
。 9370899
和 7946754
、 4343586
在 4286221
. 3134219
) 3035629
( 3026831
年 2320470
了 2288543
/ 1927249
是 1825947
对 1552959
委员会 1533693
第 1509889
; 1410285
月 1397570
" 1360320
《 1348574
》 1348368
并 1320090
与 1301403
国家 1299515
问题 1282359
会议 1207758
为 1155668
将 1118229
中 1086179
联合国 1054820
: 1031238
报告 1023369
日 977078
国际 957854
提供 929353
发展 926147
其 898748
或 898068
关于 877233
组织 830540
以及 820721
工作 799707
有 790015
以 785085
包括 775687
方案 716880
社会 697188
进行 696584
不 692470
通过 688912
1 668930
特别 662843
这些 662259
到 660818
情况 655835
该 650227
所 649659
一个 649037
执行 648633
- 647647
机构 634280
其他 629466
方面 628295
有关 618631
决议 614639
妇女 609689
号 604296
政府 581028
活动 570708
向 563410
上 563363
建议 562491
公约 560869
人权 557378
还 545975
行动 536880
安全 506332
所有 502037
区域 490268
2 486410
儿童 484358
大会 483928
可 480546
根据 472629
人 470794
3 469551
项目 469140
就 467810
我们 462536
也 462413
规定 462349
理事会 458093
这 455933
而 451746
经济 447203
合作 431839
应 430511
及 426730
提出 422605
被 421094
权利 411566
支持 411522
代表 409489
决定 406498
地 406131
法律 394663
4 392270
需要 391116
下 389629
6 388199
5 383598
个 379578
促进 377643
政策 373812
于 372038
加强 368557
没有 364741
秘书长 364164
各 363469
技术 361668
他 361079
12 356624
采取 356278
提交 355938
确保 355340
保护 349940
目标 349656
继续 348837
A 348054
但 347177
措施 346140
时 345793
必须 345654
要求 338542
和平 335291
10 334301
7 334171
缔约国 333971
已 330704
影响 329264
新 324992
能力 324916
使 323452
管理 323177
由 321711
条 318159
可能 315787
服务 306258
都 305981
段 304706
草案 302014
努力 301030
从 299016
注意 297858
审议 297340
建立 297147
系统 295247
认为 293910
举行 290127
主席 289709
期间 289097
开展 288535
本 287055
他们 286609
作为 285269
计划 284866
审查 284648
主要 283365
资源 282214
9 281640
一些 278831
实施 275744
各国 275384
它 272073
11 270621
文件 268331
基金 268195
实现 267941
内 267890
行为 266166
人员 266104
援助 265969
这一 265125
更 264054
战略 263736
使用 263623
教育 263511
8 262559
支助 261151
信息 260990
因此 258590
成员 258544
任何 254688
相关 254272
参与 253702
领域 252897
全球 252671
先生 249111
持续 246966
之间 245567
协调 245237
考虑 245137
小组 243993
重要 242661
可以 239924
增加 239169
环境 238285
-- 238045
特派团 237335
这种 234762
一项 234383
其中 233132
· 230176
预算 229030
等 227324
者 227260
指出 225821
请 225687
工作人员 225498
作出 224343
后 223515
获得 223446
代表团 221612
得到 221593
讨论 219537
地区 218727
及其 218378
一 216560
有效 214847
机制 214316
程序 214024
框架 212013
培训 211892
条约 208524
秘书处 208387
研究 207816
评估 206078
制定 205644
说 202279
事务 200891
非洲 200716
政治 200012
进一步 199113
工作组 196338
发展中国家 196208
a 195808
任务 195650
进程 195404
人民 195253
表示 194715
平等 194526
世界 194422
已经 194073
@@ 194000
意见 193412
作用 192879
处理 191802
中心 190252
缔约方 190230
至 189242
解决 188491
取得 188074
由于 187913
资料 187550
原则 187450
次 187241
减少 186755
确定 185959
人口 185838
议程 185448
正在 185354
提高 184881
最 184581
以便 184275
来 184073
我 183803
美元 183044
目前 182193
能够 181739
多 179979
2005 179728
调查 179150
会 178671
说明 176416
参加 175756
强调 175448
15 173890
b 173341
名 172345
因为 172253
各种 172015
2008 171533
2006 169799
方式 169730
2010 169422
会员国 168543
部门 167988
此外 167183
2009 165933
办事处 165793
发言 165792
费用 165266
国 164621
设立 163757
性别 162842
司法 161989
适当 161675
2004 160700
30 160627
消除 160555
间 160390
标准 159181
2007 158475
给 157232
进展 156747
做法 156475
文化 155928
专家 155509
许多 155478
同时 155413
全面 155392
它们 154984
维持 153555
按照 153496
2011 153399
利用 153325
必要 153176
承诺 152802
如果 152687
各项 152012
要 151847
协助 151697
议定书 150975
制度 150293
具体 149463
* 148250
歧视 148108
监测 147794
目的 146609
部分 146560
法院 146283
咨询 146271
建设 145973
方法 144964
鼓励 144121
20 144108
范围 143332
2003 143132
这方面 142999
办法 142961
而且 142844
负责 142738
即 142604
14 142479
充分 142458
同 142335
行政 141994
涉及 141582
款 141467
犯罪 141223
2002 141025
具有 140551
义务 140524
2000 140422
数据 140369
基础 140235
13 139587
家庭 139159
非政府 138753
造成 138680
应当 138391
机会 138129
2012 137092
共同 136610
资金 136481
法 135463
尤其 135388
责任 134342
存在 134170
办公室 133873
18 133855
16 133833
接受 132770
2001 130986
是否 129994
冲突 129871
事项 129773
关切 129041
前 128972
这个 128796
批准 128623
贸易 128353
日至 128256
报告员 128077
需 127751
用于 127730
挑战 127680
为了 127359
受到 127332
产生 126913
成果 126363
开始 125085
例如 124917
部队 124233
以色列 124206
武器 124190
形式 124149
投资 124116
欢迎 124072
优先 124043
以下 123770
附件 123667
改革 123148
不同 122726
最后 122589
适用 122542
受 122356
案件 121779
000 121576
协定 121382
把 121143
严重 120902
社区 120667
两年 120528
但是 119841
对于 119560
人道主义 119513
地方 119348
暴力 119217
17 118989
c 118940
31 118813
难民 118498
安排 118494
国内 118483
如 118131
期 118131
立法 118039
1999 117778
发生 117524
分析 117448
关系 117038
21 116594
恐怖主义 116487
基本 115684
非 115659
2013 115647
条件 115004
当局 114649
19 114434
土著 114402
成为 114130
结果 113986
联合 113537
并且 113502
利益 113141
帮助 113055
业务 112752
生活 112671
希望 112070
见 111435
履行 111381
未 111343
一种 111162
一次 111145
打击 110967
认识 110812
现有 110641
完成 110239
性 109977
选举 109950
关注 109817
她 109808
纳入 109560
改善 109523
自由 109323
禁止 109271
1998 108167
个人 107867
评价 107145
重申 106982
巴勒斯坦 106796
防止 106775
尽管 106668
能 105957
22 105348
仍然 105288
监督 104235
综合 104188
25 103920
安理会 103850
论坛 103649
23 103645
24 103495
应该 103198
呼吁 102989
制订 102901
独立 102455
介绍 101989
经费 101930
采用 101653
以来 101238
如何 101084
审计 100960
临时 100824
两个 100605
公司 100218
时间 100131
一切 100046
员额 99705
这项 99642
表明 99497
厅 99419
宣言 99260
健康 97825
一份 97662
直接 97652
仍 97454
针对 97179
伙伴关系 96619
对话 96575
指导 96204
请求 95960
之后 95740
过程 95718
限制 95567
稳定 95545
该国 95404
条款 95138
定期 94880
美国 94788
一般 94395
发达国家 94319
协商 94210
积极 93944
推动 93841
自 93511
全国 93439
千年 93325
按 93248
状况 92971
[ 92902
非法 92329
保障 92280
扩大 92215
法庭 92057
预防 92023
侵犯 91825
承认 91426
收到 91263
地位 91162
广泛 90908
某些 90862
警察 90811
谈判 90766
需求 90669
违反 90525
之前 90093
] 89880
则 88839
遵守 88740
最近 88697
风险 88531
内容 88206
规则 88115
成员国 87935
同意 87582
领土 87553
26 87305
28 87254
贩运 87169
又 86999
集团 86793
虽然 86707
重点 86654
倡议 86416
27 86394
发挥 86199
这样 86170
做 85654
原因 85524
宪法 85123
面临 85106
规划 84913
然而 84770
旨在 84696
应对 84511
军事 84406
控制 84329
编写 84197
所述 84138
出现 84125
明确 83995
占 83831
项 83590
因 83501
无法 83379
不是 83170
经 83145
上述 83079
从而 83006
准则 82870
群体 82586
艾滋病 82491
伊拉克 82399
本国 81718
财政 81399
生产 81372
联系 81346
就业 81250
E 81242
受害者 81149
29 80993
公民 80904
加入 80599
确认 80541
实体 80237
材料 80226
下列 80205
之 80199
作 80056
方 80035
民间 79907
实际 79881
保健 79879
法官 79791
很 79624
不能 79502
艾滋病毒 79171
导致 79165
行动计划 79070
落实 78932
了解 78866
刑事 78739
增长 78589
威胁 78426
改进 78282
因素 78216
符合 77761
d 77567
结束 77566
自己 77295
当地 76936
保证 76891
企业 76841
土地 76693
二 76429
让 76375
长期 76246
正式 76235
普遍 76153
有助于 76063
拘留 75949
人数 75924
举办 75862
境内 75767
协议 75520
另 75462
年度 75285
收入 75004
女士 74723
列入 74663
区 74340
部 74332
宣传 74016
国际法 73950
公共 73851
内部 73761
文书 73702
人类 73494
网络 73286
合同 73212
指标 73198
1997 73092
重新 72849
伙伴 72827
B 72811
S 72810
做出 72704
现在 72561
贫穷 72530
市场 72377
外 72327
2014 72301
享有 71945
酷刑 71711
事件 71611
保留 71517
残疾人 71379
记录 70930
结构 70530
提议 70342
着 70278
权 70174
那些 70120
缺乏 70087
来自 70032
程度 69922
民主 69655
万美元 69635
拟议 69561
总统 69554
设施 69421
宗教 69150
恢复 69149
职能 69097
基于 69073
过去 68725
后续 68576
C 68475
欧洲 68417
提到 68405
回顾 68263
更加 68262
整个 68082
现象 68077
管制 68004
均 67946
岁 67815
题为 67759
基金会 67401
空间 67401
科学 67319
经验 66775
副 66331
一名 66218
重大 66176
60 66130
扩散 66030
给予 65988
核武器 65898
编制 65851
授权 65821
修订 65786
局势 65659
人们 65657
支付 65628
反映 65627
欧洲联盟 65592
尊重 65555
若干 65529
经常 65324
学校 65271
采购 65215
为此 65204
中国 65105
P 64959
移徙 64846
苏丹 64799
专业 64546
拟订 64489
青年 64451
成立 64413
结论 64151
在内 63926
构成 63875
知识 63847
协会 63835
首脑会议 63835
类 63702
我国 63662
约 63576
实行 63572
气候变化 63304
补充 63233
毒品 63215
条例 63185
农业 63160
一直 63098
手段 62958
提案 62692
分 62631
不断 62537
统计 62444
答复 62407
阶段 62327
工具 62146
签署 62109
达成 62024
起 61914
同样 61889
商定 61461
裁军 61403
开发 61320
罪行 61227
达到 61009
解释 60969
鉴于 60965
各方 60961
财务 60638
总部 60568
森林 60556
危机 60501
今后 60492
满足 60225
官员 60188
流离失所 60101
e 60083
允许 59938
女性 59929
多边 59760
完全 59760
资产 59532
议会 59459
基础设施 59439
访问 59340
增强 59339
关键 59294
移民 59186
一级 59140
拥有 59024
阿富汗 58998
反对 58967
城市 58958
尚未 58944
数量 58916
支出 58842
收集 58749
理由 58704
敦促 58663
成功 58594
地点 58496
高级专员 58385
重要性 58356
声明 58303
两性 58285
非正式 58190
此 58092
只有 58069
专门 57999
组成 57911
表 57864
高 57810
黎巴嫩 57639
较 57492
观察员 57453
如下 57393
50 57374
担任 57370
设备 57233
选择 56911
调整 56862
贡献 56798
举措 56505
通知 56445
团体 56374
核准 56245
纲领 56237
除 56167
里 56099
1996 56051
40 55999
自愿 55982
主任 55950
分配 55895
变化 55797
领导 55745
此类 55727
通信 55665
一部分 55614
三 55550
准备 55489
权力 55481
运动 55441
贸发 55427
宣布 55342
这是 55321
之一 55296
农村 55197
保持 55150
部署 54901
亿美元 54883
开发署 54623
讲习班 54599
未来 54594
加拿大 54580
索赔 54509
召开 54491
宪章 54328
运作 54311
证据 54203
加以 53942
常驻 53653
财产 53618
联盟 53463
古巴 53322
总 53287
司 53275
登记 53211
进入 53189
57 53160
每个 53148
外国 53145
平民 53128
从事 53095
专家组 53075
赔偿 53063
非常 52879
用 52740
比 52693
步骤 52683
水平 52491
日本 52333
任命 52310
大 52249
核心 52136
处 52109
寻求 51970
生物 51846
2015 51681
属于 51667
超过 51642
以上 51616
一致 51585
危险 51562
高级别 51514
公平 51506
大学 51503
日内瓦 51493
署 51410
与会者 51332
每年 51311
粮食 51310
第五 51185
住房 51158
申请 51149
每 51070
私营部门 51032
体制 51025
大量 51002
指控 51000
统一 50971
59 50872
三个 50811
58 50782
磋商 50592
比例 50430
出 50419
带来 50388
更好 50342
团 50333
证明 50278
出口 50262
55 50208
予以 50155
或者 49989
另外 49981
贫困 49933
估计 49899
第六 49855
再次 49852
主题 49724
显示 49699
职位 49699
最佳 49593
61 49533
遭受 49415
联合王国 49381
来源 49380
交流 49316
国际公约 49311
医疗 49263
传统 49259
有权 49252
65 49190
62 49169
依照 49045
35 48900
专题 48859
实质性 48804
而言 48765
传播 48425
课程 48307
阿拉伯 48301
1995 48279
发表 48268
性质 48149
采取行动 48092
预计 48071
供 48070
维护 48070
64 48036
捐款 47791
上诉 47706
运输 47682
无 47561
人权委员会 47516
预期 47495
起诉 47423
占领 47385
依据 47334
高级 47330
承担 47235
资助 47216
干事 47206
感到 47195
生效 47159
工作队 47158
侵害 47101
截至 47037
32 47008
任择 47006
63 46985
34 46786
亚洲 46778
能源 46740
价值 46688
捐助 46597
特殊 46589
产品 46542
53 46461
质量 46421
52 46351
损失 46260
主管 46208
身份 46208
行使 46156
定义 46056
卫生 45866
清单 45776
公众 45703
外地 45650
100 45517
33 45515
致力于 45486
创造 45483
有些 45480
印度 45447
困难 45380
54 45349
债务 45215
56 45159
审判 45149
第二 45146
少数 45136
大多数 45097
45 45060
筹资 45025
邀请 44936
办 44862
科索沃 44768
研讨会 44758
所涉 44720
媒体 44715
公正 44678
攸关 44583
概念 44519
据 44485
模式 44478
就是 44365
海洋 44327
她们 44326
改变 44274
还有 44238
感谢 44190
金融 44150
最大 44146
决策 44142
至关重要 44115
各级 44109
部长 44071
索马里 44045
观点 44001
避免 43972
反 43950
此种 43915
赞赏 43867
障碍 43857
法国 43784
趋势 43750
武装冲突 43741
一般性 43674
? 43603
民族 43508
辩论 43368
地雷 43363
分别 43358
俄罗斯联邦 43198
筹备 43191
及时 43118
37 43113
36 43083
公开 43046
工人 42934
D 42896
所作 42841
发现 42823
不仅 42644
66 42546
小 42532
过 42511
供资 42199
迅速 42183
工业 42043
监狱 41890
39 41839
第一 41808
多样性 41667
详细 41572
单位 41539
纽约 41530
载 41528
十年 41383
不过 41316
信 41128
数额 41098
安保 41096
特定 40986
一系列 40939
职业 40897
刚果民主共和国 40856
紧急 40825
学生 40758
损害 40755
背景 40642
修改 40457
研究所 40309
立即 40302
开发计划署 40205
顾问 40162
38 39918
视为 39899
正 39891
有限 39871
科威特 39814
澳大利亚 39786
只 39606
武装 39596
至少 39540
加勒比 39532
67 39435
巴西 39431
战争 39342
出席 39257
一起 39249
法治 39227
委会 39188
51 39176
新闻 39163
设计 39062
共和国 38988
墨西哥 38830
届 38822
卢旺达 38816
最高 38703
罪 38695
提及 38651
信托 38545
协调员 38532
48 38522
检察官 38505
待遇 38504
银行 38439
重视 38431
律师 38421
四 38387
救济 38386
率 38357
过渡 38263
立场 38198
类似 38191
查明 38187
41 38130
适应 38123
制裁 38109
最终 38098
增进 38085
死亡 38035
商业 37937
当前 37912
再 37906
全体会议 37847
你 37818
们 37810
专员 37788
成本 37787
女孩 37774
申诉 37758
意义 37756
便利 37723
除了 37714
44 37679
双方 37629
效率 37554
42 37523
核 37487
1990 37457
残疾 37418
越来越 37370
数目 37343
种族歧视 37310
账户 37286
工发 37283
良好 37231
低 37157
指南 37153
起草 37102
达尔富尔 37087
各自 37027
联邦 36986
之外 36920
不会 36911
大规模 36890
维也纳 36867
随后 36850
股 36838
德国 36793
虐待 36790
提请 36712
引起 36647
指定 36617
组 36609
以前 36552
修正 36495
土耳其 36492
英语 36392
46 36292
68 36291
43 36283
转让 36263
劳工 36259
治理 36205
维和 36183
相互 36175
首先 36168
下午 36155
通报 36148
疾病 36146
拉丁美洲 36124
精神 36039
不得 36015
发出 35986
难民署 35977
49 35971
曾 35891
理解 35861
本身 35860
事实 35855
各个 35835
水 35784
称 35778
接触 35751
还是 35714
有人 35697
一年 35672
名单 35648
往往 35636
体系 35543
日期 35530
国家一级 35471
评论 35414
破坏 35355
其它 35349
领导人 35295
治疗 35292
47 35289
延长 35283
男子 35276
物质 35256
灾害 35180
降低 35121
利比里亚 35115
南 35086
应用 35082
女童 35078
以外 35067
居民 35037
太平洋 35022
---- 34969
十分 34897
下降 34878
通常 34855
最新 34807
500 34727
巴基斯坦 34707
电子 34696
药物 34689
来文 34616
仅 34608
酌情 34414
人力资源 34405
非洲联盟 34399
暴力行为 34392
启动 34288
未能 34252
职责 34236
福利 34220
国民 34200
1994 34188
剥削 34157
官方 34136
遭到 34076
采取措施 33996
特设 33973
判决 33893
且 33881
订正 33752
不足 33743
科特迪瓦 33648
主流 33620
一点 33591
种族主义 33506
法令 33452
执行局 33448
才 33426
77 33409
足够 33390
全部 33388
处于 33380
获取 33307
却 33258
美利坚合众国 33249
事务部 33220
大约 32985
强迫 32971
常设 32875
初步 32782
检查 32714
几个 32692
网站 32676
才能 32659
计算 32626
男女 32617
交易 32595
第一次 32583
学习 32514
节 32458
训练 32420
日益 32409
颁布 32408
技能 32404
分发 32396
载有 32326
双边 32305
剥夺 32303
拒绝 32299
后果 32272
后勤 32223
总体 32209
诉讼 32199
f 32158
环境署 32152
南非 32145
总额 32115
200 31963
劳动 31963
语言 31901
妇女地位 31836
平衡 31834
不利 31828
透明度 31828
很大 31800
竞争 31798
协作 31783
规范 31780
流动 31776
化学品 31755
表决 31734
机关 31685
裁决 31672
核查 31623
愿意 31606
货物 31537
不可 31369
瑞士 31336
比较 31331
家庭暴力 31327
埃及 31319
一样 31317
海地 31305
资格 31300
拟定 31250
以期 31243
子女 31186
数据库 31122
省 31117
更新 30987
助理 30844
现行 30796
工程处 30748
重建 30728
欧盟 30682
执法 30668
平均 30648
化 30628
高专 30592
数字 30581
列 30573
外部 30524
议事规则 30498
年龄 30330
停止 30321
袭击 30312
叙利亚 30284
组成部分 30190
补救 30120
解决办法 30107
Add.1 30029
差距 30013
期限 29948
科 29928
附属 29923
最低 29907
案文 29885
失踪 29855
点 29853
挪威 29827
逮捕 29819
世界银行 29790
预防犯罪 29788
真正 29760
驻 29705
合作伙伴 29666
西班牙 29661
用途 29651
今天 29610
原子能 29604
很多 29571
印度尼西亚 29485
心理 29432
东帝汶 29371
明显 29354
语文 29314
津贴 29284
主持 29276
共识 29263
指示 29254
创新 29233
中期 29231
不@@ 29216
这次 29210
干预 29165
人道主义法 29153
担保 29065
第三 29036
额外 29028
转移 28994
弹药 28965
达 28964
咨 28933
集体 28919
容忍 28917
法案 28914
返回 28887
主席团 28884
制止 28881
反恐 28862
层面 28812
塞拉利昂 28797
哪些 28770
想 28722
第二次 28703
雇员 28697
途径 28685
种族 28601
局 28596
赞扬 28550
刑法 28544
上文 28465
来说 28451
份 28385
案 28365
全球化 28329
切实 28313
边界 28295
州 28237
1993 28226
防治 28195
卫星 28145
任期 28142
阿根廷 28139
合理 28075
打算 28066
享受 28042
复杂 28025
调动 27859
似乎 27856
武装部队 27836
吁请 27830
信任 27816
之下 27781
B@@ 27708
业绩 27694
诸如 27674
供应 27670
争取 27656
跨国 27633
人力 27623
正如 27595
候选人 27529
形成 27524
所载 27515
派遣 27436
攻击 27418
意大利 27417
荒漠化 27384
分享 27358
对此 27288
经过 27281
依然 27247
一@@ 27230
哥伦比亚 27184
行预 27105
私人 27086
历史 27069
商品 27026
出版物 27009
投入 26974
展开 26965
集中 26923
透明 26907
族裔 26903
会议室 26861
国籍 26809
看法 26785
69 26709
票 26706
甚至 26681
共同体 26672
合法 26603
可能性 26584
有利于 26556
摩洛哥 26548
上午 26547
赋予 26481
级 26447
知道 26436
包含 26403
公布 26380
民众 26375
外交 26358
i 26295
公共部门 26288
主权 26263
小岛屿 26187
探讨 26164
00 26145
涵盖 26133
荷兰 26067
效力 26037
意味着 26022
示范 26013
乌克兰 25997
逐步 25981
次级 25948
埃塞俄比亚 25941
300 25936
生殖 25909
估计数 25896
阻碍 25876
反应 25871
万 25850
赞同 25794
基地 25743
捐助者 25725
青少年 25720
一位 25690
团结 25606
促请 25552
议题 25536
1991 25520
五 25422
联合会 25411
秘书 25395
尽可能 25378
中央 25341
分类 25308
全世界 25288
融入 25267
加沙 25261
表现 25260
尼日利亚 25245
中东 25234
70 25228
仲裁 25227
新西兰 25226
1992 25215
受害人 25169
废物 25164
替代 25137
储存 25107
当 25098
处罚 25083
天 25067
飞机 25066
瑞典 25064
平台 25049
须 25049
几乎 25018
如此 24980
力量 24969
阁下 24955
气候 24953
概述 24951
合并 24925
单独 24921
年底 24814
所有人 24801
自然资源 24743
争端 24726
开放 24715
预测 24681
住 24644
人居 24640
重返 24620
惩罚 24618
发布 24603
居住 24576
实际上 24553
手册 24548
令人 24521
审理 24514
潜在 24488
起来 24486
死刑 24470
是因为 24398
刚果 24394
征聘 24358
公务员 24342
减轻 24313
信息技术 24306
全 24266
现金 24252
确立 24234
取消 24170
政治权利 24142
D@@ 24123
死亡率 24099
大部分 24088
减贫 24084
外勤 24036
多年 24034
外层空间 24002
过境 23976
父母 23961
证人 23953
意识 23950
S@@ 23933
管辖权 23914
随着 23908
密切 23889
类别 23885
布隆迪 23869
乌干达 23859
庇护 23855
什么 23839
大使 23839
在于 23818
第四 23802
阿尔及利亚 23802
男性 23747
时候 23725
注重 23689
部长级 23684
腐败 23664
修正案 23660
g 23652
以后 23649
监禁 23615
该项 23595
价格 23521
实地 23500
那样 23468
引渡 23457
因而 23451
得以 23438
养 23428
妨碍 23424
更为 23347
显然 23275
澄清 23274
筹措 23192
T@@ 23162
唯一 23156
相应 23151
巨大 23148
经委会 23133
差异 23129
相信 23033
菲律宾 23032
巩固 23027
谴责 23023
界定 22964
设 22964
既 22955
场所 22921
无核武器 22912
促使 22878
看到 22844
数 22757
M@@ 22752
融资 22739
规划署 22735
南斯拉夫 22729
第三次 22724
西非 22717
道路 22717
厄立特里亚 22697
体现 22694
伊朗伊斯兰共和国 22675
年度报告 22675
分摊 22612
人士 22585
之中 22556
核裁军 22542
燃料 22527
专门机构 22495
世纪 22494
驱逐 22472
即使 22466
发起 22465
申诉人 22463
教科文组织 22456
产出 22424
多个 22417
免费 22415
脆弱 22390
利比亚 22377
清楚 22373
一体化 22352
类型 22337
以往 22319
排放 22306
相同 22289
肯尼亚 22277
恤金 22262
多数 22258
四个 22242
就此 22217
规模 22205
只是 22174
谨 22137
阿塞拜疆 22086
阿拉伯叙利亚共和国 22083
车辆 22050
意愿 22042
法规 22022
付款 22018
波斯尼亚 22014
旅行 21995
认可 21959
规约 21955
款项 21946
L@@ 21941
事实上 21913
南部 21877
贷款 21871
推广 21861
智利 21861
相比 21840
和解 21827
态度 21805
即将 21799
投票 21768
F 21759
一定 21744
本次 21741
塞浦路斯 21739
空缺 21726
劳动力 21699
谅解 21695
K@@ 21686
格鲁吉亚 21685
应急 21674
同一 21672
H@@ 21648
有所 21641
推进 21630
管辖 21610
讨论会 21581
回应 21569
未经 21554
提供援助 21530
证实 21522
女 21487
听取 21459
大韩民国 21447
突出 21441
危害 21435
量 21416
严格 21411
取决于 21370
教师 21309
密切合作 21301
进步 21299
80 21272
相对 21271
豁免 21254
奥地利 21248
马来西亚 21245
400 21243
受理 21229
成就 21226
时期 21225
N@@ 21219
备选 21141
然后 21137
裁军谈判 21076
泰国 21070
生命 21050
衡量 21043
效益 21013
使得 21008
销毁 21003
管理局 20991
职等 20986
阐述 20973
找到 20960
而是 20958
决心 20944
表达 20921
P@@ 20913
放在 20881
公民权利 20810
老年人 20777
混合 20754
不再 20749
加 20735
费 20722
互动 20709
伊朗 20704
设想 20697
情报 20696
卖淫 20688
出版 20675
发言者 20675
东道国 20631
进口 20589
释放 20565
得 20500
R@@ 20499
结合 20446
全体 20436
受益 20431
医院 20420
好 20393
备忘录 20391
al 20366
被告 20349
一道 20324
并非 20297
终止 20240
道德 20222
新闻部 20199
初级 20198
细则 20184
监管 20180
装备 20150
声称 20145
军队 20141
600 20129
宗旨 20125
列出 20120
伊斯兰 20114
财务报表 20074
开支 20054
任意 20040
两 20038
制造 19988
薪金 19970
90 19961
推迟 19904
令 19885
雇主 19869
75 19864
G@@ 19809
容易 19799
定于 19798
生态系统 19794
小时 19779
高度 19773
上升 19763
72 19751
口头 19738
黑塞哥维那 19725
六 19717
复员 19713
拨款 19701
渔业 19690
保险 19665
性暴力 19662
除非 19653
相当 19640
书面 19638
工资 19618
斯 19613
要素 19604
询问 19603
缅甸 19583
加快 19573
尽快 19559
阿@@ 19547
言 19542
自治 19532
志愿人员 19521
名义 19517
额 19510
销售 19508
国际法庭 19505
德 19479
名额 19464
资本 19450
金融机构 19439
持久 19433
会计准则 19429
恶化 19426
F@@ 19408
获悉 19390
斗争 19375
移交 19364
母亲 19319
型 19282
内罗毕 19280
共 19269
驻地 19262
会上 19261
问责制 19255
代理 19245
约旦 19245
文 19234
可持续性 19222
案例 19202
与其 19187
本届 19173
中@@ 19168
孟加拉国 19148
食物 19138
发放 19123
白俄罗斯 19122
近东 19113
用户 19096
大@@ 19095
可靠 19055
并未 19044
建设性 19035
粮农组织 19019
总理 18994
囚犯 18953
71 18951
工程 18949
秘鲁 18944
伤害 18934
职务 18932
实践 18814
马里 18804
惯例 18791
中有 18786
婚姻 18786
消费 18783
更大 18771
今年 18765
方向 18744
依赖 18680
反腐败 18593
丹麦 18572
石油 18525
潜力 18509
无@@ 18497
最高法院 18496
C.2 18490
约束力 18479
芬兰 18473
满意 18464
护理 18428
分庭 18406
共有 18375
周期 18370
危地马拉 18367
两名 18366
特点 18366
h 18360
命令 18345
证书 18343
具备 18331
协商一致 18327
成绩 18314
供应商 18281
汇编 18267
73 18254
人格 18251
第四次 18217
海关 18197
设在 18189
低于 18188
据称 18181
清洁 18178
遇到 18131
信贷 18109
争议 18105
排除 18104
角度 18094
波兰 18078
当时 18066
特遣队 18060
有利 18052
年代 18050
基准 18039
赞成 18033
报道 18032
积极参与 18026
' 18024
观察 18006
74 18002
比利时 17999
尊严 17998
工会 17996
克罗地亚 17993
专门知识 17989
马@@ 17976
限度 17955
派 17954
两次 17906
废除 17901
800 17885
C@@ 17885
行政当局 17826
外国人 17804
一套 17789
克服 17779
提名 17763
百分比 17750
毁灭性 17748
A@@ 17732
o 17709
整体 17703
那么 17702
建造 17693
事先 17672
第一个 17667
少数民族 17663
告知 17652
总数 17644
十一届 17630
学院 17618
缔结 17607
补贴 17607
协同 17580
安置 17577
市 17534
首次 17534
国际法院 17509
负担 17496
内陆 17493
为期 17490
期待 17458
突尼斯 17447
南南合作 17445
交付 17436
CN.4 17431
世界各地 17419
厄瓜多尔 17388
联络 17387
摊款 17381
感染 17376
五个 17375
强奸 17370
排雷 17370
货币 17354
将会 17332
美洲 17297
现实 17262
C.3 17259
欧元 17250
轻武器 17248
76 17244
家 17242
斯里兰卡 17233
三年 17211
指 17208
不人道 17202
塞尔维亚 17170
物品 17161
自然灾害 17154
出于 17144
多@@ 17137
78 17132
当选 17132
委内瑞拉 17131
网 17122
调解 17121
滥用 17104
地球 17097
最初 17083
污染 17062
核定 17059
显著 17049
资源管理 17022
压力 17016
转递 17014
尼泊尔 17003
拉@@ 16977
效果 16975
所以 16926
自身 16925
卡@@ 16919
摘要 16911
纲要 16910
试图 16891
设法 16877
私营 16875
敏感 16861
离开 16854
单方面 16851
康复 16841
海洋法 16841
方针 16839
主办 16831
汞 16823
北部 16810
正常 16804
气体 16798
面前 16781
印发 16749
每月 16748
前往 16732
坚持 16721
雇用 16710
分列 16683
联刚 16683
有时 16649
五年 16639
行业 16624
I 16600
仇外 16585
首长 16564
协调一致 16563
改为 16562
问责 16558
陈述 16556
强烈 16544
巴勒斯坦人 16535
难以 16533
自然 16518
700 16517
北爱尔兰 16513
裁定 16498
概算 16480
建筑 16465
参考 16436
可行 16430
许可证 16426
监察员 16413
有罪 16411
体 16402
贸易法 16401
例子 16390
充足 16390
照顾 16390
俄罗斯 16388
遵循 16373
一国 16341
观察团 16340
诉 16327
政党 16325
与此同时 16319
处决 16292
几年 16269
阿 16266
金 16264
人人 16253
北京 16247
审评 16243
着手 16238
79 16227
认定 16225
亚美尼亚 16221
以此 16221
罗马 16205
兼 16191
无论 16146
信通 16136
解除武装 16095
强调指出 16080
认真 16080
已有 16073
制作 16060
应付 16052
共计 16028
补偿 16007
期望 15991
81 15981
各类 15978
何种 15972
恐怖 15931
主张 15927
载于 15905
加剧 15899
粮食安全 15895
员 15871
余额 15864
塞内加尔 15863
根本 15861
终了 15854
守则 15822
邻国 15797
中非共和国 15793
比率 15790
联合国开发计划署 15790
状态 15781
营养 15777
准确 15769
索赔人 15768
经验教训 15767
购买 15745
柬埔寨 15740
普通 15731
事态 15729
京都 15724
包容性 15723
强化 15721
哥斯达黎加 15706
深入 15703
拟 15702
经济体 15698
职权范围 15697
装置 15692
一旦 15657
有害 15656
确实 15644
会计 15638
失业 15636
两项 15630
页 15622
取代 15616
安全部队 15593
缺少 15546
83 15541
续 15525
情形 15514
时间表 15512
罗马尼亚 15509
援助团 15505
不应 15481
间接 15479
只能 15471
统计数据 15463
国际贸易 15439
遣返 15435
世贸组织 15427
飞行 15424
an 15422
负责人 15421
暂停 15404
社会保障 15391
后来 15384
82 15381
不论 15351
加速 15349
委员 15344
记者 15326
管理人员 15320
安哥拉 15315
观念 15301
简要 15297
拉 15293
处境 15264
朝鲜民主主义人民共和国 15262
C.5 15257
订立 15249
该法 15246
适合 15235
l@@ 15225
主动 15222
乍得 15218
国际标准 15211
武力 15205
1@@ 15202
有辱 15200
特 15187
男女平等 15187
上空 15151
d@@ 15135
外交部长 15132
大楼 15130
拖延 15119
贩卖 15115
许可 15087
m@@ 15080
犯下 15068
核可 15067
先前 15044
议员 15030
用来 15021
G 15020
式 15019
交换 15015
汇报 15010
法律援助 14988
去 14984
任 14983
彻底 14969
120 14967
葡萄牙 14961
各地 14957
面对 14942
重复 14937
削减 14894
87 14867
85 14863
大不列颠 14854
食品 14851
加纳 14840
阻止 14833
加上 14828
任职 14825
图 14822
就业机会 14822
通讯 14821
捷克共和国 14816
提高认识 14812
掌握 14805
后者 14785
1.@@ 14776
短期 14745
某 14734
发射 14714
残忍 14708
融合 14696
投诉 14691
卡 14664
国别 14664
经营 14637
渠道 14610
s@@ 14590
试验 14583
提醒 14581
转型 14576
必要性 14574
不妨 14571
照料 14550
处置 14548
穷人 14547
裁谈会 14546
r@@ 14530
84 14510
J@@ 14491
2@@ 14488
沙特阿拉伯 14473
正义 14469
86 14467
出生 14449
若 14442
侧重于 14431
多种 14426
4@@ 14409
巴黎 14405
纳 14391
定为 14371
转交 14369
领空 14363
小学 14357
ar@@ 14353
讲话 14351
预算外 14341
只要 14334
外交部 14334
越南 14324
C.1 14294
希腊 14292
快速 14290
时限 14277
乌拉圭 14272
定罪 14257
另一方面 14255
知识产权 14243
人@@ 14231
西亚 14219
界 14216
多哈 14201
第一届 14200
还应 14198
捐助国 14196
关联 14192
科@@ 14181
Rev.1 14170
灵活 14170
民事 14158
便 14155
还要 14155
边境 14154
区域合作 14150
常常 14106
限 14100
一方面 14096
地带 14088
北 14084
98 14075
法定 14068
内部监督 14067
用品 14020
制 14015
必要措施 14015
推行 14015
电话 13985
玻利维亚 13971
负债 13971
招募 13962
最好 13954
当事方 13933
可@@ 13913
收益 13900
咨询服务 13884
附加 13878
有@@ 13875
共享 13873
阐明 13869
对象 13868
十五届 13847
结论性 13845
地域 13822
10@@ 13816
相 13808
爱尔兰 13805
自我 13786
机场 13763
加@@ 13756
匈牙利 13755
怀孕 13753
第二个 13710
所属 13709
哈萨克斯坦 13704
脆弱性 13697
此项 13690
促成 13688
发 13686
900 13684
简化 13676
因特网 13667
绩效 13630
s 13624
坚定 13620
日起 13612
总干事 13601
附近 13595
罪犯 13593
杀害 13589
米 13581
尼加拉瓜 13572
缓解 13554
93 13541
迄今 13536
退化 13531
签订 13523
er 13520
95 13518
值得 13511
变革 13507
没收 13506
洗钱 13503
信仰 13497
参照 13497
对@@ 13485
士兵 13484
好处 13483
那 13479
温室 13471
放弃 13468
那里 13457
培训班 13453
这类 13449
常规武器 13446
始终 13442
位于 13440
着重 13425
登记册 13417
喀麦隆 13413
88 13407
W@@ 13407
发展权 13404
萨尔瓦多 13371
M 13369
坚决 13363
大家 13356
所谓 13351
化学武器 13348
三@@ 13332
紧急情况 13330
` 13328
级别 13323
西 13318
披露 13317
克 13315
董事会 13311
规章 13304
法语 13303
小型 13294
89 13281
联合国大会 13252
领取 13252
内@@ 13247
91 13242
倡导 13241
杀伤 13235
排放量 13233
疟疾 13228
寻找 13226
92 13225
地理 13223
k@@ 13221
i@@ 13204
单一 13201
t@@ 13195
孩子 13168
近 13157
家人 13148
道 13140
p@@ 13136
很少 13133
特征 13127
少 13091
97 13085
东部 13084
96 13072
少年 13062
体育 13059
99 13058
支柱 13046
e@@ 13025
仅仅 13021
第二条 13019
正确 13001
每天 12999
行事 12974
巴@@ 12972
国内法 12963
库存 12959
这份 12958
第二届 12944
前景 12940
独立性 12939
关押 12936
5@@ 12923
安全部门 12920
V@@ 12919
包容 12919
有用 12919
国家元首 12918
企图 12916
图书馆 12915
物资 12913
得出 12904
卡塔尔 12889
一致性 12887
排斥 12887
纪律 12881
长 12879
警方 12865
我要 12858
n@@ 12857
童工 12857
入侵 12851
对待 12845
删除 12844
其@@ 12838
未成年人 12838
作业 12834
毛里求斯 12812
跟踪 12808
也门 12797
偿还 12796
歧视性 12796
HRC 12789
客户 12788
言论自由 12781
视察 12780
列为 12776
各位 12773
人权法 12753
创建 12753
经历 12743
亚太经社会 12731
动员 12718
当事人 12717
审查会议 12707
an@@ 12704
根源 12694
净额 12688
文本 12686
不够 12682
作出贡献 12665
阿尔巴尼亚 12653
农村妇女 12652
弱势群体 12649
个别 12646
特@@ 12640
发了 12629
新@@ 12623
试点 12621
94 12618
丧失 12605
b@@ 12602
应有 12597
质疑 12596
被占领土 12586
150 12581
关心 12580
完善 12579
极为 12562
其余 12555
封锁 12541
尔 12528
新加坡 12528
生产总值 12527
E@@ 12514
吸引 12512
多样化 12512
功能 12505
成 12480
技术转让 12475
实质 12474
纪念 12465
Al 12464
政府首脑 12462
扩展 12457
格式 12450
生计 12430
所有权 12428
有益 12411
判例 12408
高兴 12400
不罚 12397
营地 12394
多次 12391
一词 12385
所列 12379
随时 12379
之@@ 12374
指数 12373
h@@ 12369
沿海 12368
完整 12357
饥饿 12342
称为 12338
的话 12335
巴塞尔 12333
现代 12331
编列 12329
进度 12329
现已 12327
家属 12326
该部 12303
斯洛文尼亚 12296
u 12291
金额 12282
农民 12276
权能 12270
50% 12265
支援 12264
免遭 12262
有力 12262
子 12256
离职 12243
高@@ 12214
被迫 12208
早期 12204
几内亚比绍 12196
首席 12194
伊 12188
爆炸 12183
公报 12181
科技咨询 12175
姆 12158
极端 12154
定居点 12147
可用 12142
民兵 12125
位 12124
前提 12119
犯罪行为 12103
保存 12102
两@@ 12101
in 12095
Corr.1 12083
消费者 12066
禁运 12054
绑架 12054
军 12052
铭记 12045
指称 12041
南方 12040
代表性 12034
同次 12030
工作文件 12016
亿 12014
干旱 12006
将来 12000
色情 11999
语 11995
联黎 11991
恐怖分子 11967
至于 11967
司法部 11953
开办 11925
下述 11922
肯定 11917
有效性 11915
室 11914
信息系统 11912
强制性 11912
溴 11908
近年来 11907
怀疑 11906
咨商 11902
复原 11902
区分 11892
日@@ 11886
c@@ 11882
旅游 11876
指导方针 11871
养护 11863
er@@ 11861
难民营 11859
违背 11844
互联网 11838
变得 11838
6@@ 11835
大大 11827
一半 11817
首要 11817
不到 11810
3@@ 11801
关闭 11799
国际劳工组织 11790
a@@ 11777
竞争力 11773
婴儿 11772
y@@ 11766
会晤 11759
相反 11755
运用 11743
去年 11730
转变 11727
强有力 11725
我谨 11721
两种 11714
决策者 11702
斯@@ 11697
用以 11689
医生 11665
西岸 11649
任何人 11629
黑山 11629
0@@ 11628
缺陷 11627
O@@ 11625
非正规 11597
牙买加 11585
注册 11576
岛屿 11571
水资源 11569
依靠 11566
所@@ 11558
岛 11552
保加利亚 11548
期内 11539
侵略 11537
爆炸物 11536
四年 11535
碳 11530
加大 11523
纠正 11520
监察 11518
蒙特利尔 11515
错误 11514
联塞 11509
负有 11497
斯洛伐克 11496
汇率 11492
选定 11488
不结盟运动 11483
一条 11478
布基纳法索 11465
退休 11465
独特 11449
家庭成员 11443
份额 11441
迄今为止 11440
公认 11435
世界人权宣言 11425
赞比亚 11425
有机 11422
月份 11421
性虐待 11420
配置 11410
之内 11402
像 11402
高于 11402
制约 11399
队 11396
分子 11386
上@@ 11385
同等 11385
残疾儿童 11384
秩序 11384
自决 11384
选出 11382
清除 11380
常会 11379
5% 11377
年初 11370
再生能源 11364
条文 11358
亚太 11354
配偶 11344
自@@ 11343
遗憾 11338
宏观经济 11335
主义 11332
谈到 11327
1989 11318
填补 11318
区别 11298
青年人 11288
下文 11281
件 11278
成效 11269
调查结果 11268
档案 11257
总结 11253
限于 11249
暂行 11247
变动 11246
消耗 11244
某种 11241
和@@ 11230
I@@ 11226
会费 11221
刑事法庭 11218
海上 11210
事 11201
他人 11193
例外 11191
吨 11188
10% 11187
观测 11187
十三届 11186
运行 11185
钻石 11183
力 11181
合格 11180
本人 11177
初次 11175
持有 11160
国外 11156
召集 11155
一方 11151
担心 11141
出售 11135
西@@ 11123
跨界 11123
受伤 11118
核实 11114
升级 11110
宝贵 11103
经合组织 11098
兴趣 11093
速度 11090
站 11085
几内亚 11084
中非 11083
迫切需要 11074
赠款 11072
非殖民化 11063
席位 11058
假 11042
继承 11040
灵活性 11039
欧洲委员会 11033
软件 11029
当然 11020
110 11015
德班 11007
联合国环境规划署 10995
特使 10982
纳@@ 10963
设置 10955
净 10945
经济委员会 10923
卫生组织 10920
七 10919
推出 10919
高等教育 10907
均衡 10896
着重指出 10891
亦 10887
尽早 10874
筹备工作 10871
时@@ 10859
尼 10824
1988 10822
解决方案 10814
应@@ 10813
正是 10813
重@@ 10811
管理系统 10809
尽 10802
利@@ 10797
债权人 10785
援引 10781
药品 10781
系 10776
受害 10775
圆桌会议 10774
相当于 10774
简报 10769
动态 10765
认证 10764
250 10763
空中 10761
提起 10755
105 10749
英国 10749
合法性 10744
弱势 10743
永久 10743
培养 10735
Y@@ 10732
头 10732
本@@ 10732
司长 10729
现状 10720
强制 10718
撤销 10714
奥@@ 10711
探索 10711
价值观 10707
世界卫生组织 10699
十二届 10689
小@@ 10686
第六条 10676
必需 10672
转 10672
对策 10669
德@@ 10659
基本权利 10658
20% 10653
极大 10652
草稿 10641
马耳他 10641
免受 10629
产妇 10626
一贯 10625
英文 10620
绿色 10615
和平利用 10613
尔@@ 10602
联科 10585
补助金 10585
马 10569
乌兹别克斯坦 10566
物 10553
祝贺 10552
诉诸 10549
福祉 10548
不当 10547
SR.@@ 10536
导弹 10516
属 10515
一家 10507
巴 10507
妇发 10506
联利 10506
破产 10502
分段 10495
污染物 10495
申明 10495
地@@ 10492
失去 10490
布@@ 10478
教学 10477
直至 10470
18@@ 10466
形势 10463
翻译 10457
逐渐 10457
东耶路撒冷 10454
万人 10442
军备 10436
计量 10431
法律文书 10418
得不到 10417
蒙古 10415
回返 10411
无害 10410
中部 10409
卫生部 10406
假设 10404
增多 10404
坦桑尼亚联合共和国 10403
测试 10400
警察部队 10385
习俗 10383
ar 10382
保安 10376
al@@ 10372
不得不 10371
村 10358
利 10350
批款 10348
中学 10345
超出 10342
经共体 10337
优势 10329
102 10320
自由化 10318
大型 10317
参与者 10315
第十四条 10315
解除 10314
事故 10313
种 10305
行 10305
缴款 10296
撒哈拉 10285
不要 10283
帐户 10283
其他人 10282
年轻人 10280
Z@@ 10279
判处 10278
绝对 10275
第三届 10272
13@@ 10271
克@@ 10269
应由 10267
沟通 10264
客观 10263
in@@ 10261
全球性 10256
用作 10253
发给 10241
轨道 10240
愿望 10233
由此 10230
第三方 10227
海外 10226
管理层 10219
w@@ 10217
连续 10209
差别 10200
裂变 10197
发挥作用 10196
煽动 10191
Ch@@ 10189
穆斯林 10172
知情 10167
生存 10162
维修 10159
暂时 10156
行动者 10156
2.@@ 10146
津巴布韦 10146
共同努力 10144
散发 10144
伊@@ 10138
有着 10137
国@@ 10134
为止 10121
以@@ 10116
直到 10111
身体 10110
也许 10108
领袖 10107
月底 10106
101 10102
贝宁 10100
1980 10094
文明 10090
痛苦 10084
外联 10083
组合 10083
开幕 10077
战斗人员 10074
来看 10074
否则 10073
111 10068
巡逻 10064
联合国秘书处 10063
L 10055
普及 10051
职类 10049
经社理事会 10033
n 10030
意图 10029
立陶宛 10028
港口 10025
种种 10025
大幅 10022
对付 10022
旅游业 10015
é 10014
闭会 10005
授予 9995
海@@ 9985
十届 9981
购置 9972
力求 9969
苏丹政府 9969
章 9968
所示 9958
外@@ 9957
自从 9956
冻结 9948
能否 9940
标准化 9932
实物 9929
水@@ 9927
角色 9923
路线图 9911
巴林 9893
工作者 9882
配合 9876
线 9875
税 9871
被捕 9865
器 9856
作出努力 9841
养恤 9839
文职人员 9837
过度 9837
自动 9831
风险管理 9830
总共 9820
标题 9816
联邦政府 9816
八 9808
回答 9803
增至 9800
第五次 9793
物体 9792
税收 9792
恰当 9790
针对性 9788
振兴 9782
描述 9782
103 9781
工作量 9781
广播 9780
刑法典 9778
言论 9772
下@@ 9764
人为 9757
同@@ 9754
治安 9748
k 9746
并于 9739
安装 9732
丈夫 9726
马其顿共和国 9724
亚 9723
削弱 9722
多项 9721
看来 9721
航空 9719
小额 9712
种植 9693
14@@ 9690
z@@ 9684
各个方面 9682
130 9668
业 9663
g@@ 9650
任用 9647
设定 9647
序言 9642
CN.9 9636
响应 9633
曾经 9632
核试验 9632
法@@ 9628
开设 9627
计划生育 9623
计划署 9623
回收 9620
中亚 9602
世界贸易组织 9597
比额 9597
万@@ 9596
104 9593
30% 9584
尊重人权 9580
拉脱维亚 9580
y 9577
u@@ 9576
现代化 9576
感兴趣 9572
毛额 9572
书 9564
拉加 9563
至今 9548
非索 9542
有所增加 9539
分布 9533
系统地 9530
遭 9529
盟约 9528
分担 9518
7@@ 9513
17@@ 9505
驳回 9492
爱沙尼亚 9487
哈@@ 9475
度 9475
en@@ 9470
采纳 9469
维护者 9467
剩余 9464
R 9456
两级 9452
近期 9449
莫桑比克 9441
仇恨 9435
结婚 9428
值 9419
清理 9415
位置 9413
防范 9406
思想 9402
紧张 9401
开列 9399
缩小 9398
每周 9389
en 9377
这里 9374
3% 9362
对外 9361
入 9360
U@@ 9355
de 9341
视 9339
薪酬 9336
第七条 9334
土库曼斯坦 9332
届会 9328
联合国儿童基金会 9326
指挥官 9325
UNEP 9324
学术 9320
108 9309
习惯 9306
高效 9304
人群 9302
政权 9302
机 9299
施加 9297
v@@ 9292
查阅 9290
辅助 9284
流程 9279
联检 9275
+ 9274
电信 9273
做到 9267
多名 9265
有待 9257
罗@@ 9255
分@@ 9250
交给 9249
会见 9249
方便 9249
臭氧 9248
表格 9245
正规 9242
特性 9242
原籍 9241
审 9238
安@@ 9236
107 9234
本着 9231
边缘化 9231
修建 9228
理论 9223
欺诈 9219
置于 9219
持久性 9206
接近 9203
说法 9198
公里 9196
化学 9186
预防性 9178
冰岛 9177
接收 9177
所得 9171
萨@@ 9166
海事 9158
牵头 9158
106 9146
灾难 9146
瓦@@ 9146
罗姆人 9146
中所载 9141
会议议程 9140
繁荣 9139
j 9135
l 9132
体面 9129
司法制度 9127
制品 9120
简单 9118
众多 9116
瓦 9110
基本建设 9096
比@@ 9096
一所 9091
星期五 9087
当中 9083
协调会 9081
国民议会 9079
普@@ 9076
7% 9074
星期一 9074
am@@ 9073
旅费 9070
该司 9066
ad@@ 9064
丰富 9059
另有 9059
病毒 9054
埃@@ 9051
报酬 9050
忽视 9049
船舶 9044
船只 9035
特权 9028
保密 9027
犯有 9022
面向 9021
征求 9020
实例 9018
巴拉圭 9006
行政部门 9003
1967 8999
麻醉药品 8997
科技 8987
112 8982
事业 8975
低收入 8974
阿拉伯联合酋长国 8972
斯德哥尔摩 8969
民警 8968
关键作用 8954
洪都拉斯 8953
塔 8947
更多地 8947
开会 8944
告诉 8938
2% 8934
原 8933
单元 8932
顾及 8920
H 8918
案情 8918
非@@ 8918
该条 8914
金融危机 8914
台 8911
纳米比亚 8911
健全 8909
不久 8907
第十届 8906
组建 8904
认捐 8895
增长率 8889
应为 8878
at@@ 8873
联合国总部 8861
每日 8856
取得成功 8854
易 8853
失业率 8851
西撒哈拉 8850
亚@@ 8847
115 8845
最为 8843
4% 8838
学 8838
营养不良 8836
为@@ 8835
军火 8835
真相 8831
场 8829
架 8825
前@@ 8810
土著人 8807
生态 8807
上次 8806
团伙 8806
覆盖 8788
补编 8785
操守 8784
生产力 8781
欣见 8776
org 8772
下次 8770
职业培训 8769
f@@ 8759
某一 8759
j@@ 8755
改造 8750
发@@ 8749
东盟 8742
和平解决 8742
经济危机 8736
优惠 8733
六个 8724
列支敦士登 8721
林业 8720
男孩 8720
既定 8715
患者 8714
巴拿马 8708
作物 8707
次数 8706
生育 8706
分歧 8705
教授 8705
领土完整 8699
塔吉克斯坦 8689
骚扰 8689
辩护 8682
紧迫 8679
113 8676
6% 8675
入境 8674
南部非洲 8674
惩治 8673
网上 8669
1% 8664
买卖 8661
结余 8660
高质量 8657
114 8656
其后 8653
贩卖人口 8653
中等 8647
0.@@ 8630
项下 8630
大幅度 8629
出@@ 8617
十@@ 8612
时至 8611
选民 8600
尼@@ 8596
里@@ 8595
109 8590
各@@ 8590
卢森堡 8582
儿基会 8571
所在 8563
合作社 8561
内政部 8559
惩处 8558
名称 8554
订约 8554
12@@ 8553
等等 8552
除外 8550
检察长 8537
斐济 8531
支配 8527
15@@ 8523
奠定 8522
运送 8517
140 8515
塞人 8512
权限 8511
追加 8509
格 8508
章程 8494
堕胎 8491
倾向 8483
第四届 8481
撤回 8469
军事行动 8465
准备金 8464
首都 8464
讲 8463
短缺 8460
国际原子能机构 8458
大力 8457
116 8456
具体措施 8448
约束 8447
要点 8446
星期四 8444
提升 8441
想法 8439
此后 8437
人均 8434
单 8428
无效 8427
星期 8427
不受 8423
公共行政 8421
3.@@ 8420
多哥 8420
核能 8415
获 8414
公共政策 8412
es 8411
广大 8411
开采 8406
设有 8405
普通照会 8402
弃权 8401
普遍性 8389
8% 8388
文@@ 8387
中小企业 8385
羁押 8382
团长 8379
第四条 8371
一架 8370
外空 8363
摆脱 8363
负面影响 8355
星期三 8351
蒙特雷 8349
it@@ 8346
消灭 8342
源 8339
带 8338
所用 8337
年间 8335
措辞 8333
划界 8325
公路 8318
某个 8318
无论是 8311
本条 8310
见下文 8302
签名 8300
穷国 8298
种族灭绝 8297
刑事诉讼法 8295
无国籍 8294
122 8290
FCCC 8290
教育部 8285
中美洲 8279
补助 8275
总务 8272
契约 8270
80% 8269
捕捞 8255
群岛 8255
日常 8254
感到遗憾 8253
联海 8233
117 8232
达成协议 8231
必不可少 8230
如@@ 8228
效应 8227
不足以 8225
村庄 8224
欧安组织 8223
信心 8218
40% 8217
un 8215
干涉 8213
所指 8207
玻利瓦尔 8203
减缓 8202
等待 8198
非国家 8193
表示感谢 8192
星期二 8186
减免 8182
围绕 8166
看 8166
脱离 8164
延迟 8161
图@@ 8148
父亲 8146
年轻 8144
整合 8144
含有 8142
犯 8141
r 8139
截止 8135
供水 8133
部委 8127
吉尔吉斯斯坦 8123
禁毒 8122
撤出 8120
很难 8111
执法人员 8106
计算机 8101
部落 8099
会期 8091
吉布提 8091
指令 8091
维@@ 8083
库 8082
识别 8081
已于 8079
采矿 8079
会谈 8074
名册 8065
承包商 8061
品 8060
基本上 8057
机遇 8057
致使 8057
从@@ 8055
老龄 8055
饮用水 8055
为什么 8053
年@@ 8052
依 8050
生 8047
警务 8047
刑事诉讼 8041
统筹 8040
on 8038
发动 8038
16@@ 8033
投资者 8032
一步 8030
住所 8025
118 8023
分散 8022
构想 8016
现 8016
交通 8014
检查组 8012
灭绝种族 8012
高级官员 8004
孕妇 7996
人事 7992
适足 7986
全面禁止 7982
雷@@ 7982
212 7974
司法部门 7968
招聘 7966
颁发 7963
签发 7951
关税 7944
送交 7940
m 7936
t 7936
停火 7935
车 7932
重叠 7932
未@@ 7928
卫生设施 7924
面积 7920
第五条 7916
1373 7913
II 7912
比如 7911
第三条 7907
缴纳 7895
ia 7892
事务处 7891
实验室 7884
基@@ 7881
流行病 7881
警官 7879
一届 7875
谋求 7873
的确 7870
入学率 7861
周 7858
门 7857
庆祝 7854
迫使 7854
固定 7852
信函 7849
160 7848
报表 7848
el@@ 7844
卫生保健 7840
追踪 7835
预警 7829
Al@@ 7824
119 7822
十四届 7814
族 7798
家园 7792
提倡 7791
罗 7785
明确规定 7782
名@@ 7770
评注 7765
据说 7761
as 7755
准许 7752
生@@ 7743
180 7742
施政 7735
兰 7730
六个月 7728
at 7724
金属 7720
市场准入 7717
加工 7716
审讯 7711
自决权 7702
摩尔多瓦共和国 7692
发言人 7685
跨国公司 7685
125 7680
房屋 7677
缓慢 7676
持 7675
全权 7671
顺利 7671
大赦 7669
多少 7658
局面 7654
多米尼加共和国 7652
N 7646
每@@ 7643
或是 7641
尼日尔 7638
这@@ 7637
主导 7634
现场 7633
据此 7631
普查 7631
孕产妇 7626
警察局 7625
正当 7624
工业化 7616
标志 7615
委托 7610
先决条件 7604
术语 7603
采取有效 7600
三名 7596
学科 7594
指挥 7593
而@@ 7593
外债 7591
扫盲 7578
经济社会 7574
20@@ 7571
合适 7571
预算编制 7567
un@@ 7562
理想 7560
8@@ 7550
强大 7550
办公 7548
联 7547
遗留 7539
专题讨论 7531
报 7526
编辑 7526
伊斯兰会议组织 7525
学会 7525
布 7521
中止 7519
以南 7518
迹象 7515
事宜 7512
捍卫 7510
数@@ 7510
精简 7509
此事 7507
从未 7503
之际 7502
ab@@ 7497
时代 7495
el 7493
两份 7486
萨 7485
艺术 7482
具体情况 7478
本案 7475
赞助 7471
签证 7470
塔@@ 7468
实效 7468
社会福利 7465
追究 7462
第九届 7461
跨 7461
聘用 7455
范畴 7455
123 7454
期@@ 7448
在线 7445
海盗 7437
基 7430
财务报告 7427
号法 7419
夫 7418
121 7415
当代 7415
权力下放 7403
疫苗 7403
萨摩亚 7400
主管部门 7393
操作 7392
0 7389
偏见 7389
第二章 7385
议定 7382
根除 7379
公@@ 7377
出来 7377
便于 7364
极其 7361
忆及 7360
病 7356
实务 7355
四@@ 7347
1986 7346
马拉维 7344
口译 7343
塔利班 7333
彼此 7333
接纳 7333
县 7330
运营 7327
反对派 7324
www 7323
公共卫生 7323
ou@@ 7311
问 7310
节目 7309
节省 7308
海洋环境 7306
环境保护 7302
ah 7292
解释性 7288
南亚 7287
鱼类 7285
起到 7278
as@@ 7277
妻子 7276
ay@@ 7274
尽管如此 7274
体罚 7273
第六次 7269
动机 7268
第三国 7265
塞族 7253
尽量 7249
延误 7239
Sh@@ 7236
地中海 7236
教训 7235
勒 7231
惠益 7231
增编 7215
重组 7215
各部 7211
波动 7209
租赁 7205
尚 7204
联合国日内瓦办事处 7204
碎片 7201
公共服务 7194
证词 7192
总@@ 7177
一再 7176
法律事务 7176
申请人 7176
O 7174
得出结论 7173
直升机 7169
种类 7167
证件 7167
V 7155
甄选 7149
雇佣军 7149
发达 7148
马达加斯加 7148
第七届 7145
统计数字 7145
第一章 7136
25% 7133
塞@@ 7131
汇款 7131
志愿 7130
愿 7130
每一 7130
天@@ 7129
追回 7123
联苏 7120
反馈 7117
足以 7117
送 7117
势头 7116
敌对行动 7115
124 7110
秘密 7110
年前 7109
阿拉伯国家联盟 7106
转型期 7105
过渡时期 7101
二@@ 7098
目的地 7098
占领国 7097
第二阶段 7096
约翰内斯堡 7096
隔离墙 7096
复苏 7094
曼谷 7094
内阁 7090
T 7086
危及 7086
第五十九 7086
马尔代夫 7084
毛里塔尼亚 7080
不予 7076
充分利用 7076
检测 7070
模型 7068
服务中心 7066
一揽子 7061
综合性 7060
战斗 7058
性骚扰 7057
博茨瓦纳 7054
第十一届 7054
其次 7048
加紧努力 7048
9@@ 7046
家长 7044
勘探 7043
电子商务 7039
成人 7037
技术支持 7034
指明 7034
on@@ 7031
次序 7031
集会 7030
K 7029
赤贫 7028
138 7026
找出 7024
o@@ 7022
绳之以法 7022
达@@ 7016
引发 7015
第九条 7013
9% 7006
审计员 7005
鲁@@ 7003
每次 6997
第六届 6991
第五十八 6990
参加者 6987
考试 6987
大西洋 6986
签字 6986
博@@ 6983
遗产 6983
进行谈判 6965
成@@ 6961
筹集 6958
巴巴多斯 6956
激励 6953
五@@ 6950
员工 6945
老年 6945
几@@ 6944
估算 6942
连续性 6941
先进 6940
队伍 6940
收容 6939
重大进展 6939
司法机关 6938
该@@ 6936
增设 6928
盘旋 6928
演变 6927
爆发 6921
禁令 6917
一事 6916
国防 6913
房 6906
入学 6905
西班牙语 6903
续会 6902
医疗保健 6900
受@@ 6900
毫米 6895
理事 6892
象 6886
免疫 6878
第五届 6878
三项 6877
1982 6872
2020 6872
世卫 6871
公私 6867
分为 6864
救助 6860
提 6859
遏制 6857
作法 6852
弥补 6851
60% 6841
撤离 6840
离婚 6840
格@@ 6839
全@@ 6836
奖励 6835
迪@@ 6832
2016 6829
业已 6827
转@@ 6827
批评 6826
具 6813
方@@ 6812
集束 6811
凡 6810
一场 6809
署长 6806
或许 6805
妇女组织 6801
周围 6797
第五十七届 6796
移动 6794
不丹 6791
产业 6790
隔离 6790
划分 6785
收养 6785
134 6782
已@@ 6782
分至 6780
开@@ 6778
行径 6777
动力 6774
155 6769
128 6768
1985 6766
权益 6765
列举 6764
调集 6763
所提 6759
博士 6752
调查团 6751
配备 6751
法外 6750
这笔 6748
海牙 6738
产假 6733
126 6732
剂 6729
常规 6724
叙述 6720
吸收 6720
科学技术 6698
见解 6695
ri@@ 6693
姓名 6691
这场 6690
无障碍 6675
il@@ 6673
文职 6670
走 6670
1987 6668
三分之一 6668
网址 6668
细节 6666
展示 6665
对抗 6662
概要 6662
联委会 6660
恐吓 6653
架构 6653
少女 6651
通用 6651
编号 6650
利润 6649
罚款 6645
述及 6645
耶路撒冷 6644
经@@ 6639
处以 6635
DP 6632
权威 6630
周年 6628
双重 6627
沙@@ 6625
迪 6620
全民投票 6617
概况 6614
南@@ 6609
路 6609
病人 6604
迁移 6604
生境 6603
买方 6594
核不扩散 6594
地面 6593
附上 6592
辐射 6587
相关性 6586
153 6584
或@@ 6584
绝大多数 6583
枚 6582
代价 6579
班 6574
圭亚那 6572
活力 6572
过@@ 6565
草坪 6564
抗议 6559
据报 6558
182 6556
助长 6553
可否 6550
ak@@ 6547
事务司 6547
地震 6546
本来 6545
民族和解 6543
不仅仅 6536
归还 6536
报复 6534
确切 6525
1540 6522
布鲁塞尔 6522
2.1 6517
女生 6515
欧洲人 6513
储备 6510
船 6509
CEDAW 6502
承付 6500
Add.2 6499
十六届 6497
借此机会 6494
论述 6494
影响力 6493
概览 6491
表@@ 6487
较大 6487
含义 6486
例 6484
抵消 6484
海底 6482
is@@ 6477
一支 6475
此次 6475
载列 6474
宪法法院 6473
连接 6463
or@@ 6462
原则上 6459
第八届 6459
90% 6452
较为 6452
09 6450
流入 6449
使命 6444
庭长 6444
创业 6443
编纂 6443
总是 6440
更具 6438
补救措施 6434
引入 6433
因@@ 6426
港 6423
测量 6421
70% 6415
境况 6415
中间 6411
ad 6410
am 6401
特别法庭 6401
消极 6395
详情 6394
专长 6391
电台 6391
ur@@ 6388
核证 6383
一天 6382
债务人 6380
早日 6379
中所 6376
九 6376
持久和平 6376
木材 6374
配额 6374
哈 6373
替代品 6373
美国政府 6370
为何 6367
训研 6367
本地 6366
对应 6364
流行 6364
极端主义 6363
129 6362
之二 6362
拘押 6361
财富 6360
违法行为 6359
以供 6352
气 6350
CRC 6346
非洲大陆 6345
各项规定 6343
事情 6340
待 6340
包 6337
侧重 6336
15% 6331
im@@ 6327
依法 6327
法人 6325
信中 6322
回 6319
税务 6317
自主 6317
遵约 6316
气氛 6315
深信 6313
相@@ 6312
物种 6309
第一阶段 6309
生命权 6304
奴役 6300
141 6299
摧毁 6295
零 6292
法律顾问 6289
西部 6289
135 6288
改组 6288
132 6287
伊拉克政府 6287
利息 6285
通@@ 6276
索@@ 6275
枪支 6272
ag@@ 6270
分娩 6268
电视 6267
127 6256
附录 6253
生产能力 6252
假定 6249
延期 6248
救灾 6247
用尽 6246
169 6245
这两项 6244
二十一 6243
偷运 6241
章节 6241
区域间 6239
第三个 6239
划拨 6237
中小型 6235
党 6230
独立国家 6229
1970 6228
2017 6226
职权 6226
汽车 6225
甲基 6224
诊所 6224
埃 6220
严峻 6213
导航 6211
应予 6211
所说 6211
不幸 6210
更改 6210
由@@ 6209
妥善 6204
指派 6204
留在 6203
变成 6201
反@@ 6198
兹 6196
传染病 6194
id@@ 6190
完整性 6189
恶劣 6189
氟 6188
相互依存 6185
附 6185
133 6184
国防部 6183
寿命 6179
相一致 6179
大陆 6174
职 6170
阵线 6169
性@@ 6168
裁撤 6168
伦敦 6166
1.1 6165
条@@ 6163
令人满意 6160
行@@ 6160
街头 6159
申报 6153
资金来源 6153
收取 6149
贩毒 6147
和谐 6145
J 6143
不管 6143
主管机构 6139
获益 6139
是从 6138
管 6136
教育权 6134
时说 6133
山区 6130
兵 6129
遵照 6128
新兴 6124
131 6121
不法行为 6116
远远 6109
分开 6106
面 6105
法典 6102
力度 6101
性别歧视 6101
积累 6101
放射性 6097
ch@@ 6096
预防措施 6096
土壤 6089
170 6082
产量 6082
预定 6081
后@@ 6078
微型 6077
加蓬 6076
ol@@ 6075
戈兰 6075
无条件 6072
费率 6071
失败 6070
意外 6069
联合国人口基金 6065
印刷 6063
增效 6063
托@@ 6063
抵达 6060
发送 6059
欧洲共同体 6058
版本 6056
调查表 6053
建筑物 6051
企业家 6045
联合国粮食及农业组织 6045
可信 6041
诊断 6035
关键问题 6029
活跃 6026
区域性 6020
协商会议 6020
荷 6018
护照 6015
古@@ 6014
谋杀 6012
三方 6011
日前 6011
伤亡 6003
成年人 6000
辆 5995
中断 5988
革命 5984
08 5979
努力实现 5979
河 5979
殖民地 5977
论点 5976
房舍 5971
刑罚 5969
管理机构 5969
es@@ 5965
卷入 5964
战略性 5960
更换 5960
租金 5958
详尽 5955
飞离 5955
前任 5954
中将 5953
未决 5950
布雷顿 5948
迫害 5944
扣押 5934
继 5934
麻醉品 5932
托 5928
措词 5926
用@@ 5924
更正 5922
转化 5920
自主权 5919
三次 5914
提前 5913
大众 5910
令人遗憾 5909
左右 5906
与会 5905
调 5905
亚的斯亚贝巴 5904
政府部门 5901
小组讨论 5899
无疑 5896
性健康 5895
波多黎各 5894
公务 5893
136 5890
修复 5889
刑事犯罪 5887
陷入 5887
段落 5885
建制 5884
奖学金 5883
一致意见 5882
检验 5881
余留 5878
1978 5876
学术界 5876
联合国安全理事会 5875
上帝 5873
收回 5873
挂钩 5871
派出 5869
深切 5861
禁产 5860
保护措施 5856
第十二届 5854
版 5853
最多 5847
便利化 5846
款额 5846
非洲人 5843
洛@@ 5842
地名 5836
极 5836
系列 5835
城镇 5834
应收款 5832
东欧 5823
蓄意 5823
转向 5823
定居 5822
受益人 5819
南斯拉夫联盟共和国 5816
莱@@ 5816
展望 5815
淘汰 5815
保持一致 5814
无视 5813
亲属 5809
冲击 5809
社 5809
联合行动 5808
上学 5805
举报 5802
氯化 5801
同事 5800
海 5800
紧张局势 5799
预审 5796
长@@ 5794
莫@@ 5793
5.@@ 5792
赋权 5792
空运 5789
书记 5784
难 5782
马德里 5776
很快 5775
友好 5773
在@@ 5770
深 5768
收@@ 5765
一段 5763
142 5760
斡旋 5760
充分考虑 5757
各州 5756
倍 5754
东南亚 5749
连贯 5749
层 5748
提@@ 5748
三分之二 5745
多地 5744
区内 5743
所在地 5743
空@@ 5743
界限 5741
收费 5740
国际货币基金组织 5738
判刑 5737
裔 5737
进 5736
承受 5734
该次 5732
可行性 5730
否认 5730
刑事责任 5728
涉嫌 5728
托克劳 5727
示威 5727
结构性 5725
阵地 5724
七个 5723
库@@ 5722
战略规划 5721
1949 5719
证 5718
扶持 5717
137 5714
警卫 5714
几项 5712
第一款 5712
3.1 5711
平等权利 5707
编 5706
土著居民 5705
坚信 5702
筹备会议 5699
原先 5694
劳动法 5693
即@@ 5692
流通 5690
143 5686
兼顾 5686
日历 5685
索 5684
徒刑 5682
红十字 5681
捐赠 5680
苏@@ 5680
初期 5679
动议 5679
第十九条 5674
宣称 5668
征得 5668
刺激 5659
波@@ 5656
联阿 5653
追求 5652
鹿特丹 5651
遥感 5650
形象 5648
先 5647
希@@ 5647
会@@ 5645
肇事者 5645
贝@@ 5644
多方 5642
气象 5642
胁迫 5641
1981 5637
做好 5633
互助 5630
分离 5630
缩短 5628
使用者 5627
差旅 5626
副本 5623
现任 5623
伊斯坦布尔 5619
生产性 5615
人身 5613
国家计划 5613
部长会议 5610
下面 5609
幸存者 5605
老挝人民民主共和国 5600
朝鲜 5597
预先 5597
全额 5595
原@@ 5595
吸毒 5595
挑选 5595
路线 5593
殴打 5590
工 5589
切割 5588
起@@ 5588
1973 5587
习惯法 5586
优质 5585
第二十届 5585
重 5585
05 5584
作出反应 5582
发展部 5580
采取任何 5580
多边贸易 5578
蔓延 5576
跨部门 5576
出台 5574
贾@@ 5574
主@@ 5572
火器 5572
超越 5572
两者 5570
仔细 5569
警告 5567
极为重要 5564
is 5562
文化遗产 5562
营 5562
06 5561
等级 5559
从中 5557
致 5556
入@@ 5553
犯罪活动 5552
价 5551
伊斯兰教 5551
官长 5549
法文 5544
预见 5543
145 5542
以色列政府 5539
安 5538
144 5535
谁 5530
不限 5527
基伍 5527
拖欠 5525
大程度 5524
扭转 5522
电@@ 5521
复杂性 5518
缴付 5518
六@@ 5517
吉@@ 5517
紧密 5515
财务状况 5515
发行 5512
研训 5512
不可或缺 5510
手续 5509
矛盾 5509
对本 5507
早 5504
养老金 5502
CD 5501
162 5497
兄弟 5497
and 5494
低@@ 5494
核算 5492
派驻 5490
专用 5484
十 5480
定 5479
一人 5475
139 5473
明 5472
第五十四届 5472
乡村 5471
各省 5467
第二十三届 5465
几次 5462
回到 5462
死 5462
合@@ 5460
可疑 5459
权@@ 5453
计 5453
金伯利 5452
生物武器 5446
将近 5441
差 5441
战略方针 5440
失望 5439
分钟 5438
杜@@ 5437
医学 5432
蒂@@ 5432
147 5431
146 5428
4.@@ 5428
动物 5428
公然 5427
注 5424
联网 5424
华盛顿 5422
公职人员 5418
薄弱 5418
巴哈马 5417
单@@ 5414
回@@ 5414
过于 5408
科学家 5407
et@@ 5406
100% 5404
不必 5400
执行机构 5400
犯罪者 5400
世界粮食计划署 5399
如同 5399
当事 5399
哥本哈根 5398
19@@ 5397
充当 5397
一类 5396
C.4 5394
之上 5392
居留 5391
药物滥用 5387
退出 5384
作@@ 5382
摩纳哥 5376
莱索托 5376
高等法院 5376
os 5366
工@@ 5365
文章 5365
短 5357
孤儿 5356
所致 5356
阿曼 5355
冈比亚 5353
报@@ 5353
乌@@ 5352
天然气 5350
固有 5349
拘禁 5340
无需 5339
不可分割 5336
被控 5333
资发 5331
电力 5328
谨慎 5327
农产品 5324
回合 5324
邦 5323
重债 5322
别的 5320
文字 5320
ed@@ 5319
查询 5319
帕@@ 5316
有意 5316
特立尼达和多巴哥 5316
远 5316
益处 5311
大陆架 5306
直布罗陀 5306
诺 5305
你们 5302
打@@ 5302
专@@ 5301
发病率 5299
办理 5294
减灾 5291
加深 5288
地图 5288
侦查 5287
交流信息 5284
em@@ 5283
国会 5282
城市化 5281
Q@@ 5278
儿子 5278
抵抗 5278
随函 5278
种群 5277
网页 5277
改动 5276
复@@ 5275
应是 5275
用水 5274
思考 5272
塞 5271
奇 5271
飞越 5271
高效率 5271
进出口 5268
货币基金 5267
组@@ 5266
卷 5264
自行 5264
非统组织 5264
美@@ 5263
166 5257
儿 5257
司法程序 5257
借鉴 5256
机@@ 5254
Add.@@ 5252
支 5252
立法机构 5251
境外 5243
非盟 5237
后裔 5236
ic@@ 5226
北方 5225
巴布亚新几内亚 5224
劳动者 5222
基线 5221
传染性 5220
被害人 5220
个案 5219
156 5218
受益者 5209
限制性 5209
ac@@ 5207
核@@ 5207
无线电 5205
吸取 5204
强制执行 5204
235 5200
迈出 5197
151 5196
占有 5194
154 5193
部@@ 5193
参与性 5192
财政年度 5191
01 5189
电子邮件 5189
社会保险 5186
危险废物 5177
循环 5176
抢劫 5174
巴格达 5173
环境卫生 5172
圣@@ 5170
连同 5170
热@@ 5169
联@@ 5166
西撒 5163
07 5162
切实有效 5159
恩 5157
2.2 5156
交@@ 5156
220 5154
á 5153
参数 5152
元 5151
现@@ 5151
270 5150
军官 5150
相符 5149
定稿 5148
149 5147
希族 5143
st@@ 5142
技术咨询 5141
证券 5140
得@@ 5136
费@@ 5135
x@@ 5134
加重 5134
穆@@ 5134
僵局 5128
将要 5127
健康权 5126
联合国贸易和发展会议 5125
152 5124
暴力事件 5124
担忧 5122
竞争法 5121
第十三届 5121
浓度 5119
第一条 5118
消耗性 5117
愿景 5116
陆地 5114
健康状况 5113
定居者 5113
裁减 5111
统计资料 5108
书记官 5106
当@@ 5106
军@@ 5105
全国性 5103
驱动 5103
创收 5102
同行 5100
层次 5099
经常性 5099
培训中心 5098
210 5097
拆除 5096
声援 5093
内外 5092
复兴 5092
1984 5091
化@@ 5088
大多 5087
女工 5087
开 5085
严格遵守 5081
谈 5079
仲裁庭 5078
解放 5078
继续加强 5077
贫民窟 5077
148 5071
感 5070
波黑 5070
推定 5067
宗 5066
代@@ 5065
条中 5062
动用 5061
红十字国际委员会 5061
辅导 5060
雷 5058
东 5056
令人鼓舞 5055
TD 5053
157 5052
解雇 5052
各项措施 5050
最低工资 5049
接种 5048
卖方 5047
英 5044
履约 5041
判定 5040
侵权行为 5039
日向 5035
联络小组 5034
接待 5031
着眼于 5031
产 5029
汲取 5028
相辅相成 5022
经社 5021
施行 5020
人口普查 5009
1.2 5008
委 5007
口粮 5006
致函 5002
暴行 5001
省级 5000
摩加迪沙 4997
社团 4995
免除 4993
纠纷 4993
太 4992
et 4991
坦桑尼亚 4991
此前 4991
组成员 4991
干扰 4990
王国 4990
湖区 4989
西欧 4987
手@@ 4986
避孕 4984
学员 4981
朝 4980
判断 4979
158 4977
外勤人员 4977
看作 4977
出席会议 4975
韩国 4971
流 4970
救援 4969
称赞 4969
技术性 4966
故意 4966
递交 4965
190 4964
作战 4958
至迟 4958
特派 4955
第七 4955
ć 4954
小规模 4949
第一步 4948
之日起 4946
男人 4944
一笔 4943
米@@ 4943
成长 4941
光@@ 4936
卢@@ 4935
所定 4935
C.6 4934
一周 4933
暂定 4933
审计报告 4931
下令 4929
多重 4928
民用 4928
手 4927
看出 4927
ing 4920
两位 4920
ani 4919
驻科 4918
曼 4917
之友 4911
过分 4911
学年 4910
不变 4907
心@@ 4907
监督机构 4905
越境 4904
顺序 4903
编入 4902
贯彻 4902
波恩 4901
列报 4900
总量 4897
轮 4897
市镇 4895
困境 4894
科摩罗 4894
时应 4893
问卷 4891
海啸 4890
靠 4889
分组 4888
检查站 4888
分项 4887
两国 4886
差旅费 4885
军备竞赛 4884
Mar@@ 4883
ut@@ 4881
资源分配 4881
发表意见 4880
住宅 4872
并@@ 4871
208 4870
蒂 4869
现况 4865
ov@@ 4864
医疗保险 4862
财力 4861
土地利用 4859
X 4857
扶贫 4854
查@@ 4854
体@@ 4852
基础教育 4852
保护区 4851
林@@ 4851
实况 4850
损坏 4850
富有 4847
受援国 4839
受到限制 4837
抚养 4837
主持人 4834
即便 4833
963 4830
省份 4828
化合物 4827
必然 4825
教 4825
累积 4819
之所以 4818
名为 4818
战略目标 4818
遭遇 4818
161 4816
认同 4816
= 4812
含水层 4810
族群 4808
香港 4807
借口 4806
平等待遇 4806
尽量减少 4805
承担责任 4804
动荡 4802
缉获 4802
答辩 4801
om@@ 4798
镇 4796
看待 4795
ST 4790
适宜 4790
走私 4789
防@@ 4789
29@@ 4787
and@@ 4784
高度重视 4783
严厉 4781
明@@ 4780
常见 4778
几十年 4777
林 4776
中央银行 4771
向前 4770
里程碑 4770
过渡政府 4769
鼓舞 4769
尼亚 4767
验证 4765
海岸 4764
下届 4763
深感 4760
新增 4757
良心 4756
自卫 4752
ig@@ 4751
苦难 4750
动 4742
夫人 4742
165 4741
边缘 4741
ul@@ 4740
北约 4740
第十条 4736
详细资料 4735
文盲 4733
通货膨胀 4732
注销 4731
病例 4729
阶层 4728
航行 4725
应计 4723
捕鱼 4723
到达 4721
350 4718
闭幕 4718
三大 4716
特别强调 4714
仅限于 4712
饮水 4712
基层 4707
审前 4707
官 4706
考察 4704
4.1 4703
有形 4702
相似 4701
诺@@ 4701
佛得角 4698
基督教 4698
惩戒 4698
无人 4697
阿布哈兹 4695
犯人 4694
森 4692
阿拉伯语 4692
240 4690
信@@ 4690
天基 4689
理念 4689
打破 4687
ir 4686
节余 4686
距离 4686
159 4685
复审 4685
常任理事 4682
目前为止 4682
解决问题 4680
女@@ 4679
全文 4678
塞浦路斯共和国 4677
厂 4671
节约 4670
工厂 4668
策略 4668
铲除 4667
x 4666
总收入 4664
宽容 4663
新闻稿 4663
长时间 4661
受过 4660
确信 4658
荣幸 4658
1979 4656
该案 4655
场地 4654
Am@@ 4652
242 4651
撰写 4649
此@@ 4648
巴勒斯坦国 4646
联络点 4645
201 4644
七@@ 4644
使@@ 4642
以使 4640
前体 4640
穆罕默德 4639
中立 4637
八@@ 4635
结核病 4634
梅@@ 4633
248 4632
六种 4631
合办 4629
av@@ 4626
回复 4626
幅度 4626
登记处 4625
院 4624
加紧 4622
不必要 4621
INF 4620
潜能 4618
减至 4616
命运 4615
批 4615
借助 4614
全力支持 4614
财政部 4609
阿卜耶伊 4609
Ar@@ 4603
ib@@ 4603
负 4602
遗传 4601
交存 4600
三年期 4596
教@@ 4595
以色列国防军 4594
炸弹 4594
会员 4592
该股 4592
幼儿 4591
调解人 4589
不满 4588
农药 4587
二氧化碳 4584
p 4583
及@@ 4582
季度 4582
土族 4581
农场 4578
宣读 4577
带有 4577
二苯醚 4575
到期 4574
民航 4573
八个 4571
征税 4571
第七次 4569
ra 4568
熟悉 4568
强行 4566
260 4563
院长 4563
原来 4561
添加 4560
即可 4559
3.2 4558
时刻 4557
.2 4550
um@@ 4549
一下 4549
文献 4543
晋升 4541
213 4538
兑现 4536
钱 4536
环境影响 4534
WP.@@ 4533
前进 4533
在职 4531
第二款 4529
理@@ 4528
刚刚 4527
请愿 4525
负担得起 4525
Kh@@ 4524
正@@ 4522
供其 4520
一组 4516
陈 4516
第二节 4514
矿物 4511
ot@@ 4509
奖 4509
拨 4508
独联体 4508
第六十六 4508
美洲国家组织 4508
小册子 4507
230 4506
ir@@ 4504
西非国家 4503
年份 4501
传真 4497
164 4494
毕业 4494
俄 4493
出入 4493
农业部门 4490
联大 4487
一并 4483
据估计 4481
草拟 4481
该处 4481
提高效率 4478
机会均等 4476
套 4473
系统性 4469
孤立 4468
八届 4467
结社自由 4467
一体 4466
模块 4464
俱乐部 4463
共@@ 4463
监视 4463
继续执行 4463
大批 4462
简介 4459
股@@ 4459
出色 4458
在此期间 4458
联发援 4458
迫切 4458
萨赫勒 4457
南北 4456
第二项 4455
团队 4454
第一份 4452
.1 4451
强 4451
251 4450
峰会 4450
无关 4445
职员 4444
L.@@ 4440
洛 4440
真实 4440
索偿 4438
慈善 4437
想要 4435
违约 4435
楼 4434
75% 4431
真诚 4427
量化 4427
163 4426
1974 4425
保卫 4425
市政 4425
代理人 4424
履行职责 4423
必要条件 4423
保@@ 4422
Sub.2 4421
167 4420
该科 4420
加共体 4419
兰@@ 4414
地向 4414
更@@ 4414
深刻 4408
处@@ 4407
无辜 4407
奥 4405
175 4404
家@@ 4403
月初 4402
os@@ 4401
免于 4401
半 4401
口 4401
学@@ 4401
开罗 4399
消费量 4399
心 4398
恩@@ 4398
皮@@ 4396
身@@ 4396
限额 4396
好@@ 4395
科学研究 4394
储蓄 4393
字 4393
职司 4393
搜查 4389
表示遗憾 4389
成熟 4388
创伤 4386
分阶段 4385
ina 4384
不适 4384
附表 4384
吉 4383
臭氧层 4379
之害 4377
监控 4374
火箭 4373
出庭 4370
大麻 4369
供应链 4366
降至 4366
获准 4365
总产值 4364
韦@@ 4363
一节 4362
下属 4360
创立 4360
交通运输 4358
接到 4357
选 4357
搬迁 4356
1325 4353
172 4353
竞争性 4352
1983 4351
辩护律师 4350
介入 4346
消息 4345
要么 4340
排 4338
人员编制 4337
付 4337
嫌疑人 4336
特许 4334
慷慨 4331
永远 4330
PRST 4329
ah@@ 4329
变@@ 4323
大气 4322
初等教育 4320
St@@ 4314
分裂 4314
民法 4314
UN@@ 4313
控制措施 4312
文中 4312
尽力 4311
当作 4311
诸多 4311
211 4310
抗 4310
沙特 4310
10.@@ 4309
植物 4309
东@@ 4308
严重威胁 4308
支持者 4308
视@@ 4308
反叛 4307
一部 4306
168 4305
ap@@ 4305
利害关系 4305
转达 4305
进而 4304
附带 4304
民政 4298
一案 4296
贝鲁特 4296
自然人 4292
身心 4291
频繁 4290
用语 4288
十七届 4287
189 4286
表述 4285
az@@ 4280
学者 4279
鉴定 4278
国防军 4277
表决权 4275
走向 4274
付出 4273
朝着 4272
监护人 4271
程序性 4271
合理化 4269
解散 4268
仪式 4267
男童 4267
私有化 4267
信仰自由 4266
耶 4261
í 4259
殖民主义 4259
... 4258
1960 4257
交叉 4257
快 4257
军人 4256
见@@ 4256
表示满意 4254
192 4253
代替 4253
公共秩序 4253
尤为 4253
麻 4253
决定性 4252
总局 4251
百万美元 4251
解放军 4251
联伊 4250
题目 4248
再度 4246
估值 4244
着重于 4243
定性 4240
统计局 4240
2.3 4237
进出 4237
不利于 4236
生殖器 4236
2.5 4235
空白 4235
制度化 4234
常 4234
载入 4234
向@@ 4232
新生儿 4231
金融服务 4231
信誉 4228
伯利兹 4226
汇集 4226
药 4226
AC.109 4224
227 4221
处在 4219
斯威士兰 4219
引进 4217
大使馆 4216
成分 4216
地理信息系统 4212
花费 4211
ov 4208
莫斯科 4207
国家主权 4206
地址 4206
广告 4205
ro@@ 4202
值得注意 4202
奴隶制 4199
竞选 4199
综管 4199
or 4198
不明 4195
服务业 4194
含 4193
关岛 4191
紧急状态 4188
相称 4186
选择性 4186
174 4185
妥协 4185
结构调整 4185
领事 4183
171 4182
密切相关 4182
1975 4181
毫无疑问 4179
1977 4178
优先权 4177
感染者 4177
鱼 4177
灾后 4176
第纳尔 4176
即决 4175
当今 4175
中等教育 4174
占领军 4174
律师协会 4173
im 4172
往 4171
撤消 4170
储备金 4168
结成 4164
1961 4162
获释 4162
15.@@ 4158
变更 4158
签署国 4158
积压 4157
联络处 4157
of 4156
定@@ 4156
放@@ 4156
展览 4155
9.@@ 4147
深表 4145
监察组 4143
众所周知 4135
183 4132
不确定性 4132
中请 4131
生产者 4130
下去 4129
罗姆 4129
.@@ 4128
五名 4127
得知 4127
毫不 4126
民主化 4125
审案 4123
新型 4123
赤道几内亚 4122
如今 4121
信件 4118
系数 4117
6.@@ 4115
义务教育 4115
上面 4114
普遍存在 4114
监护 4113
SC 4112
贸易协定 4112
例外情况 4111
严重性 4108
户主 4108
铁路 4105
远程 4103
或非 4102
下放 4101
二级 4100
条所 4100
金@@ 4099
留下 4098
中为 4097
02 4094
老人 4092
独立宣言 4091
前所未有 4090
毫无 4090
自动化 4090
基石 4089
艰难 4089
法律依据 4087
生育率 4087
IN@@ 4082
要@@ 4081
北@@ 4076
od@@ 4075
这使 4075
等国 4074
议会选举 4073
东亚 4072
作者 4072
听到 4072
替换 4070
交 4069
率为 4069
相结合 4069
国际金融 4068
185 4066
CO 4066
苏里南 4066
173 4065
落 4065
姆@@ 4063
法律义务 4062
群 4061
咨询机构 4060
教会 4060
携带 4059
流@@ 4057
虽 4057
卢 4056
手中 4054
东非 4053
四名 4053
io 4048
司@@ 4047
空 4045
团@@ 4044
不动产 4043
利率 4040
小组会议 4040
管理工作 4040
升 4036
定型 4036
精@@ 4034
规划系统 4031
中欧 4030
调查员 4028
互相 4027
第一项 4027
一批 4026
列@@ 4026
家具 4026
育儿 4026
等于 4025
事例 4023
调@@ 4020
身份证 4017
us@@ 4015
实@@ 4015
覆盖面 4015
性取向 4013
优化 4010
场合 4010
教育领域 4010
完全符合 4009
精神药物 4009
177 4007
和平部队 4006
天内 4006
各届 4004
鲁 4004
毁坏 4002
供@@ 4001
外来 4001
查 4001
缔约 4001
ed 4000
内在 3999
管理部 3998
专业知识 3997
气@@ 3996
花 3995
图瓦卢 3994
赫@@ 3994
访问团 3992
1971 3990
关键因素 3990
声音 3990
闭门 3988
屠杀 3987
空气 3985
户 3984
4.2 3981
被@@ 3981
186 3980
一段时间 3980
抵制 3978
ou 3976
施工 3976
214 3975
回国 3975
丧生 3974
按时 3974
汇总 3972
181 3971
三种 3970
出缺 3970
多方面 3968
电 3968
191 3966
人才 3966
不少 3965
@ 3963
山 3963
而定 3963
住宿 3962
第二十四届 3960
eb@@ 3959
il 3959
禁试 3958
过时 3957
243 3956
精算 3955
武装力量 3954
1951 3952
农发 3952
追查 3950
这么 3949
作证 3946
管理处 3946
贯穿 3946
出身 3945
普 3945
陪同 3945
下表 3943
男 3942
项@@ 3942
有限公司 3940
分工 3939
勒@@ 3939
第三节 3939
日本政府 3938
革新 3937
原始 3935
适用范围 3935
U 3933
规范性 3933
论文 3930
不愿 3927
城 3926
承包者 3926
中国政府 3925
前面 3924
缺口 3923
% 3921
03 3921
226 3919
“ 3919
实用 3918
审视 3918
被告人 3911
个体 3910
母婴 3910
圣卢西亚 3907
有毒 3906
建立联系 3905
re@@ 3904
其管辖 3904
制@@ 3899
来@@ 3899
178 3896
半@@ 3896
相关者 3895
保 3893
实验 3890
出发 3889
负有责任 3889
安道尔 3887
商 3885
笔 3885
附有 3885
取@@ 3882
第六十 3881
大臣 3878
油 3878
一个月 3877
鸿沟 3877
介绍性 3875
写 3874
延续 3874
戈@@ 3873
条约法 3873
生产率 3873
法医 3872
尊敬 3871
新闻界 3871
患有 3869
维 3869
法制 3868
18.@@ 3866
所罗门群岛 3863
eg@@ 3862
什 3862
毒性 3860
04 3857
门@@ 3857
无论如何 3856
负面 3856
预@@ 3856
瓦努阿图 3855
第十九届 3854
输入 3854
承办 3853
176 3852
引导 3851
红十字会 3850
判处死刑 3849
人身安全 3848
成年 3847
四方 3846
233 3845
最@@ 3845
经济合作与发展组织 3844
仓库 3841
历史性 3840
第十二条 3840
28@@ 3839
重大贡献 3838
杀 3836
14.@@ 3835
man 3834
不论是 3834
反洗钱 3834
信念 3833
切实可行 3833
医务 3833
印度洋 3833
家中 3833
202 3832
为本 3832
急剧 3831
评委 3831
精确 3829
Ad@@ 3826
应收 3826
性行为 3825
按@@ 3825
九个 3823
逃离 3823
连@@ 3821
恐惧 3819
扎 3819
III 3816
改@@ 3816
研发 3816
项目管理 3814
民@@ 3812
L.1 3811
何时 3809
集 3809
206 3807
联东 3807
进@@ 3807
集@@ 3807
兵力 3805
光 3803
187 3802
主 3801
划定 3801
照片 3801
国情 3800
增列 3800
大力支持 3796
在场 3795
卫生部门 3793
如上 3793
头@@ 3792
极@@ 3792
1972 3791
戈 3791
209 3789
四项 3789
阿尔@@ 3789
接@@ 3786
卡尔 3784
投 3782
合作项目 3779
it 3778
工作日 3777
词 3777
亿@@ 3774
话 3771
7.@@ 3768
218 3767
信息管理 3767
减 3767
184 3764
16.@@ 3758
可靠性 3758
萨米 3758
招标 3757
” 3755
aw@@ 3752
十周年 3752
此案 3752
深化 3751
预警系统 3751
创造条件 3747
动@@ 3747
225 3746
破坏性 3744
194 3743
我愿 3741
先例 3740
名字 3740
af@@ 3738
于@@ 3738
符合国际 3734
年来 3730
出资 3729
宗教自由 3727
莱 3726
受伤害 3725
增订 3724
毒素 3724
禁毒署 3724
保留意见 3723
多元化 3723
海洋生物 3723
顿 3723
生成 3722
金沙萨 3721
0% 3719
第八条 3719
拯救 3717
本项 3717
电脑 3717
排@@ 3716
下落 3715
可取 3714
罢工 3714
逻辑 3714
ai 3713
不结盟 3711
估价 3711
阿拉木图 3709
合 3708
教材 3708
霍@@ 3708
投标 3707
指责 3706
188 3705
消极影响 3705
您 3704
运@@ 3704
179 3703
喀土穆 3703
12.@@ 3702
各个领域 3702
us 3701
与非 3701
里奥 3700
保护环境 3699
法律咨询 3698
公职 3696
源自 3696
CONF.@@ 3692
将军 3691
捍卫者 3691
范例 3690
阅读 3690
占据 3686
两天 3684
届满 3683
第三章 3683
转运 3681
速效 3681
超@@ 3680
车@@ 3680
频率 3680
207 3679
刚才 3679
万名 3677
见表 3675
连 3673
审慎 3670
初始 3669
应于 3669
运转 3667
加勒比地区 3664
时所 3664
公营 3660
拘留所 3660
那@@ 3660
电视台 3658
205 3657
注射 3655
服务提供者 3654
自杀 3654
1976 3652
取 3652
早婚 3652
博 3651
多万 3651
极其重要 3651
事@@ 3649
提供者 3649
等@@ 3648
商@@ 3647
某项 3646
所起 3645
人选 3643
盈余 3643
附注 3643
核对 3642
简易 3642
模拟 3641
各种各样 3639
皇家 3637
1969 3635
报纸 3634
稿 3633
贵国 3633
保护法 3631
内政 3631
第十六届 3631
引用 3630
到位 3629
取缔 3628
接着 3625
职工 3624
228 3623
一次性 3623
尝试 3623
杂志 3623
质 3623
信号 3620
欧共体 3620
艾@@ 3618
车队 3618
非法行为 3618
多人 3617
后代 3616
总督 3616
翻修 3616
Add.3 3615
那时 3614
弱点 3611
组织法 3611
下达 3607
参见 3606
奴隶 3606
标记 3605
基金组织 3604
切@@ 3602
托管 3602
203 3601
班@@ 3601
善政 3600
布林迪西 3600
宗教信仰 3598
193 3596
需@@ 3596
不良 3594
第十七届 3594
座 3593
全民 3592
到@@ 3591
平@@ 3588
彻底消除 3588
耶@@ 3588
加倍努力 3586
被判 3586
财务管理 3586
图像 3584
巴厘 3583
阻挠 3582
沃@@ 3581
造林 3581
目录 3579
全氟 3578
制造业 3578
社会主义 3578
ana 3577
上涨 3577
行政助理 3577
易于 3576
集装箱 3576
3.3 3575
发电机 3575
打 3575
.4 3571
El@@ 3571
侵入 3571
圣 3571
有所改善 3571
清洗 3571
视角 3569
Th@@ 3568
利益冲突 3568
北非 3567
新喀里多尼亚 3567
269 3566
板 3566
年龄组 3564
违法 3564
注意力 3563
尚待 3560
深@@ 3560
含量 3559
核设施 3559
主体 3558
密集 3558
技巧 3558
保养 3557
原告 3556
参议院 3556
变 3556
并入 3555
27@@ 3554
转入 3554
人称 3553
喀布尔 3553
选举法 3552
烟草 3550
发表声明 3547
使该 3546
有效率 3545
考绩 3545
延伸 3543
美国@@ 3543
控告 3542
总的来说 3541
团聚 3540
该段 3539
难@@ 3539
回归 3536
推@@ 3536
未成年 3536
266 3535
病@@ 3535
叛乱 3534
年度预算 3533
片 3533
222 3532
Ab@@ 3532
公斤 3530
访谈 3530
打死 3529
名誉 3528
铀 3528
op@@ 3527
z 3527
8.@@ 3526
第十五届 3526
朋友 3525
明年 3524
统治 3524
197 3523
交流经验 3523
海运 3523
再@@ 3522
长期以来 3519
241 3517
EC 3517
ine 3516
传染 3516
源于 3516
转换 3515
面@@ 3515
发票 3513
经由 3513
非洲统一组织 3513
风@@ 3513
致命 3510
253 3509
业@@ 3509
第八 3507
造福 3507
阿拉伯人 3507
贝 3506
外聘 3505
十二 3504
另见 3504
刚 3502
往来 3502
拒 3502
保人 3501
第七章 3501
艰苦 3501
推荐 3499
致力 3499
大纲 3496
记得 3496
侦察机 3493
237 3491
承运人 3491
杀人 3489
杰@@ 3489
联合声明 3487
195 3486
2.4 3486
伴侣 3486
上半年 3484
弹道导弹 3484
准入 3479
还会 3478
夫妻 3475
管理制 3473
多层面 3472
平行 3472
推翻 3472
理事国 3472
缩编 3470
失@@ 3469
临 3467
主管机关 3467
忽略 3467
相互作用 3467
AC.105 3465
下半年 3464
公正性 3464
公告 3463
圣马力诺 3463
但@@ 3462
在实践中 3461
ud@@ 3458
代 3458
办@@ 3458
上限 3457
事务局 3457
450 3456
塞舌尔 3456
联合体 3456
退休金 3456
庇护所 3455
阿鲁沙 3455
管理制度 3454
WG 3453
演讲 3451
第十八届 3451
指@@ 3450
列明 3449
张 3449
早@@ 3449
其所 3447
法律效力 3446
中向 3445
sh@@ 3442
产@@ 3442
缅甸政府 3442
赫 3442
每届 3441
204 3440
重计 3438
镇压 3438
司法部长 3437
里约集团 3436
196 3435
敌对 3435
根据上述 3435
详细情况 3435
行为人 3434
赢得 3434
急需 3432
搜索 3430
一大 3429
淡水 3429
节@@ 3428
216 3427
除名 3427
多元 3423
干@@ 3423
选项 3422
英联邦 3421
路@@ 3420
迎接 3420
199 3419
通告 3419
ob@@ 3418
几位 3418
奉行 3418
已婚 3418
局限于 3416
教廷 3416
记 3416
大会决议 3415
调节 3415
280 3414
基会 3412
难题 3412
236 3411
局@@ 3411
无权 3411
ó 3409
双@@ 3409
215 3408
增@@ 3408
媒介 3407
癌症 3407
221 3406
时机 3406
ES 3405
货运 3405
高层 3404
构成威胁 3403
5.1 3402
全环 3401
An@@ 3399
传达 3399
Kar@@ 3395
建 3394
贝尔格莱德 3394
及早 3392
网@@ 3390
198 3389
热带 3389
飓风 3389
房地 3388
余地 3387
插入 3385
见本 3385
ay 3384
乍 3384
流量 3384
编@@ 3384
调拨 3384
东京 3382
胡@@ 3382
19.@@ 3381
社会工作者 3381
标签 3380
疑问 3379
阿比让 3378
东南欧 3375
工艺 3375
征收 3374
意 3374
各政党 3373
空间科学 3373
同性恋 3372
安提瓜和巴布达 3371
航空公司 3371
阿克拉 3369
大小 3368
市长 3367
结@@ 3365
联格 3363
第二十六条 3362
肤色 3362
安全措施 3361
强@@ 3361
从业人员 3360
年会 3359
前者 3358
建@@ 3358
犯罪人 3358
黑@@ 3358
谨向 3356
旅馆 3354
政@@ 3351
奉 3350
没 3350
0.7% 3349
联布 3349
宪政 3348
茨 3348
残割 3347
13% 3345
238 3345
众议院 3343
西班牙文 3342
党派 3341
籍 3339
赔偿额 3339
ek@@ 3337
安盟 3337
收缴 3337
导言 3335
终身 3334
11.@@ 3333
12% 3329
兴奋剂 3328
艰巨 3327
九@@ 3326
近@@ 3325
大会堂 3323
略有 3323
联署 3321
弗@@ 3319
伦@@ 3318
居 3318
执照 3318
id 3313
致意 3312
各不相同 3310
IS@@ 3309
旧 3309
娱乐 3308
少于 3306
横向 3306
信息中心 3305
总计 3305
计@@ 3304
1267 3303
国王 3303
悲剧 3303
ev@@ 3302
周@@ 3302
访问期间 3302
替代性 3301
公共安全 3300
流域 3300
ik@@ 3299
摩尔多瓦 3299
第九 3298
军用飞机 3297
呈 3296
跨越 3295
准 3294
梅 3294
逾期 3294
查验 3292
农@@ 3291
各项政策 3289
增值 3288
明确指出 3288
赔偿金 3285
Dec.@@ 3284
休假 3284
恐怖活动 3283
扭曲 3283
简短 3283
身 3283
务实 3282
th@@ 3280
年内 3279
17.@@ 3278
抵销 3278
索取 3276
圣文森特 3275
战略部署 3275
一整套 3272
罪名 3272
稳步 3271
所在国 3270
改划 3269
选@@ 3269
限定 3267
人道 3266
外籍 3263
审定 3263
识字 3261
公海 3260
易@@ 3260
波 3260
地下水 3259
岗位 3259
服兵役 3259
已知 3258
赤字 3253
iv@@ 3250
办公厅 3250
油@@ 3250
276 3249
拉特 3249
246 3246
千@@ 3246
查访 3246
日后 3244
内务部 3242
部族 3240
种子 3239
装@@ 3238
244 3237
民间组织 3237
辞职 3237
检察 3235
医务人员 3234
改革方案 3232
任@@ 3229
交换意见 3228
欠款 3228
来到 3227
军方 3226
早些时候 3224
汤加 3224
福@@ 3224
课 3223
常@@ 3222
第二期 3222
护士 3221
携手 3221
290 3220
亿人 3220
应从 3220
血@@ 3219
217 3218
个@@ 3218
山@@ 3218
某人 3218
轰炸 3218
此人 3217
殖民 3217
力@@ 3216
1.5 3214
东欧国家 3214
特许权 3214
行列 3214
商业性 3213
善治 3213
格林纳丁斯 3210
265 3209
卡拉巴赫 3209
普遍认为 3209
哪 3208
第一@@ 3208
隐私 3208
247 3207
修理 3207
点@@ 3207
地为 3206
效能 3206
无力 3206
中所列 3205
先@@ 3205
防卫 3204
刑事案件 3203
5.2 3202
保育 3202
齐 3202
款@@ 3200
1.3 3198
大屠杀 3197
住户 3196
性传播 3196
此一 3196
卡车 3194
欧@@ 3194
菲@@ 3194
RC 3193
太平洋地区 3193
仲裁员 3191
乐观 3190
牺牲 3190
几天 3188
管@@ 3188
讲座 3188
13.@@ 3187
ec@@ 3187
听 3187
扩充 3187
255 3185
务@@ 3185
氢 3185
通行 3185
大致 3184
初 3183
文莱达鲁萨兰国 3181
Ali 3180
所称 3180
立@@ 3180
诚意 3180
金融市场 3178
中央政府 3176
箱 3175
永久性 3173
伪造 3172
结社 3172
一新 3171
然 3171
物项 3170
第一年 3170
最低标准 3169
政策措施 3168
混乱 3168
之类 3167
只会 3166
老@@ 3166
覆盖率 3166
大家庭 3163
居@@ 3163
易受 3163
国家@@ 3162
远@@ 3161
ha 3160
营造 3159
258 3158
海军 3158
警务人员 3158
得益于 3157
两架 3156
代表权 3156
总体目标 3156
一辆 3155
本函 3153
裁判 3153
责成 3153
基本法 3152
太阳能 3152
两类 3151
公顷 3151
年级 3151
231 3150
人体 3149
读 3149
金钱 3149
原有 3147
检察院 3145
离 3145
莫 3145
偿付 3144
满 3144
桥梁 3143
三角 3142
中应 3141
研制 3141
第一批 3141
函件 3140
35% 3139
第十四届 3138
令人担忧 3136
对照 3136
累计 3136
刑警 3135
努@@ 3134
导则 3134
正面 3134
4.3 3133
住区 3132
备件 3129
树立 3128
各次 3127
如上所述 3127
ie 3126
汇 3126
流动性 3126
应用程序 3125
离@@ 3125
教员 3124
只@@ 3123
备灾 3123
L.2 3122
欧洲理事会 3122
除@@ 3122
264 3121
南美洲 3120
播放 3120
联索 3120
234 3119
下来 3119
他@@ 3119
渥太华 3118
同期 3117
租用 3117
牲畜 3116
函 3115
扎@@ 3115
新政府 3115
负责管理 3115
但须 3113
军事法庭 3113
禁 3113
清晰 3111
亟需 3110
民用航空 3110
力图 3107
杰出 3107
第十七条 3107
营业 3106
Bar@@ 3104
候选国 3104
格林纳达 3104
异议 3103
232 3102
COP 3101
症 3101
某种程度 3100
聚集 3099
au@@ 3098
申请者 3097
283 3096
PV.@@ 3096
ari 3096
土@@ 3096
应享 3096
Q 3094
差额 3094
探测 3094
焦点 3094
第三款 3093
一句 3092
届时 3092
海域 3087
敌方 3086
无罪 3085
伤 3083
扣除 3083
千克 3081
指认 3077
289 3076
为主 3076
发生率 3076
核爆炸 3075
缺点 3075
价值链 3072
第四章 3072
美属 3070
白@@ 3069
视频 3069
未满 3067
XV 3066
国际性 3066
日常生活 3066
重新考虑 3066
高风险 3066
尸体 3064
逆转录 3061
三级 3059
军用 3058
贿赂 3058
ang 3056
已获 3056
沉重 3056
249 3055
标识 3054
斯特 3052
Mr 3050
两人 3050
伤残 3050
控诉 3049
苏 3048
劳工法 3046
依赖于 3045
水域 3045
太@@ 3044
254 3043
公 3043
环保 3043
运 3043
典型 3042
物理 3042
随@@ 3042
案中 3038
通道 3036
口@@ 3034
似宜 3033
发生变化 3033
总之 3033
降 3033
意志 3032
资@@ 3031
20.@@ 3030
非核心 3030
og@@ 3029
不符 3029
科技委 3029
民族团结 3027
长期存在 3026
雇佣 3026
监督机制 3025
施@@ 3024
生活水准 3024
两周 3023
紧急行动 3023
可卡因 3022
特有 3022
不合理 3021
假@@ 3021
无须 3021
天主教 3017
不让 3016
就此结束 3014
庭 3013
根本原因 3013
台湾 3012
教育部门 3012
否决权 3010
非暴力 3010
妇女儿童 3009
最长 3009
辍学 3009
oc@@ 3007
东南亚国家联盟 3007
223 3006
元首 3006
情况通报 3006
火@@ 3006
乌 3005
扬 3005
无意 3005
走廊 3004
助@@ 3003
在外 3003
ez 3002
一件 3002
总人口 3002
传@@ 3001
变为 3001
炮弹 3001
ub@@ 3000
以免 3000
战略伙伴 3000
落后 3000
X@@ 2999
炸药 2999
第四节 2998
贸易谈判 2997
主计长 2996
巡逻队 2995
款中 2995
步伐 2995
疗法 2995
第六十九 2994
首相 2994
齐@@ 2992
医药 2991
245 2990
举 2990
反复 2990
罪@@ 2990
关@@ 2988
产权 2987
激烈 2987
219 2986
区@@ 2986
关键性 2985
印象 2984
不同于 2983
高中 2982
抵触 2981
诽谤 2978
运载工具 2978
否决 2977
算 2977
通知书 2977
匮乏 2975
博物馆 2975
渔船 2975
警@@ 2974
反过来 2973
小国 2973
财产权 2973
越 2971
多达 2970
债券 2969
充满 2968
对比 2968
案@@ 2968
埃厄 2966
犹太人 2966
达喀尔 2966
iy@@ 2965
战 2965
起因 2965
质量保证 2964
产科 2963
紧急状况 2963
论 2963
人物 2962
启用 2962
定位 2962
导向 2961
泰@@ 2960
物流 2960
社会@@ 2960
利亚 2959
司机 2959
热线 2958
领导层 2958
持@@ 2956
宪兵 2955
听证会 2954
教科书 2953
检查和 2953
259 2952
eh 2952
移民局 2952
国际@@ 2951
百慕大 2950
盖@@ 2945
跨境 2943
强加 2941
总体而言 2941
犹太 2941
第八次 2941
El 2940
南共体 2938
低下 2934
废料 2934
消失 2934
结核 2934
la 2933
予 2933
移动电话 2933
部际 2933
录像 2932
防扩散 2929
le 2928
人发 2928
21.@@ 2927
da 2926
辩称 2925
也就是说 2924
联席会议 2924
减排 2922
薪资 2922
身心健康 2922
以求 2921
移送 2921
224 2920
亲@@ 2919
不可避免 2918
夫@@ 2918
服刑 2916
使人 2915
互补 2914
核武库 2914
物@@ 2914
AR@@ 2913
传递 2913
表面 2913
ya 2910
专委 2909
刑 2909
娜 2909
密切联系 2909
阿拉伯文 2908
化管 2907
零@@ 2907
ong 2906
交由 2906
偏远地区 2905
连贯性 2905
存放 2904
蒙@@ 2904
高达 2904
送到 2903
外交政策 2901
西方 2901
近来 2901
该款 2899
275 2897
桑@@ 2897
苏联 2897
采访 2896
飞@@ 2894
ur 2893
大选 2893
百@@ 2893
iz@@ 2892
既有 2892
高等 2892
加以解决 2891
劳@@ 2891
掉 2891
# 2890
ara 2890
凯@@ 2890
360 2889
假期 2889
ent@@ 2888
创新性 2888
来源国 2888
代表大会 2887
Car@@ 2886
丁 2884
女儿 2884
一向 2883
实现目标 2882
全境 2879
准予 2879
一览表 2878
休 2875
发生冲突 2875
否定 2875
平方公里 2875
概括 2873
修@@ 2872
包@@ 2871
合法化 2871
马绍尔群岛 2871
257 2870
261 2870
95% 2869
目 2869
效用 2868
样本 2868
古 2867
语@@ 2867
清@@ 2865
大于 2864
面谈 2864
订 2862
迁徙 2861
八国集团 2860
ICCD 2859
国际刑警组织 2859
安全网 2859
师 2859
六年 2858
敏感性 2856
零部件 2856
拥挤 2854
国贸 2853
总协定 2853
显而易见 2853
转为 2853
不可逆转 2852
中介 2852
应立即 2852
那种 2852
阿里 2852
换 2850
弹 2847
申请书 2845
报销 2844
曼@@ 2844
准军事 2843
系指 2842
意识形态 2840
活 2840
起飞 2840
第十次 2839
A.@@ 2838
另@@ 2838
中华人民共和国 2836
航班 2836
ang@@ 2834
详述 2834
禁@@ 2833
短@@ 2832
奇@@ 2831
送@@ 2831
出境 2830
悬而未决 2830
私@@ 2830
ill@@ 2829
每一项 2827
脚注 2827
野生 2827
数百万 2826
海洛因 2823
商品价格 2822
288 2821
本法 2821
热 2820
.. 2819
持续增长 2819
制图 2817
约@@ 2817
借调 2815
开展业务 2813
338 2812
坚实 2812
最终目标 2812
一语 2811
320 2810
惠及 2809
收 2809
舆论 2809
239 2808
国有 2808
绝不 2808
更高 2807
传媒 2806
商务 2805
通 2805
中午 2804
all@@ 2802
1948 2801
拨出 2801
洪水 2801
承@@ 2800
第一期 2800
决策机构 2796
武装集团 2796
请@@ 2795
电影 2794
血统 2793
229 2792
乃至 2792
美 2792
断定 2791
民间团体 2790
竞赛 2790
杂项 2789
750 2788
分在 2788
1701 2787
缩减 2787
PC 2786
内向 2786
备@@ 2786
保管 2784
国家统计局 2784
征募 2784
列名 2783
吸引力 2782
余下 2781
灌溉 2781
纪念活动 2781
删去 2780
瑙鲁 2780
第九次 2780
262 2779
标@@ 2779
死@@ 2779
投@@ 2778
误解 2778
冷战 2777
272 2775
减损 2775
生殖器官 2774
福克兰群岛 2773
协理 2772
继续下去 2771
当务之急 2770
虚拟 2770
随 2770
协 2769
不但 2768
信用证 2768
期限内 2768
机密 2768
账目 2768
支@@ 2767
杜 2767
前后 2764
第五章 2764
6.2 2762
希 2760
北美 2759
刑期 2758
抗@@ 2758
观 2758
未缴 2757
食@@ 2757
识字率 2755
过渡期 2755
里约热内卢 2755
防御 2754
整@@ 2753
全人类 2751
W 2750
二十@@ 2749
大马士革 2749
解放运动 2748
其为 2746
瓦尔 2746
安南 2745
提出申请 2745
无限期 2745
看@@ 2745
意在 2744
能@@ 2744
浪费 2742
受让人 2741
女子 2741
第二十二届 2741
经济@@ 2741
任职者 2740
审计工作 2740
现阶段 2740
鸦片 2740
305 2739
审核 2738
暴露 2737
聘请 2737
ta 2736
the 2735
理 2735
造@@ 2734
避难 2734
ip@@ 2733
历来 2733
数据中心 2733
珊瑚礁 2733
红新月会 2732
休会 2731
十一 2731
无数 2731
256 2730
庞大 2730
视听 2730
85% 2728
对方 2728
沙 2728
精神病 2728
努力提高 2727
环境退化 2727
第四十九届 2726
伴随 2725
情事 2725
战胜 2724
城乡 2722
温@@ 2722
身上 2721
迈进 2719
甲 2718
记入 2718
首@@ 2718
ass@@ 2717
报导 2717
直@@ 2717
蓝线 2717
谋生 2717
qu@@ 2716
扶养 2716
ep@@ 2712
根 2712
缴 2712
游客 2711
讲@@ 2711
偏离 2710
毕业生 2710
应予以 2709
船旗国 2708
剥夺权利 2707
男@@ 2707
试行 2707
积极支持 2706
创造性 2704
副@@ 2704
提法 2704
合计 2703
开枪 2702
东西 2700
安全局 2700
通报情况 2700
差价 2699
寡妇 2698
解@@ 2698
产后 2697
市政府 2696
恐怖组织 2695
管理员 2695
消息来源 2694
鼓掌 2694
驱逐出境 2693
3.4 2692
另一方 2691
国在 2691
23.@@ 2690
侮辱 2687
强劲 2687
字@@ 2686
机械 2686
调查报告 2686
北极 2684
升@@ 2683
整理 2683
手术 2682
330 2681
列于 2681
各部委 2681
实习 2681
增补 2680
专业化 2678
本质 2678
笔译 2677
这位 2677
高昂 2677
Re@@ 2676
阿塞拜疆共和国 2676
ard 2675
法学家 2675
国内外 2674
285 2673
派别 2672
石 2672
管理司 2672
异@@ 2671
处长 2670
表示同意 2670
有鉴于此 2669
就业率 2668
辍学率 2668
内战 2665
出示 2664
总统令 2664
令人不安 2663
大国 2663
立法机关 2663
状 2661
移@@ 2661
主权国家 2660
帕劳 2660
清 2660
日志 2659
专项 2658
幼儿园 2658
欧空局 2658
计入 2657
金融部门 2657
参与方 2656
广为 2656
忧虑 2656
一本 2655
到来 2655
国际海事组织 2655
残@@ 2655
尼科西亚 2653
竭尽全力 2653
包装 2652
通货膨胀率 2652
雷区 2652
神@@ 2651
旅 2650
技术培训 2649
日止 2649
归@@ 2648
牢房 2648
进一步提高 2648
装 2646
公共事务 2645
一期 2644
Abu 2643
准确性 2643
服从 2642
起点 2642
292 2641
发展局 2641
昂贵 2641
部件 2641
运载 2640
http 2639
威@@ 2639
怎样 2639
悲惨 2639
演习 2639
2.6 2638
控制权 2638
平均数 2637
找 2637
深海 2637
特殊教育 2637
互补性 2634
货 2634
18% 2632
链接 2632
黄金 2632
交战 2631
年满 2631
不安 2629
吸毒者 2628
旱地 2628
to 2626
周转 2626
多于 2626
对联 2626
工程师 2626
致@@ 2626
轮调 2626
一轮 2625
担负 2625
豁免权 2625
忘记 2624
ok@@ 2623
新设 2622
根深蒂固 2622
过多 2622
SBI 2621
专利 2621
留@@ 2621
if@@ 2620
履行义务 2620
30@@ 2619
亲自 2619
带到 2619
毒@@ 2619
缺席 2619
263 2617
公立 2617
填写 2617
密@@ 2617
常任 2617
均等 2615
脱@@ 2614
调度 2614
受损 2613
广播电台 2613
废止 2613
单个 2612
296 2611
果断 2611
域外 2610
月间 2610
关 2609
情绪 2608
行政@@ 2608
MA@@ 2607
接受国 2606
ICEF 2605
占用 2605
当天 2605
日为 2605
分成 2603
成千上万 2603
SA@@ 2602
批准书 2601
252 2600
从来 2600
追@@ 2600
家务 2599
求@@ 2599
上述情况 2598
养@@ 2598
患 2598
扫雷 2597
体检 2596
司法人员 2595
长远 2595
310 2593
6.1 2593
第一季度 2593
塞尔维亚共和国 2592
非法活动 2592
可预测性 2591
临时代办 2590
卡塔赫纳 2589
归因于 2588
挑衅 2588
暗杀 2588
远距离 2587
容器 2586
密切协作 2586
CERD 2585
制造商 2585
引@@ 2585
一章 2584
子@@ 2584
构建 2584
代表作 2582
明白 2582
停火协定 2581
平方米 2581
恶@@ 2581
ch 2579
犯罪集团 2578
罂粟 2578
情节 2576
百万 2576
CO@@ 2575
而应 2574
Y 2573
世@@ 2573
停@@ 2573
建议书 2573
收容所 2573
规格 2573
监核 2572
光盘 2571
日趋 2571
谈话 2571
治@@ 2570
矿 2570
uk@@ 2569
外国投资 2569
干 2569
木@@ 2569
相互尊重 2569
评@@ 2569
45% 2568
角 2568
将@@ 2567
最终用户 2567
服务器 2567
中型 2565
南极 2565
昨天 2565
第四十六届 2563
267 2562
分支机构 2561
生长 2561
压迫 2560
同文信 2560
判决书 2559
书面形式 2558
偏远 2558
德黑兰 2558
撰文 2558
政治犯 2558
角度看 2557
Sal@@ 2556
确@@ 2556
11% 2555
四次 2555
就@@ 2555
日于 2555
来文方 2555
结果表明 2555
评级 2555
矿业 2554
三国 2553
存货 2552
白俄罗斯共和国 2552
技术人员 2551
垃圾 2550
纯粹 2550
美好 2550
传送 2549
17% 2548
延@@ 2548
外交官 2547
抱 2547
非常重视 2547
乌兹别克斯坦共和国 2546
出口国 2546
无家可归 2546
4.5 2545
方括号 2545
特区 2545
志愿者 2544
ak 2543
崇高 2543
盖 2543
550 2542
发电 2542
真@@ 2542
传统习俗 2541
体育运动 2541
当今世界 2540
聚@@ 2540
海盗行为 2539
重新部署 2539
势力 2538
听@@ 2538
14% 2537
质@@ 2537
650 2536
充分发挥 2536
减@@ 2536
天体 2536
非常任 2536
原料 2535
结案 2535
谢@@ 2535
男生 2534
筛选 2534
5.3 2533
ab 2533
吗 2533
安第斯 2530
后面 2529
复制 2529
di 2528
久 2528
捷克 2528
走上 2527
分部 2525
政 2525
切尔诺贝利 2524
国家机关 2524
中旬 2522
除此之外 2522
GS 2521
第一节 2521
南太平洋 2520
澳大利亚政府 2520
Su@@ 2518
声 2518
1963 2517
ra@@ 2517
五项 2517
参看 2516
抵押 2516
数值 2516
饮食 2516
316 2515
口头报告 2515
垄断 2515
墙 2515
局长 2515
很小 2515
浓缩 2515
沿线 2512
687 2511
交往 2511
既然 2511
未获 2511
补@@ 2511
22% 2510
别 2510
半数 2509
门户 2509
同情 2508
两倍 2507
所处 2507
承包 2507
边 2506
破产法 2503
管理信息系统 2503
自由权 2503
阿卜杜勒 2503
发育 2502
学位 2502
议案 2502
老挝 2501
尚无 2500
16% 2498
奥斯陆 2498
波利萨 2498
独@@ 2498
约翰 2498
以为 2497
同一个 2496
量@@ 2496
实时 2495
na 2494
榜样 2494
记@@ 2494
告 2493
ri 2492
地质 2492
多边条约 2491
富@@ 2491
艾哈迈德 2491
陪伴 2491
居住地 2490
词语 2489
原定 2488
采@@ 2488
很@@ 2487
第二份 2486
大气层 2485
免 2484
恩德培 2484
庄严 2483
服务质量 2483
布隆迪政府 2481
技术@@ 2481
极少 2481
可见 2479
有所不同 2479
裁研 2479
善意 2478
席 2478
和平谈判 2477
掩盖 2475
各阶层 2474
提取 2474
Sam@@ 2473
争辩 2473
伦 2473
另一名 2473
可怕 2472
ic 2471
单身 2470
晚 2470
蒙受 2470
视委 2470
Sa@@ 2469
Part 2468
该厅 2466
敌军 2464
v 2463
使馆 2463
帕 2463
政治化 2463
外界 2462
ant@@ 2461
ug@@ 2461
研究员 2461
编拟 2461
Add.4 2460
背@@ 2460
人质 2459
任务区 2459
议长 2459
阿布贾 2459
文第 2458
核销 2458
应以 2457
挑战性 2457
结盟 2457
268 2456
定向 2456
公民投票 2455
一致同意 2454
装运 2454
能效 2453
可予 2452
回报 2452
平静 2452
温度 2452
细目 2452
走@@ 2452
阿尔及尔 2452
可是 2451
青年党 2450
约定 2449
妊娠 2448
审批 2448
287 2447
于是 2447
拨给 2447
越@@ 2447
伯@@ 2446
环境法 2446
什@@ 2445
克斯 2445
服务台 2445
老 2445
内为 2444
279 2443
布宜诺斯艾利斯 2443
省@@ 2443
受限制 2442
候补 2441
天气 2441
专题组 2440
第十五条 2439
绝@@ 2439
制定者 2438
数据@@ 2438
法域 2438
我@@ 2437
医疗卫生 2436
案子 2435
还@@ 2435
首 2435
乘客 2434
战术 2434
换言之 2434
文盲率 2434
ka 2433
主导作用 2432
非洲开发银行 2432
黑人 2432
同工同酬 2431
前途 2429
荣誉 2429
枪 2428
深远 2428
熟练 2428
货@@ 2428
非歧视 2428
多边合作 2426
宣告 2426
分区 2425
待命 2425
老龄化 2425
Ma@@ 2424
人中 2424
履行任务 2423
并行 2422
商业@@ 2421
开火 2421
个案研究 2419
紧缩 2419
阿卜杜拉 2417
年鉴 2416
积极主动 2416
表现形式 2416
足额 2416
辛烷 2416
不懈努力 2413
双边协定 2413
平 2412
经济援助 2412
CCPR 2411
开辟 2410
这部分 2409
动乱 2408
就要 2408
新闻自由 2408
286 2407
伦理 2407
意向 2406
贫困人口 2406
流向 2405
记载 2405
远景 2405
不良影响 2404
感到高兴 2404
水源 2404
1966 2403
国际贸易中心 2403
使本 2400
援用 2400
此基础 2400
3.5 2399
挖掘 2399
全力 2398
Br@@ 2397
定价 2397
智力 2397
运费 2397
块 2396
普里什蒂纳 2396
经理 2396
灾难性 2395
目睹 2395
付诸实施 2394
四分之一 2394
男女之间 2394
谈会 2394
295 2393
关爱 2393
毁 2393
汇@@ 2393
仍@@ 2392
几种 2392
切合实际 2392
持续性 2392
遴选 2392
额@@ 2392
380 2391
初@@ 2391
参观 2391
地下 2391
知名人士 2391
抗击 2389
反对党 2388
所获 2388
AC.@@ 2387
句 2387
地说 2387
弥合 2387
三天 2384
第十一条 2382
Z 2381
外汇 2381
心理健康 2381
模板 2381
重振 2381
偏低 2379
形 2379
法学院 2379
登 2379
防护 2378
C.12 2377
存@@ 2377
本应 2377
正常化 2376
完 2375
敲定 2375
体重 2374
借@@ 2374
选票 2374
具体步骤 2373
封闭 2373
预算内 2373
五岁 2372
借款 2371
直接参与 2371
研究生 2371
q@@ 2370
劫持 2370
拟@@ 2370
时效 2370
第二号 2370
获取信息 2370
铁@@ 2369
281 2368
会计师 2368
ach@@ 2367
免@@ 2367
揭示 2367
专职 2366
受雇 2366
贫困线 2366
全面实施 2364
漏洞 2364
门槛 2364
kh@@ 2363
剩下 2363
图里 2363
松 2363
率@@ 2363
领地 2363
嗣后 2361
活@@ 2361
董事 2361
SBSTA 2360
杀戮 2360
逍遥法外 2360
人口比例 2359
是非 2359
son 2358
密克罗尼西亚联邦 2358
工具包 2358
温 2358
工商业 2357
科菲 2357
步@@ 2356
一座 2355
侵权 2355
可比性 2355
1.4 2354
全球战略 2354
商用 2354
市场经济 2354
雅@@ 2354
仪器 2353
拿出 2353
社群 2353
经济合作组织 2353
隐私权 2353
情 2352
一般来说 2351
缓和 2351
解 2351
窗口 2350
汽油 2349
POPS 2348
早先 2348
4.4 2347
带头 2347
这会 2347
结算 2346
论及 2346
共同利益 2345
借贷 2344
协调会议 2344
始于 2344
家里 2344
清真寺 2344
表中 2344
著名 2343
年届会 2342
非传统 2342
第六章 2341
切 2340
利马 2340
1968 2339
书籍 2339
第四十届 2339
边防 2339
24.@@ 2338
临时性 2338
抓住 2338
接管 2338
核技术 2338
邻近 2338
活产 2336
金融体系 2336
克制 2335
单证 2335
欠 2335
仅为 2334
欧盟委员会 2334
登@@ 2334
SGB 2333
事后 2333
夫妇 2333
协力 2332
检方 2332
空气污染 2332
组办 2332
边境地区 2332
战时 2330
理性 2329
试@@ 2329
一般而言 2328
校 2328
祝愿 2328
第二十七届 2328
273 2326
混合物 2326
调和 2326
集会自由 2326
CP.7 2324
RES 2324
专 2324
Har@@ 2323
受众 2323
海峡 2323
皮 2323
策划 2323
册 2322
祸害 2322
第十八条 2322
ation 2321
广 2321
接替 2321
结婚年龄 2321
至@@ 2321
哈马斯 2320
核心作用 2320
22.@@ 2317
ich@@ 2317
即应 2317
却是 2317
架次 2317
英@@ 2317
ne 2315
第二@@ 2315
杜绝 2314
次@@ 2314
震惊 2314
暴@@ 2313
自营 2313
格局 2312
百分点 2312
避孕药 2312
可望 2311
电子@@ 2311
交货 2310
草@@ 2310
解读 2310
尤@@ 2309
逃避 2309
付诸 2308
占领区 2308
滥杀 2308
翻新 2308
职@@ 2308
管道 2307
aj@@ 2306
付给 2305
筹集资金 2305
Gh@@ 2304
压@@ 2304
射击 2304
存款 2303
33% 2301
参@@ 2301
战@@ 2301
破@@ 2301
照会 2300
送回 2299
兹@@ 2298
逃犯 2298
改叙为 2297
照@@ 2297
覆盖范围 2297
ing@@ 2296
延至 2294
正当理由 2294
282 2293
In@@ 2293
全年 2293
校@@ 2293
340 2292
持有人 2292
提出异议 2292
数年 2292
目标群体 2292
花@@ 2292
伤@@ 2291
冲突地区 2291
发言权 2291
吸入 2291
年里 2291
摆在 2291
爱@@ 2291
教育法 2290
沿海地区 2290
素质 2289
监@@ 2288
牢固 2287
性犯罪 2286
驻扎 2286
与@@ 2285
两者之间 2285
归类 2285
第二十六届 2285
第二类 2285
365 2284
贫困者 2284
Ag@@ 2282
em 2281
归 2281
超支 2281
Ham@@ 2280
预付款 2280
明智 2279
第四十七届 2279
采集 2279
生命周期 2278
适用性 2277
上届 2276
为限 2276
福利部 2276
26.@@ 2275
国家级 2274
母语 2274
民 2274
进来 2274
1950 2273
施加压力 2273
共同市场 2272
凝聚力 2272
初审 2272
卢萨卡 2272
本信 2272
货物运输 2272
起着 2272
器官 2271
外交使团 2271
步 2270
oy@@ 2269
书@@ 2269
磺酸 2269
佩@@ 2268
环节 2268
养育 2267
数据处理 2267
重新分配 2267
变性 2265
合规 2265
第四十三届 2265
少量 2264
深度 2264
稳定性 2264
获@@ 2264
价值观念 2261
抑制 2261
Di@@ 2260
保全 2259
第二十五届 2259
群组 2259
丁@@ 2258
宗教团体 2258
工作进展 2258
赞成票 2258
一枚 2256
个省 2256
游说 2256
若@@ 2256
合法权利 2255
岛上 2255
情@@ 2255
草 2255
同日 2254
网络@@ 2254
304 2253
剂量 2252
65% 2251
情势 2251
行之有效 2251
274 2250
CAT 2250
会议厅 2250
公园 2250
商讨 2250
崩溃 2250
沿 2250
韦 2250
ati@@ 2249
引述 2249
操纵 2249
蒙特塞 2249
药@@ 2247
安援 2246
所知 2245
漫长 2245
尽@@ 2244
社@@ 2244
力争 2243
当事国 2243
款下 2243
Mu@@ 2242
哪个 2242
微额 2242
遵行 2242
事务所 2241
坦@@ 2241
容许 2241
戈马 2241
检索 2241
q 2240
国际电联 2240
ba 2239
不准 2239
充实 2239
赦免 2239
轮@@ 2239
减量 2238
快速反应 2238
经济学 2238
防空 2238
278 2237
使团 2237
安圭拉 2237
艘 2237
赛 2237
保险费 2236
搜集 2236
责任人 2236
拓展 2235
跟进 2235
个人@@ 2234
停留 2234
失踪者 2234
杀伤性 2234
退还 2234
交易所 2233
族人 2233
酸 2233
说服 2232
害怕 2231
政治@@ 2231
ev 2230
严肃 2230
堡 2230
真主党 2230
全会 2229
逮捕令 2229
住院 2227
日益严重 2227
篇 2226
认 2226
277 2225
改良 2225
类@@ 2224
营@@ 2224
首脑 2224
按计划 2222
税@@ 2222
扣留 2221
略 2221
辛@@ 2221
朝鲜半岛 2220
栏 2220
电池 2218
工商企业 2216
刊登 2215
利用率 2214
备用 2214
实力 2214
容纳 2214
展现 2214
风 2214
Gu@@ 2213
伸张正义 2213
晚些时候 2213
戈尔诺 2210
数次 2210
领 2210
军警 2209
商事 2209
教堂 2209
空军 2208
免税 2207
每人 2207
透露 2207
反思 2205
困扰 2205
谈论 2205
第四十八届 2204
马舍尔 2204
供给 2203
受权 2203
拉姆 2203
纵向 2203
警员 2203
中所作 2202
全盘 2202
受灾国 2201
含@@ 2201
张贴 2201
征@@ 2201
圣地亚哥 2200
L.3 2199
增添 2199
学费 2199
第三十八届 2199
1244 2198
^ 2198
有何 2198
总值 2197
航运 2197
农 2195
注入 2195
牌 2195
酌处 2195
不足之处 2194
不顾 2193
牢记 2192
靠近 2192
卫生系统 2191
掠夺 2191
消@@ 2191
420 2190
一倍 2190
服装 2190
突然 2190
修订本 2189
广义 2189
第四个 2189
扩张 2188
日程 2188
CA@@ 2185
南南 2185
测@@ 2185
纽约联合国总部 2185
双重标准 2183
金枪鱼 2183
静止 2183
恐怖袭击 2182
意@@ 2182
渴望 2182
武装人员 2181
佐证 2180
co 2179
分支 2179
生活费 2179
自由选择 2179
士@@ 2178
役 2178
拉美 2178
拒绝接受 2178
VI 2177
坎帕拉 2177
有益于 2177
宽泛 2176
ey@@ 2175
同盟 2175
ow@@ 2173
先后 2172
至多 2172
被盗 2171
新闻媒体 2170
盘 2170
财产损失 2170
廷 2169
残酷 2169
显@@ 2168
湖 2168
视作 2168
ij@@ 2167
两国政府 2167
多种多样 2167
朱巴 2167
色 2167
随之 2167
侵蚀 2166
押 2166
综述 2166
Mohamed 2165
归属 2165
德拉 2165
助益 2164
家政 2164
事实证明 2163
公信力 2163
瓦加杜古 2163
几名 2162
前瞻性 2162
改 2162
陷于 2162
教派 2161
1958 2160
om 2160
一封信 2160
中东问题 2160
有效期 2160
第一类 2160
见图 2160
幸福 2159
萨尔 2159
可行性研究 2158
哈瓦那 2158
激发 2158
股东 2158
个州 2157
优@@ 2156
廉正 2156
标明 2156
第二次世界大战 2156
le@@ 2155
商业活动 2155
感觉 2155
标 2155
锡 2155
公吨 2154
敬意 2154
有望 2154
监委 2154
精力 2154
自豪 2154
远离 2154
2018 2152
370 2152
加拿大政府 2152
第三十九届 2152
基因 2151
氟氯烃 2151
人均收入 2149
十五 2147
271 2145
圣多美和普林西比 2145
CMP.1 2144
依@@ 2144
创@@ 2143
社会群体 2143
第三阶段 2143
及时性 2141
双性恋 2140
努 2138
带薪 2138
待@@ 2138
方在 2138
IV 2137
失业者 2137
日益增长 2137
第四十二届 2137
ey 2136
反而 2136
石棉 2136
空前 2135
股长 2135
CRP.1 2134
存储 2134
线@@ 2134
291 2133
DE@@ 2133
RE@@ 2133
航天 2133
专注 2132
事务部长 2132
开来 2132
格陵兰 2132
玛 2132
移民法 2132
第十六条 2132
iyah 2131
失效 2131
C.@@ 2130
目@@ 2129
各段 2128
新近 2128
预报 2128
例行 2127
加勒比海 2126
房地产 2126
承 2126
方法学 2126
提问 2124
最具 2124
根本性 2124
毁林 2124
群众 2124
希尔 2123
环卫 2123
P.@@ 2121
建成 2121
26@@ 2120
和平共处 2120
少年犯 2120
线路 2120
科目 2119
税率 2119
落@@ 2118
资讯 2118
士 2117
非营利 2117
上校 2116
固定翼 2116
封@@ 2116
处处长 2115
结清 2115
配@@ 2115
探@@ 2114
那个 2114
上将 2113
发布会 2113
维奇 2113
滥伤 2112
树 2111
联合国国际贸易法委员会 2111
适用法律 2111
L.4 2110
虚假 2110
十分重视 2109
废水 2109
开曼群岛 2109
全面解决 2107
民主联盟 2107
生产国 2107
周边 2106
& 2105
结 2105
国籍法 2104
思维 2104
科学界 2104
进攻 2104
全职 2103
拉斯 2103
断@@ 2103
篇幅 2103
仅@@ 2102
动植物 2102
裁 2102
购@@ 2102
印度政府 2100
最少 2100
耗氧 2100
预备 2100
沃 2099
石@@ 2099
读@@ 2098
主旨 2096
社交 2096
观察站 2096
人工 2095
感染率 2095
该局 2095
探访 2094
河@@ 2094
译成 2094
两用 2093
俄语 2093
改建 2093
〇 2092
非洲之角 2092
凯科 2090
拟设 2090
燃烧 2089
记忆 2089
地理位置 2088
海平面 2088
行为准则 2088
非裔 2088
链 2087
周转基金 2086
求助 2086
Sch@@ 2085
受惠 2085
不具 2084
人人平等 2083
品@@ 2083
揭露 2083
末 2083
共用 2082
工商 2082
旱灾 2082
24@@ 2081
主持会议 2081
争论 2081
信用 2081
教育@@ 2081
En@@ 2080
25.@@ 2079
era 2079
基薪 2079
声@@ 2079
系统对 2078
人力资本 2077
惩教 2076
环境部 2076
ST@@ 2075
每名 2075
游@@ 2075
私立 2075
选区 2075
高峰 2075
就读 2073
侨民 2071
所犯 2071
进修 2071
Pr@@ 2070
前提条件 2070
排定 2070
肺结核 2070
两届 2069
核燃料 2069
河流 2069
流产 2069
自由贸易 2069
运往 2069
520 2068
6.3 2067
互@@ 2067
额度 2067
可比 2066
298 2065
个人身份 2065
冲@@ 2065
度@@ 2065
管理者 2065
安全区 2064
政治处 2064
过高 2064
re 2063
略@@ 2063
当年 2062
评审 2062
借此 2061
就职 2061
性侵犯 2061
整套 2061
哈萨克斯坦共和国 2060
混@@ 2060
爆 2060
部厅 2060
Add.5 2059
列示 2059
少@@ 2059
新建 2059
法院院长 2059
注明 2059
考@@ 2059
.3 2058
作品 2058
宇宙 2058
母乳喂养 2058
盗窃 2058
adi 2056
ol 2056
倒退 2056
完毕 2056
刑院 2055
应邀 2055
本章 2055
罚金 2055
UNA0@@ 2054
中小学 2054
积@@ 2054
航天局 2054
未曾 2053
第三十七届 2053
陆军 2053
303 2052
所有者 2052
泽@@ 2052
整编 2051
总表 2050
矿产 2050
检察机关 2049
氛围 2049
着力 2049
高出 2049
导@@ 2048
工业@@ 2048
终@@ 2048
425 2047
不遗余力 2047
保护主义 2047
反驳 2047
压制 2046
23% 2044
恪守 2044
圣基茨 2043
广泛传播 2043
民选 2043
财政状况 2043
领@@ 2043
初中 2042
带@@ 2042
收获 2042
经管 2042
印制 2041
购买力 2041
ma 2040
事关 2040
何处 2040
双语 2040
受灾 2040
有所提高 2040
池 2040
联络官 2040
压 2039
便是 2037
库克群岛 2037
付@@ 2036
商人 2036
机器 2034
邮@@ 2034
丹 2033
柏林 2033
下称 2031
务必 2031
国防部长 2031
学前教育 2031
抽样 2031
新德里 2031
薪 2031
全民教育 2030
公共利益 2030
开展调查 2030
弹@@ 2030
走访 2030
达格 2030
> 2028
不带 2028
尼维斯 2028
拨付 2028
CN.7 2027
一审 2027
下跌 2027
服 2027
来信 2027
水道 2027
停战 2026
工业部门 2026
311 2025
五年期 2025
284 2024
他于 2024
呢 2024
拦截 2024
率领 2024
系统@@ 2024
这名 2023
ian 2022
新任 2022
成见 2021
步枪 2020
经营者 2020
双边合作 2019
翻译成 2019
践踏 2019
锡@@ 2019
制剂 2018
CP 2017
声誉 2017
杀虫剂 2017
00@@ 2016
社会工作 2016
附@@ 2015
就任 2014
294 2013
后期 2011
民盟 2011
重型 2011
2.7 2010
受控 2010
时才 2010
果 2010
马克 2010
ane 2009
俄文 2009
协助执行 2009
委@@ 2009
生产商 2009
失衡 2008
汇总表 2008
领养 2008
299 2007
中说 2007
基本要素 2007
更替 2007
种族隔离 2007
301 2006
段@@ 2006
降@@ 2006
E4 2005
ik 2005
公立学校 2005
减去 2005
退回 2005
示威者 2004
集体行动 2004
1964 2003
27.@@ 2003
ova 2003
氯 2002
50@@ 2001
卡拉 2001
杀死 2001
苏格兰 2001
新闻记者 2000
机能 2000
杰 1999
根@@ 1999
毫克 1999
5.4 1998
令人震惊 1998
古巴政府 1998
往年 1998
航@@ 1997
硫丹 1996
民法典 1995
ell@@ 1994
加利 1994
墨西哥政府 1994
正当程序 1994
297 1993
传授 1993
手工 1993
硬件 1993
自由@@ 1993
十个 1992
富 1992
作好 1991
吸烟 1991
总支出 1991
ala 1990
不想 1990
医@@ 1990
法律法规 1990
间隔 1990
21% 1989
乔@@ 1989
修订案 1988
广@@ 1987
搁置 1987
达尔 1987
302 1986
倡导者 1986
印@@ 1986
程 1985
第一轮 1985
入伍 1984
集群 1984
6.4 1982
价格上涨 1982
对受 1982
有无 1982
转给 1982
雷达 1982
上海 1981
绝不能 1980
低估 1979
邮政 1979
劳力 1978
导 1978
土 1977
铅 1977
会面 1976
宽带 1976
28.@@ 1974
相比之下 1974
增大 1973
ama 1972
拍卖 1972
相互合作 1972
穆 1971
营销 1971
藏@@ 1971
293 1970
交通@@ 1970
圆桌 1970
蒙 1970
意思 1969
编码 1969
邮件 1969
2030 1968
十三 1968
圣保罗 1968
实 1968
缓冲区 1968
航空安全 1968
公寓 1967
激增 1967
载明 1967
进口国 1967
很长 1966
胜利 1966
微@@ 1965
eh@@ 1963
通盘 1963
最小 1962
比重 1962
氟碳 1962
卡特尔 1961
议 1961
CN.15 1960
文凭 1960
第十一次 1960
说@@ 1960
RA@@ 1959
七年 1959
出口商 1959
团结一致 1959
训练有素 1959
威慑 1958
诉求 1958
长达 1958
克什米尔 1957
公式 1957
有序 1956
公益 1955
对非 1955
广泛支持 1955
拖@@ 1955
保罗 1954
加大力度 1954
报告期 1954
案文见 1954
ers 1952
宽@@ 1952
充作 1951
第二轮 1951
华@@ 1950
自力更生 1950
亚洲开发银行 1949
安曼 1949
陆@@ 1949
E.@@ 1948
核扩散 1948
oj@@ 1947
相等 1947
追究责任 1947
马尔维纳斯群岛 1947
分割 1946
沿岸 1946
起诉书 1946
430 1945
些 1945
寄@@ 1945
所设 1945
治 1945
FPA 1944
东道 1944
不断扩大 1943
抵御 1943
民主政体 1943
中东地区 1942
厄 1942
教徒 1942
312 1941
特克斯 1941
答案 1941
口译员 1940
火灾 1940
任何一方 1938
多余 1938
异常 1938
队部 1938
19% 1937
图表 1937
方可 1937
Atlas 1936
创办 1936
境地 1936
定量 1936
年龄段 1936
环@@ 1936
评定 1936
故@@ 1935
最有 1935
野蛮 1935
军营 1934
多米尼加 1934
封 1934
求 1934
部将 1934
460 1933
分从 1933
大胆 1933
200@@ 1932
亚非 1932
优点 1932
大大增加 1932
毛 1932
滴滴涕 1932
oh@@ 1931
多氯联苯 1931
细菌 1931
440 1930
印 1930
富裕 1929
本协定 1929
简称 1929
ee 1928
ica 1928
27% 1927
布尔 1927
ind@@ 1926
沉@@ 1926
海洋学 1926
端 1926
第四@@ 1926
较@@ 1926
一律 1925
悬挂 1925
GC 1924
电邮 1924
不力 1923
偿债 1923
共存 1923
可信度 1923
市政当局 1923
28% 1922
参谋 1922
后备 1922
慢性 1922
民事诉讼 1922
CCW 1921
挫折 1921
流失 1921
307 1920
保持联系 1920
有利条件 1920
未清 1920
克减 1919
甲@@ 1919
视察员 1919
限期 1919
极度 1918
传单 1916
新生力量 1916
服役 1916
赚取 1916
院@@ 1916
班吉 1915
谈谈 1915
多米尼克 1914
这点 1914
音乐 1914
存 1913
局限性 1912
出具 1911
壁垒 1911
1946 1910
初稿 1910
人向 1908
刚果共和国 1908
自治区 1908
庭审 1907
来讲 1906
为准 1905
工作岗位 1905
维持费 1905
讯问 1905
CH@@ 1904
农户 1904
安非他明 1903
立 1903
PA@@ 1902
旅客 1902
笼统 1902
衰退 1902
金融资产 1902
CR@@ 1901
创意 1901
时数 1901
非正常 1901
Ay@@ 1900
ER@@ 1900
幅 1900
某@@ 1900
汉@@ 1900
紧@@ 1900
850 1899
满@@ 1899
第三十六届 1899
一艘 1898
上游 1898
不容 1898
严重后果 1898
7.1 1897
德尔 1896
救@@ 1896
杂项收入 1896
苯丙胺 1896
违规 1896
黄@@ 1896
印度尼西亚政府 1895
在此之前 1895
木 1895
aya 1894
低成本 1894
基加利 1894
获得成功 1894
调入 1894
降到 1894
中级 1892
菲 1892
314 1891
SS 1891
受害国 1891
返还 1891
情景 1890
上网 1889
投标书 1889
葡萄牙语 1889
° 1888
令人@@ 1888
结果显示 1888
雄心勃勃 1888
Qu@@ 1887
污水 1887
考验 1887
及第 1886
照 1886
迈@@ 1886
55% 1885
ata 1885
坦 1885
损害赔偿 1885
滥用权力 1885
玛@@ 1885
送往 1885
24% 1884
7.2 1884
同步 1884
无偿 1884
小企业 1883
L.7 1882
est@@ 1882
二十年 1882
散@@ 1882
第二十八届 1882
默@@ 1882
98% 1881
任何理由 1881
余@@ 1881
合成 1881
外包 1881
感@@ 1881
智慧 1881
第五号 1881
与否 1880
星 1880
税款 1880
舍 1880
一处 1878
坦克 1878
查出 1878
1954 1877
1962 1877
知名 1877
贫困家庭 1877
Mor@@ 1876
区别对待 1876
部在 1876
次要 1875
生于 1872
称之为 1872
订于 1872
ess@@ 1871
照管 1871
举@@ 1870
轮换 1870
门户网站 1870
ali 1869
咖啡 1869
库拉 1869
接下来 1869
航天器 1869
贸易中心 1869
ish@@ 1868
互惠 1868
佣工 1868
特等 1868
近地 1868
占@@ 1867
开幕式 1867
范@@ 1867
国立 1866
病假 1865
行政法院 1865
560 1864
之时 1864
五十周年 1864
可可 1864
指望 1864
通往 1864
1718 1862
元素 1862
时向 1862
福利金 1862
录音 1861
扰乱 1861
烟@@ 1861
离境 1861
究竟 1861
空间数据 1861
身份证件 1861
PR@@ 1860
行政拘留 1860
ME@@ 1859
um 1859
一时期 1859
休@@ 1859
出差 1859
反对票 1859
知 1859
26% 1858
冷@@ 1858
外阴 1858
受欢迎 1857
继承权 1856
不致 1855
安全@@ 1855
联系国 1855
L.6 1854
给出 1854
差别待遇 1852
强度 1852
机动 1852
每项 1852
散布 1851
文化部 1851
三份 1850
孕产 1850
希亚 1850
投票权 1850
暗示 1849
枪@@ 1849
票据 1849
第三十二届 1849
以致 1848
紧迫性 1848
乙 1847
可为 1847
弱 1847
恢复正常 1847
306 1846
L.8 1846
LA@@ 1846
循证 1846
觉得 1846
边远地区 1846
值得一提的是 1845
呈现 1845
稍后 1845
船@@ 1845
CE@@ 1844
服@@ 1844
叛乱分子 1843
改叙 1843
省长 1843
Le@@ 1842
陈旧 1842
CRP.@@ 1841
严@@ 1841
委任 1841
邦特 1840
产前 1839
公允 1839
本款 1839
神圣 1839
绘制 1839
读者 1839
军事装备 1838
归于 1838
恢复性 1838
惯常 1838
案文@@ 1838
表示祝贺 1838
道理 1838
严重破坏 1837
在上文 1837
坚定不移 1837
文学 1837
核动力 1837
盘存 1837
谨此 1837
见到 1836
黑海 1836
假如 1835
海洋资源 1835
原本 1834
各司 1834
认知 1834
两起 1833
战俘 1833
受审 1832
甚 1832
第三@@ 1832
our@@ 1831
勇气 1831
周岁 1831
土地权 1831
使用权 1830
审@@ 1830
提具 1830
暂@@ 1829
预料 1829
巴拉 1828
助产士 1827
第三十四届 1827
ro 1826
建设项目 1826
蒙罗维亚 1826
酋长 1825
不佳 1824
东北部 1823
兵库 1823
战斗员 1823
馆 1822
401 1821
309 1820
划@@ 1820
批@@ 1820
侦察 1818
中文 1817
互利 1817
决@@ 1817
股票 1817
富有成效 1816
料 1816
湾 1816
申@@ 1816
传唤 1815
别@@ 1815
UN 1814
背后 1814
以内 1813
朝@@ 1813
辖区 1813
击@@ 1812
高水平 1812
公用事业 1811
场址 1811
特罗 1809
现存 1809
一群 1808
从根本上 1808
付费 1808
劳动部 1807
着重强调 1807
国际电信联盟 1806
举例 1805
记录在案 1805
< 1804
end@@ 1804
座谈会 1804
逗留 1804
领水 1804
苏丹共和国 1803
行为能力 1803
防备 1803
隶属 1803
毛@@ 1802
印第安人 1801
参考资料 1801
构架 1800
议事 1800
ek 1799
十九 1799
日刊 1799
模糊 1799
太阳 1798
410 1797
半岛 1797
均@@ 1797
天然 1797
一至 1796
信息安全 1796
国旗 1796
阿根廷共和国 1796
出发点 1795
护送 1795
社会活动 1795
谢赫 1795
刑@@ 1794
学家 1794
贯彻落实 1794
驻@@ 1794
Mat@@ 1793
尤为重要 1793
贪污 1793
DC 1792
兑换 1792
现实情况 1792
政变 1791
毗邻 1791
范本 1791
Pro@@ 1790
FAO 1789
ash@@ 1789
两大 1789
证@@ 1789
课题 1789
原文 1788
嫌犯 1788
立足于 1788
跨@@ 1788
充分就业 1787
息 1787
组织者 1787
Tr@@ 1786
距 1786
递解 1786
ion 1785
划 1785
哥伦比亚政府 1785
大为 1785
迫击炮弹 1785
未作 1784
欧洲议会 1784
水文 1784
营运 1784
宜 1783
人工流产 1782
公共信息 1782
纸@@ 1782
重新@@ 1782
东北 1781
之处 1781
480 1780
ero 1780
城市规划 1780
土地改革 1779
宣扬 1779
技术开发 1779
蚊帐 1779
城市论坛 1778
日增 1778
瑞士法郎 1778
舞弊 1778
音@@ 1778
Man@@ 1777
凡是 1777
毛利人 1777
率先 1777
科学院 1777
一职 1776
性能 1776
此举 1776
务 1775
双 1775
索引 1775
附文 1775
Gr@@ 1774
L.5 1774
证据规则 1774
第三十三届 1773
387 1772
下载 1772
善 1772
利息收入 1771
国际协会 1771
季 1771
棉花 1770
态势 1769
机票 1769
倾倒 1768
斯洛伐克共和国 1768
318 1766
390 1764
同居 1764
季节 1764
亚美尼亚共和国 1763
多国部队 1763
308 1762
听证 1762
是否是 1762
不太 1761
六名 1761
内政部长 1761
述 1761
委派 1760
道@@ 1760
似 1759
决不能 1758
搬@@ 1758
教育工作者 1758
第三十五届 1758
加元 1757
所欠 1757
不善 1756
义 1756
借以 1756
康复中心 1756
条对 1756
外长 1755
象@@ 1755
并不一定 1754
耕作 1754
主导地位 1753
北美洲 1753
然@@ 1753
缺失 1753
轻@@ 1753
AC.26 1752
举证责任 1752
区域开发 1752
水事 1752
清偿 1752
1965 1751
居高不下 1751
逃@@ 1751
长度 1751
和善 1750
等同于 1750
325 1749
As@@ 1749
分销 1749
反应堆 1749
研究院 1749
Sar@@ 1748
官@@ 1748
战斗机 1748
缺 1748
要件 1748
● 1747
医疗机构 1747
普通法 1747
公民权 1746
而作 1746
迟交 1746
折@@ 1745
早已 1745
账款 1745
去世 1744
工商界 1744
高加索 1744
克罗地亚共和国 1743
宣传@@ 1743
第二句 1743
信息网 1741
情报机构 1741
望 1741
编撰 1741
越过 1741
退休年龄 1741
美洲开发银行 1740
赫勒拿 1739
当量 1738
项中 1738
成人教育 1737
投了 1737
有时候 1736
环 1736
绿@@ 1736
妇@@ 1734
棘手 1734
潘基文 1734
第五节 1734
2.8 1733
ss@@ 1733
参政 1733
廉价 1733
1737 1732
L.9 1732
li 1732
一百@@ 1732
做@@ 1732
农田 1731
参与率 1731
维尔京群岛 1731
同侪 1730
私营企业 1730
防 1730
千 1729
局限 1729
教室 1729
最易 1729
36% 1728
ot 1728
业务流程 1728
安全部 1728
热情 1728
空袭 1728
艺术家 1728
触犯 1728
体制改革 1727
势 1727
各区 1727
久@@ 1726
引爆 1726
急@@ 1726
打开 1726
执法机关 1726
收支 1726
放宽 1726
32% 1725
38% 1725
内所 1725
年限 1725
检查员 1725
归咎于 1724
断 1724
童婚 1723
ul 1722
313 1721
530 1721
今天上午 1721
康@@ 1721
Vol 1720
下设 1720
其间 1720
打击犯罪 1720
0.5% 1719
农业部 1719
国务秘书 1719
子弹 1719
礼拜 1719
适于 1719
段时间 1717
系@@ 1717
紧急措施 1717
轮流 1717
1612 1716
VII 1716
内有 1716
托运人 1716
本文 1716
连带 1716
ell 1715
股份 1715
号码 1714
定额 1714
分会 1713
小农 1712
底 1712
德斯 1712
放 1712
有赖于 1712
第三十届 1712
什么样 1711
位@@ 1711
外侨 1711
积极行动 1711
街 1711
贸易@@ 1711
轨 1711
长久 1711
射 1710
捕获 1710
此处 1710
2050 1709
6.5 1709
敦请 1709
智@@ 1709
第八@@ 1709
一封 1708
一读 1708
下滑 1708
NPT 1707
射@@ 1707
差@@ 1707
开庭 1707
管控 1707
第二年 1706
该届 1706
42% 1705
950 1705
轻型 1705
470 1704
交通管制 1704
卫生@@ 1704
判 1703
号召 1703
安全性 1703
自愿性 1703
逆转 1703
陈@@ 1703
麦@@ 1703
上岗 1702
废弃物 1702
挽救 1702
政令 1702
须@@ 1702
探视 1701
未付 1701
在下文 1700
清算 1700
火 1700
相连 1700
典范 1699
警报 1699
非洲地区 1699
故 1698
谈及 1697
违@@ 1697
历史@@ 1696
另行 1696
视频会议 1696
315 1695
327 1695
展@@ 1695
焚烧 1695
att@@ 1694
哨所 1694
性关系 1694
饥荒 1694
L.10 1693
劳动@@ 1693
尚@@ 1693
普及教育 1693
铺平道路 1693
阿布 1693
隆@@ 1693
aq@@ 1692
其实 1692
同一天 1692
回避 1691
国为 1691
367 1690
主席国 1690
判@@ 1690
危险性 1690
去@@ 1690
市@@ 1690
管辖区 1690
退@@ 1690
5.5 1689
进驻 1689
完@@ 1688
怎么 1688
称@@ 1688
保险公司 1687
民族@@ 1687
生理 1687
解体 1687
之用 1686
劫持人质 1686
架飞机 1686
科学@@ 1686
326 1684
对话者 1684
电视节目 1684
真诚地 1684
细@@ 1683
友谊 1682
amb@@ 1681
und@@ 1681
置@@ 1681
营利 1681
单据 1680
口径 1680
多么 1680
本期 1680
第一句 1680
酗酒 1680
中长期 1679
升温 1678
世 1677
众@@ 1677
国土 1677
欠缺 1677
警 1677
附加值 1677
540 1676
ech@@ 1676
保护@@ 1676
形态 1676
成套 1676
武器弹药 1676
CN.3 1675
政治局势 1675
期刊 1675
递送 1675
Ak@@ 1674
送达 1674
分配资源 1673
最迟 1673
本专题 1673
第十三条 1673
转让技术 1673
巴西政府 1672
稳固 1672
37% 1671
沦为 1671
祖@@ 1671
续@@ 1671
IT@@ 1670
传输 1670
感受 1670
有损 1669
混淆 1669
运输@@ 1669
会后 1668
审问 1668
显得 1668
洗@@ 1668
碳@@ 1668
藐视 1668
行政长官 1668
责任制 1668
迈向 1668
过剩 1667
阿富汗人 1667
凯恩 1666
友好关系 1665
死者 1665
研究成果 1665
被忽视 1665
陆上 1665
ez@@ 1664
ih@@ 1664
亲 1664
党@@ 1664
发援会 1664
快@@ 1664
99.@@ 1663
IS 1663
万个 1663
全面落实 1663
工作@@ 1663
服务@@ 1663
海报 1663
规章制度 1663
Ahmed 1662
柬埔寨政府 1662
管理科 1662
变量 1661
圆满成功 1661
姓氏 1661
教养 1661
新闻@@ 1661
道义 1661
亚太地区 1660
打交道 1660
专属经济区 1659
民防 1659
水灾 1659
克拉 1658
集结 1658
不向 1657
尺度 1657
所长 1657
指引 1657
毁灭 1657
爱国 1657
终于 1657
SE@@ 1656
参加国 1656
大学生 1656
村民 1656
立陶宛共和国 1656
第五@@ 1656
难以@@ 1656
三人 1655
不间断 1655
修缮 1655
大门 1655
课@@ 1655
供电 1654
分包 1654
司法官员 1654
新闻处 1654
犯罪分子 1654
谨请 1654
坎@@ 1653
政治家 1653
重罪 1653
战机 1652
泛美 1652
第七@@ 1652
多样 1651
筹款 1651
1.5% 1650
执政 1650
技术厅 1650
居民区 1649
深入研究 1649
青@@ 1649
婚@@ 1648
土耳其共和国 1647
大大减少 1647
政治部 1647
级@@ 1647
缺@@ 1647
专业人士 1646
加特 1646
湿地 1646
过失 1646
ada 1645
w 1645
ñ 1645
人身保护 1645
在发言中 1645
NA@@ 1644
天数 1643
诉状 1643
上一年 1642
博拉 1642
增拨 1642
上级 1641
临床 1641
协商会 1641
科研 1641
坎昆 1640
路易斯 1640
资 1639
单边 1638
小计 1638
尚有 1638
象征 1638
令人信服 1637
债 1637
归入 1637
撒 1637
由该 1637
轻 1637
346 1636
Cl@@ 1636
价@@ 1636
兼@@ 1636
毒 1636
积极合作 1636
贯彻执行 1636
分权 1635
劳 1635
暴力犯罪 1635
铁 1635
25@@ 1634
倒 1634
写入 1634
卖 1634
有期徒刑 1633
ht@@ 1632
分派 1632
780 1631
Mal@@ 1631
OL 1631
简@@ 1631
323 1630
三位 1630
各种因素 1630
固@@ 1630
完工 1630
小型企业 1630
液体 1630
边际 1630
哺乳 1629
梅托 1629
高危 1629
客观性 1628
材 1628
比照 1628
求偿 1628
皮特 1628
1945 1627
例@@ 1627
培育 1627
报刊 1627
妥当 1626
调配 1626
陛下 1626
Cor@@ 1625
与会代表 1625
明文规定 1625
讲习会 1625
这段 1625
SPLOS 1624
万国宫 1624
想象 1624
比赛 1624
不懈 1623
以人为本 1623
放松 1623
有损于 1623
宣传材料 1622
布琼布拉 1622
通过培训 1622
仪 1621
卫生条件 1621
管理@@ 1621
660 1620
不如 1620
休息 1620
Muhammad 1619
前来 1619
套@@ 1619
学业 1619
精算师 1619
财务@@ 1619
43% 1618
因数 1618
此项工作 1618
不起 1617
太子港 1617
情报局 1617
濒危 1617
金融交易 1617
40@@ 1616
信徒 1616
基里巴斯 1615
想@@ 1615
无遗 1615
维护和平 1615
Far@@ 1614
违规行为 1614
〉 1613
猛虎 1613
砍伐 1613
组长 1613
资金不足 1613
ann@@ 1612
第二十四条 1612
轮值 1612
510 1611
优秀 1611
执@@ 1611
排列 1611
毫无根据 1611
边@@ 1611
透过 1611
仇视 1610
帝力 1610
文化@@ 1610
急性 1609
租@@ 1609
威尔士 1608
拆毁 1608
转送 1608
内载 1607
夏季 1607
恰@@ 1607
319 1606
征求意见 1606
毛派 1606
集合 1606
29% 1605
祖国 1605
333 1604
人以 1604
受训 1604
折磨 1603
试验性 1603
金融@@ 1603
31% 1602
Ram@@ 1602
三条 1602
体内 1602
办事 1602
斯特@@ 1602
缴费 1602
上作 1601
会议记录 1601
在世界上 1601
大体上 1601
数月 1601
期满 1600
杂@@ 1600
涌入 1600
扮演 1599
糟糕 1599
〈 1598
下向 1598
拟于 1598
海湾 1598
认@@ 1598
oun@@ 1597
国民经济 1597
敌 1597
红@@ 1597
较少 1597
多媒体 1596
居所 1596
水准 1596
经合 1596
ID@@ 1595
可供 1595
监护权 1595
第二十五条 1595
转账 1595
328 1594
嫌疑犯 1594
迄今已 1594
适@@ 1594
二十周年 1593
英属维尔京群岛 1593
贝尔 1593
边界地区 1593
At@@ 1592
商店 1592
工业界 1592
早就 1592
第六十@@ 1592
375 1591
CC@@ 1591
L.13 1591
告诫 1591
尽职 1591
Ben@@ 1590
ii 1589
多数票 1589
大院 1589
必@@ 1589
房@@ 1588
旷日持久 1588
渐进 1588
第三项 1588
马拉 1587
第八章 1586
编制工作 1586
中以 1585
充分认识 1585
卜 1585
摩洛哥王国 1585
苏维埃 1585
资深 1585
即时 1584
国际事务 1584
据@@ 1584
样品 1584
EA 1583
派@@ 1583
JIU 1582
增加额 1582
录@@ 1582
抗灾 1582
植被 1582
确定性 1582
自给自足 1582
L.15 1581
SA 1581
全体成员 1581
实施者 1581
最高级别 1581
统@@ 1581
厕所 1580
原产地 1580
少数几个 1580
推动力 1580
每位 1580
游行 1579
伟大 1578
国营 1578
恫吓 1578
指挥部 1578
波罗的海 1578
留住 1578
顾客 1578
餐 1578
信奉 1577
四分之三 1577
旅@@ 1576
L.11 1575
保障制度 1575
公共财政 1575
名录 1575
增 1575
硫化物 1575
户@@ 1574
命 1573
订单 1573
非军事化 1573
载述 1572
圣地 1571
ale 1570
如能 1570
拟将 1570
接入 1570
通行证 1570
ast@@ 1569
厄尔尼诺 1569
法郎 1569
言@@ 1569
321 1568
ex 1568
债权 1568
就学 1568
更是如此 1568
每季度 1568
详见 1568
误@@ 1568
迟@@ 1568
Is@@ 1567
za 1567
多种形式 1567
家庭事务 1567
民主@@ 1567
自助 1567
720 1566
iya 1566
原材料 1566
月@@ 1566
继@@ 1566
被动 1566
春季 1565
外交关系 1564
该省 1564
335 1563
但应 1563
惊人 1562
比勒陀利亚 1562
产物 1561
侯赛因 1561
查找 1561
卡塔尔国 1560
原油 1560
海港 1560
高级法院 1560
吉尔吉斯共和国 1559
夏@@ 1559
认罪 1559
317 1558
民主党 1558
爆炸性 1558
系统化 1558
Pl@@ 1557
三类 1557
市民 1557
借 1556
分遣队 1556
商业化 1556
连任 1556
重新安排 1556
兵@@ 1555
盛行 1555
雷斯 1555
五次 1554
制宪 1554
所持 1554
ew@@ 1553
ung 1553
圣城 1553
守@@ 1553
最早 1553
检 1553
食 1553
为数 1552
人民@@ 1552
收购 1552
电子政务 1552
击中 1551
外贸 1551
夜间 1551
女议员 1551
开创 1551
维权 1551
蔑视 1551
评述 1551
保护性 1550
彼得 1550
数码 1550
44% 1549
6.6 1549
并发症 1549
战略武器 1549
扩建 1549
赞@@ 1549
圆满 1548
巴尔干 1548
不时 1547
洄游 1547
算@@ 1547
Par@@ 1546
sk@@ 1546
展 1546
支撑 1546
眼 1546
颠覆 1546
322 1545
Wal@@ 1545
照射 1545
爱 1545
避难所 1544
保险@@ 1543
即审 1543
瓦利 1543
监督制度 1543
调研 1543
贾 1543
3.6 1542
329 1542
交谈 1542
升高 1542
婚姻状况 1542
第二十条 1542
丑 1541
令@@ 1541
坦率 1541
外交@@ 1541
存档 1541
警卫队 1541
34% 1540
水泥 1540
看护 1540
科学知识 1540
do 1539
充分反映 1539
告@@ 1539
明天 1539
网播 1539
诸@@ 1539
逾 1539
麻疹 1539
L.18 1538
社区服务 1538
车间 1538
部级 1538
490 1537
井 1537
侧重点 1537
异 1537
爵士 1536
糖尿病 1536
而已 1536
迫击炮 1536
逃 1536
阿根廷政府 1536
雅加达 1536
信息@@ 1535
克隆 1535
归化 1535
胜任 1535
非关税壁垒 1535
核计划 1534
英镑 1534
储@@ 1533
水电 1533
CO2 1532
底@@ 1532
未予 1532
转发 1532
57@@ 1531
八年 1531
减除 1531
样 1531
冰@@ 1530
wa 1529
专题报告 1529
服务处 1529
欧亚 1529
640 1528
Ash@@ 1527
L.14 1527
分配情况 1527
理应 1527
辩方 1527
养殖 1526
凭借 1526
宁 1526
施暴 1526
界@@ 1526
基桑加尼 1525
招@@ 1525
时有 1525
氯苯 1525
一张 1524
乡 1524
致死 1524
L.16 1523
SP 1523
_ 1523
界线 1523
系统管理 1523
典 1522
朗 1522
澳门 1522
赫尔辛基 1522
L.12 1521
ö 1521
歪曲 1521
称作 1521
巴马科 1520
归功于 1520
情感 1520
经济衰退 1520
较长 1520
减弱 1519
干部 1519
救护车 1519
赤道 1519
不负责任 1518
兼并 1518
北大西洋公约组织 1518
国民大会 1518
海湾合作委员会 1518
避孕套 1518
布雷 1517
护@@ 1517
经受 1517
劳工部 1516
田 1516
素 1516
来访 1515
渔民 1515
特拉特 1515
CC 1514
上以 1514
尼泊尔政府 1514
纽约市 1514
落入 1514
马尔@@ 1514
丢失 1513
宏观 1513
容量 1513
桥 1513
航空航天 1513
世界气象组织 1512
企业界 1512
应使 1512
此时 1512
追溯 1512
奈@@ 1511
家庭收入 1511
文人 1511
未遂 1511
解放阵线 1511
适时 1511
业主 1510
使用率 1510
桶 1510
专属 1509
数个 1509
未交 1509
洛尔科 1509
366 1508
一是 1508
创始 1508
抽@@ 1508
权威性 1508
再循环 1507
合约 1507
遵从 1507
以下内容 1506
减半 1506
品种 1506
总面积 1506
隶属于 1506
奖金 1505
应适当 1505
有偿 1504
私人资本 1504
一同 1503
供应国 1503
检@@ 1503
疏忽 1503
壳 1502
接洽 1502
sa 1501
体育@@ 1501
几份 1501
卫队 1501
331 1500
假释 1500
其下 1500
取样 1500
大区 1500
密度 1500
巴博 1500
技经 1500
瘫痪 1500
诸 1500
ei 1499
te 1499
外资 1499
杀@@ 1499
校长 1499
第十二次 1499
349 1498
环境监测 1498
群@@ 1498
体育部 1497
十四 1497
孔@@ 1496
症状 1496
讲述 1496
HRI 1495
害 1495
应分 1495
情报@@ 1495
末尾 1495
瑞士政府 1495
ena 1494
一边 1494
不止 1494
伊比利亚 1494
关怀 1494
热烈欢迎 1494
财政部长 1494
L.20 1493
ura 1493
具体地说 1493
斟酌 1493
特殊性 1492
第二十九届 1492
起源 1492
2.5% 1491
L.19 1491
控制系统 1491
48% 1490
Or@@ 1490
战士 1490
抛弃 1490
控制@@ 1490
沉积物 1490
矿@@ 1490
萨拉 1490
逐字 1490
Bu@@ 1489
明斯克 1489
村@@ 1489
留存 1489
相关联 1489
能为 1489
蓝图 1489
324 1488
345 1488
技术员 1488
明示 1488
az 1487
一经 1487
乐@@ 1487
住房问题 1487
击 1487
可观 1487
开启 1487
数十年 1487
旧@@ 1487
规避 1487
调查小组 1487
运输系统 1487
之日 1486
刊物 1486
半年 1486
科长 1485
经验交流 1485
酸@@ 1485
严格执行 1484
发出通知 1484
专业培训 1483
劳工市场 1483
总裁 1483
抚恤金 1483
驱回 1483
Res@@ 1482
换@@ 1482
337 1481
别人 1481
园 1481
恶性循环 1481
驻留 1481
麻管局 1481
凯 1480
引人注目 1480
每种 1480
环境治理 1480
管理工具 1480
354 1479
六氯 1479
接 1479
贷 1479
轮胎 1479
顺@@ 1479
7.3 1478
人民解放军 1478
准@@ 1478
司在 1478
在政治上 1478
立足 1478
细胞 1478
联运 1478
接口 1477
ern@@ 1476
一视同仁 1476
广播节目 1476
约瑟夫 1476
置 1476
学历 1475
州政府 1475
沮丧 1475
丹@@ 1474
和睦 1474
哀悼 1474
复会 1474
经济损失 1474
西班牙政府 1474
怀@@ 1473
机枪 1473
作贡献 1472
客@@ 1472
寄养 1472
每隔 1472
空间站 1472
米尔 1472
原子 1471
各个部门 1471
咨委 1471
往@@ 1471
水质 1471
第二天 1471
羞辱 1471
桑 1470
私立学校 1470
一个多 1469
勤 1469
环己烷 1469
入账 1468
遇到困难 1468
大都 1467
致辞 1467
选举权 1467
移 1466
转而 1466
47% 1465
乔治 1465
马诺河 1465
1874 1464
分析表明 1464
宣判 1463
几点 1462
反腐 1462
小儿麻痹症 1462
武@@ 1462
海里 1462
种姓 1462
第九@@ 1462
631 1461
偏@@ 1461
微 1461
款次 1461
毛坯 1461
绝育 1461
过期 1461
两家 1460
中未 1460
列表 1460
努力争取 1460
第十 1460
补给 1460
赛@@ 1460
1955 1459
之三 1459
处分 1459
宫 1459
载@@ 1459
不成比例 1458
安卡拉 1458
最惠国 1458
突破 1458
色@@ 1458
这为 1458
酒 1458
再次发生 1457
无法控制 1457
起码 1457
途中 1457
620 1456
意大利政府 1456
荷兰政府 1456
触发 1456
讲授 1456
互动式 1455
充@@ 1455
公共场所 1455
史 1455
国对 1455
塑造 1455
行政事务 1455
谈@@ 1455
海牙公约 1454
论据 1454
跨学科 1454
遗弃 1454
买@@ 1453
使用暴力 1453
促进作用 1453
净@@ 1453
奥林匹克 1453
宣誓 1453
常务副 1453
建筑@@ 1453
这套 1453
马拉喀什 1453
六项 1452
就座 1452
更为重要 1452
检控 1452
演@@ 1452
矫正 1452
终端 1452
轻微 1452
二者 1451
尔特 1451
巡@@ 1451
获知 1451
ini 1450
不法 1450
两条 1450
新生 1450
生产@@ 1450
规@@ 1450
L.17 1449
伊科 1449
性工作者 1449
谷 1449
采掘业 1449
REP 1448
交易@@ 1448
国际商会 1448
疫情 1448
磁@@ 1448
打印机 1447
示 1447
能源安全 1447
装修 1447
输@@ 1447
56% 1446
喷@@ 1446
敌人 1446
现正 1446
留出 1446
7.5 1445
世界性 1445
在经济上 1445
纪录 1445
姐妹 1444
容@@ 1444
抱怨 1444
衣服 1444
谋@@ 1444
财政政策 1444
七名 1443
兵役 1443
授@@ 1443
陪审团 1443
34.@@ 1442
int 1442
流亡 1442
观@@ 1442
喜@@ 1441
综合症 1441
舒@@ 1441
转到 1441
弃权票 1440
眼@@ 1440
西北 1440
软件@@ 1440
增幅 1439
层级 1439
诉讼法 1439
递延 1439
Bou@@ 1438
多份 1438
察 1438
开除 1438
掌控 1438
炮击 1438
偿金 1437
大有 1437
思@@ 1437
热烈 1437
船员 1437
ano 1436
哈桑 1436
已登记 1436
残暴 1436
鼓吹 1436
Abd@@ 1435
ist@@ 1435
九年 1435
数学 1435
终结 1435
袋 1435
46% 1434
写信给 1434
形@@ 1434
据点 1434
放置 1434
泰勒 1434
跨文化 1434
426 1433
人日 1433
发交 1433
立法者 1433
筹划 1433
联接 1433
境 1432
科科长 1432
第十四次 1432
ko 1431
乘坐 1431
和准 1431
推断 1431
沉默 1431
聚会 1431
357 1430
WG.6 1430
对口 1430
承包人 1430
致残 1430
里亚 1430
预付 1430
法国政府 1429
留给 1429
补充性 1429
阳性 1429
Ros@@ 1428
例证 1428
本土 1428
ier 1427
婚内 1427
组在 1427
翻@@ 1427
Mohammed 1426
ef@@ 1426
埃塞俄比亚政府 1426
积极开展 1425
野@@ 1425
巨@@ 1424
弹性 1424
数以千计 1424
52% 1423
IC@@ 1423
enn@@ 1423
中载列 1423
工作效率 1423
幼@@ 1423
忠实 1423
检疫 1423
画 1423
International 1422
供参考 1422
兼职 1422
哥伦比亚特区 1422
对性 1422
缔造 1422
Sp@@ 1421
全时 1421
恶意 1421
推移 1421
许诺 1421
霍 1421
332 1419
不用 1419
主观 1419
便携式 1419
并视 1419
沿着 1419
诋毁 1419
最起码 1418
336 1417
虫 1417
输送 1417
鱼@@ 1417
寄宿 1416
第四十@@ 1416
Mah@@ 1415
修订版 1415
参议员 1415
多国 1415
德国政府 1415
水产 1415
甚@@ 1415
1.6 1414
保持稳定 1414
减刑 1414
节能 1414
30.@@ 1413
球 1413
保释 1412
全面性 1412
加班费 1412
680 1411
断言 1411
标界 1411
清偿债务 1410
存量 1409
放射源 1409
ran@@ 1408
微妙 1408
版权 1408
不高 1407
型飞机 1407
更广 1407
诚信 1407
580 1406
中是 1406
化武 1406
圈 1406
若干次 1406
š 1405
手语 1405
通信@@ 1405
里亚尔 1405
院校 1405
制服 1404
XX 1403
值@@ 1403
全权代表 1403
参阅 1403
欺骗 1403
经济学家 1403
购 1403
39% 1402
同性恋者 1402
和表 1402
坚@@ 1402
推销 1402
无期徒刑 1402
求助于 1402
Tar@@ 1401
叶 1401
朱@@ 1401
分居 1400
营养@@ 1400
一如既往 1399
其能 1399
开端 1399
房间 1399
龙@@ 1399
351 1398
se 1398
供词 1398
日托 1398
纺织品 1398
译员 1398
问@@ 1398
存入 1397
远见 1397
发展趋势 1396
局部 1396
特色 1396
驾驶 1396
完全同意 1395
搜寻 1395
晚上 1395
朗@@ 1395
辰 1395
Mc@@ 1394
卓有成效 1394
1957 1393
区域环境 1393
卖@@ 1393
开头 1393
杜夫 1393
民族解放 1393
Ahmad 1392
四氯化碳 1392
化解 1391
柴油 1391
筛查 1391
薪@@ 1391
迪拜 1391
334 1390
土耳其政府 1390
两族 1389
富国 1389
尼斯 1389
教学大纲 1389
自由贸易区 1389
见证 1389
贸易壁垒 1389
迁 1389
这部 1389
打伤 1388
1624 1387
347 1387
348 1387
全球定位系统 1387
商会 1387
商界 1387
不偏不倚 1386
今世 1386
在押 1386
妓女 1386
沿@@ 1386
经济制裁 1386
船上 1386
请求书 1386
570 1385
加权 1385
同类 1385
定期存款 1385
店 1385
流浪 1385
AI 1384
国际收支 1384
29.@@ 1383
司将 1383
塔尔 1383
胎儿 1383
590 1382
十多年 1382
增长速度 1382
业经 1381
以向 1381
关联性 1381
协调局 1381
双边条约 1381
哈龙 1381
小额贷款 1381
日渐 1381
341 1380
41% 1380
如表 1380
急救 1380
无误 1380
派往 1380
配有 1380
1353 1379
归纳 1379
规 1379
时常 1378
空调 1378
腐败问题 1378
逐@@ 1378
里斯本 1378
98.@@ 1377
制药 1377
卓越 1377
可信性 1377
大城市 1377
游戏 1377
生病 1377
内陆国 1376
年头 1376
泽 1376
牧@@ 1376
装有 1376
转载 1376
57% 1375
ja 1375
伤害力 1375
共处 1375
利雅得 1375
挪威政府 1375
课本 1375
南非洲 1374
呼声 1374
广阔 1374
森林资源 1374
汗 1374
署@@ 1374
行政区 1374
计算机@@ 1374
亚人 1373
办公@@ 1373
维察 1373
触及 1373
配套 1373
丰@@ 1372
北欧国家 1372
塑料 1372
故事 1372
润滑油 1372
短时间 1372
迁离 1372
逮捕证 1372
那次 1372
1000 1371
352 1371
世界知识产权组织 1371
各方对 1371
提供数据 1371
沙漠 1371
第七十三 1371
一个@@ 1370
吸纳 1370
无可@@ 1370
三倍 1369
种@@ 1369
ru@@ 1368
沙巴 1368
能量 1368
诉@@ 1368
贫困率 1368
oz@@ 1367
前南 1367
割礼 1367
私有 1367
432 1366
507 1366
Mon@@ 1366
对称 1366
终生 1366
辩解 1366
进行性 1366
IX 1365
停滞 1365
航空器 1365
PBC.@@ 1364
不可@@ 1364
总署 1364
欲 1364
示@@ 1364
第二十三条 1364
遣 1364
53% 1363
一篇 1363
岛民 1363
Per@@ 1362
东南 1362
五分之一 1362
硫 1362
碰撞 1362
酒精 1362
刑事警察 1361
库尔德 1361
本节 1361
譬如 1361
1956 1360
何@@ 1360
常委会 1360
才干 1360
颗 1360
1514 1359
抗辩 1359
电文 1359
领海 1359
2.9 1358
受损害 1358
信守 1357
表彰 1357
专案 1356
渗透 1356
滞留 1356
730 1355
aa 1355
予以考虑 1355
司法独立 1355
平均水平 1355
355 1354
程序法 1354
CRP.2 1353
ao 1353
发言稿 1353
现实意义 1353
瓶颈 1353
放射 1352
流落 1352
牧民 1352
郊区 1352
判罪 1351
富有成果 1351
细分 1351
Add.6 1350
岸 1350
排名 1350
森@@ 1350
结转 1350
莱斯 1350
支票 1349
敌意 1349
洁净 1349
需求量 1349
ISBA 1348
宗@@ 1348
数字化 1348
确保安全 1348
各项任务 1347
合伙 1347
期中 1347
氟化 1347
第十五次 1347
初等 1346
年终 1346
欧 1346
共同@@ 1345
哪里 1345
白 1345
的黎波里 1345
第三十@@ 1345
这件 1345
ca 1344
保有 1344
商业银行 1344
积极性 1344
马尼拉 1344
353 1343
630 1343
爆炸事件 1343
art@@ 1342
东正教 1342
放缓 1342
顽固 1342
339 1341
一侧 1341
招收 1341
火箭弹 1341
福 1341
育@@ 1341
遥远 1341
4.6 1340
ita 1340
几周 1340
几届 1340
墨西哥城 1340
录 1340
礼宾 1340
讲师 1340
迟 1340
SAT 1339
处理@@ 1339
现金流量 1339
.6 1338
364 1338
Sim@@ 1338
废弃 1338
投掷 1338
暴力行动 1338
更长 1338
生物@@ 1338
苦@@ 1338
AP@@ 1337
对面 1337
抵@@ 1337
相互理解 1337
调查组 1337
参与权 1336
功效 1335
复杂化 1335
复核 1335
客 1335
无助于 1335
狭隘 1335
不大可能 1334
入籍 1334
围@@ 1334
地缘 1334
第十六次 1334
足 1334
344 1333
AL 1333
填@@ 1333
未用 1333
犯@@ 1333
AN@@ 1332
义@@ 1332
留 1332
行政法 1332
贫@@ 1332
违犯 1332
启发 1331
001 1330
时地 1330
356 1329
L.22 1329
主审 1329
无记名 1329
610 1328
华 1328
改派 1328
普斯卡 1328
舱 1328
设@@ 1328
860 1327
在短期内 1327
查看 1327
讯 1327
ib 1326
丽@@ 1326
因果关系 1326
国民军 1326
未经许可 1326
滥@@ 1326
秋季 1326
责任感 1326
隔@@ 1326
文物 1325
灯 1325
红利 1325
760 1324
巴塞罗那 1324
请拨 1324
资历 1324
PS 1323
之初 1323
入口 1323
叛军 1323
多式 1323
并作 1323
知悉 1323
短暂 1323
转用 1323
John 1322
ent 1322
北朝鲜 1322
帐 1322
开发@@ 1322
往返 1322
微生物 1322
拿 1322
核生化 1322
活动分子 1322
经济区 1322
顺应 1322
374 1321
宣传教育 1321
影@@ 1321
换取 1321
机油 1321
汇辑 1321
繁重 1321
长期投资 1321
ino 1320
安全法 1320
巨额 1320
房子 1320
第三世界 1320
耻辱 1320
33.@@ 1319
只不过 1319
左@@ 1319
流行病学 1319
背道而驰 1319
若干项 1319
调解员 1319
香港特区 1319
一代 1318
中作 1318
研所 1318
近几个月 1318
切断 1317
单纯 1317
方方面面 1317
立刻 1317
等候 1317
继任 1317
世界旅游组织 1316
已故 1316
报名 1316
换句话说 1316
数据交换 1316
条至 1316
钚 1316
防灾 1316
囚禁 1315
排序 1315
本年度 1315
牛 1315
661 1314
iri@@ 1314
故障 1314
XX@@ 1313
ira 1313
卢比 1313
同性 1313
废@@ 1313
患病 1313
授课 1313
该署 1313
阴谋 1313
497 1312
在校 1312
王@@ 1312
钴 1312
Ba@@ 1311
以防 1311
似@@ 1311
折扣 1311
摩@@ 1311
欣慰 1311
蔬菜 1311
60@@ 1310
伐木 1310
历届 1310
定制 1310
料@@ 1310
Bl@@ 1309
南方共同市场 1309
厄@@ 1309
变暖 1309
合同规定 1309
同年 1309
政体 1309
外交人员 1308
接壤 1308
撤@@ 1308
研 1308
航 1308
运载火箭 1308
Gar@@ 1307
催化剂 1307
前线 1307
外流 1307
大体 1307
拒@@ 1307
拜 1307
近几年来 1307
团在 1306
婚 1306
戒@@ 1306
服务费 1306
相互信任 1306
编排 1306
三十@@ 1305
假日 1305
危急 1305
号@@ 1305
四周 1305
总括 1305
联阵 1305
后于 1304
国际公法 1304
留用 1304
近海 1304
国应 1303
票数 1303
等同 1303
过渡性 1303
频道 1303
了@@ 1302
十八 1302
布尼亚 1302
民主选举 1302
泛滥 1302
知名度 1302
裨益 1302
非人 1302
372 1301
专题会议 1301
争夺 1301
便@@ 1301
台@@ 1301
— 1300
媒体报道 1300
所附 1300
职业@@ 1300
8.1 1299
以利于 1299
播出 1299
著作 1299
ela 1298
一夫多妻制 1298
休闲 1298
保守 1298
国际私法 1298
如前所述 1298
摒弃 1298
训练班 1298
适应性 1298
1559 1297
征用 1297
敬@@ 1297
海员 1297
讲台 1297
互相@@ 1296
周边地区 1296
all 1295
改正 1295
期为 1295
炸死 1295
硕士 1295
自然环境 1295
藏 1295
霍乱 1295
业务@@ 1294
恩贾梅纳 1294
方对 1294
潜@@ 1294
知晓 1294
343 1293
善@@ 1293
聘 1293
表达意见 1293
跟上 1293
迟迟 1293
不均 1292
人因 1292
停滞不前 1292
兼容 1292
哲学 1292
日子 1292
血液 1292
L.24 1291
任满 1291
化学@@ 1291
十二个 1291
施以 1291
白皮书 1291
脚@@ 1291
488 1290
临@@ 1290
会同 1290
利害攸关 1290
宿舍 1290
测 1290
若干@@ 1290
裁@@ 1290
VIII 1289
our 1289
世界@@ 1289
函@@ 1289
犹太主义 1289
责 1289
长老 1289
降落 1289
51% 1288
世界市场 1288
住@@ 1288
戴 1288
把握 1288
牵涉到 1288
罗斯 1288
肯@@ 1288
1572 1287
342 1287
Sect.@@ 1287
塔吉克斯坦共和国 1287
生物学 1287
疏散 1287
符合条件 1287
不了 1286
察@@ 1286
第二十一条 1286
管理费用 1286
中起 1285
总预算 1285
第六节 1285
Bur@@ 1284
ry 1284
塞尔 1284
错 1284
门诊 1284
49% 1283
Ng@@ 1283
中央@@ 1283
子孙后代 1283
虽@@ 1283
昆@@ 1282
蓄@@ 1282
证据不足 1282
瘘管 1281
五天 1280
从前 1280
匿名 1280
常用 1280
投资@@ 1280
松@@ 1280
盐@@ 1280
贴 1280
非常高兴 1280
7.4 1279
教学@@ 1279
星@@ 1279
粮食价格 1279
373 1278
99% 1278
严密 1278
召集人 1278
好几个 1278
耐@@ 1278
54% 1277
Af@@ 1277
四种 1277
围栏 1277
坚持不懈 1277
字样 1277
盐 1277
联安 1277
遗址 1277
487 1276
CN.6 1276
实施方案 1276
离任 1276
经纪人 1276
谨@@ 1276
阿拉伯联盟 1276
子公司 1275
币 1275
红新月 1275
训 1275
63% 1274
价格指数 1274
挪用 1274
无形 1274
错@@ 1274
一律平等 1273
享用 1273
法学 1273
纪要 1273
Pol@@ 1272
服务提供商 1272
重量 1272
不公 1271
五氯 1271
元@@ 1271
征兵 1271
管教 1271
1959 1270
一台 1270
多大 1270
对立 1270
检察署 1270
牧场 1270
美利坚合众国政府 1270
候选 1269
树木 1269
突@@ 1269
备 1268
大笔 1268
州@@ 1268
粗暴 1268
人身自由 1267
出国 1267
出生日期 1267
平均值 1267
登载 1267
记住 1267
隐@@ 1267
如本 1266
折旧 1266
肯 1266
各款 1265
学士 1265
思 1265
更强 1265
牙科 1265
412 1264
414 1264
509 1264
临近 1264
制成品 1264
年末 1264
血 1264
隐藏 1264
58% 1263
gu@@ 1263
人于 1263
出卖 1263
看守 1263
管理程序 1263
质量标准 1263
ida 1262
if 1262
一小部分 1262
制冷 1262
德意志联邦共和国 1262
性别差异 1262
政和 1262
武 1262
灭绝 1262
第二种 1262
自立 1262
贬值 1262
中间人 1261
奥马尔 1261
活性 1261
装载 1261
陆 1261
龄 1261
1.7 1260
386 1260
ung@@ 1260
ü 1260
凭 1260
求职者 1260
震@@ 1260
劳资关系 1259
条目 1259
险 1259
马其顿 1259
381 1258
沙特阿拉伯王国 1258
科威特政府 1258
随意 1258
der 1257
伊斯兰共和国 1257
内部事务 1257
卡比拉 1257
方框 1257
燃油 1257
进攻性 1257
思路 1256
控 1256
洪灾 1256
第十一 1256
调往 1256
39@@ 1255
体制性 1255
创作 1255
巡回 1255
放牧 1255
永@@ 1255
畜牧业 1255
还于 1255
量刑 1255
业界 1254
国务院 1254
开放式 1254
目击者 1254
空间信息 1254
顶 1254
369 1253
417 1253
423 1253
伊拉克人 1253
升至 1253
所受 1253
适度 1253
颇 1253
L.23 1252
古柯 1252
挑@@ 1252
联席 1252
该组 1252
谷物 1252
趋于 1252
368 1251
Kam@@ 1251
Pet@@ 1251
所得税 1251
拉丹 1251
普通教育 1251
比尔 1251
雷场 1251
ank@@ 1250
人民军 1250
倾@@ 1250
工资@@ 1250
征询 1250
渔获 1250
立方米 1250
听讯 1249
没@@ 1249
甲烷 1249
绝望 1249
0.0@@ 1248
井@@ 1248
卡纳克 1248
布拉 1248
来往 1248
签 1248
警惕 1248
406 1247
官方语言 1247
残疾者 1247
母@@ 1247
罗德里格斯 1247
论证 1247
资料库 1247
速 1247
AL@@ 1246
合乎 1246
弗 1246
恤 1246
招待会 1246
提供方便 1246
旗帜 1246
416 1245
5.6 1245
751 1245
为例 1245
十七 1245
成功经验 1245
殿下 1245
缩@@ 1245
隆 1245
项目表 1245
690 1244
Ibrahim 1244
医师 1244
拥有者 1244
有别于 1244
深入分析 1244
erg@@ 1243
军事化 1243
出租 1243
劳务 1243
放射性物质 1243
激进 1243
直升飞机 1243
硬@@ 1243
能源供应 1243
议席 1243
诚实 1243
货币政策 1243
路障 1243
385 1242
67% 1242
XVII 1242
la@@ 1242
外展 1242
数千 1242
汇聚 1242
首批 1242
415 1241
伊拉克共和国 1241
卫星通信 1241
居留证 1241
科尔多凡 1241
绝大部分 1241
身为 1241
中均 1240
凡@@ 1240
出去 1240
投标人 1240
测绘 1240
穿@@ 1240
维拉 1240
轻重缓急 1240
359 1239
ate 1239
倾听 1239
少将 1239
转变成 1239
镑 1239
长短 1239
428 1238
ski 1238
必将 1238
瑞典政府 1238
角@@ 1238
修 1237
建筑材料 1237
组织协调 1237
美洲国家 1237
调停 1237
Dj@@ 1236
夺取 1236
好转 1236
岛国 1236
报价 1236
权衡 1236
腐败现象 1236
重大成就 1236
Em@@ 1235
一度 1235
到底 1235
第七十届 1235
377 1234
iss@@ 1234
决不 1234
前几次 1234
同其 1234
帐目 1234
应得 1234
核军备 1234
用处 1234
穆萨 1234
苯酚 1234
贝克 1234
赴 1234
371 1233
充满活力 1233
原住民 1233
大大提高 1233
忠诚 1233
技合 1233
诚挚 1233
详细信息 1233
413 1232
万吨 1232
代行 1232
区法院 1232
有没有 1232
消防 1232
私下 1232
第四季度 1232
速@@ 1232
遇 1232
L.29 1231
四大 1231
堂 1231
相互了解 1231
退役 1231
L.21 1230
Rev.2 1230
ber@@ 1230
微观 1230
第十@@ 1230
for 1229
国务 1229
尼罗 1229
正规化 1229
路径 1229
重伤 1229
Lu@@ 1228
庭@@ 1228
截@@ 1228
986 1227
Ber@@ 1227
交通工具 1227
份子 1227
国界 1227
Az@@ 1226
交出 1226
十六 1226
笔@@ 1226
渔@@ 1225
酒店 1225
389 1224
因应 1224
投机 1224
最新进展 1224
满意度 1224
纪念@@ 1224
违禁 1224
实际行动 1223
358 1222
MC 1222
情报部门 1222
投入使用 1222
无理 1222
泰 1222
363 1221
Jabal 1221
净增 1221
向本 1221
惊讶 1221
投资人 1221
比索 1221
民解 1221
活动家 1221
透彻 1221
驯鹿 1221
eng@@ 1220
坚称 1220
第二十七条 1220
蓝@@ 1220
表演 1220
资料袋 1220
FA@@ 1219
狱警 1219
销@@ 1219
发射器 1218
并用 1218
术 1218
475 1217
托儿所 1217
托马斯 1217
知@@ 1217
马格里布 1217
各派 1216
场@@ 1216
感激 1216
报案 1216
止@@ 1216
这批 1216
基数 1215
小于 1215
属性 1215
派出所 1215
马丁内斯 1215
408 1214
8.2 1214
MISC.5 1214
ex@@ 1214
ost@@ 1214
住处 1214
双方同意 1214
地方法院 1214
惨@@ 1214
ph@@ 1213
今日 1213
员@@ 1213
第十三次 1213
纪念日 1213
还同 1213
382 1212
前沿 1212
地理信息 1212
档 1212
较差 1212
378 1211
三届 1211
巴基斯坦政府 1211
引信 1211
征 1211
第二卷 1211
以色列国 1210
加班 1210
电气 1210
益@@ 1210
62% 1209
地形 1209
岛@@ 1209
广场 1209
无人驾驶 1209
水量 1209
CN 1208
倒@@ 1208
大洋 1208
尔斯 1208
待定 1208
百 1208
价格@@ 1207
偏向 1207
IDB.@@ 1206
丙 1206
冬季 1206
南非政府 1206
姿态 1206
弗里敦 1206
控@@ 1206
整修 1206
礼@@ 1206
衍生 1206
都市 1206
封信 1205
布达佩斯 1205
过早 1205
乳@@ 1204
人有 1204
信息管理系统 1204
司法权 1204
烷 1204
猖獗 1204
直属 1204
前夕 1203
动产 1203
家庭@@ 1203
逐案 1203
Sha 1202
密集型 1202
第十七次 1202
糖 1202
集中精力 1202
飞 1202
670 1201
7.5% 1201
ima 1201
极力 1201
萘 1201
额为 1201
为首 1200
今@@ 1200
星期六 1200
相互之间 1200
遭@@ 1200
agh@@ 1199
书面通知 1199
址 1199
看起来 1199
良@@ 1199
西南亚 1199
负债表 1199
马丁 1199
仿效 1198
依赖性 1198
固体废物 1198
突显 1198
计算方法 1198
试用 1198
财政@@ 1198
362 1197
4.7 1197
436 1197
ila 1197
中国@@ 1197
佐@@ 1197
加入书 1197
参赞 1197
洛美 1197
滞后 1197
生产量 1197
研@@ 1197
萨拉热窝 1197
379 1196
呈件 1196
国际化 1196
城@@ 1196
宣@@ 1196
意见分歧 1196
有悖于 1196
湿 1196
龙 1196
兴@@ 1195
卫@@ 1195
惩罚性 1195
驱逐令 1195
1947 1194
392 1194
六次 1194
共同点 1194
团结起来 1194
来源于 1194
答卷 1193
纪念碑 1193
110.@@ 1192
376 1192
CONF 1192
akh@@ 1192
两国之间 1192
中毒 1192
交易成本 1192
协@@ 1192
奖@@ 1192
激@@ 1192
973 1191
司令部 1191
穿越 1191
薪水 1191
AC.51 1190
个区 1190
各点 1190
金融体制 1190
阿勒 1190
面试 1190
季节性 1189
巴哈 1189
布卡武 1189
慢 1189
最高@@ 1189
422 1188
交互式 1188
防务 1188
高级顾问 1188
化石 1187
同伴 1187
因果 1187
坑 1187
第一位 1187
阴@@ 1187
余 1186
年均 1186
有所改进 1186
辅之以 1186
辱 1186
麻@@ 1186
不复存在 1185
前期 1185
翁 1185
英格兰 1185
迁往 1185
零件 1185
不定 1184
任一 1184
优惠待遇 1184
公务人员 1184
惊@@ 1184
ef 1183
农产 1183
水生 1183
痛 1183
联络人 1183
责任者 1183
XXIX 1182
ion@@ 1182
坦诚 1182
市级 1182
拓宽 1182
3.7 1181
人应 1181
决议案 1181
南奥塞梯 1181
昂山 1181
极端分子 1181
石油@@ 1181
论@@ 1181
难以获得 1181
公共开支 1180
关键所在 1180
勒索 1180
请洽 1180
ath@@ 1179
ity 1179
叶@@ 1179
室内 1179
注视 1179
赖 1179
383 1178
亵渎 1178
何塞 1178
受阻 1178
按规定 1178
阿什 1178
际 1178
隐瞒 1178
顶@@ 1178
驳斥 1178
审计长 1177
密切关系 1177
纯 1177
马尔维纳斯 1177
一款 1176
无家可归者 1176
甄别 1176
第十二 1176
97% 1175
Bal@@ 1175
SO@@ 1175
宾@@ 1175
标的 1175
衷心 1175
31.@@ 1174
使用费 1174
公共交通 1174
命名 1174
法律责任 1174
野生动物 1174
鱼种 1174
乌萨马 1173
局局长 1173
经济效益 1173
诺夫 1173
骚乱 1173
他国 1172
安全形势 1172
以北 1171
凸显 1171
持续时间 1171
新闻报道 1171
监 1171
非军事区 1171
512 1170
平价 1170
更为严重 1170
知识库 1170
联尼 1170
迹 1170
鉴别 1170
503 1169
Abdel@@ 1169
L.27 1169
丘@@ 1169
吉隆坡 1169
志@@ 1169
旋风 1169
烟 1169
真空 1169
遇害 1169
HA@@ 1168
单亲家庭 1168
卫生领域 1168
研究组 1168
1952 1167
sp@@ 1167
一生 1167
不宜 1167
双边关系 1167
女人 1167
安哥拉政府 1167
或愿 1167
独自 1167
科威特国 1167
背离 1167
遗属 1167
镇@@ 1167
456 1166
坐@@ 1166
折衷 1166
施 1166
波哥大 1166
勇敢 1165
夜@@ 1165
字母 1165
439 1164
Jean 1164
延 1164
建筑业 1164
液 1164
阿方索 1164
ler 1163
七项 1163
在家 1163
微不足道 1163
盆地 1163
经纪 1163
罗姆族 1163
Nd@@ 1162
ce 1162
不太可能 1162
信息网络 1162
管理法 1162
评估所 1162
五周年 1161
宁@@ 1161
扣@@ 1161
病媒 1161
计算机设备 1161
人员培训 1160
冗长 1160
肯尼亚政府 1160
衣 1160
525 1159
公平竞争 1159
受制于 1159
府 1159
391 1158
上任 1158
写信 1158
列有 1158
手枪 1158
朝向 1158
核心内容 1158
污名 1158
OC 1157
买 1157
伯 1157
冒 1157
吸@@ 1157
自发 1157
阿齐兹 1157
AC.96 1156
L.26 1156
中方 1156
展开讨论 1156
市区 1156
损 1156
浓缩铀 1156
以利 1155
婚姻关系 1155
探矿 1155
最快 1155
竭力 1155
高得 1155
古巴共和国 1154
备有 1154
姓 1154
条所载 1154
的@@ 1154
运动员 1154
Mo@@ 1153
改善生活 1153
甘@@ 1153
第二季度 1153
证明文件 1153
437 1152
rez 1152
所订 1152
新能源 1152
盲人 1152
自评 1152
贸 1152
跟 1152
军事基地 1151
历年 1151
官兵 1151
私法 1151
含汞 1150
年期 1150
月度 1150
遣散 1150
飞行器 1150
Ap@@ 1149
上报 1149
尔德 1149
服务部 1149
确有 1149
DA@@ 1148
OzL 1148
ow 1148
历次 1148
性别角色 1148
数最多 1148
深受 1148
第三类 1148
阿马 1148
361 1147
一共 1147
决 1147
市值 1147
归档 1147
敌视 1147
第十三 1147
CRP.3 1146
克族 1146
地以 1146
填补空缺 1146
彼此之间 1146
拉巴特 1146
昂 1146
纸 1146
脚 1146
采掘 1146
Add.7 1145
ton 1145
凌辱 1145
施暴者 1145
皆 1145
稍 1145
逐一 1145
阻@@ 1145
衰@@ 1144
下级 1143
扣 1143
普及率 1143
潮 1143
运到 1143
402 1142
L.25 1142
ac 1142
俄罗斯联邦政府 1142
埃拉 1142
技术标准 1142
未婚 1142
瓜@@ 1142
耗费 1142
GE@@ 1141
IM@@ 1141
合理性 1141
咨询组 1141
期末 1141
能以 1141
苏人解 1141
视力 1141
途 1141
默许 1141
And@@ 1140
○ 1140
优越 1140
刑事管辖 1140
实地考察 1140
食品安全 1140
ort@@ 1139
接收国 1139
连通 1139
预制 1139
eva 1138
具体任务 1138
应同 1138
犯罪团伙 1138
犯罪现场 1138
简明 1138
维和部队 1138
误导 1138
军事@@ 1137
出版社 1137
贷项 1137
雨水 1137
不列颠 1136
带动 1136
强烈建议 1136
运河 1136
逐出 1136
隔离区 1136
ace 1135
充分行使 1135
去除 1135
台式 1135
大洋洲 1135
完备 1135
平民百姓 1135
死亡威胁 1135
零售 1135
冻结资产 1134
凭证 1134
劳资 1134
学童 1134
通报会 1134
521 1133
1521 1132
405 1132
助 1132
复查 1132
摄影 1132
楼@@ 1132
罗先生 1132
软@@ 1131
预支 1131
L.38 1130
Ru@@ 1130
伊朗政府 1130
别国 1130
收入水平 1130
新一代 1130
电缆 1130
第四款 1130
英才 1130
风暴 1130
411 1129
ON@@ 1129
Se@@ 1129
为生 1129
纤维 1129
缓刑 1129
难度 1129
Ed@@ 1128
下才 1128
存有 1128
家庭环境 1128
枢纽 1128
滥用职权 1128
产品@@ 1127
匹配 1127
固体 1127
有形资产 1127
耶夫 1127
重大意义 1127
5.5% 1126
乙@@ 1126
撒@@ 1126
枪击 1126
涅@@ 1126
遣送 1126
陆运 1126
70@@ 1125
820 1125
开发新 1125
扎伊尔 1125
扣减 1125
无国界 1125
清点 1125
雅 1125
395 1124
GDP 1124
尽可能减少 1124
Mas@@ 1123
Ph@@ 1123
tr@@ 1123
拘捕 1123
有史以来 1123
选用 1123
66% 1122
Me@@ 1122
XVI 1122
创 1122
北南 1122
命@@ 1122
感情 1122
手机 1122
收据 1122
校园 1122
签@@ 1122
银行业务 1122
Sab@@ 1121
下于 1121
不详 1121
中低收入 1121
内地 1121
农业@@ 1121
插@@ 1121
收款 1121
氯烃 1121
泄漏 1121
Mad@@ 1120
ati 1120
代际 1120
合用 1120
埃米尔 1120
戏剧 1120
最大化 1120
汉普森 1120
该市 1120
醇 1120
eb 1119
ers@@ 1119
原件 1119
参差不齐 1119
周期性 1119
真实性 1119
1503 1118
565 1118
Hassan 1118
Val@@ 1118
既@@ 1118
片@@ 1118
435 1117
ong@@ 1117
引 1117
顾@@ 1117
393 1116
Ny@@ 1116
PR 1116
出生率 1116
卫生部长 1116
待审 1116
离岸 1116
联塞建 1116
计划@@ 1116
十分@@ 1115
域 1115
电器 1115
研讨 1115
路上 1115
领事馆 1115
人命 1114
决策权 1114
史@@ 1114
宽 1114
查尔斯 1114
职业妇女 1114
辨认 1114
还须 1114
遇@@ 1114
int@@ 1113
下落不明 1113
器具 1113
浮@@ 1113
Con@@ 1112
XIX 1112
国际联盟 1112
嫌疑 1112
工程@@ 1112
纳粹 1112
行李 1112
这应 1112
398 1111
72% 1111
九名 1111
代码 1111
卷宗 1111
射入 1111
徒 1111
法中 1111
灵@@ 1111
起初 1111
重新启动 1111
雄@@ 1111
Mak@@ 1110
公诉 1110
失业问题 1110
社会科学 1110
罪恶 1110
高速 1110
主义者 1109
受援 1109
比较@@ 1109
起始 1109
Alma 1108
临时政府 1108
全国@@ 1108
市场@@ 1108
开放源码 1108
散 1108
第一卷 1108
粉@@ 1108
XXI 1107
传感器 1107
再接再厉 1107
参谋长 1107
常备 1107
抚养费 1107
控制中心 1107
效仿 1107
青春期 1107
鲜@@ 1107
农作物 1106
国名 1106
随即 1106
音 1106
Hal@@ 1105
PO@@ 1105
卡洛斯 1105
尽责 1105
持有者 1105
错综复杂 1105
停顿 1104
全新 1104
八条 1104
协联 1104
执行官 1104
订@@ 1104
都@@ 1104
非成员国 1104
验@@ 1104
1907 1103
Bo@@ 1103
Jos 1103
一带 1103
策 1103
遗骸 1103
443 1102
人口老龄化 1102
居住区 1102
478 1101
威 1101
有幸 1101
端@@ 1101
444 1100
710 1100
巴库 1100
开通 1100
oun 1099
偶尔 1099
医治 1099
单亲 1099
变通 1099
补偿金 1099
评判 1099
4.5% 1098
424 1098
429 1098
64% 1098
举出 1098
乘数 1098
武断 1098
网络安全 1098
Dec@@ 1097
Ku@@ 1097
掌管 1097
牧师 1097
3.5% 1096
384 1096
ens@@ 1096
世界卫生 1096
主管人员 1096
夏 1096
扫射 1096
贸易条件 1096
退学 1096
钢@@ 1096
L.34 1095
俄@@ 1095
国立大学 1095
增加一倍 1095
屋 1095
房产 1095
特别感谢 1095
雅温得 1095
404 1094
Sol@@ 1094
仍旧 1094
共同行动 1094
政见 1094
第十八次 1094
米歇尔 1094
Co@@ 1093
ga 1093
不相称 1093
安全事件 1093
惟一 1093
择@@ 1093
期所 1093
版@@ 1093
程序@@ 1093
肢体 1093
银行@@ 1093
68@@ 1092
丝毫 1092
云 1092
横@@ 1092
死因 1092
破裂 1092
组件 1092
联苯 1092
越界 1092
造 1092
非农业 1092
419 1091
438 1091
477 1091
会外 1091
弃 1091
次访问 1091
第二十二条 1091
au 1090
实在 1090
平均工资 1090
微克 1090
菌 1090
装甲车 1090
awa 1089
举证 1089
发展前景 1089
受托 1089
喜欢 1089
国务部长 1089
扫描 1089
比前 1089
环境@@ 1089
相互间 1089
耐心 1089
433 1088
imana 1088
扬@@ 1088
放映 1088
政治性 1088
达累斯萨拉姆 1088
逐年 1088
阿巴斯 1088
首位 1088
397 1087
9.1 1087
丙@@ 1087
从业者 1087
减小 1087
哈尔 1087
坐标 1087
应负 1087
总费用 1087
托儿 1087
水果 1087
让步 1087
赶@@ 1087
静@@ 1087
偷窃 1086
帮派 1086
测定 1086
050 1085
418 1085
Mur@@ 1085
国务卿 1085
奈 1085
泛 1085
组和 1085
订有 1085
讯息 1085
青 1085
面对面 1085
513 1084
Be@@ 1084
势@@ 1084
拍摄 1084
1929 1083
分析员 1083
斯塔 1083
渊源 1083
相互支持 1083
衔接 1083
街道 1083
840 1082
IN 1082
乳腺癌 1082
像@@ 1082
全面实现 1082
发动机 1082
筹@@ 1082
胎 1082
账 1082
政策性 1081
日报 1081
里克 1081
AC 1080
实习生 1080
导游 1080
政府军 1080
残余 1080
烧毁 1080
眼前 1080
第一种 1080
绘图 1080
自然@@ 1080
表二 1080
转诊 1080
ain 1079
原则立场 1079
曾多次 1079
癌 1079
认明 1079
属@@ 1078
援@@ 1078
氧 1078
泰国政府 1078
人事管理 1077
外围 1077
盛@@ 1077
稀少 1077
第十九次 1077
448 1076
465 1076
ISO 1076
ice 1076
作家 1076
分隔 1076
图片 1076
推选 1076
效 1076
Ger@@ 1075
人满为患 1075
已使 1075
计算机化 1075
68% 1074
一块 1074
东北亚 1074
第三十一条 1074
落实工作 1074
过长 1074
455 1073
ary 1073
东南部 1073
框 1073
模@@ 1073
anda 1072
个人卫生 1072
代表处 1072
会计@@ 1072
妨害 1072
简述 1072
达卡 1072
388 1071
hi 1071
保持警惕 1071
密切注意 1071
损伤 1071
无法@@ 1071
核弹头 1071
狱中 1071
过后 1071
限@@ 1071
首领 1071
86% 1070
Kal@@ 1070
分机 1070
广播@@ 1070
床@@ 1070
或经 1070
拉尔 1070
择 1070
栋 1070
逃脱 1070
532 1069
举例说明 1069
二是 1069
使用寿命 1069
公诉人 1069
创设 1069
尼日利亚政府 1069
弹头 1069
普惠制 1069
自备 1069
遏止 1069
应聘 1068
投票站 1068
支持性 1068
教益 1068
话@@ 1068
这届 1068
阿拉法特 1068
421 1067
L.32 1067
学术@@ 1067
审计师 1067
席@@ 1067
良知 1067
象征性 1067
445 1066
58@@ 1066
下旬 1066
国会议员 1066
竞标 1066
而异 1066
行文 1066
L.28 1065
amm@@ 1065
写@@ 1065
帐篷 1065
触@@ 1065
辆车 1065
are 1064
uc@@ 1064
国与 1064
407 1063
ess 1063
man@@ 1063
ust@@ 1063
中亚国家 1063
家务劳动 1063
树@@ 1063
沿用 1063
离去 1063
403 1062
48.@@ 1062
Khan 1062
交通事故 1062
化为 1062
同酬 1062
平权 1062
并不认为 1062
第六@@ 1062
词汇 1062
David 1061
ola 1061
人员伤亡 1061
具体做法 1061
吉尔吉斯斯坦共和国 1061
引擎 1061
摊派 1061
敌国 1061
服务供应商 1061
社会学 1061
ok 1060
二十世纪 1060
宿@@ 1060
屈@@ 1060
慰问 1060
疑虑 1060
第比利斯 1060
配量 1060
458 1059
人种 1059
急诊 1059
电视@@ 1059
负@@ 1059
1390 1058
485 1058
XXVI 1058
供应品 1058
婚姻法 1058
更是 1058
条下 1058
短语 1058
等到 1058
葡语 1058
里昂 1058
ovi 1057
稍@@ 1057
节中 1057
违宪 1057
Ex@@ 1056
TE@@ 1056
we 1056
实际意义 1056
服务局 1056
治罪 1056
男女比例 1056
透@@ 1056
五年计划 1055
创业精神 1055
安东尼奥 1055
敏@@ 1055
新机制 1055
照明 1055
签订合同 1055
航空@@ 1055
衡平 1055
异性 1054
生物资源 1054
联机 1054
1.8 1053
塔拉 1053
求职 1053
第三季度 1053
纽带 1053
致敬 1053
足球 1053
辩 1053
6.5% 1052
一面 1052
可用性 1052
特种 1052
粮 1052
71% 1051
Mil@@ 1051
one 1051
份文件 1051
增建 1051
忍受 1051
洪@@ 1051
石油价格 1051
亦可 1050
夜 1050
无线电台 1050
沙姆沙伊赫 1050
雨季 1050
557 1049
中性 1049
人员配备 1049
分配原则 1049
埃尔 1049
愿@@ 1049
有过 1049
站点 1049
腹泻 1049
财务处 1049
走出 1049
近几年 1049
409 1048
Ant@@ 1048
LE@@ 1048
上期 1048
佩 1048
务虚会 1048
努美阿 1048
当初 1048
服务项目 1048
泡沫 1048
细致 1048
达巴 1048
61% 1047
南美 1047
学前 1047
未必 1047
483 1046
526 1046
B.@@ 1046
MO@@ 1046
偏高 1046
器@@ 1046
地被 1046
基本@@ 1046
失散 1046
慎重 1046
月球 1046
物理学 1046
瑟 1046
起义 1046
轻易 1046
59@@ 1045
ti 1045
严重不足 1045
交换所 1045
反倾销 1045
灌输 1045
第二十三 1045
通信卫星 1045
音像 1045
96% 1044
aj 1044
ric@@ 1044
万维网 1044
人事@@ 1044
充资 1044
小学生 1044
循序渐进 1044
德里 1044
肆意 1044
返国 1044
4.8 1043
89.@@ 1043
anga 1043
圆@@ 1043
基金项目 1043
科托努 1043
符合国家 1043
软 1043
82% 1042
sen 1042
候审 1042
兼任 1042
地使 1042
播@@ 1042
骨@@ 1042
83% 1041
ea 1041
乱 1041
建和办 1041
星期日 1041
犯罪案件 1041
秘 1041
穿 1041
ado 1040
为时过早 1040
交涉 1040
助学金 1040
千百万 1040
果@@ 1040
遥@@ 1040
页数 1040
469 1039
CN.17 1039
保障人权 1039
军控 1039
南朝鲜 1039
围困 1039
推 1039
炉 1039
新西兰政府 1038
饱受 1038
457 1037
78% 1037
列述 1037
塔什 1037
开拓 1037
影片 1037
拥护 1037
英里 1037
迫@@ 1037
选拔 1037
736 1036
Inspira 1036
Kafr 1036
传给 1036
商业界 1036
所负 1036
秘鲁政府 1036
诊@@ 1036
1591 1035
434 1035
486 1035
501 1035
L.39 1035
PA 1035
不用说 1035
以补 1035
友 1035
马上 1035
92% 1034
anc@@ 1034
侦测 1034
刑事法 1034
州长 1034
布干维尔 1034
当日 1034
影 1034
欠@@ 1034
照护 1034
营养状况 1034
394 1033
OEWG 1033
促@@ 1033
回家 1033
寻常 1033
年青人 1033
港@@ 1033
第一天 1033
管制系统 1033
若干年 1033
荒漠 1033
通力合作 1033
间@@ 1033
466 1032
48@@ 1032
506 1032
B型 1032
PL 1032
ial 1032
型@@ 1032
很差 1032
验收 1032
丝 1031
包围 1031
失 1031
日致 1031
电视会议 1031
管理条例 1031
可受 1030
呈文 1030
失误 1030
宜@@ 1030
氮 1030
附于 1030
题 1030
537 1029
545 1029
740 1029
ct@@ 1029
名前 1029
榴弹 1029
盘@@ 1029
盟 1029
第三份 1029
退伍军人 1029
603 1028
外交事务 1028
师资 1028
耕种 1028
觉@@ 1028
乘@@ 1027
出口@@ 1027
差不多 1027
接轨 1027
梦想 1027
水井 1027
译 1027
辞 1027
446 1026
专业@@ 1026
时为 1026
玛丽 1026
索马里人 1026
IC 1025
人次 1025
储藏 1025
加德满都 1025
慈善机构 1025
更能 1025
来函 1025
河谷 1025
现值 1025
电网 1025
调查局 1025
孔 1024
未爆 1024
505 1023
8.3 1023
PE@@ 1023
Peter 1023
van 1023
保密性 1023
并非如此 1023
张@@ 1023
景观 1023
访 1023
陆路 1023
453 1022
Abdul@@ 1022
DA 1022
一员 1022
哈里里 1022
国际航空 1022
数据分析 1022
格拉 1022
残害 1022
残障 1022
父 1022
牵@@ 1022
经验丰富 1022
续设 1022
而论 1022
警力 1022
讲坛 1022
马伊 1022
880 1021
万至 1021
各有 1021
圆满完成 1021
城市贫民 1021
基督徒 1021
总付 1021
总长 1021
牢 1021
盗@@ 1021
自称 1021
轻罪 1021
ú 1020
剧@@ 1020
县@@ 1020
埃尔@@ 1020
增派 1020
巴尔 1020
强制措施 1020
当地政府 1020
恰恰 1019
粮食供应 1019
Mus@@ 1018
共谋 1018
净减 1018
大洲 1018
少年儿童 1018
帮@@ 1018
标示 1018
石油换 1018
罗伯特 1018
采矿业 1018
L.30 1017
Ne@@ 1017
不堪 1017
促 1017
发电厂 1017
学徒 1017
更进一步 1017
维尔 1017
Dar@@ 1016
Hu@@ 1016
奉献 1016
权责 1016
欧洲法院 1016
独一无二 1016
胡安 1016
输出 1016
马普托 1016
.... 1015
1820 1015
中仅 1015
办事员 1015
扼要 1015
这起 1015
RA 1014
不易 1014
对账 1014
尼亚@@ 1014
获得性 1014
薄弱环节 1014
770 1013
97.@@ 1013
军事法院 1013
减让 1013
拟出 1013
普选 1013
普通@@ 1013
漏@@ 1013
2025 1012
529 1012
关键时刻 1012
各异 1012
数百名 1012
生活状况 1012
联会 1012
.5 1011
442 1011
605 1011
76% 1011
87% 1011
of@@ 1011
书面材料 1011
印尼 1011
必需品 1011
酬金 1011
427 1010
不便 1010
喀@@ 1010
戴@@ 1010
案卷 1010
辩论会 1010
雨 1010
合法利益 1009
奥巴马 1009
领导力 1009
1.6% 1008
del 1008
凭单 1008
国家有关 1008
抬头 1008
相吻合 1008
种植园 1008
补 1008
规程 1008
资源@@ 1008
钥匙 1008
9.2 1007
La 1007
丹麦政府 1007
搞 1007
生活@@ 1007
育 1007
飞往 1007
106.@@ 1006
73% 1006
ker 1006
č 1006
国际会计 1006
在技术上 1006
增援 1006
撞击 1006
肉 1006
船队 1006
财@@ 1006
财物 1006
债@@ 1005
六十周年 1005
反抗 1005
另据 1005
契机 1005
捐赠者 1005
氯化石蜡 1005
深深 1005
照看 1005
监测中心 1005
硫@@ 1005
译文 1005
高地 1005
476 1004
718 1004
77% 1004
L.36 1004
结壳 1004
人民代表 1003
商标 1003
英国政府 1003
ence 1002
中约 1002
出任 1002
只应 1002
巴勒斯坦解放组织 1002
拥@@ 1002
数百@@ 1002
衷心感谢 1002
道歉 1002
魁北克 1002
乔 1001
任地 1001
华沙 1001
战后 1001
缴@@ 1001
听众 1000
渔业资源 1000
INF.@@ 999
从速 999
六方会谈 999
具体来说 999
心态 999
推动者 999
政治危机 999
民族主义 999
钟 999
长期有效 999
474 998
917 998
下游 998
保持沉默 998
戈兰高地 998
耽搁 998
733 997
军民 997
创造力 997
商品@@ 997
塔什干 997
是不是 997
母国 997
潘@@ 997
烧@@ 997
议@@ 997
密 996
心理学 996
担当 996
该所 996
451 995
511 995
Bh@@ 995
lez 995
依循 995
劣势 995
山脉 995
日及 995
有违 995
法律条文 995
香港特别行政区 995
亲人 994
呼@@ 994
宵禁 994
工地 994
极有 994
甚微 994
举动 993
审判权 993
巴士拉 993
犯罪率 993
玛伊 993
财务科 993
492 992
920 992
NO@@ 992
发送给 992
呆 992
橡胶 992
职业病 992
裁量权 992
连通性 992
OS 991
千美元 991
季@@ 991
帕拉 991
消费品 991
科技@@ 991
精心 991
该党 991
车臣 991
销 991
雅典 991
467 990
515 990
bi 990
仓储 990
协约 990
地产 990
奋斗 990
毛利 990
用意 990
自该 990
请参阅 990
399 989
ood 989
八名 989
副司长 989
大片 989
审判程序 989
警察局长 989
3.8 988
L.31 988
Pe@@ 988
而来 988
被遗弃 988
非常感谢 988
66@@ 987
L.48 987
任意性 987
卜拉希米 987
手法 987
摆@@ 987
望远镜 987
氯@@ 987
KO@@ 986
五位 986
发射@@ 986
口岸 986
获利 986
396 985
Bel@@ 985
ord@@ 985
周年纪念 985
湖泊 985
精神@@ 985
默 985
0.2% 984
472 984
84% 984
eed 984
失学 984
物力 984
纳克 984
461 983
二次 983
功@@ 983
发掘 983
始@@ 983
年时 983
录取 983
截获 983
殖民统治 983
泥@@ 983
消防@@ 983
秒 983
裁武 983
L.40 982
Ro@@ 982
白人 982
简历 982
饭店 982
431 981
分队 981
多氯 981
强加于 981
执政党 981
铺平 981
DNA 980
乃是 980
勤@@ 980
化肥 980
危地马拉政府 980
家族 980
并列 980
战略@@ 980
散居 980
胜@@ 980
Naqurah 979
北欧 979
启@@ 979
酸化 979
ge 978
十天 978
叙级 978
听询 978
在册 978
战略重点 978
能见度 978
L.37 977
hm@@ 977
七条 977
之久 977
停火协议 977
友@@ 977
孤身 977
描绘 977
登记簿 977
站@@ 977
赶走 977
447 976
L.43 976
pl@@ 976
中间商 976
制定方案 976
取证 976
用具 976
行进 976
超 976
重审 976
降解 976
三周 975
卸任 975
大厦 975
学龄儿童 975
括号 975
矩阵 975
赖@@ 975
金融工具 975
L.42 974
L.49 974
其余部分 974
协同效应 974
放到 974
母 974
爱滋病 974
袭 974
顺利完成 974
468 973
sch@@ 973
佩林 973
收藏 973
法尔 973
理所当然 973
于本 972
层@@ 972
舍@@ 972
英国@@ 972
警察署 972
498 971
Kr@@ 971
压缩 971
在座 971
妥 971
婴幼儿 971
巴里 971
确凿 971
479 970
522 970
AP 970
之多 970
全日制 970
各种类型 970
缓减 970
脑@@ 970
遗体 970
2019 969
32.@@ 969
441 969
495 969
ard@@ 969
一日 969
分析@@ 969
刺@@ 969
包机 969
地方性 969
坎 969
抽签 969
知情权 969
粉 969
维生素 969
首尔 969
AB 968
乌兹别克 968
剧 968
合同条款 968
年增长率 968
检讨 968
耳@@ 968
Gl@@ 967
Min@@ 967
中转 967
值得称赞 967
口号 967
外交大臣 967
数以百万计 967
用地 967
社会变革 967
能源部 967
Bri@@ 966
Mut@@ 966
yn@@ 966
健@@ 966
利特 966
手榴弹 966
阿族 966
454 965
481 965
aw 965
乱伦 965
微波 965
新举措 965
曾@@ 965
狭窄 965
管理机制 965
预留 965
领导职务 965
食品@@ 965
59% 964
ora 964
与此相关 964
中曾 964
亲密 964
备抵 964
接生 964
生活费用 964
胶@@ 964
高技术 964
高额 964
1160 963
不驱 963
制宪会议 963
巴厘岛 963
自下而上 963
财政困难 963
辅助性 963
88% 962
L.33 962
咨询中心 962
性病 962
痛惜 962
育龄妇女 962
阿勒颇 962
霍姆斯 962
462 961
491 961
Ac@@ 961
iz 961
止 961
致词 961
遗@@ 961
避@@ 961
金边 961
35.@@ 960
625 960
oul@@ 960
采购计划 960
37.@@ 959
69@@ 959
优良 959
各处 959
并会 959
构成犯罪 959
社会阶层 959
诞生 959
资质 959
销售@@ 959
633 958
rah@@ 958
ter 958
下一阶段 958
主页 958
提款权 958
第一副 958
463 957
两套 957
仍应 957
偷@@ 957
布里 957
戒毒 957
继而 957
铜 957
514 956
L.53 956
事务股 956
以下几点 956
序号 956
态 956
斯洛文尼亚共和国 956
源@@ 956
职业道德 956
该名 956
附加条件 956
AS 955
ert@@ 955
ley 955
停火线 955
前述 955
塞米 955
妇幼保健 955
测验 955
证明书 955
484 954
Os@@ 954
人性 954
副产品 954
拉马拉 954
真的 954
丝@@ 953
兴建 953
核可@@ 953
燃@@ 953
另一人 952
中学生 951
八项 951
公共汽车 951
承担义务 951
法律@@ 951
炮 951
生态旅游 951
甲型 951
疏@@ 951
移植 951
耕地 951
459 950
49.@@ 950
Kab@@ 950
L.35 950
XVIII 950
商业部门 950
应用软件 950
建国 950
愤怒 950
日程表 950
暴乱 950
溶@@ 950
艺术@@ 950
531 949
aka 949
增值税 949
捕@@ 949
望@@ 949
油田 949
稀缺 949
第一手 949
需在 949
38.@@ 948
93% 948
总的说来 948
投保 948
突发 948
联系人 948
该地 948
迫在眉睫 948
默示 948
551 947
790 947
980 947
中度 947
中非国家 947
五国 947
发明 947
器材 947
守 947
时要 947
极高 947
甚高频 947
租约 947
适应能力 947
阿拉 947
驻外 947
高标准 947
L.45 946
Pal@@ 946
Un@@ 946
区域化 946
占多数 946
大法官 946
想到 946
文件系统 946
母乳 946
爱国者 946
研究@@ 946
防止出现 946
1747 945
AT@@ 945
丧@@ 945
儿童教育 945
失调 945
意味 945
祸患 945
美国国会 945
74% 944
Ass@@ 944
ua 944
二读 944
公设辩护 944
实质问题 944
扫除 944
据信 944
晚@@ 944
纳斯 944
缺水 944
资金短缺 944
涉@@ 943
穷 943
第十二章 943
纵@@ 943
自主性 943
选择地 943
重心 943
领导者 943
502 942
不断更新 942
主教 942
代管 942
其他费用 942
刚果人 942
大意 942
天文学 942
格外 942
法律委员会 942
相互依赖 942
筒 942
繁琐 942
进口商 942
L.50 941
劫@@ 941
枯竭 941
集中力量 941
452 940
555 940
不成 940
同胞 940
示威游行 940
第一百 940
装甲运兵车 940
Rad@@ 939
sky 939
埃尔比勒 939
多位 939
奥尔@@ 939
渔管 939
瓦德 939
米纳 939
纵容 939
进去 939
阳@@ 939
黑 939
449 938
err@@ 938
带头作用 938
常设机构 938
澳门特别行政区 938
迟缓 938
零星 938
534 937
San@@ 937
名是 937
尤 937
欣@@ 937
荷属 937
配 937
482 936
CA 936
儿@@ 936
再生 936
刊 936
图象 936
摄@@ 936
联合公报 936
556 935
LL 935
ies 935
伙伴国 935
低碳 935
可预见性 935
国产 935
武器化 935
生态@@ 935
阿鲁巴 935
enko 934
与日俱增 934
前一天 934
卡尔@@ 934
廉@@ 934
开具 934
族@@ 934
正好 934
毫无@@ 934
牛@@ 934
貌 934
陪 934
743 933
830 933
th 933
军事顾问 933
协调性 933
国家银行 933
基辅 933
文化背景 933
施用 933
阿尔 933
464 932
518 932
GA 932
L.41 932
偷渡 932
工时 932
技术创新 932
话题 932
赡养费 932
边远 932
571 931
aki 931
回报率 931
执业 931
详细分析 931
位数 930
助产 930
极易 930
欧洲@@ 930
破伤风 930
累@@ 930
调控 930
赞助者 930
之家 929
同该 929
图书 929
普里 929
纪@@ 929
金斯克 929
504 928
Ltd 928
不久前 928
书面报告 928
参选 928
私 928
称道 928
谨以 928
715 927
周末 927
味 927
快速增长 927
斯科@@ 927
遵@@ 927
585 926
个人资料 926
二十 926
保健@@ 926
决策人员 926
几 926
勾结 926
可喜 926
复印件 926
演示 926
相处 926
虚@@ 926
贸易部 926
通则 926
顾 926
前次 925
学说 925
平均年龄 925
折算 925
拜@@ 925
控制区 925
校舍 925
稻米 925
第十四 925
西北部 925
谋 925
雅克 925
494 924
UNCTAD 924
ç 924
万英镑 924
严 924
前列 924
十分复杂 924
定购 924
巴勒莫 924
李@@ 924
L.44 923
XXVII 923
候任 923
发展@@ 923
受到破坏 923
哥@@ 923
每份 923
济@@ 923
皮埃尔 923
890 922
COP.1 922
IF@@ 922
Med@@ 922
uri 922
乐 922
具@@ 922
品牌 922
型号 922
能源@@ 922
苦 922
见面 922
辛 922
长者 922
坚实基础 921
总监 921
积 921
516 920
倘若 920
农村居民 920
46@@ 919
万亿美元 919
床 919
数项 919
最穷 919
柬 919
派系 919
精神病院 919
联手 919
谋杀罪 919
退 919
伊斯兰堡 918
刻@@ 918
如对 918
数千名 918
绝 918
诱拐 918
Shar@@ 917
伯利恒 917
应请 917
敦 917
机队 917
海水 917
频@@ 917
39.@@ 916
767 916
Zh@@ 916
gh@@ 916
军事力量 916
含糊 916
售@@ 916
纳税 916
股权 916
麻烦 916
76.@@ 915
CAC 915
Nab@@ 915
下一代 915
国境 915
市议会 915
广播公司 915
役@@ 915
玛丽亚 915
素季 915
乱@@ 914
争取和平 914
保证金 914
换算 914
素@@ 914
负荷 914
81% 913
AM@@ 913
Go@@ 913
Han@@ 913
侵占 913
应付款 913
残留 913
还愿 913
银河 913
高等院校 913
692 912
不迟于 912
发病 912
底层 912
待决 912
援 912
泛非 912
约束性 912
趋向 912
471 911
Um@@ 911
公路网 911
共同商定 911
温和 911
特里 911
罪责 911
职业者 911
过渡阶段 911
539 910
ji 910
亚美尼亚人 910
卡特 910
卫士 910
磨@@ 910
行者 910
AK 909
CRIC 909
Her@@ 909
Maria 909
一如 909
借用 909
充分说明 909
找@@ 909
放慢 909
斯特拉斯堡 909
有害物质 909
熟@@ 909
紧 909
耗@@ 909
规划@@ 909
词@@ 909
746 908
com@@ 908
ke 908
债务国 908
固然 908
工业部 908
径 908
集体@@ 908
493 907
546 907
79.@@ 907
L.47 907
事物 907
回籍 907
布设 907
流感 907
海岸线 907
瓦拉 907
Av@@ 906
Raj@@ 906
gr@@ 906
与此相反 906
众 906
伤员 906
偏袒 906
历@@ 906
园@@ 906
德语 906
现役 906
索要 906
谢意 906
账务 906
一分 905
哥 905
局域网 905
干旱地区 905
建模 905
折 905
排减 905
现成 905
能源需求 905
Luis 904
art 904
一俟 904
人口@@ 904
农用 904
刚@@ 904
司法警察 904
吞并 904
国际舞台 904
土地@@ 904
基层组织 904
属地 904
概@@ 904
澳门特区 904
琳 904
虫害 904
长处 904
960 903
oo 903
倾弃 903
娅 903
帐@@ 903
旋转翼 903
监督员 903
膳食 903
著@@ 903
496 902
加之 902
吉塞 902
复议 902
挑起 902
装卸 902
! 901
548 901
威德 901
就业人数 901
岌岌可危 901
总和 901
新闻媒介 901
星球 901
氧化@@ 901
社发 901
ki 900
yan 900
何 900
楼房 900
班级 900
疑@@ 900
长期性 900
马库 900
489 899
69% 899
从属 899
做些 899
残 899
灵 899
社会关系 899
脱贫 899
499 898
Tall 898
互信 898
埋设 898
平稳 898
挤@@ 898
损毁 898
第四项 898
赎金 898
CN@@ 897
出自 897
巴伦西亚 897
扩@@ 897
搬运 897
父@@ 897
共同财产 896
应邀参加 896
操@@ 896
洋@@ 896
涉 896
870 895
叙利亚人 895
国与国 895
座位 895
打造 895
棉@@ 895
气象卫星 895
纽@@ 895
金戈 895
阿斯马拉 895
XXV 894
古老 894
强奸罪 894
效@@ 894
眼光 894
赡养 894
运输工具 894
COP.9 893
为数不多 893
各条 893
地处 893
坏 893
审理案件 893
整 893
无证 893
油价 893
生物量 893
矿区 893
计算@@ 893
课堂 893
重大事件 893
高频 893
508 892
De 892
ODP 892
aga 892
ein 892
上调 892
交火 892
取用 892
奥地利政府 892
奶@@ 892
总价值 892
拆@@ 892
摘录 892
改装 892
豪@@ 892
迷@@ 892
阿姆 892
mann 891
哈德 891
复 891
多元性 891
报废 891
阿联酋 891
94% 890
克朗 890
兑 890
出入境 890
卡利 890
性保健 890
易卜拉欣 890
机动车辆 890
正由 890
物件 890
筹办 890
简编 890
财政管理 890
50.@@ 889
517 889
Sah@@ 889
ish 889
克里 889
有增无减 889
繁@@ 889
538 888
575 888
A.1 888
AS@@ 888
Ol@@ 888
专有 888
动向 888
受访者 888
最低水平 888
毫无意义 888
海洋污染 888
减债 887
弃@@ 887
性交 887
经济犯罪 887
运营商 887
邻居 887
银行业 887
两点 886
拮据 886
正视 886
汉堡 886
维斯 886
订购 886
The 885
land 885
一间 885
上下 885
不好 885
分将 885
十大 885
各节 885
尾 885
开普敦 885
牵连 885
生意 885
界面 885
肉体 885
DI 884
互不 884
几类 884
名新 884
国际妇女节 884
悲痛 884
瞄准 884
联合国教科文组织 884
詹姆斯 884
AN 883
不断加强 883
五大 883
供应方 883
查谟 883
水坝 883
贸@@ 883
772 882
CP@@ 882
ndez 882
uss@@ 882
亏损 882
发扬 882
否 882
明文 882
波及 882
该区 882
贫民区 882
避免出现 882
采伐 882
519 881
之手 881
南半球 881
复国主义 881
尔格 881
百分之@@ 881
竣工 881
第五个 881
芬 881
货币联盟 881
贵@@ 881
青年@@ 881
上周 880
亚斯 880
前后一致 880
受限 880
大自然 880
年数 880
座@@ 880
财政危机 880
BDE 879
公开@@ 879
团体之间 879
外籍人 879
巴尔@@ 879
拒绝给予 879
既定目标 879
植@@ 879
证言 879
864 878
以东 878
妇女运动 878
宣布独立 878
床位 878
拿@@ 878
第一组 878
职业生涯 878
贫困地区 878
逐个 878
邪恶 878
rah 877
一例 877
很广 877
本分 877
监测员 877
经济秩序 877
uk 876
先令 876
公用 876
弱@@ 876
悼念 876
热点 876
煤@@ 876
移居 876
竞@@ 876
该分 876
辈 876
这三项 876
采行 876
佛@@ 875
同谋 875
圣战 875
悠久 875
检察厅 875
联危 875
能源技术 875
语音 875
COSP 874
EN@@ 874
全都 874
叫 874
各有不同 874
幸@@ 874
检查@@ 874
此信 874
率高 874
用户@@ 874
神经 874
衡量标准 874
逊 874
527 873
567 873
ade 873
三十年 873
不能不 873
巴西利亚 873
联邦区 873
腿 873
边界线 873
陷入僵局 873
顿@@ 873
领导@@ 873
128.@@ 872
上课 872
中东欧 872
丰度 872
伽利略 872
关系法 872
净化 872
剧烈 872
双边协议 872
合资 872
呈交 872
寻@@ 872
散播 872
枢密院 872
登记@@ 872
科医生 872
舰 872
观看 872
诠释 872
逆向 872
链@@ 872
..... 871
Mohammad 871
岸@@ 871
平稳过渡 871
弄清 871
盐类 871
艾德 871
识 871
诊 871
化验 870
升值 870
外交代表 870
火山 870
环境因素 870
贷记 870
银 870
饰 870
36.@@ 869
est 869
优于 869
其向 869
学龄前 869
废水处理 869
短链 869
警戒 869
说服力 869
非加太 869
非洲法郎 869
L.46 868
上诉人 868
从业 868
公平性 868
十二@@ 868
扎伊 868
法证 868
渔具 868
磷 868
自行决定 868
齐心协力 868
ä 867
几起 867
商谈 867
境遇 867
已达 867
恐怖集团 867
第五十 867
视野 867
详细审查 867
载人 867
佛教 866
决算 866
接获 866
迈克尔 866
阵 866
Gonz 865
合同@@ 865
奋@@ 865
布拉格 865
相差 865
股在 865
阴影 865
523 864
533 864
552 864
卜@@ 864
埃及政府 864
安德@@ 864
总而言之 864
日间 864
硕士学位 864
科伦坡 864
著 864
西南 864
邮票 864
首要任务 864
89% 863
买受人 863
展览会 863
总统府 863
斯科 863
码 863
软禁 863
1455 862
乘 862
克尔 862
安大略省 862
完全一致 862
汉 862
狩猎 862
隔绝 862
473 861
940 861
ella 861
十国集团 861
房租 861
手续费 861
指挥@@ 861
欧统局 861
欺凌 861
第十五 861
装甲 861
革@@ 861
首席法官 861
Del@@ 860
FS 860
加以改进 860
呼吸道 860
官僚 860
小节 860
挖@@ 860
湄公河 860
牵涉 860
珊瑚 860
美国国务院 860
自由行动 860
94.@@ 859
三边 859
事由 859
哪@@ 859
浸@@ 859
精英 859
贡 859
Mag@@ 858
ect@@ 858
二十五 858
六周 858
利伯维尔 858
利纳 858
帐款 858
时所作 858
近期内 858
递 858
535 857
90.@@ 857
Aw@@ 857
保留地 857
失踪案 857
常务 857
束缚 857
氯氟烃 857
问及 857
582 856
切入点 856
厘米 856
存活 856
志 856
更快 856
皮肤 856
盈利 856
第二十四 856
股将 856
Jo@@ 855
ut 855
乡镇 855
学到 855
心理学家 855
懂 855
数据系统 855
无知 855
欠发达 855
矿产资源 855
联络员 855
违法者 855
一中 854
二所列 854
同伙 854
娱乐活动 854
已同 854
滋生 854
瑞士联邦 854
电话@@ 854
邻近地区 854
MI 853
二中 853
历时 853
地面站 853
士气 853
宇航 853
最高级 853
民事责任 853
特别法 853
积极分子 853
第三期 853
老师 853
贴现率 853
阈值 853
564 852
amp@@ 852
基尔 852
大地 852
实用性 852
应能 852
服贸 852
未向 852
纠@@ 852
1284 851
573 851
Nt@@ 851
低廉 851
困难重重 851
纸张 851
考 851
而成 851
自尊 851
责@@ 851
都灵 851
队@@ 851
Bak@@ 850
Fat@@ 850
TRAC 850
两院 850
儿童@@ 850
内乱 850
十一大 850
同级 850
林业部门 850
游击队 850
稳妥 850
罗安达 850
透明性 850
饲料 850
Fl@@ 849
伊拉 849
何人 849
单项 849
属人 849
年幼 849
早孕 849
海法 849
管制法 849
赔款 849
骄傲 849
Jab@@ 848
Say@@ 848
XL@@ 848
举例来说 848
出访 848
分离主义 848
分量 848
区域@@ 848
带走 848
恐怖行动 848
打电话 848
珍视 848
电子版 848
痛@@ 848
章@@ 848
腾出 848
迁至 848
金矿 848
Mb@@ 847
不清 847
仍为 847
休会期间 847
伤亡人数 847
基多 847
循环基金 847
瓦解 847
畜牧 847
祝 847
租 847
肿瘤 847
评分 847
ore 846
〕 846
头部 846
成文法 846
拨@@ 846
最迟在 846
极少数 846
节日 846
蒙古国 846
逃跑 846
停职 845
定论 845
家用 845
当地人 845
恢复原状 845
盘点 845
Hab@@ 844
He@@ 844
世界遗产 844
太多 844
布拉@@ 844
廉政 844
技@@ 844
技术设备 844
致开幕词 844
党员 843
听力 843
国际争端 843
对以 843
教唆 843
短期投资 843
碳氢化合物 843
科尔 843
童 843
人民党 842
共产党 842
堆@@ 842
就业人口 842
行政命令 842
遗漏 842
Cast@@ 841
Met@@ 841
ly 841
乡@@ 841
二恶英 841
卡扎菲 841
地步 841
应征 841
礼品 841
立即行动 841
联营 841
贴@@ 841
贸易商 841
东方 840
工会组织 840
市场机制 840
服务公司 840
灯@@ 840
稳@@ 840
艾 840
1803 839
ens 839
东方省 839
以西 839
任职期间 839
具体内容 839
制成 839
审判@@ 839
把@@ 839
摊 839
日以 839
本金 839
核威胁 839
比亚 839
气温 839
献@@ 839
酒@@ 839
748 838
San 838
主要职责 838
亚尔 838
礼 838
见于 838
预备会议 838
6.7 837
国家标准 837
禁核试条约 837
羊 837
萨格勒布 837
鲍@@ 837
鼓动 837
536 836
8.4 836
ESCAP 836
berg 836
使用量 836
劳务市场 836
奎@@ 836
时会 836
石块 836
道义上 836
5.7 835
MA 835
不大 835
令人发指 835
保护局 835
原型 835
取自 835
哈利法 835
大米 835
已为 835
明确要求 835
液@@ 835
纯@@ 835
罚 835
膜 835
迟于 835
锥体 835
553 834
79% 834
ES@@ 834
Ev@@ 834
两部 834
传 834
内所载 834
基尔库克 834
实地调查 834
怀 834
演说 834
玉米 834
睦邻关系 834
美援 834
账单 834
释@@ 834
陆港 834
驱虫 834
Ha@@ 833
以新 833
侵略者 833
几内亚湾 833
合资企业 833
撤退 833
申请表 833
突击 833
辅@@ 833
钱@@ 833
露@@ 833
CER 832
别克斯 832
定点 832
方都 832
来文@@ 832
观测站 832
579 831
91% 831
zi 831
受难者 831
哺乳动物 831
对前 831
带领 831
控方 831
烃 831
胜诉 831
544 830
IT 830
Ser@@ 830
合同法 830
处方 830
大众传媒 830
盛 830
突发事件 830
纪律处分 830
默认 830
Ari@@ 829
Jam@@ 829
L.52 829
公法 829
反击 829
可再生 829
可得 829
捕 829
样@@ 829
营业@@ 829
诺言 829
贫 829
这家 829
釜山 829
阿布@@ 829
麦 829
IP@@ 828
公共资源 828
南盟 828
可得性 828
肩负 828
道路交通 828
铁路网 828
高速公路 828
561 827
583 827
591 827
事务@@ 827
亲戚 827
伏 827
减低 827
吸取经验 827
就业部 827
拼@@ 827
探测器 827
擅自 827
智囊团 827
灾 827
自我@@ 827
598 826
Paul 826
土地法 826
强奸案 826
悬@@ 826
慢性病 826
截然不同 826
探照灯 826
时段 826
样板 826
省政府 826
能源价格 826
诸位 826
足@@ 826
转折点 826
钢 826
饲养 826
XI 825
保险法 825
总会 825
扎齐 825
放心 825
方案设计 825
替 825
第二批 825
诉讼@@ 825
贮存 825
退款 825
Da@@ 824
Rob@@ 824
创始人 824
合法权益 824
炎 824
Jan@@ 823
La@@ 823
Van 823
上班 823
喂养 823
干净 823
打印 823
抗议者 823
明显增加 823
电话会议 823
碎@@ 823
许@@ 823
Bas@@ 822
But@@ 822
〔 822
不切实际 822
交互 822
停止使用 822
囊括 822
国及 822
外交界 822
嫁妆 822
日到 822
非全时 822
guez 821
idi 821
付清 821
价款 821
分局 821
发来 821
大道 821
对外贸易 821
旅行社 821
狱@@ 821
评为 821
辖 821
572 820
CN.5 820
abi 820
不分青红皂白 820
各章 820
数字@@ 820
本论坛 820
灾民 820
环礁 820
送入 820
长期@@ 820
601 819
EX 819
com 819
个性 819
供餐 819
右@@ 819
尊@@ 819
工伤 819
开幕词 819
扎根 819
维亚 819
袭击者 819
这一@@ 819
部内 819
重启 819
顾问@@ 819
De@@ 818
ili 818
uh@@ 818
争@@ 818
国有企业 818
太阳@@ 818
序列 818
片剂 818
现时 818
调查过程 818
549 817
SI@@ 817
两所 817
合伙人 817
培@@ 817
教学方法 817
查清 817
死伤 817
采 817
鼠 817
594 816
Fr@@ 816
MIS@@ 816
Tal@@ 816
ue 816
ure 816
两期 816
壮大 816
实证 816
尸@@ 816
尼察 816
提出诉讼 816
辛格 816
零票 816
568 815
Ra@@ 815
WG@@ 815
eng 815
iri 815
习@@ 815
各大 815
复合 815
成瘾 815
抗旱 815
新颖 815
注册@@ 815
炸毁 815
纯属 815
CRP.4 814
National 814
RI@@ 814
Sul@@ 814
ich 814
印刷品 814
名叫 814
氯丁二烯 814
法定@@ 814
炸伤 814
蒙得维的亚 814
轰@@ 814
酸盐 814
马尔 814
鲨鱼 814
0.5 813
528 813
810 813
优 813
分类账 813
已作 813
文化教育 813
机密性 813
现实@@ 813
签定 813
视觉 813
不加 812
为的是 812
土壤@@ 812
女法官 812
特拉 812
特殊@@ 812
558 811
562 811
Col@@ 811
Ob@@ 811
不许 811
专业技能 811
专门从事 811
中小 811
侧 811
公民自由 811
吃 811
捷克斯洛伐克 811
描@@ 811
提早 811
景 811
破 811
等值 811
蒙巴萨 811
试 811
递增 811
里斯 811
1.3% 810
CI@@ 810
L.51 810
停车场 810
全方位 810
巨大贡献 810
怂恿 810
汇兑 810
法罗群岛 810
环经 810
筹委会 810
线索 810
缉毒 810
苏呼米 810
604 809
731 809
pr@@ 809
世代 809
人文 809
外派 809
抢@@ 809
现行政策 809
理会 809
联塔 809
计及 809
遗失 809
非常复杂 809
541 808
608 808
930 808
Carlos 808
乌姆 808
号案 808
合力 808
大概 808
小麦 808
并存 808
征集 808
挪@@ 808
改写 808
斯坦 808
机械化 808
给付 808
罕见 808
谢 808
钦 808
一等 807
内部@@ 807
展望未来 807
执勤 807
林地 807
督察 807
码头 807
第五款 807
答应 807
综合@@ 807
足迹 807
镜 807
加倍 806
圣何塞 806
应急行动 806
格雷 806
毫不含糊 806
翻了一番 806
评议 806
1.0@@ 805
584 805
BC 805
COP.8 805
und 805
决策层 805
奴 805
平均@@ 805
建筑群 805
返@@ 805
通向 805
闯入 805
547 804
Add.8 804
DLDD 804
Kor@@ 804
NGO 804
st 804
乏 804
气象@@ 804
灭 804
私营化 804
预订 804
578 803
616 803
IS3.@@ 803
och@@ 803
两国间 803
信赖 803
公有 803
和平时期 803
有酬 803
独特性 803
缴获 803
考量 803
集束炸弹 803
9.3 802
Mir@@ 802
举报人 802
双向 802
多家 802
妇幼 802
指导@@ 802
相适应 802
称职 802
答@@ 802
靠@@ 802
Michael 801
不曾 801
反坦克 801
基础@@ 801
尾@@ 801
底薪 801
执行主席 801
最受 801
联络组 801
全套 800
固定资产 800
必定 800
正确方向 800
游牧 800
腐@@ 800
舞台 800
47.@@ 799
了结 799
哈拉 799
布拉柴维尔 799
给@@ 799
聘@@ 799
认真对待 799
评 799
赔偿@@ 799
643 798
645 798
8.5 798
不尽相同 798
兑换率 798
墓地 798
第十一部分 798
身处 798
逃往 798
阿尔巴尼亚族 798
100.@@ 797
3.2% 797
587 797
CE 797
一九九@@ 797
一层 797
传统@@ 797
利亚@@ 797
如果说 797
开发部 797
浮动 797
痕迹 797
近年 797
2.2% 796
ami 796
却@@ 796
发运 796
疗@@ 796
移至 796
稳 796
首个 796
596 795
ej@@ 795
佛 795
入狱 795
相邻 795
经济核算 795
转口 795
Abdul 794
IPBES 794
Kat@@ 794
Pri@@ 794
中华民国 794
从纳 794
动摇 794
可不 794
托雷斯 794
极好 794
涂@@ 794
签约 794
色彩 794
Nas@@ 793
剧院 793
孕期 793
授标 793
联几建 793
EM@@ 792
May@@ 792
Nor@@ 792
侦@@ 792
全面@@ 792
律师@@ 792
数据资料 792
球@@ 792
电讯 792
考古 792
首届 792
Er@@ 791
GC.22 791
SAICM 791
万公顷 791
先驱 791
分处 791
瓶 791
砍伐森林 791
重男轻女 791
难以确定 791
634 790
815 790
中国香港 790
会前 790
会计制度 790
儿童性 790
困苦 790
并不@@ 790
旗@@ 790
犯罪学 790
磺 790
纳赛尔 790
请愿书 790
颁布法律 790
701 789
een 789
加丹加 789
处所 789
打下 789
挂图 789
若有 789
蹂躏 789
进口@@ 789
邮寄 789
件@@ 788
化学物质 788
安全套 788
常务委员会 788
立宪 788
统一性 788
联合国人权委员会 788
遍及 788
首选 788
563 787
Muh@@ 787
─ 787
不敢 787
义务@@ 787
幻@@ 787
正直 787
治安@@ 787
特工 787
电力供应 787
第七节 787
请假 787
问卷调查 787
1483 786
Fran@@ 786
RS 786
ans 786
iii 786
分解 786
名女 786
围墙 786
客车 786
斯基 786
智利政府 786
硝@@ 786
芬兰政府 786
1.7% 785
2.4% 785
574 785
red@@ 785
后继 785
很强 785
德科 785
社会制度 785
调派 785
铺设 785
食用 785
609 784
Na@@ 784
专科 784
仍感 784
宝@@ 784
得当 784
改名 784
最高层 784
烈士 784
着陆 784
硬 784
精神疾病 784
上表 783
会场 783
供养 783
唯有 783
多功能 783
安大略 783
小心 783
普雷 783
期盼 783
牢@@ 783
蒂斯 783
要说 783
调查队 783
辐照 783
饮料 783
38@@ 782
524 782
542 782
559 782
592 782
万升 782
供应量 782
屡次 782
新法 782
普尔 782
致以 782
554 781
706 781
取而代之 781
孤@@ 781
属实 781
排挤 781
杰宁 781
福利制度 781
第十九 781
阅@@ 781
080 780
1.2% 780
不道德 780
书目 780
司令 780
回收率 780
太空 780
携@@ 780
教育者 780
稳健 780
联合@@ 780
自上 780
阿特拉斯 780
骨 780
1.4% 779
1.9 779
go 779
oa 779
东道主 779
九条 779
交纳 779
从此 779
历 779
奥运会 779
始 779
审判庭 779
巴德 779
灭@@ 779
自其 779
许 779
2.3% 778
589 778
846 778
F.@@ 778
ud 778
uri@@ 778
不得已 778
会长 778
佐 778
医 778
布加勒斯特 778
心理@@ 778
护 778
接受者 778
改成 778
教育局 778
油漆 778
祈祷 778
预 778
几内亚共和国 777
参与度 777
挨饿 777
明知 777
极具 777
每升 777
狭义 777
策@@ 777
米格尔 777
驱动力 777
37@@ 776
Mul@@ 776
书写 776
催化 776
办为 776
执行程序 776
真 776
餐厅 776
不断改进 775
军事演习 775
券 775
密切配合 775
干练 775
法律界 775
消耗品 775
电力@@ 775
通风 775
CHW 774
偶然 774
出生证 774
式@@ 774
盲文 774
箱@@ 774
030 773
569 773
871 773
L.55 773
ald 773
不可抗力 773
中继器 773
人未 773
兼容性 773
孙@@ 773
特委会 773
社会各界 773
行使主权 773
通讯@@ 773
Sw@@ 772
oss@@ 772
催化作用 772
刊载 772
厅应 772
听说 772
埋@@ 772
妇 772
宏伟 772
废旧 772
斯州 772
旅游@@ 772
核战争 772
遍布 772
问答 772
领导权 772
AR 771
Kon@@ 771
Pa@@ 771
安宁 771
心脏病 771
战线 771
拉法 771
非军事 771
领先 771
566 770
五十 770
代顿 770
十分必要 770
建筑工程 770
灰@@ 770
统法 770
防范措施 770
马拉@@ 770
L.54 769
企@@ 769
俄国 769
分裂主义 769
划一 769
利益集团 769
又称 769
叛@@ 769
好战 769
巧@@ 769
戴维 769
红色高棉 769
统一@@ 769
预选 769
Ky@@ 768
Mer@@ 768
pro@@ 768
伯特 768
保安人员 768
半干旱 768
哪些方面 768
如期 768
执行公务 768
整顿 768
纳税人 768
688 767
AB@@ 767
XIV 767
吕@@ 767
固定@@ 767
外面 767
尔塔 767
推测 767
政局 767
洋 767
物色 767
观察哨 767
随之而来 767
88.@@ 766
Ot@@ 766
bo 766
兆 766
史无前例 766
宽恕 766
正文 766
画@@ 766
维纳 766
还称 766
远程教育 766
镍 766
Hol@@ 765
XXIII 765
乐于 765
传票 765
勋章 765
够 765
开业 765
无形资产 765
核国家 765
海区 765
犹太教 765
瑞@@ 765
荷兰王国 765
陷 765
727 764
CP.16 764
决策程序 764
布什总统 764
微小 764
懂得 764
污辱 764
片面 764
记账 764
访客 764
转售 764
顺利进行 764
060 763
576 763
637 763
GC.@@ 763
中所起 763
人生 763
传播媒介 763
内务 763
四人 763
洲 763
胜 763
4.9 762
77.@@ 762
~ 762
人格尊严 762
介于 762
后处理 762
响 762
大力@@ 762
尘 762
尼克 762
施加影响 762
无异议 762
环发 762
租户 762
赛义德 762
辅以 762
这条 762
46.@@ 761
DCP 761
为性 761
之路 761
书面资料 761
仲裁条款 761
助手 761
医学@@ 761
口服 761
吊销 761
四国 761
婚约 761
布瓦凯 761
抓获 761
这就是说 761
通缉 761
3.6% 760
615 760
781 760
COP.5 760
Ge@@ 760
NE@@ 760
亲王 760
人案 760
到处 760
北大西洋 760
同位素 760
哈马 760
婴 760
审结 760
振@@ 760
捷@@ 760
盟友 760
第七十六条 760
阿尔马 760
990 759
Gal@@ 759
ff@@ 759
不上 759
供资@@ 759
因其 759
复杂程度 759
玻璃 759
社会保障部 759
继承人 759
缺勤 759
街区 759
隐含 759
2.7% 758
前身 758
有近 758
末@@ 758
转播 758
迁@@ 758
鲜明 758
611 757
air@@ 757
处理厂 757
实实在在 757
尔多 757
收货人 757
泊车 757
灾区 757
Ni@@ 756
li@@ 756
唱名 756
堆 756
它会 756
法定人数 756
贷@@ 756
970 755
Add.10 755
凭@@ 755
塔吉克 755
已达成 755
未及 755
构 755
行使权力 755
运抵 755
重开 755
581 754
Sy@@ 754
停车 754
密不可分 754
无酬 754
生存能力 754
组别 754
肥料 754
国际水域 753
失业人数 753
救 753
略微 753
诚 753
马哈茂德 753
Sou@@ 752
han 752
一两年 752
奉@@ 752
孤儿院 752
异构体 752
期初 752
法塔赫 752
登录 752
缘 752
表示决心 752
贫血 752
阿盟 752
36@@ 751
809 751
CTOC 751
Saf@@ 751
con@@ 751
Š 751
克林顿 751
分配@@ 751
战略意义 751
林丹 751
第二十次 751
耗时 751
论者 751
1533 750
96.@@ 750
IR 750
ika 750
事前 750
使用@@ 750
保险金 750
割@@ 750
存续 750
摊@@ 750
旋@@ 750
最合适 750
涅 750
邮袋 750
543 749
应向 749
引诱 749
挫败 749
文号 749
无限 749
浪潮 749
经商 749
辅导员 749
阐释 749
586 748
中心@@ 748
代之以 748
堡@@ 748
工业生产 748
抽查 748
枪杀 748
水中 748
管理费 748
还给 748
驶@@ 748
5000@@ 747
Mou@@ 747
兄弟姐妹 747
几百@@ 747
大厅 747
安定 747
推理 747
泰米尔 747
统 747
黑山共和国 747
1.8% 746
10.1 746
oy 746
加工@@ 746
可悲 746
对外部 746
并经 746
庆@@ 746
应可 746
施压 746
某国 746
正值 746
武库 746
资料@@ 746
辩@@ 746
闭@@ 746
L.56 745
受邀 745
德罗 745
手无寸铁 745
救济金 745
监测@@ 745
租房 745
经济部 745
顽@@ 745
题@@ 745
758 744
ec 744
ment 744
专题研究 744
别无选择 744
卫生局 744
姆巴 744
技术顾问 744
普遍化 744
栏@@ 744
核事故 744
源泉 744
附庸 744
降雨 744
45.@@ 743
分期 743
应受 743
德国马克 743
携带者 743
新一轮 743
曾于 743
校内 743
猛@@ 743
立法会 743
航线 743
非官方 743
0.3% 742
1930 742
仍须 742
刘@@ 742
捐@@ 742
涨@@ 742
空委 742
菲利普 742
预见到 742
预警飞机 742
588 741
上市 741
书面声明 741
分节 741
教导 741
潜艇 741
疑似 741
哈吉 740
契@@ 740
斯坦@@ 740
死于 740
江@@ 740
莱州 740
警觉 740
诱@@ 740
迈 740
ho 739
办公楼 739
品质 739
圆满结束 739
看成 739
邻 739
重演 739
2.6% 738
602 738
Co 738
不分性别 738
储量 738
别处 738
地表水 738
垃圾@@ 738
娃 738
它@@ 738
战场 738
报称 738
旁 738
海面 738
溢@@ 738
科学部 738
组织科 738
759 737
克利 737
公安 737
具体@@ 737
合作者 737
合作部 737
撤军 737
桌面 737
男女生 737
裂@@ 737
降低成本 737
Mis@@ 736
evi 736
ner 736
è 736
净收入 736
制冷剂 736
反洗钱法 736
帐务 736
成败 736
数枚 736
查获 736
欧元区 736
焦虑 736
通奸 736
锰 736
3.3% 735
689 735
Pro.@@ 735
一站式 735
亦@@ 735
仅以 735
国际货物 735
圣多明各 735
崇高目标 735
直 735
竞争能力 735
西区 735
贵 735
辩护人 735
577 734
Marc@@ 734
一分钟 734
专业性 734
低级 734
变数 734
在案 734
它于 734
平均收入 734
放款 734
沉积 734
田@@ 734
禁用 734
衡算 734
货款 734
马恩岛 734
Haj@@ 733
IR@@ 733
ene 733
创新型 733
地球科学 733
威廉 733
完成学业 733
工作团 733
暗@@ 733
济 733
经济指标 733
而后 733
595 732
599 732
SG 732
ays@@ 732
中立性 732
基督教徒 732
年薪 732
才@@ 732
横田 732
泛亚 732
煤 732
衣@@ 732
选择权 732
593 731
My@@ 731
Rumaysh 731
严格@@ 731
候补委员 731
出对 731
日益加剧 731
法国@@ 731
相匹配 731
纪录片 731
警署 731
阶级 731
饭 731
2.8% 730
CP.17 730
Shah@@ 730
emb@@ 730
体验 730
停产 730
四份 730
孟加拉 730
毫无例外 730
相互配合 730
订阅 730
酮 730
10.2 729
827 729
Had@@ 729
L.57 729
Ta@@ 729
入境签证 729
况 729
凌虐 729
势必 729
午@@ 729
暨 729
正当@@ 729
RO@@ 728
SB 728
SU@@ 728
序 728
残留物 728
汶 728
浏览 728
贝卡 728
银行帐户 728
POPR@@ 727
共犯 727
司法@@ 727
城市居民 727
失灵 727
犯法 727
苯 727
表一 727
高涨 727
648 726
Bah@@ 726
aev 726
伪@@ 726
含糊不清 726
夏天 726
奥斯@@ 726
相冲突 726
童@@ 726
览 726
Khal@@ 725
ier@@ 725
不远 725
决定权 725
凝聚 725
吉普赛人 725
欣 725
现为 725
真理 725
粗@@ 725
要务 725
过重 725
集中@@ 725
635 724
BE@@ 724
Bon@@ 724
CLCS 724
一切权利 724
住家 724
做时 724
垂直 724
查封 724
海床 724
潮@@ 724
起步 724
704 723
CST 723
Im@@ 723
Salman 723
WP 723
与此有关 723
供选择 723
利弊 723
力所能及 723
常住 723
广岛 723
忍@@ 723
机械@@ 723
直接对话 723
第十六 723
艇 723
难于 723
199@@ 722
646 722
Christ@@ 722
XII 722
优素福 722
住房条件 722
依旧 722
匀支 722
博览会 722
岁者 722
巴希尔 722
损耗 722
教义 722
文档 722
确证 722
绿线 722
1953 721
613 721
636 721
AF@@ 721
Bor@@ 721
ip 721
ris 721
从总体上 721
再也 721
城区 721
改观 721
煤炭 721
荒@@ 721
规模较 721
采取相应 721
CM@@ 720
ont@@ 720
交还 720
名下 720
奇怪 720
独有 720
能源危机 720
642 719
Antonio 719
COM.2 719
enc@@ 719
inc@@ 719
org@@ 719
出路 719
坎大哈 719
总公司 719
曼德拉 719
环境标准 719
电脑@@ 719
矿石 719
训@@ 719
af 718
eri 718
主办@@ 718
可达 718
基斯马尤 718
尼奥 718
智能 718
毫无保留 718
水下 718
纳戈尔 718
耗资 718
良 718
规律 718
论处 718
逼供 718
COP.6 717
供求 717
修女 717
出版@@ 717
大地测量 717
奥林匹克运动会 717
密码 717
总务科 717
点击 717
自有 717
若干个 717
683 716
Bay@@ 716
WFP 716
一颗 716
中列明 716
基督 716
年收入 716
拷打 716
改用 716
短期内 716
碎 716
科斯 716
第二十一次 716
调出 716
阿拉@@ 716
高空 716
不计 715
亚历山大 715
人口总数 715
吴@@ 715
工具箱 715
应否 715
或者说 715
投保人 715
改编 715
教程 715
无线 715
法律承认 715
涉案 715
科多里 715
聚焦 715
铺@@ 715
风气 715
马里政府 715
651 714
X光 714
南桑威 714
变动表 714
强力 714
执委会 714
挽回 714
欧洲航天局 714
灾@@ 714
竞选活动 714
遣@@ 714
11.2 713
56.@@ 713
782 713
Zah@@ 713
ant 713
omb@@ 713
上个月 713
专家建议 713
伊特 713
就诊 713
条为 713
生物圈 713
瘘 713
童年 713
第二组 713
肉@@ 713
艺术品 713
葬 713
险@@ 713
95.@@ 712
Gre@@ 712
Il@@ 712
Mont@@ 712
aba 712
关头 712
发射场 712
因在 712
宽松 712
穷@@ 712
穿过 712
跑道 712
雇工 712
项所 712
115.@@ 711
LO@@ 711
ere 711
中称 711
便宜 711
公理 711
国务委员会 711
定出 711
密封 711
7.6 710
Comm@@ 710
Maz@@ 710
Ver@@ 710
eo 710
寡 710
寻 710
旗 710
翼 710
脱 710
陶@@ 710
集中营 710
非全日制 710
0.1% 709
Cam@@ 709
ula 709
准时 709
夸@@ 709
始终如一 709
家乡 709
就医 709
扶助 709
拿到 709
提示 709
猎@@ 709
经济繁荣 709
谱 709
银行贷款 709
ona 708
大不相同 708
客户关系 708
对经 708
归根结底 708
来访者 708
步兵营 708
粮@@ 708
行政诉讼 708
解放@@ 708
逝世 708
都柏林 708
03@@ 707
745 707
US 707
供水系统 707
公路运输 707
分化 707
副手 707
半数以上 707
填埋 707
希腊@@ 707
忠@@ 707
指向 707
比上 707
氟@@ 707
骑@@ 707
49@@ 706
Raf@@ 706
United 706
两辆 706
便会 706
兴起 706
小孩 706
屋@@ 706
木炭 706
波兰共和国 706
相符合 706
穷困 706
第五十@@ 706
酯 706
Mun@@ 705
din 705
je 705
不良后果 705
停用 705
医学院 705
奏效 705
尽其所能 705
押@@ 705
流出 705
直播 705
真主 705
自动@@ 705
贬低 705
Ir@@ 704
Maj@@ 704
pp@@ 704
乘以 704
出面 704
各份 704
拖网 704
有鉴于 704
665 703
697 703
九项 703
狱政 703
这支 703
迟延 703
遥控 703
CP.@@ 702
KP 702
Kas@@ 702
Silva 702
中亚地区 702
乌克兰政府 702
困@@ 702
开放性 702
恰恰相反 702
日才 702
正等待 702
相互竞争 702
稳定局势 702
身体健康 702
757 701
Mac@@ 701
me 701
习 701
债权国 701
召@@ 701
新来 701
次日 701
病原体 701
盟国 701
老化 701
贪污腐败 701
金斯敦 701
3.4% 700
Ah@@ 700
供述 700
保费 700
公司法 700
出入证 700
可变 700
女性化 700
悬殊 700
本周 700
标定 700
第四阶段 700
经济基础 700
藏匿 700
订定 700
138.@@ 699
OE@@ 699
ert 699
居住权 699
废 699
暂 699
氟化铀 699
法例 699
狂@@ 699
电子媒体 699
范式 699
观众 699
725 698
You@@ 698
ast 698
但据 698
借款人 698
己 698
概率 698
正轨 698
汇报工作 698
皆@@ 698
眼下 698
罐@@ 698
赶 698
78.@@ 697
业者 697
个人财产 697
五人 697
五种 697
人手 697
县级 697
双轨 697
吃@@ 697
多半 697
完全相同 697
忠于 697
手铐 697
捐献 697
掩护 697
更名 697
有效途径 697
获得者 697
附带条件 697
首份 697
Id@@ 696
oni 696
偿还债务 696
召开大会 696
增加收入 696
妻 696
姆贝基 696
抓@@ 696
抚养人 696
旗舰 696
有机@@ 696
毁@@ 696
消费@@ 696
第四十条 696
阿片 696
首府 696
3.8% 695
632 695
Tah@@ 695
he@@ 695
si 695
下调 695
之苦 695
信息学 695
儿科 695
办案 695
半天 695
各界 695
外科 695
安娜 695
拉德 695
敦@@ 695
殖民化 695
毕竟 695
粮安委 695
美洲狮 695
过大 695
驱散 695
0.4% 694
628 694
Bad@@ 694
erv@@ 694
itt@@ 694
串通 694
二审 694
依次 694
光学 694
医护人员 694
妇科 694
当家作主 694
日元 694
瓦斯 694
莎 694
认真@@ 694
2.9% 693
Int@@ 693
aut 693
一第 693
不可否认 693
伊尔 693
共向 693
广告@@ 693
法则 693
碍 693
红树林 693
节约@@ 693
运输成本 693
驱@@ 693
040 692
2.1% 692
624 692
Kl@@ 692
一大部分 692
和平@@ 692
天后 692
支出额 692
新兵 692
每当 692
祖先 692
资本@@ 692
预示 692
607 691
9.4 691
IO@@ 691
之声 691
卫生机构 691
后天免疫 691
售 691
回来 691
地区性 691
强国 691
心理咨询 691
柏@@ 691
流动资金 691
社会规范 691
020 690
Mahmoud 690
REDD 690
ew 690
临界 690
乙烷 690
人口统计 690
募集 690
坡 690
惠 690
技术手段 690
抛@@ 690
未受 690
烈@@ 690
茨@@ 690
转介 690
641 689
CP.4 689
中校 689
以至于 689
保护权 689
卡莱 689
叫@@ 689
总金额 689
监察局 689
眼睛 689
肆虐 689
遗忘 689
圣母 688
夺走 688
守法 688
宫颈癌 688
对手 688
屡@@ 688
担负起 688
政界 688
构造 688
标准@@ 688
滚动 688
看管 688
筹供 688
脱节 688
躲避 688
部应 688
619 687
921 687
CT@@ 687
For@@ 687
Hel@@ 687
ire 687
业务管理 687
亿多 687
保持平衡 687
兆瓦 687
公共事业 687
出价 687
卷@@ 687
承租人 687
氢@@ 687
略高于 687
第三十三条 687
达标 687
通过审查 687
邦@@ 687
3.1% 686
3.7% 686
55.@@ 686
887 686
isa 686
享@@ 686
估量 686
保护者 686
出生地 686
实情 686
录用 686
是非曲直 686
暴 686
机密信息 686
杆 686
歌@@ 686
求得 686
淡化 686
电报 686
简言之 686
管制中心 686
类集 686
910 685
可追溯 685
呈现出 685
急剧下降 685
探望 685
政策方针 685
数名 685
私人生活 685
米兰 685
锁 685
领馆 685
852 684
des 684
云@@ 684
其于 684
凶手 684
墨西哥@@ 684
总能 684
拉赫 684
招生 684
日本@@ 684
有趣 684
浮标 684
益 684
粮价 684
罗夫 684
聆听 684
菜@@ 684
计算机系统 684
诈骗 684
难道 684
606 683
744 683
ien 683
ock 683
伊黎 683
公会 683
关键词 683
勘查 683
抽样调查 683
气象学 683
第一段 683
趋同 683
雷先生 683
Com@@ 682
两侧 682
交流中心 682
人口密度 682
优先发展 682
勾@@ 682
十四条 682
南联盟 682
大学@@ 682
崇@@ 682
权是 682
留守 682
纽埃 682
644 681
ect 681
illa 681
oud 681
仓 681
勘测 681
国民收入 681
库尔德斯坦 681
开立 681
患@@ 681
批量 681
推土机 681
武装@@ 681
氏 681
第九章 681
胆@@ 681
自相矛盾 681
辩护权 681
韩国政府 681
预咨 681
0.1 680
Add.9 680
iga 680
加强监督 680
向下 680
奇科 680
密克罗尼西亚 680
应付账款 680
得益 680
忧@@ 680
浅 680
炼油厂 680
赔 680
黎@@ 680
677 679
Kim 679
Ts@@ 679
上来 679
东南非 679
储金 679
先行 679
十名 679
厚 679
反之 679
山地 679
或次 679
斯卡 679
新军 679
本批 679
牙买加政府 679
现将 679
自此 679
舞@@ 679
西奥 679
该词 679
调任 679
革命@@ 679
1888 678
Hg 678
书面发言 678
但本 678
俗@@ 678
凶@@ 678
四天 678
大会党 678
工程项目 678
持械 678
电离辐射 678
监察@@ 678
舰@@ 678
阿德 678
餐饮 678
2C 677
626 677
707 677
公共关系 677
厄瓜多尔政府 677
展期 677
心血管 677
教学材料 677
教育体制 677
明晰 677
竟然 677
融@@ 677
隔 677
711 676
723 676
CRP.5 676
偏好 676
受其 676
向上 676
多万美元 676
快捷 676
扫@@ 676
投降 676
新闻简报 676
期将 676
热带@@ 676
申请加入 676
电视广播 676
美国联邦 676
里面 676
便捷 675
全民公决 675
宪兵队 675
对峙 675
彩@@ 675
而设 675
非法交易 675
705 674
L.58 674
ag 674
up@@ 674
不服 674
全日 674
军法 674
双重国籍 674
国际标准化组织 674
女同性恋 674
安的列斯群岛 674
文件@@ 674
有效载荷 674
机组人员 674
油气 674
职业指导 674
肥 674
访@@ 674
该信 674
过来 674
阿扎 674
1.25 673
Sk@@ 673
千名 673
巴萨 673
技术革新 673
档案@@ 673
洞@@ 673
演 673
疼痛 673
空中交通 673
第二十@@ 673
萨阿布 673
756 672
MSP 672
Martin 672
Vi@@ 672
ë 672
不言而喻 672
争执 672
停 672
叙@@ 672
同值 672
当值 672
服务社 672
植树造林 672
荷@@ 672
虽说 672
赋@@ 672
赫迪 672
风能 672
597 671
618 671
676 671
D.@@ 671
bin 671
两地 671
关键@@ 671
再次出现 671
危@@ 671
圣马@@ 671
大面积 671
援助国 671
正当性 671
沾染 671
立案 671
谢里夫 671
送给 671
麦克@@ 671
11@@ 670
785 670
ern 670
一栏 670
加拿大人 670
委托人 670
污@@ 670
紧密联系 670
行为@@ 670
解职 670
身亡 670
非关税 670
666 669
Cal@@ 669
不合@@ 669
人民法院 669
以巴 669
医疗@@ 669
受命 669
号令 669
周密 669
显现 669
深远影响 669
疆界 669
结构@@ 669
自杀式 669
航海 669
622 668
737 668
ff 668
人则 668
克里米亚 668
利用@@ 668
哈拉雷 668
城市@@ 668
战祸 668
水利 668
环境污染 668
矿床 668
碰到 668
结尾 668
编第 668
财务司 668
随信 668
675 667
728 667
874 667
pe 667
专家团 667
以有 667
加薪 667
同化 667
呈上升 667
呈报 667
弗朗索瓦 667
焦@@ 667
甘 667
税法 667
第三年 667
非常低 667
鸟类 667
CN.10 666
Tur@@ 666
一大批 666
一年级 666
严酷 666
夺 666
如为 666
实绩 666
帮 666
幼儿教育 666
执行者 666
无薪 666
瓜拉尼 666
研拟 666
空气质量 666
简洁 666
识@@ 666
0.6% 665
1925 665
4.7% 665
653 665
ick@@ 665
乌兰巴托 665
互动关系 665
共和 665
刀 665
备份 665
大主教 665
季刊 665
条所列 665
注@@ 665
深为 665
营养素 665
连接起来 665
部副 665
765 664
中核 664
交易商 664
原产 664
哥伦比亚大学 664
在此之后 664
年续 664
日程安排 664
比绍 664
迈尔 664
露天 664
高分辨率 664
779 663
Ban@@ 663
CFSP 663
万象 663
变性人 663
尚需 663
捉@@ 663
服务设施 663
本戈亚 663
植根于 663
疾 663
看不到 663
第十七 663
纺织 663
该表 663
近身 663
712 662
Company 662
WG.1 662
umb@@ 662
不经 662
坐 662
埋葬 662
外币 662
大火 662
庚 662
愉快 662
核大国 662
洗 662
疲软 662
职能部门 662
败@@ 662
逃税 662
饮@@ 662
617 661
HSP 661
Nik@@ 661
lo 661
net 661
ori 661
ort 661
oto 661
不错 661
主人 661
会为 661
何地 661
佩雷斯 661
兰德 661
地貌 661
抓 661
栖@@ 661
烧 661
肆无忌惮 661
自信 661
见证人 661
Joseph 660
Le 660
商法 660
征服 660
数据管理 660
文摘 660
油井 660
泄露 660
电离层 660
票@@ 660
立法权 660
签字国 660
调到 660
近距离 660
3.9 659
806 659
ash 659
ile 659
ze 659
乙型 659
亚齐 659
公司@@ 659
加尔@@ 659
四条 659
国内安全 659
拆解 659
朝鲜民主主义人民共和国政府 659
糖@@ 659
莱特 659
除此以外 659
732 658
Hay@@ 658
elle 658
不容许 658
厂房 658
厅@@ 658
妓院 658
径@@ 658
派任 658
激光 658
灭失 658
电脑化 658
钱财 658
颗粒 658
647 657
中来 657
人权宣言 657
伊万 657
哺乳期 657
娱乐@@ 657
学士学位 657
律 657
忙 657
推向 657
明显改善 657
比什凯克 657
特此 657
逃亡 657
735 656
Rod@@ 656
下个 656
古巴人 656
奖项 656
怀着 656
摇@@ 656
暖@@ 656
气旋 656
流血 656
灾祸 656
物价指数 656
福尔 656
第一号 656
虑 656
通讯设备 656
1.9% 655
679 655
Ma 655
mi 655
下水道 655
十氯酮 655
台站 655
国将 655
度过 655
急 655
恶 655
文所载 655
条是 655
棒 655
污水处理 655
碱 655
资本主义 655
883 654
Lo@@ 654
一宗 654
业务费 654
军阀 654
单方 654
地上 654
定期检查 654
实用@@ 654
手工业 654
核威慑 654
横滨 654
深层 654
示例 654
账@@ 654
首当其冲 654
010 653
614 653
621 653
不合 653
信任@@ 653
卡里 653
年制 653
徒@@ 653
成本计算 653
支离破碎 653
法医学 653
相悖 653
绕@@ 653
胚胎 653
蓬@@ 653
行星 653
657 652
ide 652
x365 652
两段 652
分界线 652
厚@@ 652
大肆 652
对来文 652
尼奥斯 652
消耗量 652
社会秩序 652
777 651
984 651
DTIE 651
Thomas 651
冒@@ 651
各族人民 651
咸海 651
妇女@@ 651
存取 651
手工艺 651
投放 651
旺@@ 651
演出 651
火炮 651
生物体 651
盘问 651
相继 651
着@@ 651
若能 651
谈一谈 651
迪亚 651
难以实现 651
风俗 651
Pat@@ 650
ain@@ 650
sk 650
五条 650
其有 650
取向 650
地国 650
外围地区 650
期终 650
紧迫感 650
苏莱曼 650
露 650
721 649
eda 649
一代人 649
仅靠 649
几支 649
喷洒 649
国际合作部 649
市中心 649
恒 649
攀升 649
电话号码 649
防火 649
限值 649
1397 648
4.2% 648
684 648
SR.2 648
Si@@ 648
劳动合同 648
客户服务 648
就绪 648
班子 648
谎言 648
贝拉 648
遗嘱 648
623 647
696 647
761 647
eta 647
一和二 647
乞讨 647
休战 647
尖端 647
播 647
服务水平 647
泵 647
溶剂 647
纳布卢斯 647
舱位 647
西藏 647
贩 647
贫铀 647
Don@@ 646
Jul@@ 646
Wadi 646
iro 646
偶@@ 646
共和军 646
回升 646
外出 646
未用尽 646
自卫权 646
行人 646
里海 646
Ind@@ 645
ush@@ 645
帝国 645
特兰 645
相联 645
组应 645
警察所 645
122.@@ 644
58.@@ 644
774 644
awi 644
主人翁 644
倍增 644
十分困难 644
广度 644
投票@@ 644
欠佳 644
死亡@@ 644
氧化 644
治愈 644
禁闭 644
纳尔 644
航空运输 644
跳@@ 644
重中之重 644
雇佣兵 644
霍尔 644
一门 643
借助于 643
切合 643
天线 643
尽全力 643
届@@ 643
岗 643
明确@@ 643
明确提出 643
献身精神 643
表扬 643
闪@@ 643
预备@@ 643
2758 642
Mart@@ 642
age 642
ega 642
休养 642
可见度 642
图谋 642
居于 642
澳大利亚人 642
监督@@ 642
第三十六条 642
观察所 642
觉 642
锐@@ 642
66.@@ 641
bert 641
争 641
再三 641
刺 641
名词 641
大宗 641
它同 641
开放市场 641
海关总署 641
碘 641
第二段 641
职业技能 641
香蕉 641
D1 640
wan 640
人造 640
养老 640
内斯 640
国库 640
宾 640
居住者 640
履历 640
新鲜 640
根基 640
海上运输 640
郡 640
配件 640
队员 640
5.8 639
752 639
中共 639
亚语 639
交付给 639
司空见惯 639
哪怕 639
囚室 639
地同 639
大鼠 639
川 639
已久 639
抄@@ 639
拖 639
持发 639
泽斯 639
炼 639
而于 639
贝格 639
越南政府 639
转拨 639
4.3% 638
4.6% 638
Gol@@ 638
ico 638
切尔 638
单是 638
国际竞争 638
完美 638
未收 638
洪 638
测试@@ 638
浓 638
第二代 638
谓 638
这有 638
适切 638
708 637
ith 637
一夫多妻 637
七次 637
产业@@ 637
代表制 637
住院治疗 637
吻合 637
唯@@ 637
基期 637
基本概念 637
工伤事故 637
盒 637
省议会 637
科纳克里 637
积极响应 637
被保险人 637
高素质 637
102.@@ 636
658 636
ales 636
入手 636
利害相关 636
力行 636
大幅提高 636
对罗姆人 636
库尔德人 636
极低 636
清查 636
第二十九条 636
组装 636
闻 636
阿拉伯埃及共和国 636
音乐@@ 636
马先生 636
驱赶 636
799 635
Add.11 635
Dah@@ 635
ach 635
nd@@ 635
不然 635
分辨率 635
卡帕 635
多处 635
奎 635
构思 635
第五十一条 635
道德@@ 635
阿拉伯地区 635
高层次 635
1.1% 634
2A 634
FO@@ 634
illo 634
不知 634
以较 634
促销 634
卫生工作者 634
印第安 634
增减 634
就象 634
居留权 634
岗@@ 634
拉罗 634
缘故 634
罐 634
贫民 634
这些年来 634
002 633
638 633
652 633
685 633
Hy@@ 633
anov 633
ni 633
一则 633
佳 633
剩余时间 633
加工业 633
半衰期 633
四十@@ 633
在历史上 633
年长 633
搬 633
更佳 633
深思熟虑 633
粗 633
联合国安理会 633
膝上型 633
裁决书 633
CT 632
add@@ 632
port 632
低水平 632
写明 632
哥伦比亚省 632
哲@@ 632
塞拉 632
室@@ 632
收益率 632
漂@@ 632
爆@@ 632
窒息 632
简况 632
编队 632
过量 632
629 631
662 631
672 631
845 631
858 631
各科 631
女婴 631
新闻社 631
条向 631
柱 631
独裁 631
碱@@ 631
第二十 631
迪奥 631
阿布扎比 631
零散 631
飞地 631
餐馆 631
CP.8 630
Rev@@ 630
买主 630
人员名单 630
关系密切 630
处理程序 630
大湖地区 630
头衔 630
宗教仪式 630
尺寸 630
工作力度 630
技术部 630
核能力 630
海滩 630
猛烈 630
电子签名 630
科室 630
究 630
第十八 630
结构化 630
访查 630
说成 630
较弱 630
隧道 630
顾虑 630
686 629
691 629
L.62 629
ite 629
les 629
per@@ 629
冲突法 629
各族 629
塔尼 629
害@@ 629
幸运 629
新版 629
无端 629
时起 629
津 629
牙医 629
经第 629
行动@@ 629
贡@@ 629
逼@@ 629
ovic 628
下均 628
与会国 628
充分体现 628
公投 628
内尔 628
出口量 628
动荡不安 628
南非共和国 628
唆使 628
埋 628
夜班 628
开邦 628
注定 628
繁多 628
耗尽 628
虾 628
辛基 628
不相容 627
公安@@ 627
军用物资 627
十二条 627
托运 627
数千@@ 627
核发 627
根本@@ 627
水文学 627
注释 627
科夫 627
第二十二次 627
缩写 627
递给 627
酰氟 627
阿曼苏丹国 627
预算赤字 627
黎 627
667 626
668 626
68.@@ 626
Est@@ 626
Moh@@ 626
亏 626
伊萨 626
偏差 626
兰特 626
少校 626
战事 626
所报 626
步行 626
犯罪预防 626
私人机构 626
程@@ 626
绘@@ 626
马西 626
高血压 626
23@@ 625
4.4% 625
753 625
Bi@@ 625
ET@@ 625
Khane 625
二个 625
商议 625
恳请 625
执 625
无故 625
有的是 625
格尔 625
管理权 625
莱德 625
57.@@ 624
682 624
CP.10 624
书状 624
人会 624
优惠条件 624
利斯 624
取得联系 624
委内瑞拉政府 624
思想@@ 624
每星期 624
独立@@ 624
瓜 624
电子产品 624
联预 624
遥感技术 624
F3 623
Tel@@ 623
上应 623
严格控制 623
先知 623
典礼 623
劝阻 623
办公设备 623
园区 623
强烈呼吁 623
118.@@ 622
va 622
三至 622
不稳定性 622
东区 622
兽医 622
毒打 622
民权 622
活动@@ 622
特尔 622
理查德 622
百分之百 622
美国公司 622
良好基础 622
0.8% 621
Es@@ 621
Gi@@ 621
世俗 621
主宰 621
之道 621
倾斜 621
办公房 621
大大降低 621
按期 621
未偿 621
深表遗憾 621
矿工 621
精神创伤 621
纷纷 621
细 621
考察团 621
讲演 621
醒 621
采样 621
间或 621
124.@@ 620
XIII 620
ger 620
具体实施 620
区块 620
团结@@ 620
多月 620
或应 620
所能 620
拥有权 620
洛朗 620
肥沃 620
行政责任 620
被关 620
装配 620
重大成果 620
野 620
钦@@ 620
高等@@ 620
1333 619
793 619
Fa@@ 619
esh 619
way@@ 619
养活 619
合乎逻辑 619
审阅 619
念 619
控制程序 619
法律系 619
符号 619
罐体 619
聚 619
663 618
L.59 618
Mel@@ 618
oma 618
严谨 618
以该 618
再者 618
前方 618
审计处 618
桑给巴尔 618
统一指挥 618
Ms 617
Tam@@ 617
局在 617
当期 617
或分 617
技 617
折中 617
拉克 617
显著@@ 617
极端重要 617
民主运动 617
源头 617
解放后 617
言语 617
财团 617
通讯员 617
交易法 616
仁@@ 616
介绍所 616
伏击 616
减为 616
出口品 616
国际惯例 616
岩@@ 616
恩里克 616
扎实 616
析 616
梅尔 616
点名 616
穆尔 616
航天@@ 616
这比 616
人事司 615
关键在于 615
博士学位 615
受聘 615
口供 615
塞浦路斯人 615
大得多 615
敌对行为 615
欲@@ 615
深感不安 615
紫外线 615
该镇 615
IV@@ 614
L.61 614
二年 614
公国 614
含铅 614
如该 614
提供商 614
攻@@ 614
斥 614
路易@@ 614
问责@@ 614
17A.@@ 613
699 613
724 613
875 613
Cas@@ 613
MS 613
que 613
劳动和社会保障部 613
协办 613
奉献精神 613
学术研究 613
我以 613
欢迎@@ 613
涂料 613
滕 613
虫病 613
覆盖@@ 613
讽刺 613
违法@@ 613
702 612
ardo 612
下图 612
世界秩序 612
为名 612
光明 612
德文 612
斯拉夫 612
格利 612
状@@ 612
电子设备 612
简而言之 612
脊 612
蓄 612
裁员 612
西尔 612
轮椅 612
颁@@ 612
JS@@ 611
二世 611
储备基金 611
六条 611
周边国家 611
夫斯基 611
安纳波利斯 611
客运 611
批发 611
提单 611
收录 611
第三十二条 611
经过培训 611
缩 611
调用 611
酶 611
722 610
ett@@ 610
olo 610
合作性 610
噪音 610
成员名单 610
扎勒 610
曼努埃尔 610
生命科学 610
荣 610
行长 610
述@@ 610
配给 610
铁路运输 610
695 609
LAu 609
Rah@@ 609
Str@@ 609
Tu@@ 609
一年一度 609
两组 609
什叶派 609
优待 609
克莱 609
分析方法 609
南斯拉夫联邦 609
彼得@@ 609
欢@@ 609
正为 609
热切 609
由本 609
科研@@ 609
经销商 609
长官 609
778 608
Nasiriyah 608
前向 608
将予 608
录像带 608
战地 608
揭@@ 608
柬埔寨王国政府 608
社会化 608
祖传 608
联合阵线 608
阿尔法 608
页面 608
678 607
CONF.2010 607
Pan@@ 607
ema 607
下限 607
伊斯 607
入门 607
内以 607
古拉 607
同等待遇 607
婚前 607
巴勒斯坦民族权力机构 607
报警 607
格伦 607
欺@@ 607
用量 607
紧急会议 607
超级 607
超额 607
辩驳 607
雪 607
HS 606
LAU 606
亨特 606
倍@@ 606
可用资金 606
将视 606
抽象 606
未指定 606
本月 606
水管 606
法律手段 606
添@@ 606
爱德华 606
管理所 606
菌@@ 606
街@@ 606
赫尔 606
运动会 606
716 605
ele 605
iza 605
主机 605
以备 605
危急情况 605
大湖 605
年版 605
掩饰 605
有点 605
未知 605
案头 605
海图 605
渐@@ 605
特别@@ 605
瓦尼 605
科将 605
站不住脚 605
约翰逊 605
血腥 605
解决目前 605
解放党 605
讲解 605
防雷 605
726 604
GC.10 604
Nations 604
So@@ 604
kov 604
减员 604
嫁给 604
屋顶 604
无阻 604
看看 604
第八节 604
终审 604
诺贝尔和平奖 604
阻挡 604
阿斯 604
非常@@ 604
136.@@ 603
656 603
775 603
783 603
Jal@@ 603
十字路口 603
审计@@ 603
无核区 603
泛@@ 603
第一任 603
荣@@ 603
谷@@ 603
资本化 603
退职 603
驾驶员 603
070 602
703 602
Mik@@ 602
ult@@ 602
ve 602
仲裁法 602
充分准备 602
分级 602
创新能力 602
制衡 602
呈@@ 602
和世卫 602
如其 602
摩托车 602
整体性 602
文表 602
此类情况 602
泄 602
禽流感 602
竞争者 602
脂 602
视像 602
612 601
A.2 601
CR 601
ONUB 601
从不 601
公安部 601
刑事法律 601
四位 601
塔纳 601
市场份额 601
布里@@ 601
开工 601
无所@@ 601
本书 601
现金余额 601
第五十五 601
篮子 601
贝都 601
错误@@ 601
639 600
664 600
681 600
AA 600
Bir@@ 600
COP.2 600
Tri@@ 600
六位 600
加固 600
动因 600
地球物理 600
基调 600
对养 600
核电站 600
窗 600
行贿 600
馆@@ 600
I.@@ 599
Sil@@ 599
取得成效 599
哈拉@@ 599
对准 599
小行星 599
广域网 599
承保 599
未有 599
条及 599
现行制度 599
留待 599
简便 599
聚集一堂 599
自来水 599
蓬勃发展 599
雇 599
669 598
CL@@ 598
ayo 598
三家 598
午餐 598
地质@@ 598
壮@@ 598
康 598
或性 598
挂@@ 598
挥@@ 598
无一例外 598
更难 598
林区 598
神 598
舞蹈 598
萎缩 598
诸项 598
谢尔盖 598
部为 598
齐全 598
Tom@@ 597
不定期 597
举足轻重 597
今年年底 597
儒瓦内 597
吉尔吉斯 597
备受 597
恢复@@ 597
教官 597
油轮 597
物质条件 597
薄@@ 597
设计阶段 597
钻探 597
项目组 597
Dav@@ 596
EL@@ 596
pp 596
保障法 596
后方 596
圭@@ 596
复印 596
我于 596
扰 596
拉尼 596
款所列 596
法院系统 596
看见 596
第三批 596
编印 596
英雄 596
该节 596
调阅 596
9.5 595
On@@ 595
Robert 595
候 595
几十@@ 595
分包商 595
弘扬 595
皇@@ 595
诱惑 595
顺序排列 595
马德@@ 595
2.10 594
Dh@@ 594
lan 594
冒险 594
冤情 594
创造财富 594
吊@@ 594
小队 594
己@@ 594
损益 594
暂缓 594
涅斯 594
胶 594
萨利姆 594
豆 594
Abdullah 593
DC2 593
Gen@@ 593
IDB.36 593
Ter@@ 593
uma 593
低价 593
冈萨雷斯 593
劣 593
小口径 593
应视 593
拉布 593
拖车 593
死刑犯 593
法定年龄 593
特例 593
纵火 593
莉@@ 593
设计@@ 593
适龄 593
693 592
Ang@@ 592
先锋 592
减税 592
唐@@ 592
挺 592
替代物 592
术@@ 592
毗连 592
致信 592
言辞 592
辨@@ 592
阿斯塔纳 592
韩@@ 592
86.@@ 591
DO@@ 591
不能容忍 591
值此 591
友善 591
因人 591
并称 591
征召 591
旱@@ 591
歧@@ 591
盲 591
税收制度 591
穆德 591
结构图 591
良好@@ 591
议院 591
误 591
IL@@ 590
一片 590
不分 590
产儿 590
从现在起 590
半球 590
吞@@ 590
国家安全部 590
国都 590
国际劳工局 590
坏@@ 590
坐在 590
得力 590
捏造 590
探雷 590
权重 590
相互协作 590
礼物 590
脉@@ 590
赶上 590
边界争端 590
颇@@ 590
高级@@ 590
131.@@ 589
671 589
755 589
Abdel 589
esa 589
ole 589
作出评价 589
关在 589
关系@@ 589
参考@@ 589
四次会议 589
恋童 589
收受 589
核电 589
模糊不清 589
欣赏 589
水泵 589
省市 589
第十章 589
绕过 589
继承法 589
绳 589
途经 589
655 588
659 588
Jar@@ 588
ild@@ 588
万多 588
不多 588
体力 588
国民@@ 588
学习成绩 588
布托 588
希腊政府 588
平等@@ 588
开曼 588
授 588
时间@@ 588
氧化物 588
督导 588
荒谬 588
谢谢 588
资金分配 588
还本付息 588
郎 588
麦克 588
1199 587
1860 587
848 587
911 587
uz 587
不及 587
卢布 587
发薪 587
惠给 587
攻势 587
文莱 587
滑@@ 587
硬拷贝 587
管局 587
艺 587
莫托科 587
被申请人 587
诺维奇 587
餐@@ 587
3.9% 586
674 586
Cab@@ 586
eka 586
下应 586
修订稿 586
单靠 586
坚强 586
实体法 586
屏障 586
搜救 586
正确@@ 586
死囚 586
热烈祝贺 586
玩@@ 586
第四批 586
至上 586
面向@@ 586
MS@@ 585
专门化 585
乐意 585
值得一提 585
国家所有 585
宣誓就职 585
宰@@ 585
恨 585
数据保护 585
杜尚别 585
特大 585
警卫人员 585
谢克尔 585
重要文件 585
825 584
Bat@@ 584
Fer@@ 584
GC.11 584
TC 584
che 584
专制 584
二人 584
二十四 584
全程 584
外加 584
年纪 584
幼 584
悉 584
方应 584
睦邻 584
空间规划 584
联合国经济及社会理事会 584
芬兰@@ 584
阅 584
零售商 584
811 583
GC.7 583
三起 583
人民共和国 583
公证 583
其以 583
加拉加斯 583
印巴 583
台风 583
地表 583
容 583
怀有 583
抗体 583
未登记 583
民阵 583
池中 583
脂@@ 583
计票 583
降雨量 583
627 582
SR@@ 582
信使 582
剥@@ 582
十五年 582
四级 582
幌子 582
执法@@ 582
极限 582
民事案件 582
海洋@@ 582
署为 582
联邦制 582
良机 582
蒙古政府 582
车站 582
通胀 582
预发 582
649 581
801 581
Ben 581
也门共和国 581
佐夫 581
先发制人 581
八次 581
其同 581
几家 581
医疗队 581
大增 581
幕 581
数以百计 581
架@@ 581
疗 581
纳德 581
阿以 581
集思广益 581
颇为 581
5.9 580
747 580
L.60 580
中介机构 580
亟须 580
亮 580
值班 580
内应 580
十七条 580
吧 580
房客 580
政治派别 580
文具 580
月工资 580
桌@@ 580
矿产品 580
该团 580
逾越 580
长足进展 580
阿拉伯@@ 580
1343 579
OP 579
七天 579
世行 579
位居 579
供应科 579
塞尔@@ 579
履行合同 579
幢 579
弗朗西斯 579
浆 579
渡@@ 579
瑟@@ 579
目击 579
相威胁 579
诚然 579
错失 579
随附 579
12.7 578
1882 578
4.8% 578
654 578
822 578
Rom@@ 578
by 578
会议主题 578
季奇 578
帕斯 578
斯雷 578
服用 578
简明扼要 578
统计学 578
缓冲 578
费时 578
过滤 578
铝 578
银@@ 578
80@@ 577
Od@@ 577
min@@ 577
助处 577
包裹 577
协会主席 577
地理分布 577
基亚 577
帕克 577
并不需要 577
总参谋长 577
打断 577
接待@@ 577
日时 577
材@@ 577
渗入 577
税务局 577
维修费 577
脱钩 577
财产权利 577
亚太经合组织 576
佩戴 576
出庭作证 576
四类 576
排他性 576
提高@@ 576
机构@@ 576
牛奶 576
诚@@ 576
醚 576
709 575
COM.3 575
ID 575
Sch 575
公开性 575
划入 575
卫星@@ 575
名古屋 575
培训教材 575
掌@@ 575
探亲 575
毫不@@ 575
皈依 575
票价 575
积极@@ 575
窑 575
第十三章 575
纪事 575
转基因 575
锌 575
DE 574
NA 574
亡 574
公立医院 574
准将 574
可言 574
复制件 574
宁愿 574
缔@@ 574
越南@@ 574
B.1 573
Dom@@ 573
Kan@@ 573
佩尔 573
受到重视 573
器械 573
工商@@ 573
成像 573
招 573
持平 573
旁@@ 573
有的放矢 573
核电厂 573
桥@@ 573
禁飞区 573
绝食 573
营企业 573
译@@ 573
责令 573
费尔南德斯 573
迈阿密 573
难得 573
10.3 572
749 572
955 572
Cent@@ 572
GU@@ 572
Ou@@ 572
一线 572
专利@@ 572
互为补充 572
介@@ 572
以待 572
剧增 572
原子弹 572
最能 572
朝鲜@@ 572
栏目 572
癖 572
礼堂 572
西帝 572
误差 572
里斯@@ 572
重金属 572
隐蔽 572
742 571
azi 571
gov 571
ink@@ 571
从那时起 571
伊始 571
住宅区 571
劳动密集型 571
女王 571
所要 571
执行@@ 571
时能 571
演进 571
琼 571
誉 571
贝尔@@ 571
货币@@ 571
轴 571
辞去 571
遮@@ 571
针@@ 571
698 570
Omar 570
Sand@@ 570
osa 570
交织 570
供货 570
全员 570
四倍 570
国家杜马 570
在建 570
布鲁@@ 570
形容 570
搭建 570
摩纳哥公国 570
收缩 570
斯克 570
被选举权 570
里夫 570
高度赞扬 570
763 569
804 569
E2 569
Ib@@ 569
Lar@@ 569
ap 569
不以 569
为数众多 569
亚穆苏克罗 569
冒犯 569
参半 569
同届 569
咨询@@ 569
哥伦比亚人 569
围产期 569
塑料@@ 569
尚存 569
布局 569
帝国主义 569
建房 569
惯@@ 569
慎@@ 569
第三种 569
罗列 569
转录 569
马拉卡 569
高原 569
EB 568
Garc 568
不全 568
前哨 568
吸收能力 568
培训者 568
如图 568
审校 568
富人 568
对案 568
开关 568
战区 568
抗御 568
无辜者 568
有条理 568
梯 568
水稻 568
污 568
浪 568
知识分子 568
红色 568
纳尔逊 568
范 568
赠@@ 568
边界问题 568
734 567
776 567
853 567
CP.3 567
GC.13 567
INFCIRC 567
Kw@@ 567
Muk@@ 567
ija 567
一切顺利 567
内含 567
工作站 567
开放@@ 567
收复 567
是@@ 567
最低@@ 567
牌照 567
红 567
肺@@ 567
难者 567
香港特区政府 567
Nic@@ 566
TI@@ 566
ille 566
iq 566
mon@@ 566
仪@@ 566
刑事@@ 566
削@@ 566
广播电视 566
微薄 566
恩塔 566
杠杆 566
植物检疫 566
涨 566
牟利 566
离散 566
繁忙 566
胡图 566
衣物 566
被劫持 566
解运 566
贺卡 566
顺 566
69.@@ 565
714 565
738 565
805 565
ement 565
上载 565
中除 565
之地 565
传承 565
塞克 565
备案 565
尼罗河 565
居民点 565
梅洛 565
渗漏 565
禁忌 565
至关紧要 565
薪给 565
说来 565
财务数据 565
这样一来 565
重返家园 565
阻力 565
降排 565
雨林 565
iv 564
予@@ 564
伏@@ 564
传统观念 564
免责 564
博客 564
古兰经 564
德国联邦 564
有待于 564
毫无道理 564
沿岸国 564
纳米技术 564
维系 564
蛋白质 564
较晚 564
1863 563
AM 563
Sm@@ 563
isi 563
oui 563
交界 563
人心 563
军事训练 563
发展潜力 563
拉萨 563
本部 563
构件 563
澳新 563
炸 563
牙 563
经营@@ 563
融 563
解答 563
谋杀案 563
辜负 563
10.4 562
694 562
741 562
766 562
769 562
Canal 562
Part@@ 562
Serg@@ 562
TP 562
九十年代 562
交替 562
垫 562
外汇储备 562
忘 562
拉希德 562
新世纪 562
水电@@ 562
生命危险 562
相互交织 562
罹患 562
肉类 562
说明性 562
赶出 562
避开 562
铺 562
闭幕词 562
音频 562
预谋 562
814 561
̇ 561
今天下午 561
国营企业 561
安全感 561
弄 561
杜阿尔特 561
格拉@@ 561
模范 561
溴化 561
磷@@ 561
给与 561
老年@@ 561
肯尼迪 561
钻井 561
109.@@ 560
Fre@@ 560
HIV 560
两枚 560
企业主 560
伸出 560
充满希望 560
半月 560
卡拉@@ 560
已到 560
弗拉基米尔 560
琴@@ 560
社区@@ 560
第二十五次 560
管理中心 560
节制 560
非营利性 560
762 559
816 559
Kur@@ 559
Qal 559
arov 559
军事设施 559
加里 559
客气话 559
家庭保健 559
批次 559
损失赔偿 559
推论 559
活动中心 559
男女双方 559
聋人 559
65.@@ 558
717 558
773 558
TP@@ 558
afi 558
互助会 558
内称 558
可使 558
可选 558
成本@@ 558
担保人 558
澳门@@ 558
直线 558
相互影响 558
第四十六 558
练@@ 558
行驶 558
详@@ 558
远东 558
Om@@ 557
内涵 557
农业工人 557
各组 557
延缓 557
敏感度 557
整治 557
校准 557
氧@@ 557
没能 557
管理体系 557
11.1 556
2021 556
XXX 556
ias 556
ito 556
ris@@ 556
五十年 556
停机坪 556
出处 556
对裁 556
导航系统 556
教区 556
河内 556
治外 556
第六款 556
累 556
繁殖 556
统计员 556
维多利亚 556
罚@@ 556
错过 556
黎巴嫩人 556
Richard 555
一大步 555
农村@@ 555
又@@ 555
各市 555
天文 555
意见书 555
有意识 555
爆炸@@ 555
环保局 555
纳粹主义 555
身份证明 555
通讯社 555
陷阱 555
风力 555
#. 554
ifa 554
zh@@ 554
一对 554
下以 554
五分钟 554
军政府 554
卫生状况 554
指纹 554
收件人 554
民生 554
淡 554
稽@@ 554
萨拉姆 554
说话 554
问询 554
非婚生子 554
764 553
787 553
ma@@ 553
准备就绪 553
劳役 553
孕 553
寡@@ 553
导师 553
所有制 553
染@@ 553
治外法权 553
特种部队 553
现金管理 553
生命统计 553
练习 553
让@@ 553
黑暗 553
4.1% 552
59.@@ 552
792 552
AT 552
Ju@@ 552
Samawah 552
企业@@ 552
分数 552
划署 552
危难 552
基因组 552
实际收入 552
疑 552
直接费用 552
自然科学 552
财政收入 552
遗留下来 552
部已 552
闭路电视 552
非但 552
673 551
Mach@@ 551
lav 551
oug@@ 551
uj@@ 551
三者 551
中所提 551
多国公司 551
工人党 551
时报 551
桩 551
第三轮 551
简要地 551
贝尔纳 551
812 550
Des@@ 550
IA 550
互操作性 550
会因 550
充裕 550
和平区 550
夸大 550
夺@@ 550
护堤 550
旅游部 550
格里 550
激起 550
盟军 550
系统实施 550
行车 550
解救 550
适得其反 550
郑重 550
101.@@ 549
754 549
个性化 549
产业政策 549
亿元 549
仍会 549
劣@@ 549
回忆 549
塞尔吉奥 549
奶 549
建设@@ 549
招标书 549
排水 549
甘达 549
设保 549
过份 549
追捕 549
非盈利 549
92.@@ 548
Agu@@ 548
lah 548
为时尚早 548
典@@ 548
印度教 548
即刻 548
契 548
婚姻@@ 548
尼泊尔共产党 548
差错 548
布朗 548
幕@@ 548
接任 548
政治学 548
板@@ 548
王储 548
看似 548
编写@@ 548
裂 548
魏斯 548
鲁滨逊 548
1844 547
Mos@@ 547
Ra 547
不需 547
伯顿法 547
催@@ 547
冰川 547
司为 547
君@@ 547
嘉宾 547
希奇 547
急救@@ 547
护理人员 547
挑衅性 547
提要 547
最先 547
秉持 547
纳比 547
该章 547
金库 547
阿塞拜疆人 547
静 547
Abd 546
Mol@@ 546
Oliv@@ 546
Rab@@ 546
ise 546
乎 546
去掉 546
受难 546
境内外 546
平原 546
接战 546
教皇 546
新娘 546
渔获量 546
漏 546
网络空间 546
自由主义 546
贮器 546
赢 546
载体 546
阿姆@@ 546
4.10 545
797 545
Juan 545
SH@@ 545
一连串 545
严重@@ 545
之水 545
减到 545
十条 545
吉斯 545
同心协力 545
哈里 545
处死 545
多党 545
无核化 545
有利可图 545
甲基苯丙胺 545
电信服务 545
留有 545
答 545
自治权 545
随机 545
非常规 545
789 544
823 544
833 544
Hum@@ 544
Shin 544
los 544
一岁 544
人能 544
保卫@@ 544
保障@@ 544
北约组织 544
可据 544
堪@@ 544
情愿 544
战斗@@ 544
所在区域 544
排外 544
毒物 544
比利时政府 544
粮食@@ 544
胺 544
赫尔姆斯 544
高尚 544
090 543
784 543
786 543
Mit@@ 543
不为过 543
信贷@@ 543
易懂 543
泽西岛 543
留级 543
祖 543
羊@@ 543
萧条 543
过半数 543
麻风病 543
841 542
yi 542
不至于 542
丛书 542
书中 542
企 542
传译 542
全天 542
公文 542
初级产品 542
卓@@ 542
土库曼 542
多语种 542
大幅度提高 542
太高 542
想方设法 542
礁 542
社区活动 542
笑 542
除贫 542
GGE 541
Gor@@ 541
aza 541
件数 541
允诺 541
刀@@ 541
圣彼得堡 541
尼尔 541
展现出 541
巴斯 541
常年 541
律@@ 541
戈斯 541
打下基础 541
拉夫 541
收留 541
有条不紊 541
简表 541
联普 541
联络网 541
许多年 541
足球@@ 541
975 540
Cap@@ 540
Hussein 540
供认 540
加在一起 540
司法公正 540
哈马德 540
头巾 540
岩 540
年龄结构 540
建筑师 540
意外事故 540
斗 540
普惠 540
有步骤 540
本手册 540
灌@@ 540
维派 540
雷尔 540
鸡@@ 540
Ast@@ 539
Rev.@@ 539
SAP 539
严重危害 539
信用卡 539
其新 539
其核 539
养人 539
内多 539
右翼 539
尼特 539
年青 539
徒劳 539
无保留 539
经常出现 539
结婚@@ 539
许许多多 539
迁出 539
过错 539
追随者 539
重要@@ 539
4.9% 538
7.7 538
719 538
F4 538
MISC.1 538
公共@@ 538
军事援助 538
卡塔 538
即该 538
弱小 538
心理治疗 538
捣毁 538
测量@@ 538
液化 538
炮@@ 538
矿场 538
终端用户 538
调处 538
这句 538
逆@@ 538
030@@ 537
795 537
Li@@ 537
Sant@@ 537
一股 537
仰光 537
休息时间 537
出口额 537
园艺 537
安放 537
所作所为 537
沉重负担 537
津@@ 537
渎职 537
狂热 537
相互@@ 537
祸 537
第二十六次 537
CMP.@@ 536
南极洲 536
增量 536
总则 536
整整 536
明确性 536
有误 536
民营 536
行政官员 536
订明 536
贫富 536
赞许 536
跌@@ 536
1515 535
B.2 535
oli 535
两场 535
人才外流 535
伸张 535
军区 535
出兵 535
完成率 535
市价 535
散会 535
日趋严重 535
炸@@ 535
珍@@ 535
纽约州 535
统计人员 535
膳宿 535
航道 535
逼婚 535
阿姆斯特丹 535
魁北克省 535
Gab@@ 534
估计值 534
伸@@ 534
依法@@ 534
冷 534
到访 534
剖@@ 534
勘察 534
医护 534
填 534
多出 534
提炼 534
犹@@ 534
篮 534
计划外 534
赖以 534
过低 534
邻@@ 534
Dam@@ 533
体积 533
及时处理 533
国共 533
大致相同 533
好评 533
带入 533
库马 533
斜@@ 533
校外 533
汉城 533
睦邻友好 533
积存 533
萨姆 533
蔓延到 533
788 532
L.64 532
XXIV 532
中点 532
军舰 532
加西亚 532
弗里@@ 532
民兵组织 532
波萨达 532
热爱 532
离子 532
转帐 532
辐射@@ 532
辨明 532
镜@@ 532
集中管理 532
IDB.21 531
KNPC 531
Sc@@ 531
Sin@@ 531
___ 531
alo 531
aye 531
军机 531
刻 531
可耻 531
已予 531
彼此间 531
拉迪奇 531
数为 531
无可 531
无所作为 531
易燃 531
法理 531
潮流 531
蒂尔 531
CH 530
Dr@@ 530
SR 530
TA 530
dh@@ 530
ig 530
下定义 530
人民阵线 530
伯尔尼 530
使之能 530
公债 530
卑 530
南共市 530
双亲 530
同盟军 530
尘@@ 530
峰 530
拦@@ 530
收成 530
法兰西共和国 530
现代@@ 530
疾@@ 530
赞 530
迁入 530
高加索地区 530
ery 529
nez 529
亲善大使 529
以至 529
供应者 529
幸存 529
应缴 529
手头 529
断然 529
更趋 529
渣 529
生物物理 529
童兵 529
耕@@ 529
背井离乡 529
评析 529
该来文 529
通加 529
里程 529
鉴@@ 529
雪@@ 529
913 528
DS 528
两岸 528
外溢 528
漠视 528
行程 528
设于 528
Sl@@ 527
enz@@ 527
mar@@ 527
可供使用 527
多用途 527
安全检查 527
工兵 527
所应 527
教师@@ 527
教育部长 527
电子信息 527
稳步增长 527
符合规定 527
纳米材料 527
脉 527
锁@@ 527
AH 526
中途 526
亚马逊 526
名人 526
察觉 526
工业区 526
巴尔干地区 526
布什 526
布基 526
息息相关 526
既成事实 526
模块化 526
水陆 526
病房 526
窗户 526
继任者 526
者@@ 526
贱民 526
迪尔 526
驱使 526
6.8 525
Wat@@ 525
人口数量 525
卡斯 525
实事求是 525
对水 525
展出 525
承受能力 525
放下 525
普世 525
机动车 525
民事法庭 525
熟知 525
王子 525
病症 525
码@@ 525
离不开 525
第四十一条 525
试验场 525
调查科 525
非凡 525
Add.13 524
una 524
二等 524
扶轮社 524
撤走 524
栅栏 524
烹饪 524
福克兰 524
突袭 524
第二位 524
统筹兼顾 524
群落 524
职称 524
致命性 524
觉悟 524
谱@@ 524
遗留问题 524
飞来 524
855 523
CM 523
EP 523
ogo 523
一刀切 523
之大 523
前进方向 523
反对者 523
可接受性 523
可查 523
埃利亚 523
妥善处理 523
成因 523
截肢 523
案人 523
童子军 523
若泽 523
起首 523
那不勒斯 523
阿贝歇 523
预想 523
高度评价 523
768 522
Can@@ 522
Sec@@ 522
不算 522
两处 522
互联互通 522
人诉 522
分拨 522
塞里 522
宝石 522
家禽 522
属事 522
服务行业 522
肠@@ 522
辱骂 522
适应@@ 522
音乐会 522
729 521
HR 521
中层 521
亚行 521
出口商品 521
劳动保护 521
卫 521
权主义 521
档案管理 521
歌 521
特拉维夫 521
秘密@@ 521
第一周 521
紧接着 521
郊 521
798 520
C1 520
ci 520
ond@@ 520
中要 520
亚松森 520
夺去 520
师@@ 520
性生活 520
扼杀 520
抗拒 520
接手 520
时以 520
普拉 520
村长 520
毕业@@ 520
生动 520
离心机 520
第十一章 520
艺@@ 520
803 519
881 519
We@@ 519
不属 519
中等学校 519
哪些@@ 519
坡@@ 519
巫术 519
扶@@ 519
招致 519
斯科普里 519
普遍@@ 519
有助 519
本可 519
电台节目 519
福音 519
私刑 519
纪 519
腐蚀 519
蒙特 519
虐@@ 519
退席 519
L.63 518
arb@@ 518
oi 518
具体方法 518
前言 518
因而是 518
外交部门 518
总经理 518
摄入 518
气候系统 518
活着 518
理顺 518
瓦希德 518
篡改 518
苛刻 518
若要 518
覆@@ 518
运输业 518
飞行员 518
高温 518
INF.1 517
Pro 517
po 517
一般说来 517
从本 517
全心全意 517
勇@@ 517
各县 517
四所 517
妄@@ 517
微量 517
指导性 517
栏中 517
水体 517
洛斯 517
磁 517
窄 517
联军 517
萨巴赫 517
财政赤字 517
这座 517
重整 517
Ker@@ 516
Tor@@ 516
USG 516
丽 516
出租人 516
厨房 516
古迹 516
国际形势 516
大军 516
帮佣 516
并分 516
生物医学 516
组将 516
财政负担 516
赫拉特 516
重犯 516
集成 516
1889 515
739 515
Add.12 515
Ok@@ 515
PRO@@ 515
会议纪要 515
作一 515
免疫@@ 515
公共设施 515
加拉 515
即以 515
妇产科 515
帕特里克 515
民主改革 515
流网 515
确凿证据 515
英文版 515
视而不见 515
驾驶@@ 515
ABB 514
CP.9 514
Cons@@ 514
Nah@@ 514
Rodr 514
Tan@@ 514
一任 514
亡@@ 514
充分证明 514
全力以赴 514
分立 514
单单 514
善后 514
地中海地区 514
女囚 514
摩 514
效忠 514
斯顿 514
无情 514
纸质 514
自行@@ 514
芬@@ 514
行政官 514
迷 514
酬 514
阿卜杜 514
陪审员 514
高度集中 514
18A.@@ 513
808 513
Charles 513
II@@ 513
Ka@@ 513
OU@@ 513
asi 513
lin 513
上星期 513
亿吨 513
众议员 513
向南 513
基因@@ 513
增加值 513
好坏 513
巡逻艇 513
工龄 513
开出 513
成问题 513
搞@@ 513
查证 513
泉 513
牛津 513
物价 513
管治 513
组群 513
运入 513
邀约 513
1904 512
866 512
Ty@@ 512
rist@@ 512
二字 512
人才库 512
人权意识 512
关照 512
半期 512
坦率地 512
总结经验 512
攻读 512
政界人士 512
表列出 512
请设 512
骗@@ 512
Dor@@ 511
L.65 511
ath 511
ill 511
原第 511
德利 511
提出抗议 511
放射性核素 511
施虐 511
显 511
涉足 511
粒子 511
越狱 511
阿萨德 511
826 510
COP.10 510
Coll 510
Lab@@ 510
Sid@@ 510
ance 510
oc 510
丘 510
二号 510
产前检查 510
令人瞩目 510
剑@@ 510
向来 510
挂 510
控罪 510
放行 510
法轮功 510
熟练@@ 510
簿 510
缓 510
肢 510
被选为 510
警察法 510
讯@@ 510
该城 510
金融中心 510
陈旧观念 510
香@@ 510
2094 509
AC.198 509
SNA 509
令人担心 509
依托 509
十年间 509
卡西 509
工作日内 509
效率高 509
斐@@ 509
杂 509
男同性恋 509
病情 509
绘画 509
绝不会 509
综上所述 509
0.15% 508
12.2 508
HR@@ 508
No 508
一一 508
人类学 508
何为 508
家庭教育 508
尖锐 508
平息 508
怎@@ 508
抢掠 508
昂@@ 508
湖@@ 508
现政府 508
符合标准 508
近些年来 508
阿尤恩 508
713 507
AG 507
三角洲 507
专门性 507
克莱@@ 507
勃@@ 507
强硬 507
敲诈 507
番 507
离家 507
纸面 507
这要 507
794 506
GN@@ 506
KPC 506
Naj@@ 506
ato 506
rey 506
不设 506
传播@@ 506
伽@@ 506
兵营 506
加奥 506
响@@ 506
地籍 506
增高 506
宇@@ 506
峰值 506
技师 506
抹@@ 506
未说明 506
概念性 506
结存 506
质量@@ 506
资金流 506
食堂 506
12.3 505
1A 505
901 505
BO@@ 505
CP.13 505
享 505
作此 505
假肢 505
内分泌 505
冲 505
听从 505
大有@@ 505
尖@@ 505
幸免 505
戈马派 505
操作员 505
改善服务 505
救生 505
方与 505
智 505
滋@@ 505
燃料@@ 505
特殊作用 505
理智 505
谈判者 505
赤@@ 505
顺差 505
837 504
eli 504
ons 504
军事冲突 504
剪@@ 504
加尔 504
发送@@ 504
巨大变化 504
平日 504
心脏 504
惩 504
愈演愈烈 504
暴发 504
正对 504
武装侵略 504
污蔑 504
率低 504
砍刀 504
红海 504
经审查 504
训练@@ 504
记录@@ 504
长足 504
004 503
1944 503
824 503
832 503
Hasan 503
东京国际 503
仅次于 503
以本 503
千万 503
原理 503
坊 503
声望 503
多所 503
情况@@ 503
拔 503
放大 503
教练 503
砖 503
贝特 503
迪亚洛 503
114.@@ 502
C.7 502
CON@@ 502
Dan@@ 502
Hor@@ 502
IDB.27 502
Kir@@ 502
Law 502
WG.2 502
ions 502
ž 502
会籍 502
共达 502
分期付款 502
千人 502
半个 502
印度@@ 502
压倒性 502
受托人 502
增加数 502
妓 502
实际操作 502
彭@@ 502
彻@@ 502
渔 502
石油部门 502
第三者 502
米斯 502
编外人员 502
职级 502
表态 502
辐射源 502
附则 502
12.1 501
osh@@ 501
伦理学 501
凶杀 501
多变 501
学习班 501
年复一年 501
挣扎 501
摩洛 501
敌对@@ 501
获胜 501
赢利 501
避孕措施 501
颠@@ 501
802 500
ny 500
交通规则 500
京 500
倦 500
公平合理 500
协作关系 500
困惑 500
多层次 500
大事 500
妮 500
家畜 500
岁月 500
微乎其微 500
提高质量 500
政治经济 500
格林 500
框@@ 500
武力威胁 500
现职 500
瑞 500
联叙 500
艺术作品 500
被害 500
调至 500
返 500
选任 500
零增长 500
Lin@@ 499
一些则 499
中央委员会 499
储存库 499
吸取教训 499
女方 499
数十万 499
民族语言 499
独角兽 499
科军 499
经济封锁 499
避难者 499
那法索 499
CP.2 498
Eri@@ 498
Fel@@ 498
ret@@ 498
一环 498
作风 498
偷 498
充分@@ 498
凌驾于 498
利用生物 498
地段 498
官邸 498
抗药性 498
无损 498
本世纪 498
梅斯 498
水污染 498
监测数据 498
秘@@ 498
粮食作物 498
订出 498
贷方 498
迅猛 498
817 497
Jac@@ 497
Limited 497
SW@@ 497
ashi 497
ember 497
亿至 497
代号 497
优异 497
具体办法 497
受贿 497
忆 497
柬埔寨王国 497
毫不迟延 497
熔@@ 497
第二级 497
联森 497
蓄水 497
行政权 497
诀窍 497
1546 496
L.67 496
Sad@@ 496
XXVIII 496
act@@ 496
ando 496
上市公司 496
下院 496
分行 496
加工区 496
勉强 496
国所 496
小岛 496
扔 496
无私 496
本合同 496
洁@@ 496
生产方式 496
相对@@ 496
私生活 496
约旦哈希姆王国 496
缅怀 496
臂 496
较之 496
遗孀 496
铝@@ 496
129.@@ 495
1556 495
915 495
off@@ 495
unt@@ 495
专为 495
两国人民 495
包装@@ 495
危害性 495
台湾省 495
州级 495
弄@@ 495
惠@@ 495
欧佩克 495
每半年 495
约合 495
蓬 495
领头 495
771 494
G.@@ 494
Iz@@ 494
No@@ 494
____ 494
mo 494
不端 494
侵袭 494
冈 494
厂场 494
双管齐下 494
基拉 494
官方网站 494
客观@@ 494
家事 494
文本处理 494
无从 494
电气化 494
符合要求 494
第三段 494
质询 494
越发 494
跌 494
辞@@ 494
野心 494
阿摩 494
驱离 494
003 493
EC@@ 493
Lee 493
edo 493
不同之处 493
农业投入 493
吉卜赛人 493
吉布提共和国 493
孜@@ 493
幼儿期 493
愤慨 493
战备 493
换文 493
最深 493
极小 493
漫@@ 493
照明弹 493
登记注册 493
社署 493
诉讼时效 493
逆差 493
重大@@ 493
骤@@ 493
Var@@ 492
ye 492
互动性 492
以色列@@ 492
出血 492
半个世纪 492
卫生法 492
推展 492
沙龙 492
生命线 492
由衷 492
科托 492
紊乱 492
纳纳 492
聋@@ 492
联系@@ 492
转换成 492
针 492
非苏 492
面貌 492
0.9% 491
INF@@ 491
PF@@ 491
eni 491
为重 491
以性 491
吉尔@@ 491
咨询处 491
商船 491
多伦多 491
投资额 491
敏 491
最重 491
朱 491
瑞郎 491
着落 491
秒钟 491
诱杀 491
读书 491
贫穷线 491
过分拥挤 491
金融监管 491
需经 491
12.5 490
818 490
COM@@ 490
CP.1 490
Rash@@ 490
Singh 490
uba 490
一百零@@ 490
不能允许 490
中东国家 490
人体器官 490
创业者 490
努尔 490
发委 490
合算 490
困 490
多报 490
宏大 490
溢出 490
父母亲 490
物证 490
献策 490
芒 490
间谍 490
静态 490
鞋@@ 490
项新 490
123.@@ 489
Cs 489
Du@@ 489
Gon@@ 489
L.69 489
Ri@@ 489
万次 489
三十 489
上尉 489
不提 489
再婚 489
出行 489
单列 489
原判 489
国际金融公司 489
填埋场 489
外国@@ 489
市场需求 489
抱负 489
无助 489
标出 489
正以 489
海地人 489
演讲人 489
王室 489
缺乏@@ 489
联邦@@ 489
船运 489
英尺 489
解放组织 489
车臣共和国 489
还款 489
选中 489
阿塔 489
819 488
895 488
COM.1 488
DI@@ 488
Prog.@@ 488
ette 488
iev 488
不实 488
中型企业 488
五份 488
人口稠密 488
以非 488
体在 488
净水 488
出勤 488
双赢 488
可赔 488
就此而言 488
文化交流 488
文所 488
明文禁止 488
植物保护 488
母体 488
火车 488
碘@@ 488
练 488
统计分析 488
舒适 488
转化成 488
ASG 487
COP.4 487
Dev@@ 487
Et@@ 487
IDB.30 487
UR@@ 487
WP.1 487
ois 487
ran 487
不容置疑 487
中列 487
创纪录 487
哈尔格萨 487
埃塞俄比亚人 487
崇 487
微粒 487
拒绝执行 487
无能为力 487
磅 487
西姆 487
规管 487
10.5 486
代用品 486
伊朗核 486
凸@@ 486
反贪污 486
发布命令 486
发生地 486
喀 486
四架 486
国际货币基金 486
地方@@ 486
就业局 486
形形色色 486
排污 486
无线电通信 486
汤@@ 486
消费国 486
盖拉 486
航天中心 486
船长 486
诉讼案 486
购买者 486
近亲 486
金属@@ 486
铅@@ 486
锁定 486
镉 486
807 485
891 485
den 485
oro 485
农地 485
净值 485
凡有 485
化验室 485
发函 485
合在一起 485
堂@@ 485
多种不同 485
息@@ 485
摘@@ 485
数周 485
氨@@ 485
游民 485
用法 485
索赔案 485
载运 485
追溯到 485
面粉 485
75.@@ 484
AH@@ 484
Bab@@ 484
CN.18 484
enga 484
ono 484
ust 484
仿@@ 484
伊斯梅尔 484
到场 484
同感 484
增长@@ 484
失职 484
尺 484
属下 484
年老 484
并肩 484
归为 484
托存 484
探究 484
本国货币 484
核反应堆 484
桑戈 484
炮火 484
电视频道 484
移栖 484
该州 484
阿尔巴尼亚人 484
985 483
ODS 483
Sur@@ 483
__ 483
ht 483
上年 483
下表@@ 483
二苯 483
亚丁湾 483
医保 483
反恐怖 483
合法政府 483
恶性 483
报告会 483
攻击行为 483
籽 483
粘@@ 483
被称作 483
调整@@ 483
达到目标 483
这时 483
连续不断 483
追究其 483
1541 482
93.@@ 482
Reg@@ 482
SL@@ 482
aim@@ 482
中所@@ 482
可视 482
实际困难 482
寄 482
战火 482
拔@@ 482
第三级 482
纬度 482
脸@@ 482
财产@@ 482
贫乏 482
运出 482
迫切性 482
非婚生 482
2100 481
ongo 481
他会 481
保加利亚共和国 481
刊@@ 481
协调组 481
幅@@ 481
弊端 481
当前情况 481
招待 481
普罗@@ 481
暂时性 481
空中巡逻 481
第一夫人 481
节省@@ 481
起草者 481
配方 481
齐兹 481
104.@@ 480
2.11 480
Artawi 480
Pop@@ 480
oud@@ 480
乎@@ 480
交接 480
人文@@ 480
侵@@ 480
做会 480
公署 480
取暖 480
吓 480
嘲@@ 480
寒@@ 480
居住证 480
归还给 480
急迫 480
旨 480
海关法 480
涌现 480
混凝土 480
级联 480
自始至终 480
行不通 480
贸易量 480
辛勤工作 480
那天 480
高校 480
835 479
Ach@@ 479
人口老化 479
伯格 479
充斥 479
凌晨 479
另作 479
后经 479
四舍五入 479
国国民 479
国有@@ 479
好像 479
戊 479
拆 479
曾任 479
淋@@ 479
潘 479
神父 479
福岛 479
腊 479
自毁 479
议事日程 479
119.@@ 478
838 478
Dal@@ 478
Sheikh 478
偏僻 478
关键步骤 478
净资产 478
大型项目 478
如需 478
完全@@ 478
店@@ 478
开创性 478
拐骗 478
损及 478
掸邦 478
无动于衷 478
暗淡 478
有薪 478
死去 478
海鸟 478
畅通无阻 478
疫 478
科隆 478
终点 478
艰@@ 478
行凶 478
行政主管 478
调查@@ 478
ER 477
eira 477
eth 477
严重困难 477
伐 477
别名 477
受访 477
墙@@ 477
录制 477
斯托 477
最差 477
法拉 477
涉贸 477
深重 477
演练 477
百姓 477
社会教育 477
翻一番 477
萨拉@@ 477
避税 477
间隙 477
闻@@ 477
高潮 477
COP.7 476
业务部门 476
供职 476
农林 476
几百万 476
分送 476
呼叫 476
大力加强 476
威尔逊 476
抉择 476
搭@@ 476
更少 476
期里 476
特赦 476
现今 476
监测站 476
相传 476
相近 476
确 476
社工 476
精 476
维修@@ 476
编订 476
至高无上 476
萨达姆 476
街上 476
记作 476
译本 476
障 476
霸权 476
骇人听闻 476
Basrah 475
HFC 475
MT@@ 475
Nav@@ 475
下定决心 475
保管人 475
加以分析 475
发援 475
巴尼亚 475
想起 475
所含 475
挨@@ 475
此刻 475
物理@@ 475
生命力 475
第@@ 475
逼 475
鉴此 475
陆续 475
项目@@ 475
857 474
EM.@@ 474
Jalibah 474
Manuel 474
Ur@@ 474
ents 474
yah 474
万份 474
万国邮联 474
候@@ 474
免予 474
印本 474
变化@@ 474
呼吸 474
山岳 474
年于 474
来临 474
状况不佳 474
犹太@@ 474
生产成本 474
编目 474
西南部 474
许可@@ 474
贵宾 474
酬@@ 474
2997 473
Hir@@ 473
三重 473
六月 473
判给 473
勃 473
包件 473
可耕地 473
塞雷卡 473
多种语言 473
宣讲 473
尾声 473
战争@@ 473
摩苏尔 473
柜 473
洛克@@ 473
罩 473
考核 473
葡萄牙政府 473
长崎 473
防污 473
雪上加霜 473
906 472
IDB.39 472
PIC 472
Sa 472
Sel@@ 472
不作 472
世界观 472
其受 472
几条 472
可请 472
各党派 472
同声 472
四届 472
地块 472
广为人知 472
抽取 472
新途径 472
江 472
滑坡 472
白色 472
石化 472
禁雷 472
纽伦堡 472
绑 472
绑架者 472
苗 472
葡萄牙文 472
调查者 472
责任法 472
逼迫 472
道德行为 472
驻守 472
骗 472
843 471
85.@@ 471
884 471
L.66 471
Mustafa 471
Tak@@ 471
ins 471
ous 471
ril 471
一概 471
中南部 471
争斗 471
人身攻击 471
公正@@ 471
内容提要 471
冰 471
国际奥林匹克委员会 471
工种 471
母公司 471
浅@@ 471
病床 471
病患 471
突尼斯政府 471
罢免 471
股本 471
获得@@ 471
说出 471
逐项 471
邀 471
1596 470
882 470
amba 470
ska 470
优先@@ 470
刻不容缓 470
北纬 470
博爱 470
域名 470
担@@ 470
文方称 470
相对而言 470
绌 470
辨别 470
迭 470
驻苏 470
aci 469
ilo 469
令人吃惊 469
价格下降 469
博尔@@ 469
受灾地区 469
可延长 469
各邦 469
合议庭 469
奥斯曼 469
尤应 469
拳@@ 469
更有意义 469
本段 469
模棱两可 469
淫@@ 469
珍惜 469
瑞典@@ 469
白盔 469
短片 469
突出@@ 469
第五十二 469
结尾处 469
自给 469
费尔南多 469
Lib@@ 468
Luk@@ 468
atha 468
一劳永逸 468
不良@@ 468
两边 468
刚刚开始 468
南海 468
君主 468
团团长 468
地质学 468
外务省 468
多夫 468
多起 468
安第@@ 468
尿@@ 468
带来不利 468
平流层 468
抵 468
接种率 468
攻击者 468
新兴国家 468
方济@@ 468
有否 468
根本无法 468
次年 468
火山爆发 468
理学 468
用词 468
营房 468
表示慰问 468
角落 468
频 468
鸟 468
COP.3 467
Ray@@ 467
Riv@@ 467
Santa 467
esh@@ 467
世人 467
世系 467
中受 467
低工资 467
先遣 467
农耕 467
副庭长 467
反之亦然 467
奥贝德 467
恐慌 467
新案 467
时前 467
毒理学 467
独家 467
看不出 467
组织@@ 467
联合国难民事务高级专员公署 467
自筹资金 467
臭名昭著 467
装货 467
议会@@ 467
诊治 467
雨@@ 467
796 466
Pu@@ 466
ick 466
传递信息 466
写道 466
备用金 466
复函 466
巴拉迪 466
指挥系统 466
握@@ 466
旋 466
梅拉 466
瓦米 466
种植@@ 466
联攻 466
被告方 466
询 466
轻松 466
配额制 466
随同 466
高发 466
1920 465
AG@@ 465
修改意见 465
公款 465
冻结资金 465
利奥 465
卢卡 465
厂商 465
宣示 465
工匠 465
智障 465
曲线 465
档案馆 465
物质利益 465
电击 465
荡 465
语言@@ 465
选举事务 465
雷拉 465
鳍 465
麻醉 465
1864 464
1940 464
Andr@@ 464
Rep@@ 464
下所列 464
两轮 464
偷盗 464
公证人 464
北亚 464
十分明确 464
原教旨主义 464
发展署 464
只得 464
就业者 464
工程部 464
布罗德 464
开幕辞 464
态@@ 464
总体@@ 464
手工艺品 464
斯岛 464
方将 464
无常 464
沃尔@@ 464
混合@@ 464
炼油 464
甘蔗 464
稀@@ 464
第三句 464
莫里斯 464
跑 464
遗迹 464
采购@@ 464
952 463
BUR 463
BWC 463
Kaz@@ 463
br@@ 463
qub 463
专题@@ 463
互访 463
叛国罪 463
咖啡@@ 463
商业利益 463
囊 463
夏威夷 463
开庭审理 463
患病率 463
拉里 463
斗@@ 463
时未 463
污染源 463
热液 463
耗 463
血清 463
试办 463
赋 463
迎击 463
828 462
836 462
869 462
Inc 462
SER 462
Smith 462
付诸实践 462
优质服务 462
克罗地@@ 462
努力创造 462
密切接触 462
少年法庭 462
开会讨论 462
彩 462
抱@@ 462
无益 462
极地 462
每人每天 462
米洛舍维奇 462
罗马@@ 462
遗传@@ 462
3.23 461
8.6 461
Pin@@ 461
ello 461
ï 461
不仅如此 461
仅能 461
侨汇 461
俄罗斯@@ 461
公共财产 461
公务员法 461
卑@@ 461
单兵 461
取水 461
名声 461
商品生产 461
学习@@ 461
拉各斯 461
拉拉 461
早上 461
民主制 461
消防安全 461
紧要 461
贫化铀 461
较强 461
输出国 461
近乎 461
黄麻 461
865 460
918 460
933 460
Engineering 460
ae 460
evic 460
sh 460
上层 460
佣金 460
哨@@ 460
基本准则 460
堪培拉 460
姊妹 460
币值 460
希布伦 460
并购 460
新加坡@@ 460
明智地 460
款待 460
海尔 460
燃烧@@ 460
痛心 460
盼望 460
知识经济 460
贝尼 460
货包 460
重重 460
钻@@ 460
Fal@@ 459
It@@ 459
SG@@ 459
Tab@@ 459
一再强调 459
仁川 459
农牧业 459
后勤@@ 459
嘉@@ 459
四十年 459
安的列斯 459
射程 459
按本 459
接见 459
无纸 459
水务 459
生存@@ 459
米奇 459
类人 459
紧急事件 459
统一标准 459
置之不理 459
职工@@ 459
自由市场 459
薄 459
西班牙港 459
谋取 459
账面 459
资源配置 459
轨迹 459
达纳 459
通话 459
院内 459
韩 459
食宿 459
驳@@ 459
KA 458
St 458
allah 458
azz@@ 458
iba 458
ush 458
二所载 458
亨利 458
农业用地 458
冠@@ 458
切除 458
巴拿马共和国 458
廉洁 458
意大利@@ 458
扰动 458
摘自 458
支用 458
敕令 458
柴 458
死灰复燃 458
焚化 458
甚远 458
西北地区 458
返乡 458
逊尼派 458
阵@@ 458
雷公 458
骨干 458
946 457
EN 457
L.68 457
op 457
供需 457
公共建筑 457
各自为政 457
因涉嫌 457
复印机 457
安德烈 457
废墟 457
此等 457
汉斯 457
灌溉系统 457
电子数据交换 457
符合@@ 457
第三十五条 457
简单@@ 457
绿化 457
置疑 457
联邦调查局 457
芝加哥 457
责任@@ 457
酷@@ 457
销售额 457
隔开 457
67.@@ 456
ITC 456
Pierre 456
RP@@ 456
Yam@@ 456
ean 456
eno 456
ony 456
oria 456
一只 456
互换 456
入口处 456
其子 456
写给 456
加利福尼亚州 456
化学工业 456
区政府 456
合作@@ 456
污染者 456
绝非 456
药管署 456
装入 456
规划者 456
调来 456
重要途径 456
高技能 456
高效益 456
111.@@ 455
791 455
PCNICC 455
Sum@@ 455
三中 455
丢弃 455
举办活动 455
再作 455
办向 455
历史背景 455
委在 455
娶 455
实践经验 455
工商会 455
平方英尺 455
彼@@ 455
得票 455
或本 455
拉瓦 455
摸@@ 455
曲@@ 455
标书 455
欠发达国家 455
比亚共和国 455
氯乙烯 455
申诉@@ 455
直径 455
第一级 455
计算机辅助 455
采金 455
黑塞哥 455
005 454
Hus@@ 454
Majdal 454
不管怎样 454
专款 454
之列 454
储备@@ 454
功能性 454
占有权 454
吉大港 454
外援 454
工作进度 454
工资水平 454
幻想 454
战剂 454
政客 454
政治体制 454
昌@@ 454
核心@@ 454
核能源 454
波段 454
理赔 454
电信@@ 454
米亚 454
自上而下 454
警察机关 454
转业 454
连选连任 454
逆 454
1203 453
916 453
Land@@ 453
Mar 453
uary 453
交流活动 453
人工@@ 453
伤者 453
供暖 453
俄罗斯政府 453
克劳@@ 453
全球@@ 453
华盛顿@@ 453
发性 453
变相 453
威慑@@ 453
守卫 453
当场 453
徒步 453
提案人 453
放入 453
放权 453
本会 453
流入量 453
登出 453
经济体制 453
迫 453
震荡 453
.7 452
201@@ 452
Bro@@ 452
CRP.6 452
Vill@@ 452
ago 452
ham@@ 452
ian@@ 452
事业团 452
伤势 452
使裁 452
克伦 452
出生证明 452
劝说 452
原样 452
外部环境 452
拉马 452
摆着 452
斥@@ 452
树脂 452
桌 452
灵活@@ 452
神职人员 452
补给@@ 452
詹 452
训练员 452
贪污@@ 452
赫拉 452
862 451
879 451
IPSAS 451
TS 451
举行会谈 451
人犯 451
代办 451
修道院 451
各分 451
如经 451
孟买 451
宗派 451
应灾 451
弗拉芒 451
情理 451
探 451
提起公诉 451
数百人 451
测算 451
猛增 451
辑 451
鼓舞人心 451
CMP@@ 450
CRP.7 450
Vit@@ 450
ors 450
作案 450
写作 450
冷冻 450
发现自己 450
大使级 450
幸 450
彰显 450
接收@@ 450
武器库 450
游 450
理工学院 450
疲@@ 450
盖茨 450
突出重点 450
货车 450
较广 450
面上 450
CRPD 449
ael 449
仗 449
先是 449
办公用品 449
可偿还 449
失检 449
宪政改革 449
尽快恢复 449
服务者 449
残废 449
羞@@ 449
衔 449
西半球 449
身边 449
达尔@@ 449
阵列 449
附在 449
食物链 449
1526 448
821 448
999 448
Serv@@ 448
oki 448
个人行为 448
个别情况 448
事实根据 448
代谢 448
全薪 448
前不久 448
变异 448
另类 448
可兑换 448
向北飞 448
堪称 448
女犯 448
女职工 448
操作程序 448
无休止 448
染上 448
槽 448
移民部 448
翻 448
背 448
自行车 448
表示同情 448
锻炼 448
Kap@@ 447
Te@@ 447
oor 447
yn 447
不出 447
丧偶 447
二载 447
共为 447
其一 447
内务部长 447
帕尔@@ 447
广泛开展 447
待处理 447
格罗@@ 447
横跨 447
正同 447
混 447
生涯 447
硬墙 447
窝藏 447
竞合 447
罪状 447
联合宣言 447
船主 447
解决@@ 447
转告 447
.5% 446
844 446
899 446
Char@@ 446
James 446
Nat@@ 446
SP@@ 446
下发 446
令状 446
几代人 446
姑@@ 446
小区 446
希伯伦 446
拉尼亚 446
揭发 446
撞 446
法律制裁 446
温得和克 446
滕@@ 446
略低于 446
科威特人 446
粗略 446
纷争 446
肥胖 446
西岛 446
边防@@ 446
马拉博 446
851 445
Has@@ 445
Hen@@ 445
TE 445
XXII 445
aff@@ 445
ix 445
ts 445
主席职位 445
伊里 445
保障机制 445
倡仪 445
出动 445
十二大 445
双手 445
唱@@ 445
培训@@ 445
大力开展 445
开采@@ 445
影子 445
手提@@ 445
技转 445
拐卖 445
新闻公报 445
早期教育 445
暴动 445
本科 445
洞 445
电子系统 445
确诊 445
计分卡 445
辑@@ 445
辨 445
阿兰 445
风格 445
Ul@@ 444
任何迹象 444
份@@ 444
假想 444
共市 444
可应 444
哈利勒 444
实验性 444
宣传册 444
尼科夫 444
心智 444
挪威@@ 444
摘取 444
法警 444
混为一谈 444
牛津大学 444
矿藏 444
节点 444
英国广播公司 444
裸@@ 444
警报系统 444
调自 444
跨越国界 444
进口量 444
部位 444
重度 444
849 443
868 443
New@@ 443
不像 443
侮辱性 443
其前 443
协进会 443
塔雷 443
墨@@ 443
婚姻登记 443
性价比 443
拨供 443
无人@@ 443
有章可循 443
条之@@ 443
民事@@ 443
禁止令 443
空军基地 443
维持现状 443
表达方式 443
问候 443
饥馑 443
饱@@ 443
1807 442
5935 442
861 442
Khalil 442
Kou@@ 442
ame 442
og 442
三十周年 442
严肃@@ 442
五分 442
人力资源部 442
保险制度 442
动作 442
和免 442
唤起 442
增资 442
大相径庭 442
夹 442
寓@@ 442
尽速 442
席尔瓦 442
库存量 442
手持 442
新元 442
新政 442
案犯 442
检举 442
殉@@ 442
消毒 442
特拉@@ 442
申根 442
美化 442
美国家 442
耶和华 442
苗@@ 442
该类 442
诱使 442
货运@@ 442
除去 442
马那瓜 442
70.@@ 441
80.@@ 441
Esp@@ 441
MISC.2 441
Santos 441
od 441
三氯 441
个人利益 441
入院 441
加密 441
商业法 441
地下室 441
多付 441
女权 441
履@@ 441
恩哥克 441
愈加 441
抵抗运动 441
挡 441
推进剂 441
斯塔@@ 441
步兵 441
沟 441
沼@@ 441
腐 441
莱昂 441
.8% 440
3000 440
Arm@@ 440
IB@@ 440
SM@@ 440
War@@ 440
XLVIII 440
aud@@ 440
上司 440
争议性 440
人阵 440
保险业 440
先质 440
公共广播 440
办驻 440
压载 440
开诚布公 440
性伴侣 440
我会 440
斯塔尔 440
求学 440
琼@@ 440
研究者 440
穿着 440
罪化 440
莫斯 440
请购 440
酝酿 440
1493 439
Baalbek 439
GC.12 439
Zafatah 439
先遣队 439
前为 439
协同工作 439
头上 439
孟加拉@@ 439
崛起 439
巧 439
平等权 439
意外开支 439
斯托@@ 439
景@@ 439
更易 439
欧洲各国 439
款所载 439
清晰度 439
激活 439
爱好和平 439
生育@@ 439
白喉 439
着眼 439
萨尔@@ 439
行政处罚 439
言词 439
重新召集 439
CB 438
PP@@ 438
Pav@@ 438
SR.7 438
Saleh 438
Vel@@ 438
互 438
互联 438
交换@@ 438
分册 438
包租 438
境@@ 438
希伯@@ 438
干涉内政 438
开脱 438
念及 438
恐 438
摄入量 438
滞 438
特困 438
班加西 438
相配合 438
空洞 438
腾@@ 438
萨斯喀彻@@ 438
蔽 438
访问者 438
财产法 438
购单 438
造就 438
重武器 438
829 437
992 437
CI 437
Daniel 437
Gom@@ 437
专用@@ 437
人权记录 437
代表@@ 437
伊斯@@ 437
出走 437
划归 437
卢旺达共和国 437
如实 437
妙 437
平壤 437
悲@@ 437
步入 437
比值 437
池@@ 437
灰 437
直系亲属 437
糊@@ 437
马约 437
马里@@ 437
1132 436
C.19 436
SR.3 436
乳房 436
全局 436
厚度 436
在押人员 436
弃置 436
扩增 436
摄影@@ 436
无关紧要 436
水权 436
汽车@@ 436
自律 436
辞退 436
队长 436
零配件 436
非商业性 436
驾@@ 436
$ 435
105.@@ 435
839 435
904 435
90@@ 435
997 435
CS@@ 435
Dem@@ 435
GEN 435
ne@@ 435
oph@@ 435
二名 435
促进@@ 435
保证书 435
军事情报 435
切实落实 435
利于 435
到任 435
及次 435
支持系统 435
时间段 435
概念@@ 435
润滑剂 435
温哥华 435
湿@@ 435
西亚@@ 435
计算机犯罪 435
路段 435
铜@@ 435
预先确定 435
马蒂@@ 435
鼓@@ 435
Gustafik 434
IDB.26 434
Laur@@ 434
William 434
alla 434
gl@@ 434
lad@@ 434
oon 434
ram 434
优缺点 434
似应 434
农工 434
卫生统计 434
周转金 434
大学教授 434
情报处 434
文件翻译 434
旅行者 434
某类 434
科委 434
第三十九条 434
美好生活 434
肾@@ 434
获选 434
重担 434
雷亚尔 434
987 433
Fin@@ 433
GO 433
MI@@ 433
eld 433
ente 433
体育场 433
关税同盟 433
农民@@ 433
可向 433
可塑 433
吉达 433
学龄 433
掘@@ 433
摧残 433
朴 433
玛雅 433
纷@@ 433
统治者 433
远景规划 433
迪亚拉 433
阿克萨清真寺 433
非技术 433
71.@@ 432
CONF.192 432
ie@@ 432
kin 432
两方 432
严惩 432
京@@ 432
免职 432
入住 432
加利福尼亚 432
努力完成 432
区划 432
单边主义 432
原则性 432
反响 432
反垄断 432
各该 432
天主教会 432
妇联 432
实弹 432
将分 432
当着 432
技术论坛 432
投票率 432
挣@@ 432
掠@@ 432
晚于 432
本意 432
查莫罗 432
满足@@ 432
特遣部队 432
畏 432
盾 432
石头 432
积聚 432
翁@@ 432
股为 432
肥@@ 432
肺炎 432
邮局 432
项目经理 432
骑士团 432
127.@@ 431
CH4 431
DP@@ 431
Wor@@ 431
chi 431
ford 431
iah 431
iti 431
三省 431
东斯 431
中拨出 431
受挫 431
四处 431
因地制宜 431
因该 431
图尔 431
多尔 431
尔巴@@ 431
尼亚共和国 431
带宽 431
德里克 431
情报中心 431
摇头丸 431
方言 431
株 431
热线电话 431
监管局 431
相容 431
碳化物 431
离校 431
紧缺 431
结为 431
翔实 431
英勇 431
课税 431
项是 431
首期 431
高等学校 431
5000 430
8.5% 430
867 430
Jan 430
Mam@@ 430
ius 430
ral 430
上同 430
俱@@ 430
做饭 430
总司令 430
患上 430
搜索引擎 430
服装@@ 430
本表 430
权属 430
权所含 430
正向 430
清关 430
第二十八 430
群众@@ 430
负起 430
选举人 430
.9 429
847 429
903 429
925 429
BA@@ 429
Jorge 429
ouni 429
两国@@ 429
使者 429
僵化 429
凯拉 429
制度性 429
卡巴 429
和谈 429
惨重 429
想象力 429
末期 429
热量 429
睡 429
祖父母 429
祝@@ 429
精密 429
自然遗产 429
虎 429
转至 429
885 428
935 428
CS 428
Franc@@ 428
LV 428
TF 428
ction 428
elo 428
sson 428
人际关系 428
历经 428
封闭式 428
就是说 428
年轻一代 428
心理压力 428
总结报告 428
意向书 428
援助者 428
暴雨 428
未结 428
混杂 428
渔场 428
节减 428
遇难 428
青蒿素 428
842 427
897 427
Der@@ 427
Kom@@ 427
Lav@@ 427
kar 427
no 427
五月 427
他称 427
伤痕 427
公开招标 427
写法 427
加快@@ 427
咨询团 427
土壤退化 427
淹没 427
科在 427
罕 427
荷兰语 427
西印度群 427
费尔 427
转发给 427
远大 427
铸 427
025 426
Bag@@ 426
ations 426
erson 426
ith@@ 426
不安全感 426
个体@@ 426
停战协定 426
几分钟 426
几处 426
剔除 426
普拉@@ 426
水力发电 426
波斯 426
流行性 426
生存权 426
白天 426
芒@@ 426
药草 426
逐 426
避孕@@ 426
那儿 426
间接@@ 426
878 425
888 425
AD 425
Bos@@ 425
wor@@ 425
中其 425
供应@@ 425
保留条款 425
做过 425
分从纳 425
十六条 425
印刷@@ 425
吹@@ 425
和约 425
哨 425
四十 425
国防@@ 425
均匀 425
基准@@ 425
库尔 425
库法 425
开明 425
戴斯 425
日同 425
有理 425
格鲁吉@@ 425
氏@@ 425
海关署 425
激进党 425
王 425
理论@@ 425
监管者 425
空间通信 425
篇章 425
而无须 425
至此 425
船东 425
茶@@ 425
逢 425
1500 424
Beit 424
Bol@@ 424
Carr@@ 424
Lasaf 424
PS@@ 424
avo 424
du 424
eer 424
for@@ 424
pa 424
umba 424
一号 424
下议院 424
乔治亚 424
事实真相 424
人及 424
出其 424
参保 424
各行各业 424
奥拉 424
奥胡斯 424
差值 424
打乱 424
正当权利 424
水库 424
油污 424
火力 424
热能 424
略为 424
第四段 424
花园 424
西蒙 424
1643 423
1933 423
813 423
Abb@@ 423
Att@@ 423
CP.5 423
Mot@@ 423
ava 423
ein@@ 423
ett 423
俘虏 423
发展经济学 423
场外 423
多长时间 423
忽@@ 423
戈尔 423
承担者 423
拉奥 423
招贴画 423
掌权 423
接通 423
睡觉 423
脊髓灰质炎 423
腐化 423
讨价还价 423
证据确凿 423
896 422
Fil@@ 422
Mass@@ 422
上核 422
侵扰 422
元件 422
几段 422
加强@@ 422
反诉 422
救治 422
教法 422
更糟 422
期初余额 422
检查官 422
检查报告 422
榴弹炮 422
环球 422
禁区 422
稍微 422
绝对多数 422
综@@ 422
营救 422
认清 422
软弱 422
轴心 422
部对 422
2022 421
3.10 421
7.62 421
939 421
Ayn 421
iel 421
oz 421
三岁 421
劝@@ 421
勃勃 421
博尔 421
反弹 421
告终 421
失窃 421
婚后 421
年资 421
怨@@ 421
括 421
染 421
波斯湾 421
瞬@@ 421
社保 421
维生 421
绿色革命 421
联非 421
部及 421
阻燃剂 421
频谱 421
135.@@ 420
954 420
ART 420
ICC 420
Kol@@ 420
Rum@@ 420
VA 420
kar@@ 420
临时工 420
务农 420
地理@@ 420
多巴哥 420
害虫 420
巴卡尔 420
恐怖@@ 420
损失@@ 420
月刊 420
查禁 420
此时此刻 420
草原 420
言行 420
雇@@ 420
1.0 419
Iv@@ 419
MIN@@ 419
Ov@@ 419
She@@ 419
UR 419
与世隔绝 419
东盟国家 419
两极分化 419
二条 419
住址 419
佣 419
公设 419
关税@@ 419
决策@@ 419
受惠者 419
向外 419
商业机会 419
地球@@ 419
墓 419
希奥 419
愈@@ 419
抵减 419
招待费 419
泄@@ 419
深入@@ 419
激励机制 419
珠宝 419
监查 419
经销 419
起源于 419
阿莫 419
14.1 418
834 418
856 418
No.@@ 418
Sujud 418
Wil@@ 418
亚西尔 418
养殖业 418
利用效率 418
厨@@ 418
大通 418
宇航员 418
感化 418
救护 418
溯 418
电梯 418
简略 418
索尔 418
经核证 418
补足 418
鉴定人 418
非武装 418
魔@@ 418
017 417
1502 417
958 417
A1 417
L.72 417
一页 417
专设 417
仓促 417
制造厂 417
十三大 417
卡加 417
卡姆 417
发回 417
国非 417
多亿美元 417
恒@@ 417
拟就 417
机器人 417
来犯 417
毁损 417
百分率 417
负担过重 417
货币贬值 417
迈勒 417
长途@@ 417
领受 417
1B 416
889 416
Alf@@ 416
Net@@ 416
wa@@ 416
人才@@ 416
保持良好 416
公平@@ 416
具有活力 416
匿@@ 416
各年 416
周刊 416
平衡@@ 416
泛泛 416
狱 416
知识型 416
萨克 416
设备@@ 416
近一半 416
预先判断 416
颜色 416
马克@@ 416
12.5% 415
5.7% 415
863 415
912 415
Lam@@ 415
vi 415
不利因素 415
以为@@ 415
停泊 415
农作 415
区级 415
国家情报局 415
国已 415
土耳其人 415
外应 415
女警官 415
奸@@ 415
带给 415
时日 415
歇@@ 415
第二十一 415
组对 415
缘@@ 415
苏尔特 415
药房 415
资助者 415
距@@ 415
选入 415
重大责任 415
障碍者 415
非法性 415
2.12 414
人之子 414
仅凭 414
做生意 414
再生资源 414
印度尼西亚共和国 414
地毯 414
塔博 414
天然@@ 414
失明 414
寺 414
延后 414
弱者 414
彻底解决 414
悲剧性 414
时间推移 414
明证 414
杀人罪 414
核化 414
款应 414
沃尔 414
洗劫 414
甚为 414
相互促进 414
第一线 414
自觉 414
详列 414
财 414
越来越少 414
轻而易举 414
达尼 414
近十年 414
马赫 414
015 413
113.@@ 413
MD@@ 413
TO@@ 413
cha 413
世旅 413
东斯拉沃尼亚 413
乔杜里 413
伴 413
兵员 413
冰箱 413
利共和国 413
合物 413
吸食 413
外来@@ 413
尔巴 413
巴拉克 413
帆@@ 413
强暴 413
德士古 413
整体@@ 413
时即 413
有悖 413
束 413
构筑 413
核对表 413
灰色 413
狗 413
穷尽 413
第一行 413
筑@@ 413
类中 413
联邦最高法院 413
董事长 413
订购单 413
达州 413
除以 413
Hil@@ 412
L.70 412
ios 412
二十七 412
伊朗人 412
伴@@ 412
俣 412
初步阶段 412
区议会 412
及本 412
各式各样 412
塔里 412
威尔 412
对核 412
市内 412
常见@@ 412
年届 412
扎尔 412
抓捕 412
数据库系统 412
海合会 412
玻利维亚政府 412
第四期 412
谈判桌 412
趋@@ 412
选取 412
速率 412
2.0 411
Add.15 411
Alvar@@ 411
FA 411
ack 411
aud 411
yo 411
一行 411
产品质量 411
代言人 411
供作 411
偏 411
关乎 411
其案 411
再有 411
坝 411
城镇@@ 411
奢侈品 411
实际@@ 411
小生产者 411
悍@@ 411
护卫 411
掩埋 411
效绩 411
更迭 411
检察员 411
殖@@ 411
澳元 411
牙@@ 411
督@@ 411
禁核试 411
科特 411
肩负着 411
表层 411
询@@ 411
运动@@ 411
1921 410
8.7 410
908 410
CF@@ 410
aro 410
亚马孙 410
保证@@ 410
出租车 410
分公司 410
匪@@ 410
寄送 410
常识 410
弥@@ 410
强烈要求 410
归案 410
恰 410
拉巴 410
有意思 410
未确定 410
林先生 410
核废料 410
正式化 410
毒瘾 410
毕@@ 410
煤气 410
电车 410
看病 410
督促 410
神户 410
租让 410
第三十条 410
自我管理 410
袖手旁观 410
踊跃 410
9.11 409
959 409
Andre@@ 409
GO@@ 409
Joh@@ 409
Sor@@ 409
aldo 409
七届 409
不一 409
不太@@ 409
从来不 409
公安机关 409
冷却 409
布特 409
引起争议 409
拉莫斯 409
推介 409
提供支援 409
晓@@ 409
更深 409
毫@@ 409
湿度 409
狄@@ 409
班加罗尔 409
瓦隆 409
皮革 409
第三十二 409
第二任 409
算作 409
训练营 409
霸@@ 409
CB@@ 408
Som@@ 408
Sub@@ 408
Yusuf 408
ha@@ 408
Á 408
信息库 408
先期 408
匀 408
卡瓦 408
哈佛大学 408
小组@@ 408
就业@@ 408
帐单 408
怕 408
排出 408
条时 408
浴 408
生物质 408
看守所 408
维尔纽斯 408
肘 408
虞 408
警示 408
钱款 408
陈规 408
006 407
979 407
Jon@@ 407
New 407
Vol@@ 407
专项资金 407
亏@@ 407
亮@@ 407
偿@@ 407
化学剂 407
发货 407
变现 407
家庭主妇 407
政务 407
日内 407
时任 407
朱利安 407
校正 407
民事或 407
水池 407
流动@@ 407
渗透到 407
电话线 407
经其 407
计算中心 407
讨@@ 407
试爆 407
超级大国 407
那类 407
Drag@@ 406
George 406
avi 406
eman 406
iko 406
las 406
ui 406
一书 406
俗 406
分类法 406
受到谴责 406
同业 406
地下@@ 406
块@@ 406
妹 406
巴拿马城 406
帝汶 406
延续性 406
捆绑 406
撤职 406
撤除 406
断绝 406
无人机 406
核力量 406
法人资格 406
父权 406
藻 406
贴身 406
赢@@ 406
迄今已有 406
途@@ 406
长效 406
高官 406
7.9% 405
886 405
Bis@@ 405
EP@@ 405
Mart 405
NO 405
PC.1 405
不下 405
不合规定 405
保险费用 405
劳工局 405
名列 405
实践证明 405
宪制 405
幼童 405
惧怕 405
我方 405
整体而言 405
无可争议 405
旧金山 405
最晚 405
每件 405
民航局 405
炭 405
犯罪@@ 405
程度较高 405
美好未来 405
般的 405
蜂@@ 405
记分卡 405
贫困@@ 405
过程中将 405
重新配置 405
需对 405
892 404
EM 404
Naz@@ 404
PBC 404
Salih 404
Sham@@ 404
健康@@ 404
先进@@ 404
动植物种 404
哈利 404
天赋 404
悉尼 404
斯省 404
水电费 404
泡 404
泡@@ 404
烟雾 404
环境友好 404
生物群 404
绑架@@ 404
结业 404
能源消耗 404
脂肪 404
膨胀 404
账龄 404
跟@@ 404
面包 404
频发 404
116.@@ 403
83.@@ 403
Mays 403
Salim 403
anz@@ 403
enb@@ 403
yt@@ 403
三所列 403
举止 403
之高 403
保留区 403
关系紧张 403
军事手段 403
函文 403
分明 403
办事机构 403
北极@@ 403
变本加厉 403
司应 403
审判决 403
开审 403
引领 403
德南 403
拜科努尔 403
旅程 403
无耻 403
未亡 403
来之不易 403
棍@@ 403
法属波利尼西亚 403
海龟 403
独立自主 403
电子邮箱 403
疯狂 403
症@@ 403
缩略语 403
自首 403
舱@@ 403
证券@@ 403
轻度 403
重新加入 403
重点@@ 403
3235 402
7.8 402
872 402
957 402
Lotus 402
Pedro 402
adh@@ 402
乌尔 402
二十三 402
人受 402
人来 402
偏倚 402
北区 402
南乔治亚岛 402
右 402
和县 402
囚徒 402
多久 402
强加于人 402
拉斯@@ 402
政治纲领 402
春天 402
权发 402
格里@@ 402
波兹南 402
洛夫 402
清洁@@ 402
结关 402
肩@@ 402
获奖 402
该书 402
该村 402
身体状况 402
追索 402
透明化 402
995 401
Hou@@ 401
Ras@@ 401
mez 401
一般@@ 401
国可 401
基本保障 401
宪@@ 401
害者 401
宽限期 401
得分 401
息贷款 401
所生 401
操作系统 401
河州 401
相似之处 401
统称 401
莱尔 401
藉以 401
语种 401
重力 401
长期趋势 401
GEN@@ 400
ake 400
ouk 400
ys@@ 400
乙醇 400
付诸@@ 400
住院@@ 400
农林业 400
宿 400
尸 400
尼亚州 400
应答 400
拘@@ 400
旁边 400
氯仿 400
深知 400
烦@@ 400
自治市 400
身着 400
雄心 400
5.8% 399
INF.2 399
Techn@@ 399
不知@@ 399
不能@@ 399
二至 399
代理@@ 399
伐@@ 399
军装 399
副作用 399
台湾@@ 399
委托书 399
安集延 399
岸外 399
庇护权 399
必备 399
戏@@ 399
教学质量 399
普惠性 399
真实情况 399
苯@@ 399
贝里 399
贸易额 399
轴@@ 399
阻截 399
陌@@ 399
频频 399
香农 399
高中@@ 399
9.6 398
Gut@@ 398
oft 398
三架 398
义务性 398
事务署 398
克鲁@@ 398
叫做 398
图拉 398
地拉那 398
尊贵 398
尼拉 398
德河 398
悔 398
掌 398
方便@@ 398
明令禁止 398
段应 398
殿 398
法语区 398
演变成 398
特邀 398
看上去 398
绳@@ 398
致癌@@ 398
高棉 398
6.3% 397
936 397
942 397
956 397
DM 397
Ek@@ 397
Mark@@ 397
PM@@ 397
SR.1 397
dam 397
一刻 397
一堂 397
二十六条 397
令人欣慰 397
即告 397
呼吸系统 397
增益 397
屏幕 397
山谷 397
库纳 397
应变 397
文和 397
文官 397
汇率变动 397
游牧民 397
游轮 397
漏油 397
突击@@ 397
蚁 397
诉请 397
赚钱 397
钦佩 397
需为 397
预算@@ 397
马车 397
5.4% 396
Alm@@ 396
Camp@@ 396
N2O 396
Nz@@ 396
OP@@ 396
be 396
ets 396
ibi 396
不利条件 396
两难 396
亿加元 396
分门别类 396
劝 396
加工厂 396
十二年 396
厉@@ 396
变迁 396
商务部 396
国际局势 396
好地解决 396
尔曼 396
广泛应用 396
波兰政府 396
洁 396
由此可见 396
种植者 396
经验@@ 396
股票市场 396
詹@@ 396
认出 396
金融业 396
销售商 396
需非 396
Eduardo 395
General 395
Inter@@ 395
Rev.6 395
Shal@@ 395
ido 395
oe 395
乐施会 395
交通部 395
伤口 395
分散化 395
副局长 395
厂@@ 395
奥斯 395
川@@ 395
工序 395
应仅 395
技术指标 395
播送 395
曼苏尔 395
永久化 395
滚@@ 395
燃 395
病毒@@ 395
研究部 395
禁核 395
穆塞韦尼 395
第三十四 395
耗竭 395
胸@@ 395
酌定 395
防护@@ 395
阿拉伯湾 395
937 394
964 394
CONF.2000 394
Jos@@ 394
Rub@@ 394
Schilling 394
下为 394
两支 394
两艘 394
偷走 394
军保 394
击退 394
募捐 394
印章 394
实际汇率 394
尼共 394
年气 394
恐怕 394
慰 394
技术水平 394
朝鲜政府 394
柳@@ 394
流利 394
瓦尔@@ 394
瘤 394
积极态度 394
管理体制 394
绝育手术 394
自治法 394
自足 394
高科技 394
4.11 393
Barb@@ 393
Tyre 393
evich 393
上瘾 393
不予@@ 393
不断@@ 393
不相干 393
专家级 393
个人信息 393
中所含 393
人性化 393
修补 393
六十 393
六点 393
国民待遇 393
基本知识 393
大幅度降低 393
巴士 393
度量 393
抑或 393
整年 393
新加坡政府 393
旋风式 393
朝鲜人 393
枝 393
砍@@ 393
社会性 393
精确度 393
衫 393
进口品 393
重新制定 393
除雷 393
随行 393
5.2% 392
CONF.183 392
Ga@@ 392
交流@@ 392
介质 392
再也不能 392
吉尔 392
垄断@@ 392
外语 392
大坝 392
奋 392
奥巴桑乔 392
工业统计 392
德里@@ 392
操作@@ 392
欣然 392
淡@@ 392
申请@@ 392
电力公司 392
电源 392
畸形 392
监察官 392
研订 392
私人企业 392
空调@@ 392
缝纫 392
肖@@ 392
舞 392
蓝色 392
这本 392
酒吧 392
重置 392
阿斯@@ 392
高峰期 392
11A.@@ 391
34@@ 391
907 391
951 391
IP 391
RD 391
ayr 391
rin 391
人寿保险 391
功能@@ 391
哈米德 391
巴布亚 391
应自 391
归属于 391
愚@@ 391
报到 391
无线@@ 391
机动性 391
松散 391
波尔 391
浪费@@ 391
港务局 391
煽动性 391
税额 391
米拉 391
纪尧姆 391
缝 391
苏瓦 391
螨 391
语言障碍 391
迪克 391
道德规范 391
金融公司 391
马塞@@ 391
981 390
Bul@@ 390
D2 390
GC.9 390
Nam@@ 390
POPRC.@@ 390
emi 390
pez 390
res@@ 390
中西部 390
交流会 390
人口减少 390
代为 390
信用@@ 390
分校 390
卫生设备 390
压倒多数 390
妇女部 390
官僚主义 390
拐@@ 390
摈弃 390
收押 390
散装 390
每况愈下 390
海山 390
登记法 390
私有财产 390
系统分析 390
维修服务 390
联谊会 390
规范化 390
该岛 390
调离 390
资料汇编 390
部下 390
1840 389
923 389
AWG 389
Lub@@ 389
Notes 389
Torres 389
Wh@@ 389
Ze@@ 389
个人电脑 389
二者之间 389
产值 389
人民检察院 389
供货商 389
历任 389
哈迪 389
商营 389
圆 389
基斯 389
塔伊 389
多斯桑托斯 389
安插 389
捐给 389
文方 389
旅游者 389
消 389
省内 389
福利@@ 389
空对地 389
经费不足 389
编造 389
誉@@ 389
谢贝利 389
阿尔弗雷 389
雷克 389
雷瓦尔 389
Add.14 388
dar 388
世界杯 388
中枢 388
主持@@ 388
人口构成 388
伞式 388
使受 388
克里斯 388
全纳 388
关贸总协定 388
减速 388
圈@@ 388
头目 388
夷@@ 388
寥寥无几 388
将作 388
布拉迪斯拉发 388
帽 388
或仅 388
朴@@ 388
深造 388
火星 388
直截了当 388
网关 388
请批 388
账下 388
贷款人 388
里特 388
防火墙 388
阻 388
898 387
943 387
IDB.29 387
ahi 387
anb@@ 387
quez 387
不在此限 387
业余 387
具体条件 387
厌@@ 387
吨位 387
失控 387
女孩子 387
希德 387
总的@@ 387
投资收益 387
援救 387
收发 387
杨@@ 387
消费水平 387
清醒 387
特斯 387
环境规划 387
精通 387
紧张状况 387
肝脏 387
超国家 387
轻伤 387
银行行长 387
防御@@ 387
降幅 387
非法手段 387
饮用 387
996 386
Aj@@ 386
Ram 386
nchez 386
ota 386
rom@@ 386
二十二 386
内审 386
发生@@ 386
史密斯 386
基建 386
基点 386
安理会常任理事国 386
已过 386
师生 386
帕尔 386
无核 386
毫不犹豫 386
消化 386
灌 386
理疗 386
瓦萨 386
秋天 386
绍@@ 386
诱因 386
课程表 386
豪尔赫 386
选派 386
陪@@ 386
Hern 385
IDB.40 385
Merc@@ 385
Stat@@ 385
ist 385
亿多美元 385
假冒 385
入帐 385
初衷 385
十五条 385
合谋 385
喷口 385
外科手术 385
寄给 385
布罗克 385
年度计划 385
强烈抗议 385
技工 385
技术学校 385
提纲 385
斯蒂@@ 385
最多为 385
有所作为 385
流离 385
盗用 385
租借 385
第十个 385
育空 385
被扣 385
骆驼 385
8.3% 384
877 384
Busayyah 384
CONF.2005 384
Will@@ 384
丁基 384
不起作用 384
专才 384
乌尔德 384
亨@@ 384
休息@@ 384
克伦@@ 384
冗余 384
减慢 384
历程 384
去向 384
圣佩德罗 384
实收 384
尼古拉 384
成文 384
战前 384
户籍 384
最坏 384
月薪 384
有限责任 384
海关人员 384
海道 384
紧密@@ 384
结局 384
表演@@ 384
详情请 384
软件包 384
这块 384
连接@@ 384
页@@ 384
1534 383
2024 383
831 383
Isl@@ 383
Jacqu@@ 383
Nak@@ 383
Pre@@ 383
iw@@ 383
万平方米 383
上方 383
举目无亲 383
儿女 383
内在联系 383
出版商 383
卡拉奇 383
反应@@ 383
司对 383
合宪性 383
和睦相处 383
塞尔维亚人 383
揽 383
新纳粹 383
民间@@ 383
波兰@@ 383
满足需要 383
澳大利亚联邦 383
登陆 383
祸@@ 383
管理模式 383
联结 383
英亩 383
资金@@ 383
重任 383
鞭@@ 383
饶有兴趣 383
876 382
BA 382
Miguel 382
asa 382
不加区分 382
个市 382
到庭 382
和计 382
咨@@ 382
大额 382
对话会 382
得起 382
执行期 382
提前退休 382
新南威尔士州 382
有效@@ 382
特雷@@ 382
程序处理 382
绵@@ 382
这片 382
遣返回国 382
预先@@ 382
983 381
MX 381
car 381
ep 381
rit@@ 381
一周年 381
不见 381
伊格尔 381
体面地 381
修课 381
克里斯蒂娜 381
农业生产者 381
受到@@ 381
外向 381
嫖客 381
封存 381
康复@@ 381
必 381
恩斯 381
所付 381
提款 381
摄氏度 381
敞@@ 381
无一 381
明细表 381
服务商 381
生殖@@ 381
花钱 381
莉 381
行业协会 381
贵重 381
越高 381
首要地位 381
13.1 380
873 380
948 380
998 380
GC.8 380
WA 380
ive 380
不在此列 380
临界值 380
二零零@@ 380
传教 380
克里斯@@ 380
具体意见 380
冻@@ 380
创始@@ 380
即将来临 380
卸货 380
增加@@ 380
寄予 380
尔克 380
屈 380
心灵 380
总成本 380
情况严重 380
政治形势 380
权时 380
权法 380
比如说 380
环境保护局 380
珍贵 380
甲醚 380
登船 380
百分之 380
睹 380
窃@@ 380
第三卷 380
腹@@ 380
赦@@ 380
7.9 379
Ismail 379
MAR@@ 379
Meh@@ 379
SB@@ 379
Tavares 379
abo 379
eth@@ 379
人时 379
估@@ 379
侯@@ 379
入世 379
到期日 379
卯 379
厄瓜多尔人 379
坠@@ 379
总需求 379
手里 379
村子 379
民族自决权 379
氯碱 379
水器 379
焚@@ 379
疫@@ 379
盲@@ 379
离异 379
第三名 379
莫尔 379
责任区 379
迭@@ 379
雌@@ 379
需由 379
5.6% 378
941 378
Adam 378
HA 378
HO 378
Kad@@ 378
世纪末 378
任务说明 378
伞@@ 378
俾格米 378
养家 378
前些年 378
剖腹产 378
合作开发 378
同系物 378
呼 378
城乡@@ 378
塔尔@@ 378
实践者 378
属人法 378
忧 378
拆卸 378
拘束 378
授权书 378
晶 378
楷模 378
渡过 378
牢固@@ 378
管区 378
裁断 378
迥@@ 378
里程碑式 378
非法@@ 378
飞去 378
高压 378
938 377
Indust@@ 377
Leg@@ 377
ND 377
Yah@@ 377
air 377
fo 377
lu 377
人死于 377
储存@@ 377
击败 377
圣萨尔瓦多 377
意指 377
成品 377
拾 377
敞开 377
机关枪 377
极差 377
欺诈性 377
神经@@ 377
第三十三 377
贫富差距 377
贸易部长 377
重水 377
间谍@@ 377
阿皮亚 377
限用 377
韧@@ 377
预设 377
5.1% 376
976 376
IDB.33 376
Intern@@ 376
Tol@@ 376
Tou@@ 376
oza 376
丹麦克朗 376
佩德罗 376
全岛 376
全文如下 376
农场主 376
北方@@ 376
危 376
咨询员 376
多重国籍 376
带上 376
投资总额 376
投资法 376
新来文 376
无罪释放 376
期批款 376
渺茫 376
炉灶 376
熟练工人 376
爱德华多 376
瓦哈卡 376
社会主义共和国 376
粪便 376
续签 376
要旨 376
详尽资料 376
贞@@ 376
重述 376
降水 376
饱和 376
4B 375
Alexander 375
Comp@@ 375
Gro@@ 375
Mp@@ 375
Rut@@ 375
ange 375
一席之地 375
两座 375
书店 375
会商 375
何在 375
停靠 375
僵硬 375
光谱 375
动性 375
区域规划 375
各种渠道 375
团圆 375
夜间工作 375
安全可靠 375
插 375
畅@@ 375
白化病 375
监督程序 375
砷 375
第二副 375
联合政府 375
胡 375
诗@@ 375
2127 374
All@@ 374
DC1 374
Dir@@ 374
ario 374
三世 374
严禁 374
亚洲@@ 374
以上者 374
优惠@@ 374
保险单 374
养分 374
参谋部 374
受性 374
另一家 374
启示 374
喝@@ 374
夸 374
微重力 374
情况表 374
愈来愈 374
操作者 374
改变@@ 374
救济@@ 374
毋庸置疑 374
特惠 374
猜疑 374
界碑 374
百草 374
苯并呋喃 374
覆 374
象征意义 374
贿@@ 374
踏@@ 374
问道 374
马蒂 374
931 373
Lah@@ 373
nik 373
上下文 373
先后顺序 373
卫生署 373
吃惊 373
国际交流 373
大学校长 373
巴伊 373
异地 373
引证 373
忆@@ 373
抢救 373
政的 373
数百个 373
段作 373
水位 373
沙漠化 373
百日咳 373
经货联盟 373
统计表 373
缠 373
薪级表 373
衷@@ 373
邀请书 373
集体利益 373
风险@@ 373
977 372
SR.4 372
ique 372
izi 372
乌维拉 372
[...]
