the 25992479
of 16949096
, 16063959
and 13026780
. 12212839
to 10109533
in 7454148
for 4025686
a 3993423
on 3572384
that 3282847
) 3226102
( 3217033
The 2796107
by 2240135
with 2178902
/ 2003618
as 1988267
is 1754795
be 1720891
its 1430374
; 1398914
United 1261783
was 1242601
at 1173202
or 1117670
from 1103896
are 1102979
: 1082984
Nations 1067237
&quot; 1039515
an 949306
which 924074
their 893658
Committee 869759
&apos;s 864911
In 841862
not 812856
has 811583
have 805633
States 791085
it 774456
international 755407
all 740544
also 719357
been 707392
had 705238
this 667005
were 656520
development 651019
other 632376
rights 631776
countries 622726
will 600224
should 585386
report 559832
Council 557898
including 549107
women 543461
A 543000
would 530544
human 499597
support 492474
such 491124
national 489671
resolution 485441
under 481470
State 449989
information 448545
1 448276
work 444974
General 428010
implementation 423562
Assembly 419037
It 414666
Government 405243
Convention 397763
activities 382452
Commission 372805
per 367208
made 363228
session 363178
against 354209
International 348093
through 344924
2 343623
law 339158
into 335399
more 333704
between 333502
those 330111
Secretary-General 320842
measures 316957
system 308660
security 307223
country 306198
organizations 304616
cent 304212
children 298069
efforts 296312
well 295299
programme 295119
new 294013
meeting 293894
cooperation 293357
$ 289203
resources 287550
3 283230
Republic 281661
regional 280224
Conference 275817
draft 274578
Development 273927
one 271944
any 271353
Rights 271283
number 270562
I 270123
issues 266988
ensure 265949
provide 263783
Security 262294
they 261639
services 261348
- 260149
Group 259489
assistance 259078
out 256288
financial 255882
process 254876
his 253294
these 250320
social 249809
order 249715
Mr. 248402
paragraph 247689
economic 247515
use 246723
provided 245347
Office 241659
article 240324
management 240025
further 239069
programmes 238560
members 236876
may 234988
Human 232898
developing 232547
areas 231393
Special 230781
4 230005
need 229114
within 225411
5 225100
party 225000
could 223727
public 223488
period 222736
particular 222091
who 221472
relevant 220557
education 220159
persons 219350
level 218234
staff 218063
health 217641
there 217327
during 216839
right 216456
This 216436
people 216233
two 213452
held 211643
but 211611
10 210476
review 209274
training 209210
some 207725
b 207569
can 206819
no 206507
legal 205486
than 204879
protection 202048
adopted 201192
time 200824
regard 199696
only 199235
6 196626
years 195775
policy 194936
political 193541
access 192669
action 192484
must 192300
take 192270
them 192041
decision 186159
recommendations 184588
parties 184080
At 182757
December 181888
As 181427
being 180358
continue 180256
related 179764
Programme 179689
following 179602
community 179091
taken 178240
7 177732
over 177395
effective 176543
Member 176475
violence 175693
among 175394
Organization 174301
situation 173915
first 173438
respect 173428
we 173265
accordance 173186
established 172749
reports 171807
progress 170887
global 170225
about 168784
role 168578
President 167989
technical 166415
both 166312
important 165918
special 164823
National 164550
part 164220
15 163097
Parties 162376
12 162350
budget 161622
Africa 159293
view 158778
2005 158020
Board 157542
working 157514
cases 157472
most 157214
institutions 156154
8 155107
June 154926
groups 154654
our 154502
shall 154338
year 154298
basis 153379
up 153332
million 153319
peace 153025
where 153017
agenda 152956
so 152758
gender 152686
policies 152285
30 150763
We 150711
capacity 149299
2006 148921
11 148889
present 148730
African 148648
2008 148621
appropriate 147193
9 146530
2010 145941
necessary 145834
2009 145516
c 144069
14 144022
World 144006
data 143659
if 143514
local 143097
meetings 142801
framework 142566
noted 142519
2004 141993
many 141927
world 141925
&apos; 141705
include 139899
increase 139782
On 139484
same 139438
provisions 139369
Social 138988
Economic 138920
set 138701
he 138263
proposed 138144
20 137833
To 137500
2007 137282
based 136814
needs 136509
possible 136137
developed 135724
13 135462
before 135385
general 135352
since 135319
society 135069
Working 134850
July 134117
sustainable 134080
consideration 133743
d 133613
Court 133539
make 133139
case 133130
2011 132550
sector 132187
three 131982
area 131201
issue 130356
participation 130006
available 129719
address 129639
concerned 129614
region 129611
full 129549
see 129457
promote 129428
18 129366
2000 129077
Fund 129066
continued 128874
2003 128773
group 128543
project 128472
trade 128264
when 128221
without 127781
nuclear 127610
particularly 127451
specific 127397
Women 126999
considered 126940
account 126893
16 126512
levels 126457
European 125788
2002 125699
civil 124153
poverty 123652
delegation 123539
importance 123479
humanitarian 123118
addition 122545
while 122500
required 122078
authorities 121938
bodies 121733
requirements 121445
Action 120857
said 120736
plan 120650
2012 120521
submitted 120377
various 120092
Secretariat 119610
item 119589
-- 119321
current 118930
Department 118913
projects 118892
military 118559
2001 118320
used 118246
field 118199
operations 117984
upon 117943
agencies 117727
Union 117677
place 117532
each 116688
17 115646
31 115416
child 114717
additional 114606
Mission 114476
September 113920
requested 113147
19 113001
context 112691
Law 112277
However 112139
1999 111933
reporting 111914
Governments 111575
conflict 111424
approach 111284
October 111054
end 110872
weapons 110825
May 110823
November 110776
impact 110652
document 110651
population 110122
agreed 109277
Rapporteur 109086
towards 108521
future 108122
police 108081
mandate 107805
21 107649
New 107345
Protocol 107331
establishment 107178
monitoring 106794
note 106695
representatives 106553
legislation 106482
resolutions 106296
March 106059
discrimination 106003
total 105706
Act 105548
conditions 105146
do 104640
25 104276
private 104198
&#91; 103601
contained 103439
control 103300
organization 103274
Affairs 103262
systems 103126
increased 103000
concern 102816
Article 102788
For 102144
1998 102117
after 102089
s 102074
domestic 101834
member 101690
justice 101552
mechanisms 101529
major 101468
status 101024
provision 101016
&#93; 100957
comprehensive 100677
given 100672
attention 100534
22 100355
change 100205
coordination 99993
practices 99660
Ministry 99557
request 99482
2013 99193
existing 99168
23 98811
relating 98568
expressed 98142
Declaration 98049
personnel 97890
costs 97850
No. 97745
January 97733
strengthen 97620
24 97593
included 97356
implement 97073
her 96955
April 96698
representative 96583
concerning 96536
procedures 96486
received 96461
standards 96230
technology 95645
challenges 95570
armed 95454
result 95328
therefore 94945
force 94908
especially 94620
consider 94295
He 93153
improve 92941
indigenous 92833
There 92563
criminal 92080
means 91890
regarding 91827
key 91798
whether 91408
Executive 91317
terms 90835
addressed 90780
entitled 90666
principles 90511
UNDP 90487
fully 90426
responsibility 90398
statement 90245
providing 90127
i 90051
response 90046
rules 89940
family 89845
obligations 89673
environment 89658
above 89340
e 89254
funds 89148
Advisory 89113
adoption 88987
reported 88873
victims 88591
risk 87697
environmental 87662
Arab 87065
initiatives 87015
26 86918
strengthening 86904
provides 86729
second 86544
way 86402
assessment 86136
para 85963
II 85872
secretariat 85727
equality 85590
service 85507
different 85258
Report 85040
E 84700
now 84433
Palestinian 84413
care 84331
agreement 83977
several 83906
South 83829
strategy 83598
contributions 83543
27 83506
did 83474
due 83362
peacekeeping 83093
28 82944
significant 82876
taking 82722
develop 82683
amount 82569
decisions 82259
results 82143
trafficking 82060
lack 81841
men 81783
commitment 81559
subject 81327
employment 81180
prevention 80996
These 80985
mission 80953
With 80891
example 80516
missions 80413
High 80298
planning 80034
HIV 80029
Service 80014
rule 79970
funding 79939
question 79658
high 79549
dialogue 79273
actions 79124
food 78720
life 78715
Representative 78691
sexual 78577
water 78068
recent 77765
February 77649
disarmament 77597
consultations 77490
partners 77477
annex 77433
biennium 77416
reform 77366
how 77311
because 77225
behalf 77147
29 76804
August 76724
While 76557
application 76319
establish 76295
focus 76248
government 76063
common 75851
main 75807
small 75766
recommended 75751
still 75727
They 75708
violations 75668
very 75591
S 75517
organized 75516
supported 74940
regular 74877
operational 74825
peoples 74704
growth 74691
decided 74521
fact 74513
cultural 74404
practice 74099
strategies 74009
research 73766
administrative 73743
promotion 73575
reduction 73442
priority 73295
Centre 73280
least 73059
annual 72495
rate 72476
able 72344
requests 72297
age 72293
implementing 72289
strategic 72266
does 72214
land 72191
non-governmental 72094
communities 72088
America 72025
terrorism 71845
production 71767
All 71765
laws 71661
girls 71577
help 71548
Ms. 71447
needed 71131
crime 71107
forces 71039
Millennium 71026
-@@ 70790
implemented 70704
author 70695
promoting 70466
notes 70346
person 70346
however 70259
acts 70246
agreements 70019
aimed 69849
Israel 69729
AIDS 69728
treaty 69494
treatment 69451
prevent 69381
performance 69368
joint 69321
offices 69214
documents 69207
problems 69204
committed 69015
1997 68926
space 68879
posts 68849
Iraq 68801
evaluation 68787
arms 68750
Information 68721
four 68700
Panel 68658
investment 68470
equipment 68445
responsible 68443
Division 68381
instruments 68085
achieve 67962
analysis 67809
plans 67757
objectives 67714
own 67677
facilitate 67664
60 67564
section 67545
procedure 67128
approved 67096
previous 67059
five 67014
informed 66844
involved 66652
ensuring 66203
individual 66174
Tribunal 66168
Covenant 66109
recommendation 66092
enhance 66072
Democratic 66064
like 65953
adequate 65781
China 65691
my 65659
During 65550
Global 65545
position 65534
rural 65530
already 65516
opportunities 65482
processes 65440
discussion 65422
affected 65398
might 65256
energy 65143
third 65104
forms 64976
Central 64963
stated 64931
steps 64861
carried 64747
statements 64704
expected 64699
’ 64691
better 64523
Commissioner 64478
quality 64394
guidelines 64240
Plan 64181
good 64012
potential 63981
greater 63859
experts 63774
knowledge 63635
office 63631
property 63614
matters 63600
meet 63543
principle 63428
facilities 63423
undertaken 63356
together 63352
best 63216
climate 63211
Treaty 63144
50 63127
communication 63124
Minister 63099
East 63039
called 62941
certain 62891
mechanism 62742
basic 62737
assist 62626
serious 62523
proposals 62239
foreign 61861
essential 61813
cost 61728
arrangements 61684
Criminal 61678
awareness 61550
Support 61495
currently 61486
workers 61448
business 61423
goals 61406
labour 61359
limited 61331
took 61298
S@@ 61296
Permanent 61268
what 61193
“ 61143
2014 61125
income 61123
financing 61093
official 61043
issued 61037
understanding 60845
conduct 60812
form 60793
Management 60739
even 60660
equal 60544
independent 60516
conducted 60490
dated 60365
Bank 60339
individuals 60255
recommends 60179
living 60169
early 60163
benefits 60034
un@@ 59931
study 59912
line 59904
purpose 59759
Code 59688
contribute 59676
matter 59473
increasing 59440
officials 59430
past 59278
interest 59168
clear 59140
40 59092
Director 58901
proposal 58810
free 58724
de 58639
Forum 58632
integrated 58632
entities 58573
Asia 58566
protect 58554
market 58499
Justice 58392
non-@@ 58310
C 58229
Review 58168
recognized 58165
building 58135
prepared 58133
Federation 58101
date 57950
commitments 57924
functions 57876
pursuant 57772
identified 57771
crimes 57703
presented 57570
concerns 57497
light 57493
crisis 57458
overall 57447
detention 57441
re@@ 57413
Sudan 57288
articles 57235
exchange 57195
nature 57025
negotiations 56915
become 56728
authority 56677
Geneva 56559
infrastructure 56505
B@@ 56485
communications 56469
aspects 56410
manner 56211
disabilities 56115
thus 56039
UNICEF 55901
often 55861
delegations 55833
That 55765
natural 55641
Russian 55625
Other 55506
governance 55459
Trade 55350
Meeting 55332
transfer 55215
follow-up 55044
contribution 55041
freedom 54951
below 54794
institutional 54640
sessions 54604
remains 54564
enforcement 54444
stakeholders 54438
large 54434
list 54410
Chairman 54340
Implementation 54308
opportunity 54260
Kingdom 54180
preparation 54111
referred 54072
Cooperation 54036
III 53940
A@@ 53850
fundamental 53709
Israeli 53707
primary 53610
another 53591
medical 53590
judicial 53589
UNCTAD 53576
multilateral 53471
school 53455
Regional 53438
resource 53372
last 53350
Unit 53337
reference 53334
compliance 53333
give 53333
changes 53119
next 53101
% 53032
ongoing 52990
others 52917
refugees 52901
centres 52782
1996 52688
outcome 52685
media 52630
capacity-building 52553
One 52513
yet 52507
inter 52454
57 52450
evidence 52443
” 52408
Constitution 52339
indicated 52197
regions 52175
found 52083
exercise 52046
internal 52021
connection 52019
problem 52019
alia 51986
Charter 51890
court 51861
months 51835
integration 51831
remain 51799
making 51770
Goals 51762
effect 51726
reduce 51674
value 51433
An 51352
submit 51125
experience 51111
officers 50996
informal 50953
welcomed 50834
achieved 50790
substantive 50651
every 50592
Summit 50474
paragraphs 50414
effectively 50365
claims 50357
Protection 50198
indicators 50161
Health 50043
families 49935
body 49788
conference 49759
59 49726
direct 49655
guidance 49640
revised 49571
forward 49567
discussions 49441
participate 49395
55 49355
enable 49304
improving 49300
views 49290
58 49271
Institute 49237
sectors 49207
days 49125
collaboration 49102
65 49074
participants 49049
Agreement 49040
positive 48860
six 48828
Public 48793
G@@ 48776
safety 48698
objective 48678
territory 48647
higher 48640
critical 48628
priorities 48615
purposes 48599
combat 48584
D@@ 48521
initiative 48473
62 48364
proceedings 48349
61 48311
administration 48297
UNEP 48109
active 47997
having 47994
N@@ 47838
B 47829
expert 47805
Since 47790
Crime 47660
rates 47643
Congo 47589
items 47476
act 47475
led 47459
final 47398
64 47383
young 47360
Agency 47234
she 47224
regulations 47197
Some 47155
throughout 47153
situations 47140
civilian 47122
Canada 47121
us 47108
wish 47085
addressing 47009
effects 46985
35 46973
effectiveness 46915
Japan 46908
elements 46751
legislative 46677
abuse 46617
point 46591
text 46591
L@@ 46566
schools 46551
vulnerable 46529
53 46431
His 46422
less 46371
63 46351
allow 46304
material 46264
intergovernmental 46262
former 46091
1995 46090
estimated 46061
UNHCR 45999
torture 45968
benefit 45957
People 45944
achieving 45928
economy 45720
52 45700
assets 45664
P@@ 45652
Children 45647
York 45647
Section 45481
* 45435
54 45435
Europe 45382
using 45284
sources 45274
Services 45261
put 45199
universal 45146
32 45120
T@@ 45056
vote 44973
circumstances 44968
range 44898
drug 44856
state 44855
technologies 44849
until 44798
Political 44790
includes 44776
introduced 44713
continues 44691
hours 44644
course 44630
Furthermore 44625
effort 44583
delivery 44549
According 44467
34 44277
require 44264
scope 44262
lead 44231
term 44149
56 44042
positions 43925
supporting 43860
33 43823
relation 43794
periodic 43788
? 43707
materials 43645
responsibilities 43627
transport 43511
identify 43477
activity 43449
elections 43439
questions 43366
Force 43311
f 43298
Such 43171
ways 43098
o 43073
Environment 42992
K@@ 42961
associated 42944
Civil 42917
prior 42900
improved 42823
share 42823
F@@ 42819
then 42790
table 42787
developments 42782
— 42769
C@@ 42693
partnership 42648
done 42628
you 42597
maintenance 42567
M@@ 42496
66 42423
poor 42355
cannot 42251
Caribbean 42174
Education 42138
death 42126
establishing 42034
post 41997
E@@ 41975
Joint 41921
If 41865
return 41855
comments 41840
Cuba 41804
actors 41798
Islamic 41715
continuing 41620
close 41615
terrorist 41587
claim 41552
8@@ 41543
encouraged 41466
Child 41430
in@@ 41308
Foreign 41258
transition 41248
letter 41198
Afghanistan 41126
voluntary 41096
team 41066
travel 41049
36 41035
Headquarters 40991
methods 40988
treaties 40907
accountability 40872
Korea 40845
itself 40826
events 40819
violation 40798
aid 40778
extent 40759
Syrian 40731
operation 40714
obligation 40709
interests 40694
H@@ 40583
peaceful 40577
day 40557
39 40556
Pacific 40556
according 40458
applied 40455
encourage 40414
displaced 40407
call 40401
consultation 40394
37 40378
g 40376
investigation 40370
capital 40239
bring 40180
war 40124
courts 40071
45 40038
Also 39934
India 39933
specialized 39921
jurisdiction 39884
strong 39876
Optional 39873
him 39851
partnerships 39825
Persons 39820
core 39819
religious 39750
open 39671
balance 39623
housing 39615
creation 39395
Disarmament 39301
physical 39253
completed 39212
Sustainable 39115
citizens 39070
debt 39005
far 38923
UNFPA 38903
met 38896
whose 38878
remained 38864
67 38844
compensation 38831
power 38797
procurement 38778
adopt 38756
products 38647
relations 38571
Discrimination 38536
Peace 38455
much 38432
directly 38429
calls 38399
applicable 38388
51 38364
appreciation 38343
apply 38276
create 38269
goods 38172
urban 38126
38 38102
central 38079
k@@ 37977
Administrative 37965
judges 37938
long-term 37937
efficiency 37919
initial 37912
educational 37896
7@@ 37888
threat 37818
similar 37806
reflected 37755
plenary 37712
play 37704
focused 37669
capacities 37649
consensus 37587
Countries 37508
contract 37476
Annex 37433
structure 37418
She 37347
submission 37033
provisional 37030
youth 37026
practical 37005
receive 36999
distribution 36996
R@@ 36966
economies 36965
points 36921
Prevention 36910
emergency 36879
stability 36874
Mexico 36835
bilateral 36832
paid 36827
build 36825
achievement 36824
concluded 36799
female 36758
NGOs 36729
across 36716
factors 36673
Latin 36568
around 36538
pay 36535
debate 36519
Under 36436
expenditure 36425
Chair 36407
long 36386
difficult 36373
recovery 36371
detailed 36337
destruction 36307
Agenda 36251
regime 36251
respective 36215
themselves 36188
language 36183
41 36167
fund 36140
discussed 36066
invited 36048
9@@ 36046
statistics 36043
whole 36038
advice 36019
resulting 35984
great 35977
outside 35958
leadership 35950
exploitation 35948
external 35936
48 35916
implications 35892
conferences 35864
consistent 35775
s@@ 35769
approaches 35764
rather 35758
signed 35681
Coordination 35573
monitor 35562
68 35523
standard 35479
just 35450
IV 35447
UNIDO 35392
Party 35375
Federal 35362
Administration 35337
Iran 35316
majority 35279
Vienna 35261
A. 35236
raised 35198
follows 35183
average 35154
brought 35133
Although 35124
42 35114
By 35112
France 35101
criteria 35100
states 35057
temporary 35053
illegal 35047
100 35025
sufficient 34996
subregional 34989
units 34901
ethnic 34900
challenge 34888
traditional 34874
although 34842
Moreover 34821
44 34778
audit 34770
involving 34764
observations 34737
workshops 34732
opinion 34728
requires 34655
suggested 34602
leaders 34598
49 34563
either 34561
ability 34554
supply 34547
O@@ 34535
scientific 34512
Operations 34480
Police 34421
construction 34384
beyond 34378
transparency 34349
maintain 34301
timely 34292
Labour 34258
successful 34229
illicit 34225
er 34214
Brazil 34108
aim 34104
goal 34072
complete 34036
decision-making 34024
tools 34009
compared 33971
permanent 33949
seek 33896
Australia 33893
covered 33887
reached 33880
stressed 33856
es 33813
studies 33771
Lebanon 33741
46 33717
low 33697
B. 33595
network 33568
launched 33560
loss 33558
donors 33546
W@@ 33536
serve 33519
West 33489
settlement 33421
First 33417
parts 33395
culture 33290
designed 33256
few 33225
deployment 33214
43 33126
reasons 33086
source 33081
owing 33007
assessments 32998
civilians 32978
billion 32975
Legal 32965
sanctions 32962
demand 32960
agricultural 32956
THE 32911
47 32910
1994 32691
Elimination 32686
mandates 32678
Somalia 32650
Pakistan 32635
Association 32598
mentioned 32577
instrument 32559
presence 32549
Strategy 32538
carry 32469
recruitment 32433
task 32416
operating 32376
disaster 32323
enhancing 32290
conflicts 32239
2015 32182
skills 32182
paper 32147
Secretary 32053
ing 31943
Second 31940
improvement 31940
Recalling 31925
created 31876
t 31833
minimum 31788
Requests 31775
involvement 31749
high-level 31730
Gender 31729
independence 31721
workshop 31708
consequences 31677
OHCHR 31655
Germany 31593
Community 31580
Draft 31569
6@@ 31553
event 31493
border 31484
welcomes 31483
Kosovo 31472
expertise 31469
appeal 31468
air 31447
cover 31356
formal 31295
trial 31176
entry 31173
migration 31163
reflect 31101
Further 31089
enhanced 31085
participated 31038
clearly 31021
closely 31016
ii 31010
OF 30975
American 30950
J@@ 30935
again 30926
host 30853
committee 30817
Policy 30814
recently 30802
growing 30730
finance 30690
companies 30639
leave 30609
approval 30559
absence 30548
movement 30511
today 30483
planned 30476
phase 30440
Officer 30434
intended 30392
efficient 30330
Authority 30312
inclusion 30293
77 30272
Assistance 30246
offences 30216
y@@ 30194
combating 30161
solution 30150
conventions 30136
emphasized 30132
reduced 30126
asked 30090
summary 30087
Chief 30072
Rules 30053
Peacekeeping 30040
ground 30016
Kuwait 29981
export 29938
urged 29918
reviewed 29906
Bureau 29899
University 29895
definition 29888
Technical 29872
Framework 29868
recognition 29815
conclusion 29723
prepare 29707
markets 29706
duty 29690
net 29657
professional 29655
coordinated 29646
actively 29631
Experts 29593
rehabilitation 29582
Middle 29573
once 29571
strengthened 29556
urgent 29532
target 29492
alternative 29460
risks 29435
deal 29382
commercial 29310
V@@ 29297
shared 29297
approximately 29291
senior 29254
stage 29212
negative 29203
prison 29198
conclusions 29170
reducing 29129
ad 29121
concept 29111
defined 29096
extended 29089
attacks 29083
highlighted 29069
70 29048
occupation 29040
undertake 29022
design 28993
elected 28971
possibility 28933
relationship 28930
lower 28909
payment 28884
Technology 28842
honour 28790
respond 28788
COP 28761
refugee 28761
2@@ 28747
students 28714
racial 28694
visit 28685
System 28562
concrete 28538
mass 28508
success 28500
representation 28485
No 28473
Add.1 28455
Weapons 28452
reach 28405
Field 28403
resulted 28399
ate 28381
e@@ 28345
model 28323
measure 28299
generally 28264
step 28243
Financial 28236
assess 28229
Training 28223
despite 28191
fourth 28150
Members 28141
outcomes 28123
difficulties 28107
collection 28090
options 28086
component 28049
described 28045
Sierra 28035
Territory 28002
aircraft 27980
fight 27968
i@@ 27939
occupied 27916
encourages 27891
mainly 27889
engaged 27882
centre 27870
along 27861
Indonesia 27848
broad 27838
useful 27827
immediate 27802
1990 27791
Ireland 27775
languages 27747
leading 27741
democratic 27711
electronic 27701
targets 27683
80 27663
h 27651
grounds 27632
headquarters 27626
US 27586
documentation 27572
namely 27532
remaining 27518
applications 27451
membership 27451
face 27440
hold 27435
origin 27318
Liberia 27312
solutions 27306
internationally 27295
forced 27284
Cultural 27248
industry 27239
real 27232
Turkey 27219
Rwanda 27185
represented 27183
5@@ 27169
threats 27164
contributed 27125
donor 27125
determine 27119
estimates 27111
types 27098
Palestine 27096
o@@ 27096
ratification 27094
al 27085
1993 27084
69 27076
placed 27074
freedoms 27016
accounts 27012
Egypt 26989
specifically 26951
later 26948
migrants 26928
down 26920
imposed 26917
Space 26861
emerging 26822
networks 26789
causes 26730
advance 26723
registration 26715
personal 26663
responses 26628
avoid 26607
forest 26600
Leone 26581
corruption 26556
sharing 26545
followed 26435
relief 26407
investigations 26361
Ministers 26345
sex 26301
crucial 26298
cooperate 26265
island 26244
scale 26149
Switzerland 26146
words 26113
beginning 26105
participating 26100
actual 26053
constitute 26034
t@@ 26031
caused 25978
findings 25968
inclusive 25943
C. 25941
perspective 25929
dealing 25920
1@@ 25911
contracts 25898
series 25879
believe 25877
urges 25871
respectively 25869
declaration 25840
times 25806
subsequent 25763
thematic 25757
paras 25747
n@@ 25743
hope 25739
soon 25735
Norway 25728
function 25715
Darfur 25703
Many 25690
wide 25667
reintegration 25664
insurance 25633
half 25632
Parliament 25618
statistical 25605
alleged 25601
D 25584
category 25577
fair 25569
collective 25559
forum 25549
Those 25546
Islands 25543
organizational 25499
increasingly 25469
UNODC 25463
emphasis 25459
advisory 25437
funded 25421
allegations 25410
Table 25407
French 25388
Asian 25385
shown 25366
4@@ 25358
your 25317
Internet 25292
complex 25276
election 25259
art 25228
minorities 25225
Netherlands 25222
trust 25222
determined 25201
safe 25199
Indigenous 25174
published 25145
raise 25131
single 25130
Research 25124
discuss 25080
10@@ 25075
engage 25073
ating 25026
Gaza 25021
likely 24994
norms 24945
Deputy 24897
mutual 24867
u 24849
home 24820
cash 24804
Argentina 24796
reproductive 24782
categories 24771
appointed 24766
survey 24695
completion 24681
1991 24666
ed 24666
courses 24663
Cyprus 24635
authorized 24631
availability 24583
an@@ 24582
reforms 24567
Zealand 24561
highest 24553
live 24547
eliminate 24529
Spain 24503
takes 24503
damage 24492
guarantee 24486
p.m. 24472
visits 24458
ting 24456
territories 24453
lives 24450
accepted 24437
welcome 24429
defence 24398
punishment 24361
engagement 24340
requirement 24327
3@@ 24323
hand 24318
known 24288
sent 24282
am 24280
Internal 24244
Western 24238
come 24238
integrity 24197
Côte 24190
Nuclear 24156
Following 24154
express 24151
frameworks 24150
candidates 24115
marriage 24101
trends 24093
road 24070
1992 24029
agriculture 24015
written 23992
considers 23986
populations 23982
90 23979
structures 23973
ers 23970
faced 23968
find 23948
UN 23918
competition 23906
U@@ 23883
expression 23876
North 23864
industrial 23861
cause 23860
inform 23831
g@@ 23795
k 23792
Letter 23780
identification 23770
lessons 23745
Humanitarian 23734
targeted 23732
secondary 23719
Italy 23718
p@@ 23713
c@@ 23708
IAEA 23696
endorsed 23688
subprogramme 23682
Colombia 23672
seven 23672
sought 23652
offence 23647
al@@ 23584
75 23568
gross 23551
Financing 23497
mainstreaming 23496
dis@@ 23494
preventing 23493
y 23486
consumption 23473
marine 23466
separate 23438
internally 23435
complaints 23415
Monitoring 23388
religion 23376
V 23371
oversight 23355
ratified 23347
h@@ 23345
listed 23312
Prosecutor 23285
electoral 23277
seen 23271
concluding 23269
affairs 23255
mind 23246
democracy 23242
expenditures 23239
ation 23236
empowerment 23229
produced 23220
always 23202
base 23196
components 23189
Third 23187
tasks 23182
emissions 23163
Staff 23161
Initiative 23160
science 23130
consent 23126
I@@ 23092
creating 23092
significantly 23091
ILO 23087
dissemination 23083
accounting 23082
me 23054
disability 23014
observers 22944
amendments 22933
functioning 22932
experiences 22903
z@@ 22896
observed 22889
Status 22868
unit 22852
amended 22819
d@@ 22795
enterprises 22780
outstanding 22765
elimination 22683
tool 22680
Nigeria 22677
extend 22653
records 22628
non-proliferation 22621
Morocco 22614
executive 22529
fields 22521
offer 22519
chapter 22510
granted 22501
Chamber 22486
percentage 22481
Lebanese 22474
indicate 22471
mortality 22468
substantial 22458
added 22443
enabling 22438
Room 22433
learned 22427
Supreme 22412
`@@ 22405
values 22384
Food 22362
formulation 22355
nationality 22304
recorded 22299
Great 22298
secure 22293
allowed 22291
Northern 22288
contains 22256
l 22234
Burundi 22232
competent 22231
content 22208
UNESCO 22181
type 22179
Trust 22169
Several 22168
campaign 22156
&apos;Ivoire 22130
affect 22127
updated 22121
fulfil 22120
regulatory 22115
ICT 22105
longer 22041
supports 22029
waste 22027
realization 22024
follow 21989
parents 21980
Fifth 21976
side 21940
ated 21925
Governing 21920
reconciliation 21916
presentation 21914
coverage 21911
sound 21901
holding 21884
reservations 21850
enjoyment 21833
sustainability 21831
victim 21806
spoke 21797
constitutional 21795
convention 21772
existence 21751
Principles 21750
Haiti 21743
drafting 21729
teams 21707
site 21701
j@@ 21692
registered 21691
considering 21690
restrictions 21684
organs 21659
assessed 21636
equitable 21628
Assistant 21624
decrease 21623
initiated 21612
Ethiopia 21593
failure 21587
Ukraine 21578
sovereignty 21577
arising 21555
setting 21551
Population 21541
reason 21521
... 21511
topic 21500
prosecution 21485
oil 21458
linked 21446
comply 21431
a@@ 21422
maintained 21412
facilitating 21386
theme 21383
departments 21381
ts 21368
adaptation 21358
After 21345
commissions 21325
minority 21318
Y@@ 21316
OIOS 21308
impacts 21271
vital 21263
b@@ 21262
interpretation 21262
eradication 21261
disasters 21213
month 21168
m@@ 21166
recognize 21147
Control 21118
Sweden 21112
payments 21093
sites 21091
Azerbaijan 21078
Despite 21060
Resources 21034
aims 20985
diseases 20978
appointment 20947
ownership 20911
Bosnia 20898
sustained 20893
primarily 20835
flows 20834
territorial 20830
considerable 20824
contact 20814
u@@ 20798
vehicles 20792
previously 20790
VI 20778
amounts 20748
pointed 20729
Kenya 20720
reiterated 20713
entered 20672
strongly 20662
learning 20656
Another 20648
delay 20633
systematic 20617
Family 20613
governments 20612
eight 20611
containing 20606
penalty 20606
From 20605
entire 20601
cycle 20596
Forces 20581
Ambassador 20570
press 20540
Drugs 20529
attended 20527
Herzegovina 20526
governing 20526
Prime 20513
almost 20508
contributing 20505
fifth 20489
Uganda 20485
Decade 20484
Note 20480
ar@@ 20480
seeking 20476
budgetary 20475
diversity 20470
Yugoslavia 20446
FAO 20434
diplomatic 20432
racism 20410
introduction 20394
incidents 20382
Chile 20366
database 20355
advocacy 20337
Chairperson 20317
Thus 20305
Developing 20269
globalization 20264
Its 20258
Z@@ 20249
allocation 20239
immediately 20228
selected 20214
subsidiary 20196
recalled 20195
F 20194
transparent 20169
offered 20165
Partnership 20154
institution 20129
obtain 20126
website 20125
drugs 20124
zone 20117
Fourth 20090
nor 20081
When 20077
dollars 20062
identifying 20061
Myanmar 20051
sanitation 20047
highly 20028
e.g. 20003
Decides 19995
fuel 19975
amendment 19967
perpetrators 19902
accused 19884
Forms 19865
move 19858
73 19857
off 19856
release 19815
reviews 19815
investments 19809
too 19808
m 19792
rise 19791
18@@ 19777
encouraging 19777
Algeria 19752
allocated 19750
Project 19720
preparing 19717
Guinea 19705
places 19700
f@@ 19692
Expert 19689
stations 19686
thereby 19678
credit 19671
instance 19633
prices 19617
0@@ 19610
employees 19596
Scientific 19584
productive 19562
facing 19545
Strategic 19528
protected 19523
expansion 19518
pending 19516
Task 19497
aware 19490
Questions 19478
numerous 19467
worldwide 19463
l@@ 19446
arrest 19443
uses 19435
Please 19429
South-South 19422
preliminary 19401
publication 19397
earlier 19395
er@@ 19370
Sea 19362
sea 19357
transit 19347
iii 19342
sentence 19321
judiciary 19314
preparatory 19305
Thailand 19244
regulation 19230
latter 19224
direction 19219
losses 19219
R 19214
favour 19204
entity 19202
confirmed 19196
Subcommittee 19194
committees 19159
NPT 19146
protecting 19146
obstacles 19145
focal 19132
migrant 19124
delivered 19114
maintaining 19103
72 19099
Of 19028
et 18989
go 18987
coordinate 18979
commission 18971
improvements 18940
chemical 18933
Movement 18928
Regulations 18917
Refugees 18913
conformity 18906
Mechanism 18894
exist 18891
Therefore 18889
binding 18889
staffing 18875
identity 18872
Territories 18864
Violence 18856
mandated 18854
Coordinator 18852
read 18847
Philippines 18845
expenses 18842
geographical 18808
Network 18804
convened 18801
campaigns 18778
company 18725
interim 18725
C.2 18715
remedies 18703
71 18702
designated 18690
verification 18675
publications 18667
whom 18665
Accordingly 18662
governmental 18661
unable 18632
Equality 18624
back 18615
heard 18608
EU 18600
Comprehensive 18551
al-@@ 18539
WHO 18536
job 18516
innovative 18510
Energy 18508
jointly 18508
gaps 18504
Finally 18494
safeguards 18489
consultative 18461
speaking 18461
record 18450
Austria 18440
carrying 18440
guarantees 18436
proper 18432
impunity 18424
noting 18415
1.@@ 18409
El 18395
Belarus 18388
prisoners 18377
supplies 18369
widely 18366
intention 18337
examination 18334
on@@ 18302
affecting 18297
older 18288
Statistics 18286
Malaysia 18282
failed 18278
Independent 18270
reservation 18262
processing 18237
Bangladesh 18201
My 18177
Nairobi 18169
pilot 18166
worked 18166
Their 18155
proportion 18152
regularly 18152
14@@ 18151
76 18150
duties 18126
Statute 18118
constraints 18110
transactions 18110
e-@@ 18109
it@@ 18096
limit 18096
element 18082
AND 18076
substances 18053
determination 18039
interested 18034
Georgia 18031
pursue 18004
Professional 17996
violated 17969
n 17967
chemicals 17963
D. 17957
hoc 17957
outer 17944
achievements 17921
receiving 17921
Saudi 17919
LDCs 17916
complainant 17915
17@@ 17902
P-3 17895
tax 17890
nations 17841
price 17838
kind 17830
left 17817
charge 17802
hoped 17798
CN.4 17797
legitimate 17789
satisfaction 17781
74 17780
unless 17778
played 17764
reaffirmed 17742
produce 17740
imprisonment 17737
resolve 17731
makes 17721
users 17717
gap 17708
P-4 17702
outlined 17696
vulnerability 17692
Peru 17659
heads 17645
en 17610
show 17593
agency 17588
w@@ 17585
M 17584
seminars 17577
coherence 17569
birth 17557
modalities 17547
Ad 17543
High-level 17534
associations 17513
constructive 17511
capabilities 17507
p 17507
short 17502
unemployment 17501
woman 17489
prostitution 17472
start 17463
self-determination 17460
teachers 17460
socio-economic 17451
Congress 17448
closed 17442
Torture 17432
locations 17432
factor 17428
UNOPS 17421
roles 17412
Climate 17405
More 17401
mental 17369
settlements 17367
occurred 17366
preventive 17358
CEDAW 17349
Given 17345
maximum 17341
examine 17339
2.@@ 17336
C.3 17291
Two 17279
ations 17239
opening 17236
floor 17234
otherwise 17233
Re@@ 17232
dispute 17215
expanded 17214
differences 17213
ad@@ 17209
78 17206
Promotion 17194
coordinating 17189
troops 17172
ar 17167
Increased 17153
rapid 17150
believes 17140
raising 17137
assisting 17135
draw 17134
observer 17126
methodology 17124
controls 17119
Eritrea 17117
Universal 17078
daily 17076
Preparatory 17070
etc 17068
reconstruction 17061
represent 17049
covering 17048
Most 17027
located 17012
15@@ 17010
guide 17009
keep 16992
liability 16988
recognizes 16967
round 16965
selection 16965
dignity 16962
Noting 16954
mobilization 16946
Integrated 16935
extensive 16924
scheduled 16924
transmitted 16922
Finland 16912
Jerusalem 16911
decide 16897
enterprise 16884
wishes 16878
confidence 16876
subsequently 16871
broader 16865
Southern 16851
focusing 16844
13@@ 16830
interventions 16796
detained 16791
arrested 16779
85 16777
numbers 16763
en@@ 16760
giving 16757
Al@@ 16754
link 16751
refer 16747
disputes 16739
agree 16738
i.e. 16726
1,@@ 16723
Guatemala 16716
degree 16712
technological 16690
English 16689
ates 16671
drawn 16653
Part 16642
Croatia 16624
know 16620
relevance 16614
arbitrary 16590
examined 16583
week 16578
managers 16575
update 16559
See 16540
WTO 16525
Jordan 16508
NGO 16505
proliferation 16503
.@@ 16499
shows 16487
Platform 16477
UNRWA 16453
Ministerial 16438
Czech 16437
examples 16437
maternal 16425
name 16412
trend 16410
details 16392
principal 16391
deliberations 16379
trained 16377
specified 16351
Sri 16340
16@@ 16338
Peacebuilding 16336
declared 16313
Peoples 16311
exports 16290
extension 16276
killed 16273
budgets 16262
But 16257
19@@ 16256
Year 16256
Foundation 16253
ch@@ 16253
ted 16235
grant 16228
Safety 16212
mines 16207
obtained 16203
Planning 16195
98 16192
Beijing 16185
acting 16165
links 16164
Serbia 16160
deployed 16160
la 16160
sections 16156
reasonable 16153
announced 16147
spirit 16145
bringing 16142
attack 16136
why 16121
In@@ 16118
Nepal 16110
panel 16076
Budgetary 16066
95 16036
Small 16033
subjected 16033
envisaged 15996
Hoc 15994
Ecuador 15993
partner 15972
expand 15956
humanity 15952
thank 15950
posed 15929
nationals 15917
outreach 15914
nine 15908
Spanish 15905
option 15900
Strengthening 15888
Belgium 15878
solidarity 15872
charges 15871
programming 15863
enter 15849
joined 15831
late 15820
Activities 15819
79 15798
extreme 15785
topics 15780
Poland 15779
sixth 15767
Eastern 15761
forth 15754
Iraqi 15753
judge 15731
history 15722
inter-agency 15711
speakers 15711
grave 15709
unilateral 15707
contain 15702
&apos;@@ 15700
Additional 15685
witnesses 15672
tourism 15658
welfare 15658
camps 15643
at@@ 15638
customs 15633
association 15628
authors 15625
el@@ 15619
81 15618
insufficient 15615
Kyoto 15614
investigate 15605
3.@@ 15595
rape 15589
periods 15587
assigned 15585
never 15585
foster 15569
200 15568
Representatives 15567
enjoy 15557
demonstrated 15536
began 15493
Costa 15485
Oversight 15472
jobs 15468
forums 15465
head 15463
transferred 15463
embargo 15461
peacebuilding 15460
Turkish 15457
manage 15448
attached 15439
Change 15435
turn 15432
prohibited 15414
82 15404
Calls 15400
Operation 15398
legally 15397
mine 15364
Under-Secretary-General 15350
permit 15344
Britain 15331
Day 15311
employed 15311
satellite 15298
Armed 15288
structural 15279
es@@ 15278
acquisition 15276
Trafficking 15272
resumed 15271
burden 15247
am@@ 15245
gas 15243
Venezuela 15229
SBI 15227
ministries 15225
C.5 15216
directed 15212
20@@ 15209
explained 15191
Lanka 15189
vision 15181
combined 15177
sale 15172
asset 15162
product 15142
acknowledged 15141
Power 15137
represents 15137
a.m. 15136
T 15133
ti@@ 15126
87 15120
I. 15112
reflects 15092
Roma 15079
Budget 15065
r@@ 15064
– 15063
corporate 15059
monthly 15059
increases 15055
weeks 15054
near 15049
Defence 15042
Resolution 15032
little 15029
asylum 15027
indicates 15021
Cambodia 15010
involve 14981
old 14980
IN@@ 14970
pension 14967
Measures 14963
post-conflict 14962
background 14959
Al-@@ 14955
boys 14943
multiple 14943
works 14943
representing 14933
Local 14921
airspace 14915
Finance 14911
Any 14896
83 14887
What 14886
accessible 14877
reiterates 14869
though 14866
Excellency 14864
incorporated 14858
discriminatory 14854
barriers 14848
Model 14847
de@@ 14843
regards 14840
Our 14838
released 14834
seminar 14832
Recognizing 14825
ended 14816
Pursuant 14813
Observer 14810
crises 14805
Society 14799
mitigation 14798
conducting 14787
societies 14786
acceptance 14785
v. 14781
coming 14774
transnational 14774
Military 14731
race 14728
Auditors 14725
competence 14723
largely 14705
86 14704
x 14693
premises 14691
distributed 14686
Guidelines 14685
dealt 14684
serving 14684
P 14676
except 14673
disabled 14671
ul@@ 14667
Intergovernmental 14665
2008-2009 14650
84 14648
suffering 14639
SBSTA 14617
HRC 14609
started 14601
bank 14592
formed 14571
Taking 14568
wished 14561
savings 14553
commended 14531
begin 14524
integrate 14524
Paris 14519
constitutes 14509
v@@ 14496
appeals 14479
launch 14464
transportation 14462
Number 14461
anniversary 14456
degradation 14453
overcome 14441
Rev.1 14434
Total 14426
adopting 14418
accept 14414
figures 14405
promoted 14403
balanced 14378
Employment 14376
served 14376
lines 14368
Armenia 14364
utilization 14360
99 14355
Agriculture 14353
biological 14353
contrary 14342
vocational 14338
as@@ 14332
original 14331
undertaking 14329
powers 14323
VII 14320
Denmark 14317
inventory 14299
Process 14288
opened 14286
comment 14274
is@@ 14269
ra@@ 14260
money 14259
managed 14253
Senegal 14252
advantage 14248
ou@@ 14243
cities 14220
dedicated 14215
inadequate 14215
keeping 14202
perform 14202
complaint 14199
location 14199
Work 14197
size 14194
Kazakhstan 14186
variety 14185
widespread 14181
Team 14179
G 14176
here 14175
gender-based 14166
preparations 14164
deep 14156
recommend 14150
well-being 14149
liberty 14130
facts 14126
residence 14114
Issues 14110
prohibition 14110
changing 14104
banks 14081
detainees 14071
Afghan 14070
belief 14059
sets 14042
Rica 14039
C.1 14036
demobilization 14030
st@@ 14004
Procedure 14003
Reduction 13997
97 13984
GEF 13980
extradition 13965
cluster 13955
resident 13952
ic@@ 13948
Assessment 13945
requesting 13939
projected 13937
Tanzania 13926
disposal 13919
invitation 13913
Conventions 13908
outputs 13885
MDGs 13878
Mali 13877
Palestinians 13875
2010-2011 13864
assisted 13864
doing 13864
limits 13862
Based 13860
Doha 13853
pre-@@ 13853
advancement 13847
N 13846
Science 13817
Adviser 13816
Angola 13801
suffered 13796
ri@@ 13791
influence 13790
largest 13777
helped 13747
88 13737
92 13735
soldiers 13734
94 13733
pressure 13732
adverse 13726
UNCITRAL 13716
trading 13714
relatively 13703
Use 13702
intolerance 13701
conservation 13700
Racial 13693
96 13682
adequately 13650
93 13649
appear 13632
CD 13620
considerations 13618
Through 13613
expresses 13613
wider 13612
ministerial 13608
traffic 13583
aged 13568
equity 13568
biodiversity 13566
Nevertheless 13565
allowance 13558
ready 13547
away 13544
financed 13538
look 13535
demands 13523
evaluations 13523
advanced 13518
91 13517
Romania 13514
federal 13508
functional 13504
awareness-raising 13499
letters 13495
performed 13489
district 13484
sponsors 13478
city 13471
above-mentioned 13463
households 13455
Arabia 13426
belonging 13424
Youth 13422
00 13418
mercury 13410
CRC 13406
valuable 13405
Occupied 13392
latest 13392
facility 13391
adjustment 13387
professionals 13383
segment 13380
experienced 13356
Over 13343
2006-2007 13342
Item 13341
papers 13314
reviewing 13314
conjunction 13309
remote 13306
Ghana 13303
attempt 13291
revision 13286
alone 13284
guaranteed 13280
customary 13275
modern 13273
seeks 13266
submissions 13256
attributable 13254
generation 13248
century 13247
names 13247
radio 13239
organize 13232
counsel 13231
room 13221
89 13216
ac@@ 13208
fishing 13208
remedy 13198
severe 13198
facilitated 13196
Portugal 13190
borders 13189
became 13186
believed 13185
decade 13182
procedural 13181
fisheries 13174
charged 13168
helping 13165
sense 13155
or@@ 13146
disease 13139
ic 13133
substance 13124
v 13123
unique 13114
Communications 13101
UN-Habitat 13098
Treatment 13087
reportedly 13075
Uruguay 13069
ab@@ 13066
Each 13051
Heads 13050
becoming 13049
Paragraph 13018
recognizing 13016
operate 13004
th@@ 13004
innovation 12998
harassment 12997
platform 12996
defenders 12975
self-@@ 12971
male 12957
L 12955
accountable 12946
transmit 12935
deliver 12932
custody 12929
bearing 12926
biennial 12918
deaths 12913
leaving 12910
ag@@ 12902
salary 12901
test 12898
overview 12894
decline 12892
requiring 12890
im@@ 12886
covers 12880
Red 12870
transfers 12861
Rio 12843
figure 12842
vacancy 12831
SR.@@ 12821
Penal 12820
continuous 12812
Tunisia 12811
Procurement 12810
Chapter 12807
di@@ 12789
Constitutional 12786
fall 12783
pertaining 12782
Qatar 12776
recalls 12774
briefing 12772
integral 12769
conclude 12764
intervention 12761
12@@ 12760
condition 12747
ever 12747
officer 12745
stable 12741
introduce 12737
r 12737
Decision 12727
withdrawal 12722
gave 12721
linkages 12715
Encourages 12705
re-@@ 12704
O 12703
successfully 12699
reaching 12693
Bolivia 12689
facilitation 12683
allegedly 12660
consolidated 12660
tenth 12652
academic 12645
claimed 12635
fiscal 12635
negotiation 12635
seventh 12635
board 12634
sensitive 12628
amounted 12624
Having 12606
Corr.1 12602
ine 12595
sub@@ 12593
urge 12590
man 12587
300 12585
Chad 12583
determining 12568
protocol 12568
movements 12567
composition 12558
Welcomes 12556
ap@@ 12552
qualified 12543
stages 12543
Her 12532
displacement 12524
flexibility 12521
vehicle 12514
Evaluation 12512
enforced 12502
attend 12499
explore 12494
surveys 12494
seriously 12488
Acting 12487
GDP 12487
homes 12484
comprising 12476
ammunition 12473
transitional 12460
transmitting 12452
Transitional 12451
allowing 12450
opposition 12446
Ombudsman 12443
forests 12442
WFP 12440
join 12440
zones 12435
Notes 12429
Building 12423
counter-terrorism 12422
southern 12421
IC@@ 12418
Libyan 12418
devoted 12416
duration 12416
run 12410
ro@@ 12406
extrabudgetary 12405
Nam 12400
productivity 12391
version 12390
lost 12388
code 12386
reply 12385
grants 12380
over@@ 12368
Poverty 12362
execution 12360
returned 12357
spread 12353
Developed 12352
rest 12352
adjustments 12350
Similarly 12348
mining 12348
2,@@ 12334
Viet 12332
formulated 12328
visited 12325
Head 12323
des 12310
intellectual 12302
Rome 12300
Regarding 12296
assessing 12294
constituted 12291
household 12271
import 12267
Disabilities 12265
circulated 12246
explosive 12246
lawyers 12241
2004-2005 12235
behaviour 12226
Hungary 12212
firm 12211
newly 12207
ideas 12206
repatriation 12204
ESCAP 12203
E. 12200
demonstrate 12196
true 12191
drew 12190
An@@ 12187
instances 12187
Mauritius 12185
system-wide 12174
consolidation 12168
Organized 12163
inputs 12144
exception 12139
search 12138
Among 12134
accession 12129
coherent 12128
coastal 12117
pleased 12107
Salvador 12095
lasting 12091
neighbouring 12091
delays 12090
Statements 12083
Progress 12065
IPSAS 12060
balances 12057
conventional 12049
Statement 12041
reliable 12039
stocks 12020
hazardous 12016
gains 12002
interaction 11986
2012-2013 11985
Environmental 11984
providers 11976
oral 11973
ago 11954
rejected 11950
volume 11950
alternatives 11937
understand 11935
controlled 11927
online 11923
extremely 11920
post-@@ 11915
journalists 11912
aggression 11909
format 11907
Slovenia 11906
exclusion 11883
anticipated 11873
j 11867
harmonization 11863
web 11855
500 11844
Mar@@ 11840
testing 11837
ratify 11827
OECD 11825
consultants 11819
League 11813
abroad 11797
corresponding 11794
psychological 11790
treated 11787
warning 11776
Right 11775
.1 11770
Investment 11770
scheme 11761
proceed 11757
orders 11755
Cameroon 11747
farmers 11746
Singapore 11739
Guide 11733
Appeals 11726
Sixth 11725
notably 11724
map 11706
explanation 11705
Protocols 11700
evaluate 11697
decades 11691
input 11689
relate 11687
&amp; 11684
Terrorism 11680
refers 11672
P-5 11671
schemes 11671
Where 11665
municipal 11664
flexible 11657
Committees 11654
ak@@ 11648
Counter-Terrorism 11646
reflecting 11643
denied 11639
sovereign 11636
equally 11618
writing 11602
incurred 11598
landlocked 11598
Standing 11597
V. 11587
xenophobia 11582
came 11579
ant 11553
occupying 11551
sometimes 11548
ill-treatment 11538
Director-General 11536
techniques 11533
Audit 11530
fire 11527
maritime 11527
annually 11524
renewed 11524
MONUC 11522
harm 11522
incorporate 11517
Basel 11507
acceptable 11503
station 11502
schedule 11500
Summary 11485
filed 11484
Annual 11476
literacy 11472
ol@@ 11469
terrorists 11466
op@@ 11465
Official 11451
storage 11450
+ 11449
fighting 11448
commit 11445
sh@@ 11443
Arms 11441
Uzbekistan 11441
Within 11438
UN@@ 11436
agents 11419
appears 11415
hunger 11409
Montenegro 11403
Montreal 11394
Migration 11391
responded 11384
Nicaragua 11373
Greece 11359
analytical 11351
offers 11351
patterns 11351
Both 11350
lists 11342
wage 11337
presidential 11335
flow 11333
inspection 11326
1,000 11319
Habitat 11294
Timor-Leste 11289
Informal 11284
environmentally 11284
Burkina 11283
inequality 11283
showed 11282
UNIFIL 11281
removal 11281
Provisional 11279
Provision 11278
regardless 11278
Faso 11277
properly 11263
instead 11262
equivalent 11261
distinction 11256
teaching 11251
Yemen 11250
.2 11249
strength 11231
indeed 11223
contractual 11198
Follow-up 11193
mandatory 11186
wastes 11184
organizing 11177
120 11176
managing 11170
arbitration 11166
Non-Proliferation 11154
choice 11149
issuance 11141
employers 11134
tolerance 11134
Earth 11123
incentives 11123
nearly 11108
northern 11107
ones 11105
abuses 11098
expanding 11091
signing 11091
dimensions 11088
le@@ 11085
co-@@ 11079
liaison 11078
usually 11077
phenomenon 11076
Urges 11074
fees 11073
reality 11073
NEPAD 11071
Outer 11064
object 11050
ending 11049
Guinea-Bissau 11047
disseminate 11037
village 11036
ODA 11033
British 11031
co@@ 11027
desertification 11014
Adoption 11013
citizenship 11007
Document 11006
Drug 11002
prisons 11002
larger 10999
liabilities 10999
inter@@ 10996
finding 10968
say 10968
responding 10949
limitations 10940
Decree 10933
negotiating 10931
logistical 10928
Lastly 10919
Directorate 10916
FDI 10915
declarations 10907
occasion 10906
judgement 10902
Inspection 10894
word 10892
Consequently 10888
us@@ 10888
built 10887
Ch@@ 10881
Least 10876
om@@ 10875
Jamaica 10866
ban 10861
em@@ 10861
1989 10858
mobilize 10856
Takes 10855
Ensure 10854
deprived 10850
juvenile 10847
applying 10834
Island 10833
compulsory 10833
renewable 10822
Educational 10817
software 10817
beneficiaries 10813
suggestions 10809
relative 10805
reserve 10802
Transport 10793
commodity 10793
ment 10774
ia 10769
mobility 10767
understood 10766
purchase 10762
.3 10755
define 10751
introducing 10739
le 10735
Indeed 10732
iv 10725
neither 10725
USD 10723
method 10722
Emergency 10719
dependent 10715
quarter 10710
Bulgaria 10709
replace 10702
sub-@@ 10689
0.@@ 10684
stresses 10684
character 10683
arts 10676
chap 10672
separation 10668
counselling 10662
convening 10656
sectoral 10656
Durban 10654
UNIFEM 10654
Senior 10644
fulfilment 10642
industries 10642
award 10641
health-care 10636
machinery 10628
revenue 10626
Invites 10625
composed 10623
-related 10622
subparagraph 10622
changed 10614
finds 10612
pollution 10607
hearing 10601
pursued 10601
themes 10601
secured 10600
invite 10595
nuclear-weapon 10594
el 10593
Goal 10592
Water 10588
harmful 10585
notification 10584
Euro@@ 10580
sides 10580
competitive 10566
expulsion 10564
Consideration 10563
mothers 10562
born 10561
generated 10561
supervision 10554
UNAMID 10551
stock 10549
nutrition 10543
1988 10542
applies 10532
eligible 10532
eighth 10530
Zambia 10516
loans 10511
Facility 10509
felt 10509
invasion 10498
Chinese 10493
arrangement 10492
elaboration 10492
targeting 10487
reductions 10483
accommodation 10481
lands 10477
UNMIK 10473
Session 10471
presents 10464
Combat 10462
ter 10460
interactive 10453
ha@@ 10441
cooperative 10437
historical 10436
genocide 10434
4.@@ 10433
decides 10430
begun 10429
Lithuania 10427
medium-term 10427
allows 10425
.4 10413
5.@@ 10413
occur 10412
package 10410
stress 10398
frequently 10386
prosecutors 10383
-based 10380
accordingly 10378
collected 10378
buildings 10371
ninth 10370
orally 10363
generate 10362
Transnational 10358
ding 10345
enough 10340
Interior 10338
mother 10338
pregnancy 10305
respected 10276
formulate 10275
notice 10273
starting 10267
violent 10262
strict 10260
adolescents 10259
replies 10244
mobile 10240
estimate 10237
continuation 10235
memorandum 10229
accomplishments 10228
thereto 10224
.6 10214
results-based 10213
Slovakia 10211
instructions 10207
relationships 10206
incident 10204
currency 10195
thousands 10195
z 10194
resolved 10193
Sector 10187
house 10187
drawing 10186
passed 10184
devices 10183
Statistical 10182
Country 10180
se 10175
Standards 10169
simply 10157
accelerate 10153
Mongolia 10144
Reports 10143
grateful 10142
UN-Women 10126
parliamentary 10126
Macedonia 10119
dangerous 10119
underlined 10119
SecretaryGeneral 10109
conducive 10109
Region 10108
behind 10104
Albania 10102
methodologies 10097
son 10094
ally 10090
supplementary 10085
models 10084
characteristics 10082
everyone 10082
dimension 10074
master 10071
il@@ 10068
provinces 10067
Upon 10065
Moldova 10046
deemed 10043
Alliance 10041
non@@ 10035
underlying 10027
objects 10019
via 10019
clarify 10017
provincial 10015
breach 10011
Participation 10010
prejudice 10005
track 10003
nation 9999
derived 9989
Business 9978
Strip 9977
relates 9972
sign 9971
mutually 9969
standing 9957
Dialogue 9955
invites 9942
marked 9937
IS@@ 9935
Settlements 9935
kept 9927
Open-ended 9919
continent 9914
twenty-first 9904
claimant 9902
advances 9898
inhuman 9898
.8 9894
non-discrimination 9879
detail 9871
observation 9871
disadvantaged 9867
heavy 9861
restricted 9860
Biological 9856
thereon 9851
foundation 9845
meaningful 9834
clarification 9830
meaning 9824
danger 9822
hosted 9820
normal 9813
ent 9804
.5 9802
genuine 9799
Officers 9798
complement 9796
enshrined 9791
Conduct 9787
protocols 9781
pregnant 9776
regimes 9774
sect 9769
Between 9768
injured 9766
emphasize 9763
Interim 9755
subregion 9755
150 9750
Relations 9749
difference 9745
Access 9740
degrading 9737
concepts 9735
accompanied 9725
CN.9 9719
Army 9717
greatly 9717
attempts 9716
replaced 9713
counter 9709
Equal 9708
tables 9708
things 9705
Rule 9700
se@@ 9700
105 9696
heritage 9689
be@@ 9688
eliminating 9688
List 9686
res 9676
sentenced 9674
Organizations 9670
ages 9667
army 9667
unions 9666
television 9665
Efforts 9660
businesses 9659
si@@ 9659
short-term 9658
summit 9656
aspect 9652
participatory 9652
H 9651
voting 9649
Resource 9647
objection 9644
rapidly 9639
Electoral 9638
ans 9636
liberalization 9636
nuclear-weapon-free 9636
calling 9625
reiterate 9622
translation 9620
facto 9619
persistent 9617
suitable 9613
UNMIL 9611
Corruption 9600
speak 9590
proceeds 9581
2nd 9578
a-@@ 9578
emphasizes 9574
macroeconomic 9560
briefings 9559
penalties 9553
te@@ 9551
Industrial 9544
Participants 9544
Un@@ 9542
Reaffirming 9535
mean 9533
unlawful 9530
greatest 9527
Benin 9525
insecurity 9523
ous 9523
diverse 9519
é@@ 9519
Saint 9516
City 9513
idea 9511
29@@ 9506
Establishment 9506
Prohibition 9506
consistently 9504
27@@ 9503
Friday 9497
Q@@ 9490
Con@@ 9489
trials 9487
votes 9483
é 9482
fraud 9480
mediation 9474
Data 9469
troop-contributing 9464
UNOCI 9462
Pension 9456
confidence-building 9437
carbon 9436
Consultative 9427
Man@@ 9422
sufficiently 9421
hospitals 9419
intensify 9419
restructuring 9408
tribunal 9408
deeply 9402
Tajikistan 9398
.9 9396
Basic 9395
ecosystems 9391
offset 9387
indicator 9385
bound 9383
root 9379
villages 9376
arise 9372
want 9372
contacts 9367
convinced 9364
Malta 9362
decreased 9361
laid 9358
add 9356
sub-item 9352
da 9349
eastern 9344
addresses 9342
forthcoming 9342
budgeting 9341
X 9339
attitudes 9336
Yugoslav 9335
immigration 9334
San 9332
Monday 9331
.7 9330
bill 9330
cross-border 9330
os 9327
Target 9326
destroyed 9324
necessity 9324
accurate 9321
prosecute 9318
gives 9317
entering 9310
auspices 9309
orientation 9304
reinforce 9303
output 9302
focuses 9293
convicted 9290
talks 9290
parallel 9289
acquired 9286
Articles 9278
message 9277
universities 9277
3,@@ 9274
Chemical 9272
1st 9253
finalized 9253
Inter-Agency 9245
Main 9244
intelligence 9242
receipt 9240
Recommendation 9239
prevalence 9239
subjects 9236
twentieth 9232
Zimbabwe 9227
2002-2003 9224
101 9221
Advancement 9221
coordinator 9219
102 9214
recruited 9210
School 9206
eradicate 9200
capability 9199
reserves 9197
synergies 9193
texts 9185
Logistics 9183
granting 9183
Communication 9177
integrating 9156
Emirates 9152
suspected 9145
District 9144
conviction 9140
systematically 9137
Disaster 9135
exists 9135
marginalized 9134
ex@@ 9133
IA@@ 9124
bear 9124
transaction 9122
Even 9120
complementary 9117
consequence 9105
Indian 9095
Panama 9095
ah 9095
favourable 9091
citizen 9089
Former 9086
Only 9085
actually 9085
undermine 9081
Recommendations 9080
producing 9080
Sahara 9075
appropriation 9069
Stockholm 9061
enrolment 9061
monitored 9057
capable 9056
beings 9051
money-laundering 9050
convene 9042
ed@@ 9037
contractors 9036
1967 9028
prospects 9026
maternity 9024
mostly 9023
tangible 9010
permitted 9007
logistics 9005
collect 8997
residents 8996
immunity 8991
400 8988
Cuban 8985
ordinary 8982
guided 8981
mainstream 8973
ratio 8970
questionnaire 8969
Cross 8966
firms 8963
als 8962
freely 8958
signature 8956
exposure 8952
possession 8946
establishes 8941
page 8940
competitiveness 8934
deprivation 8932
camp 8931
clearance 8927
Punishment 8922
gain 8921
contracting 8919
inside 8918
malaria 8915
decent 8909
obtaining 8908
Sub-Commission 8903
reaffirms 8899
in-depth 8893
therein 8893
headed 8890
tion 8888
perspectives 8881
propose 8879
transmission 8879
disappearance 8877
salaries 8877
Non-Aligned 8874
digital 8874
ceasefire 8872
tions 8868
credibility 8864
consists 8853
Land 8849
missing 8849
reaffirm 8848
110 8847
Area 8842
Customs 8835
enhancement 8827
whereby 8826
servicing 8825
formation 8824
S-@@ 8821
emergencies 8820
111 8809
clean 8808
6.@@ 8807
Latvia 8802
28@@ 8796
owned 8789
anti-@@ 8784
credible 8782
faith 8782
FCCC 8781
Branch 8780
cultures 8779
commodities 8774
replacement 8771
Commonwealth 8770
St@@ 8766
Jamahiriya 8764
submits 8764
operative 8760
Mozambique 8756
stronger 8756
moving 8754
103 8753
Ar@@ 8753
assumed 8751
excluded 8750
Voluntary 8745
adults 8745
analyse 8743
mis@@ 8743
presentations 8743
Atomic 8741
disaggregated 8739
depend 8735
Asia-Pacific 8730
explicitly 8730
moral 8729
TO 8727
closer 8724
cruel 8722
me@@ 8719
accessibility 8715
IMF 8714
Welcoming 8712
witness 8710
career 8709
Legislative 8692
VIII 8692
ships 8691
enabled 8690
UNCCD 8688
Ad@@ 8686
so-called 8681
cross-cutting 8673
disciplinary 8666
killing 8663
mitigate 8662
duplication 8660
he@@ 8657
injury 8656
administering 8655
excessive 8652
regarded 8647
valid 8646
Conflict 8642
ECOWAS 8642
register 8640
subsidies 8639
te 8636
post-2015 8634
sentences 8633
dates 8631
authorization 8627
y-@@ 8626
U 8625
concerted 8615
involves 8612
pre@@ 8605
um@@ 8600
Envoy 8595
Institutions 8586
OSCE 8585
assembly 8584
ASEAN 8581
engaging 8580
top 8579
Dominican 8578
closure 8575
minors 8574
handling 8562
preparedness 8560
t-@@ 8552
consolidate 8551
1990s 8550
Survey 8547
workload 8547
sponsored 8545
disclosure 8543
Workers 8542
pose 8540
progressive 8537
north 8534
benefited 8533
highlight 8533
preserve 8532
indicating 8531
Thursday 8526
enemy 8520
Non-@@ 8519
holders 8519
durable 8515
RE@@ 8506
exploration 8500
Continue 8489
surveillance 8479
drafted 8473
os@@ 8473
250 8471
Volunteers 8459
fissile 8458
spent 8455
out@@ 8452
Contracting 8450
prevented 8449
Libya 8447
ahead 8446
fear 8445
division 8444
Wednesday 8435
Against 8434
War 8426
regrets 8425
reimbursement 8420
shelter 8420
delayed 8417
NA@@ 8416
closing 8414
entrusted 8414
expectations 8411
hospital 8404
approve 8402
imperative 8402
104 8399
firearms 8399
ka 8399
exchanges 8398
south 8395
assurances 8393
certification 8392
normative 8392
consisting 8391
Three 8382
chaired 8381
x@@ 8380
elderly 8377
admissibility 8371
23@@ 8367
4,@@ 8358
command 8356
initiate 8354
ministers 8353
livelihoods 8346
makers 8340
exceptional 8339
redress 8339
occasions 8338
Liechtenstein 8333
comparative 8331
explain 8328
German 8322
ds 8315
willingness 8315
Tuesday 8314
necessarily 8314
union 8312
title 8309
Workshop 8303
Timor 8288
merits 8283
proved 8275
ECA 8264
Common 8253
Today 8251
Somali 8248
manual 8245
tackle 8245
munitions 8244
ship 8243
Regulation 8242
ER@@ 8238
prompt 8234
Monterrey 8230
intends 8228
budgeted 8223
fostering 8219
programs 8219
green 8218
Luxembourg 8215
Estonia 8212
Reform 8211
Supplement 8211
municipalities 8207
ensured 8202
ators 8200
id@@ 8200
30@@ 8191
remarks 8190
Syria 8189
Namibia 8186
brief 8184
rising 8179
minor 8177
Congolese 8176
prohibit 8174
remove 8173
106 8163
SA@@ 8158
Source 8153
suffer 8148
Honduras 8145
delegates 8139
percent 8138
Iceland 8136
accounted 8135
qu@@ 8133
shift 8130
drought 8127
sixtieth 8126
retained 8121
comparison 8119
comprises 8118
thereof 8117
inquiry 8116
suggest 8115
appeared 8114
lawyer 8114
Bahrain 8111
hard 8111
assume 8110
Y 8107
fish 8106
ings 8104
workplace 8102
outline 8101
impartial 8096
ya 8096
X@@ 8095
length 8095
statute 8094
appoint 8091
Promoting 8089
ir 8088
affordable 8086
maintains 8075
Property 8068
going 8067
husband 8064
F. 8063
significance 8063
gained 8061
And 8057
appointments 8056
con@@ 8056
stop 8049
tried 8047
External 8044
momentum 8042
impose 8038
executions 8036
Relief 8025
consult 8023
heading 8021
Studies 8013
Arabic 8012
millions 8009
Concerning 8006
Hague 8004
viable 8004
drinking 7996
H.E. 7992
unity 7988
manufacture 7987
updating 7985
continuity 7984
emission 7984
Judicial 7983
Ocean 7982
ir@@ 7980
mid-@@ 7979
stipulated 7979
branch 7974
107 7973
weak 7972
3rd 7966
seized 7965
108 7963
pornography 7959
subsistence 7959
Bolivarian 7955
speaker 7950
substantially 7950
1.2 7945
compilation 7944
restoration 7938
thanks 7931
Kuwaiti 7929
600 7927
enforce 7927
multi-year 7927
urgency 7925
dynamic 7919
friendly 7918
indirect 7915
Ma@@ 7911
administered 7910
En@@ 7906
nongovernmental 7902
Mo@@ 7898
fixed 7898
curricula 7895
ra 7894
submitting 7893
features 7891
whereas 7891
est 7890
Paraguay 7888
greenhouse 7882
readiness 7882
defining 7881
electricity 7881
department 7879
ecosystem 7877
enacted 7873
stand 7867
troop 7867
seats 7864
fill 7863
termination 7861
insolvency 7860
permits 7860
stay 7860
inter-@@ 7859
ec@@ 7857
consumer 7850
DP 7846
Center 7844
complexity 7844
1373 7841
K 7840
analyses 7839
manufacturing 7833
Sexual 7831
De@@ 7829
remuneration 7828
opinions 7826
threatened 7818
translated 7813
CA@@ 7810
discharge 7806
Djibouti 7804
Kyrgyzstan 7803
strictly 7803
refused 7802
5,@@ 7799
inhabitants 7797
verbale 7797
Related 7795
amend 7793
prevailing 7792
contingent 7790
pattern 7785
promptly 7784
formally 7770
CO@@ 7769
contributes 7766
deadline 7766
urgently 7763
observance 7762
Effective 7759
112 7753
bi@@ 7746
safeguard 7744
Bill 7743
115 7742
Greek 7740
W 7739
frame 7739
negotiated 7739
tons 7736
Outcome 7733
consistency 7732
incidence 7731
hostilities 7725
promotes 7725
stereotypes 7720
acquire 7719
employer 7717
formulating 7716
IN 7713
transformation 7711
5,000 7707
ur@@ 7706
medium 7703
registry 7703
Consensus 7697
recall 7690
carefully 7686
pillars 7681
ies 7679
Illicit 7678
engineering 7674
mention 7673
predictable 7673
university 7673
Inter@@ 7670
definitions 7670
realize 7668
occupational 7664
potentially 7664
severely 7664
telephone 7664
PA@@ 7662
Pro@@ 7657
od@@ 7655
town 7654
organ 7650
Order 7648
plant 7646
retain 7644
Forests 7643
par@@ 7643
Welfare 7642
corporations 7634
combatants 7633
offenders 7630
ot@@ 7630
looked 7628
inequalities 7626
ay@@ 7625
Before 7624
connected 7623
vessels 7614
cited 7599
seems 7593
curriculum 7589
Tribunals 7587
Car@@ 7584
species 7583
advancing 7581
tensions 7572
smuggling 7571
adherence 7570
trans@@ 7567
poorest 7560
Domestic 7557
Niger 7556
districts 7550
redeployment 7550
refrain 7549
doubt 7546
summits 7545
suppliers 7541
channels 7537
removed 7530
declined 7527
characterized 7523
description 7518
Diversity 7515
wages 7514
113 7512
ana 7503
UNMIS 7502
2014-2015 7497
Victims 7497
114 7496
utilized 7496
encountered 7495
get 7495
Togo 7487
Fiji 7486
pledges 7485
RA@@ 7481
repeated 7480
choose 7477
ageing 7474
abortion 7473
EC 7468
Contributions 7467
lo@@ 7467
ev@@ 7464
Medical 7462
Judge 7461
firmly 7461
meant 7453
possibilities 7448
harmonized 7446
depending 7445
servants 7445
ter@@ 7445
tribunals 7444
foundations 7437
ren@@ 7432
referendum 7427
merely 7425
Monetary 7423
upgrading 7420
slow 7418
suggests 7418
Air 7417
6,@@ 7416
Appeal 7414
UNDCP 7411
spending 7411
advisers 7407
port 7405
welcoming 7401
calendar 7398
fulfilling 7398
girl 7393
ratifying 7392
116 7389
absolute 7389
guiding 7386
exclusively 7384
investigated 7378
collaborative 7374
Reaffirms 7373
appreciated 7373
Delegations 7371
ep@@ 7371
assurance 7370
copy 7370
vast 7368
212 7366
constant 7359
ESCWA 7358
struggle 7349
endeavour 7345
gratitude 7345
feasible 7342
09 7336
intensive 7336
bl@@ 7335
Aid 7334
generations 7333
Analysis 7325
24@@ 7324
referring 7324
healthy 7321
pursuing 7315
try 7315
chain 7310
Al 7309
houses 7309
soil 7309
Vice-President 7304
Non-Self-Governing 7302
driven 7296
MA@@ 7291
109 7290
Base 7281
pace 7281
regulated 7278
Ex@@ 7276
suspended 7274
AR@@ 7270
launching 7269
ly 7268
aviation 7267
P-2 7266
L.@@ 7260
candidate 7259
non-State 7259
allocate 7258
imports 7257
existed 7253
combination 7252
offering 7252
open-ended 7250
li@@ 7249
Di@@ 7245
wall 7244
Desertification 7238
Turkmenistan 7238
Cypriot 7232
classification 7229
amounting 7226
2-@@ 7225
Narcotic 7224
serves 7224
assignment 7221
worth 7221
inflation 7219
130 7215
went 7213
et@@ 7210
desire 7203
MINUSTAH 7199
documented 7195
aw@@ 7193
awarded 7188
ari@@ 7186
impossible 7186
Suppression 7185
exceed 7185
expressing 7184
anti-personnel 7180
Canadian 7179
Rural 7179
suggestion 7179
path 7176
justified 7175
cost-effective 7174
tive 7172
stipulates 7171
Gu@@ 7169
thorough 7168
file 7165
ibid 7159
obliged 7159
hear 7158
thought 7158
jurisprudence 7157
undertook 7153
1-@@ 7151
2.1 7146
benchmarks 7145
Matters 7142
Final 7139
UNAIDS 7139
EC@@ 7135
rely 7132
emerged 7130
118 7126
baseline 7124
legitimacy 7124
tracking 7124
AMISOM 7120
How 7120
Increase 7118
Taliban 7115
capita 7115
2,000 7110
SMEs 7109
interference 7102
exposed 7101
normally 7097
rendered 7095
Conferences 7088
securing 7088
122 7081
Bangkok 7081
ethics 7079
minimize 7079
depends 7077
Culture 7074
117 7071
wife 7070
Currently 7069
Australian 7066
send 7066
elsewhere 7065
ters 7065
considerably 7061
proof 7061
ig@@ 7060
Johannesburg 7056
la@@ 7056
ON 7053
Proposed 7053
Su@@ 7053
fired 7049
26@@ 7048
ECE 7046
Freedom 7046
limitation 7039
mon@@ 7038
killings 7036
Let 7035
monetary 7031
4th 7029
Golan 7026
adult 7026
1.1 7025
province 7022
injuries 7016
Lao 7015
100,000 7010
condemned 7010
let 7005
attendance 7003
computer 6998
double 6998
debates 6997
_ 6995
2.2 6990
Subsequently 6988
weapon 6988
JIU 6983
08 6981
databases 6981
8,@@ 6980
banking 6980
red 6980
Take 6979
alization 6973
SE@@ 6972
highlights 6972
restore 6971
policymakers 6970
sustain 6965
difficulty 6960
Production 6957
Multilateral 6953
1986 6949
initially 6947
adjusted 6945
community-based 6945
1.5 6944
flight 6943
detection 6942
Prosecution 6941
elaborate 6941
voice 6940
opposed 6937
su@@ 6937
repeatedly 6935
ultimately 6935
codes 6933
elaborated 6930
piracy 6926
contemporary 6922
quickly 6922
references 6919
underscored 6917
realized 6915
Russia 6908
pro@@ 6908
publicly 6904
05 6902
solely 6902
Co@@ 6899
Violations 6899
Coordinating 6894
Provide 6893
ensures 6888
presidency 6884
Case 6883
recipient 6883
assumption 6880
aforementioned 6879
none 6877
Round 6875
extending 6873
ism 6873
Maritime 6871
Mine 6871
clients 6868
outset 6867
7,@@ 6863
tenure 6857
think 6856
reinforcing 6855
av@@ 6854
transboundary 6852
allocations 6851
conversion 6850
solid 6849
governed 6848
unemployed 6848
summarized 6847
7.@@ 6846
employee 6844
organisations 6842
25@@ 6837
,0@@ 6836
instability 6832
IX 6830
minutes 6830
Malawi 6829
ten 6827
ing@@ 6826
completely 6822
phases 6821
140 6819
herewith 6819
Yet 6818
inadmissible 6818
hopes 6817
mobilizing 6815
ator 6814
Accounting 6812
arbitral 6810
House 6808
oceans 6807
causing 6804
resolving 6804
p.m 6803
rich 6802
Introduction 6801
revenues 6801
supportive 6801
Se@@ 6800
copies 6799
nevertheless 6796
genital 6792
pursuit 6792
religions 6790
square 6790
Programmes 6789
preservation 6789
slavery 6785
ha 6784
demographic 6780
fell 6778
proceeding 6778
vi@@ 6775
3-@@ 6763
Trial 6762
networking 6749
Signed 6744
advantages 6744
Botswana 6740
Add.@@ 6739
train 6736
119 6733
buyer 6732
Responsible 6731
revealed 6731
decentralization 6726
willing 6726
Election 6724
holistic 6723
Manual 6721
producers 6721
ist 6714
Administrator 6713
architecture 6713
feasibility 6708
ov 6708
autonomy 6705
regulate 6700
CAT 6699
Estimate 6699
indication 6694
descent 6691
certificate 6688
exclusive 6687
survival 6684
wealth 6684
duly 6683
telecommunications 6682
atmosphere 6681
wording 6679
exercises 6676
practitioners 6676
attributed 6668
Hong 6666
jurisdictions 6662
roads 6661
retirement 6660
Ab@@ 6658
suspension 6656
Sh@@ 6655
moved 6650
Samoa 6647
9,@@ 6645
easily 6645
divided 6643
comparable 6642
appraisal 6636
ov@@ 6634
placement 6633
Overall 6629
intersessional 6628
in-@@ 6627
ordered 6627
confidential 6625
pages 6624
eleventh 6622
D-1 6620
partially 6620
program 6619
Response 6618
destination 6618
1982 6615
Housing 6615
user 6611
2.5 6610
UNFCCC 6610
geographic 6605
man@@ 6605
investigating 6596
oriented 6588
der 6587
learn 6587
large-scale 6585
1980 6584
ECLAC 6584
um 6584
well-@@ 6584
performing 6580
pl@@ 6578
Kong 6573
bis 6573
mutilation 6572
investors 6571
separately 6571
waters 6569
environments 6566
robust 6566
ina 6562
calculated 6561
decolonization 6561
Body 6553
Once 6552
optional 6552
Bar@@ 6551
Racism 6551
seem 6551
statutory 6551
abolition 6550
ge@@ 6549
Haitian 6547
125 6546
1540 6546
decree 6543
damages 6542
pledged 6539
abstentions 6533
audits 6527
Muslim 6523
proposes 6523
utmost 6519
per@@ 6518
sole 6518
resilience 6517
epidemic 6515
accorded 6513
murder 6513
simple 6513
compromise 6512
delivering 6512
interpreted 6512
partly 6508
dollar 6507
Because 6504
Unity 6504
operated 6502
disparities 6497
prosperity 6496
births 6495
Additionally 6494
iz@@ 6493
adapt 6485
Mauritania 6484
sports 6481
examining 6478
ors 6478
Inter-American 6477
briefed 6474
Situation 6468
tests 6467
Add.2 6466
London 6464
feedback 6463
contractor 6459
CDM 6457
EN@@ 6455
re 6455
satisfactory 6451
Mrs. 6449
historic 6448
Barbados 6446
ge 6446
unpaid 6446
sphere 6444
Recognizes 6442
circled 6442
ES 6440
indispensable 6439
constitution 6438
coordinators 6436
ma@@ 6435
globally 6433
oc@@ 6433
Personal 6429
exercised 6429
secretariats 6428
confirm 6424
evolving 6424
Views 6423
perceived 6422
Steering 6418
Expresses 6417
prescribed 6417
Capital 6416
ocean 6414
incorporating 6410
inspections 6409
aligned 6405
CEB 6402
ties 6399
Governance 6398
retention 6398
quite 6396
non-compliance 6394
Stresses 6391
disseminated 6391
ality 6389
clarified 6389
800 6386
ard 6382
imposition 6381
irrespective 6381
G. 6379
withdraw 6379
sales 6378
Standard 6373
Promote 6372
123 6371
investigative 6371
manifestations 6368
121 6364
nothing 6362
5th 6361
Madagascar 6360
becomes 6358
bo@@ 6352
inherent 6350
A.@@ 6349
rental 6349
allowances 6345
clause 6345
1985 6342
o-@@ 6341
contingency 6340
census 6335
viewed 6335
executed 6334
1987 6333
economically 6333
Maldives 6326
profile 6326
resettlement 6325
malnutrition 6324
ments 6324
ID@@ 6323
argued 6319
aspirations 6319
divisions 6319
fifty-ninth 6315
preceding 6310
news 6307
class 6306
to@@ 6306
Par@@ 6305
prohibits 6303
grade 6302
ded 6301
partial 6299
forestry 6298
seas 6298
6-@@ 6297
chosen 6295
extrajudicial 6293
thanked 6293
distinct 6291
rights-based 6286
patients 6283
153 6282
Korean 6279
reading 6278
Question 6270
prove 6270
low-income 6268
intimidation 6264
Brussels 6256
vacancies 6255
affects 6253
Major 6251
acceded 6249
please 6248
married 6246
modified 6244
Improved 6241
realities 6240
putting 6239
1,0@@ 6238
4-@@ 6237
Serious 6236
denial 6232
commentary 6230
5-@@ 6228
Account 6228
Study 6227
interviews 6225
maximize 6221
ob@@ 6221
countering 6220
penal 6219
Swiss 6214
fewer 6214
parameters 6214
fifty-eighth 6213
Integration 6210
guideline 6210
diversification 6208
Cabinet 6206
father 6206
fifty-seventh 6205
programmatic 6204
contingent-owned 6199
impartiality 6197
01 6195
excellent 6194
justification 6194
lies 6194
Agricultural 6193
attract 6192
ay 6192
Inhuman 6191
2000-2001 6189
Degrading 6186
Mu@@ 6184
unacceptable 6183
Without 6179
portion 6179
correct 6176
spare 6176
Th@@ 6175
unprecedented 6172
no@@ 6171
tu@@ 6171
frequent 6167
hosting 6167
pupils 6167
Arbitration 6166
Guyana 6166
resort 6164
paying 6163
1.3 6161
Develop 6161
Bo@@ 6159
50@@ 6157
Cape 6154
az@@ 6154
evident 6153
workforce 6149
cultivation 6144
11@@ 6142
showing 6139
desirable 6134
multi-@@ 6134
classified 6129
gathering 6127
leader 6126
3,000 6124
ized 6124
Certain 6122
on-@@ 6121
Registrar 6120
Operational 6119
Meetings 6118
0 6117
bu@@ 6117
hatred 6111
Parliamentary 6109
Private 6109
qualifications 6107
appropriately 6104
3.1 6102
7-@@ 6100
appreciate 6100
heavily 6100
explicit 6095
spite 6094
sub-Saharan 6094
guaranteeing 6092
id 6088
Mediterranean 6087
Program 6086
surrounding 6086
2020 6085
efficiently 6085
refusal 6083
comprise 6081
deterioration 6080
124 6073
truth 6073
applicant 6072
2.3 6071
hands 6068
alized 6067
settings 6067
po@@ 6066
video 6066
138 6063
6th 6058
ary 6058
militia 6058
Opportunities 6056
weight 6053
MO@@ 6052
eg@@ 6048
incorporation 6048
proactive 6041
prosecuted 6040
fulfilled 6037
nationally 6037
ruling 6037
extraordinary 6036
advise 6034
appealed 6034
smaller 6031
rose 6029
ultimate 6029
Nuclear-Test-Ban 6027
annexes 6024
entirely 6023
FOR 6021
Reporting 6021
182 6019
challenging 6018
patrol 6016
saw 6014
06 6013
managerial 6013
ST 6012
falling 6012
ask 6008
Addis 6005
Systems 6003
sponsoring 6003
rec@@ 5999
Lakes 5996
a.m 5996
plants 5996
debris 5995
ES@@ 5993
medicines 5983
af@@ 5981
evaluating 5978
obstacle 5976
sixty-first 5976
AN@@ 5975
ology 5973
pool 5972
spouses 5970
perhaps 5967
AP@@ 5965
infant 5965
Ababa 5964
attainment 5962
700 5961
observe 5959
hearings 5958
Washington 5956
Records 5954
Urban 5954
quantity 5953
ment@@ 5952
prohibiting 5946
Iranian 5945
07 5944
structured 5943
truly 5943
five-year 5942
lay 5942
stating 5941
South-East 5940
fl@@ 5937
locally 5937
CERD 5936
stood 5936
commenced 5934
specialists 5934
resume 5933
traditions 5933
validity 5930
Puerto 5928
assure 5928
releases 5928
acknowledge 5924
au@@ 5924
claimants 5922
q@@ 5922
disappearances 5921
nominated 5918
beneficial 5917
borne 5917
ical 5915
incitement 5915
proven 5915
ud@@ 5915
Enhanced 5909
exceptions 5907
Woods 5906
134 5904
ative 5900
ling 5899
Care 5898
organic 5898
justify 5897
Dis@@ 5887
commerce 5887
parental 5887
Rwandan 5886
stabilization 5886
speech 5882
equipped 5879
payable 5873
arrived 5872
phrase 5861
client 5855
verify 5855
180 5854
Regular 5852
Bretton 5849
congratulate 5849
ance 5847
corporal 5846
exercising 5846
died 5844
ta 5844
Investigation 5840
entrepreneurship 5838
plays 5838
preambular 5837
Cruel 5835
ons 5835
islands 5833
prosecutor 5831
ST@@ 5830
ity 5829
misconduct 5829
resumption 5829
violate 5827
e-mail 5825
affirmed 5824
ICRC 5823
survivors 5823
rapporteurs 5822
RC 5821
instruction 5820
shares 5819
10,000 5817
ten@@ 5817
Sudanese 5815
Academy 5814
measurement 5810
punishable 5810
Register 5809
realistic 5809
IMO 5805
mo@@ 5803
Families 5801
debtor 5801
gradually 5800
concludes 5797
frequency 5796
Dr. 5795
measured 5795
advocate 5794
pe@@ 5794
Madrid 5793
communicate 5788
valuation 5777
GM 5775
XI 5775
airport 5775
moment 5775
CMP 5774
Mal@@ 5773
weekly 5772
HR 5771
ph@@ 5770
street 5770
awards 5769
enormous 5767
Registry 5765
8.@@ 5764
IR@@ 5764
non 5762
attending 5760
under@@ 5754
SA 5753
perpetrated 5752
patrols 5751
cargo 5750
stands 5749
twice 5748
massive 5745
ves 5744
gu@@ 5737
IP@@ 5736
Not 5728
marketing 5726
evolution 5721
listing 5721
apparent 5720
uniform 5720
satisfied 5719
Resident 5717
kilometres 5716
40@@ 5714
cross-@@ 5712
precise 5711
Democracy 5709
commencement 5707
workplan 5706
loan 5703
Umoja 5701
declare 5699
sum 5696
crops 5692
Atlantic 5691
reparation 5691
Trinidad 5688
1978 5687
relatives 5687
upcoming 5686
128 5685
Bhutan 5683
leads 5681
Specific 5679
IF@@ 5678
taxes 5678
portfolio 5676
PO@@ 5674
126 5673
Le@@ 5673
alien 5673
ry 5673
picture 5669
bases 5663
returning 5663
looking 5662
negotiate 5662
enjoyed 5661
notion 5661
ses 5657
Aviation 5655
collecting 5653
cease 5650
instalment 5649
ethical 5648
7th 5647
landmines 5647
Sa@@ 5644
punish 5644
branches 5643
guilty 5641
withdrawn 5641
ch 5640
radioactive 5638
evaluated 5637
1949 5636
169 5635
ports 5634
privacy 5634
ass@@ 5630
Reconciliation 5629
excluding 5629
king 5628
Objective 5626
attempted 5626
alizing 5625
creditor 5625
indirectly 5625
ent@@ 5621
comes 5617
intensified 5617
admission 5615
Eradication 5612
ying 5611
standardized 5608
s-@@ 5606
skilled 5605
Immigration 5603
Genocide 5599
ci@@ 5598
radiation 5596
Ivorian 5595
certificates 5592
Rotterdam 5591
SC 5591
anti-corruption 5590
separated 5589
Independence 5588
Tobago 5588
acted 5588
incompatible 5588
diamonds 5586
strike 5584
creditors 5581
Al-Qaida 5580
testimony 5578
3.2 5576
NLB 5575
ence 5575
UNITAR 5574
himself 5574
middle-income 5574
expedite 5573
three-year 5573
generating 5569
mark 5569
morning 5569
discipline 5568
universality 5568
deleted 5566
era 5566
unified 5566
accede 5565
160 5564
cooperating 5562
Prevent 5561
powerful 5560
Amendment 5555
Migrant 5555
Acts 5552
FA@@ 5552
analysed 5552
CARICOM 5543
hi@@ 5540
Marine 5536
expressly 5535
trying 5534
127 5532
Industry 5532
arrears 5532
placing 5530
index 5528
IT 5527
Gulf 5525
officially 5525
essentially 5523
ma 5523
up@@ 5521
easy 5519
car@@ 5518
ise 5517
participant 5517
Strengthen 5516
contents 5512
Role 5508
Royal 5508
originally 5508
surplus 5508
com@@ 5507
135 5504
gathered 5501
policymaking 5499
argument 5497
pertinent 5497
fragile 5495
excess 5492
returns 5491
witnessed 5491
seller 5490
gh@@ 5489
continuously 5486
receivable 5486
CO 5484
possibly 5484
twenty-third 5483
Combating 5481
io 5481
IDB.@@ 5480
enquiry 5479
for@@ 5479
counterparts 5478
Library 5477
Ordinance 5476
messages 5476
whenever 5476
Province 5473
pensions 5471
Free 5469
Practice 5468
parent 5467
livelihood 5465
institutes 5463
repair 5463
analysing 5460
looks 5458
Copenhagen 5456
kg 5456
incumbent 5454
= 5451
il 5451
explosives 5450
hundreds 5450
Istanbul 5447
regulating 5447
1973 5446
kinds 5445
Gabon 5443
departure 5443
parliament 5443
recalling 5442
deals 5438
Powers 5435
utilize 5433
clarity 5429
handed 5428
presenting 5428
C.4 5427
motivated 5427
advised 5426
uncertainty 5426
Aspects 5425
Bearing 5420
accommodate 5420
res@@ 5416
towns 5416
ne@@ 5413
spouse 5413
Qu@@ 5411
concentrated 5410
confiscation 5407
00@@ 5406
feature 5406
Improving 5402
Coalition 5399
TD 5399
consulted 5398
twelfth 5394
tend 5390
Am@@ 5389
LA@@ 5389
reinforced 5388
shortcomings 5387
accidents 5386
Recent 5384
broadly 5381
OAU 5380
screening 5380
Accounts 5379
UNDAF 5379
racist 5376
1981 5373
ITC 5370
relocation 5370
disseminating 5368
spheres 5368
liable 5365
ati@@ 5360
141 5357
motion 5357
timetable 5357
adversely 5354
contrast 5351
low-@@ 5349
wrongful 5348
129 5346
ging 5343
Ac@@ 5341
marriages 5340
sexually 5338
fine 5337
responsive 5337
132 5333
IM@@ 5323
fifty-fifth 5323
9th 5322
discussing 5320
Lu@@ 5319
peer 5318
missiles 5317
innocent 5315
returnees 5314
empower 5313
associate 5312
pressing 5310
IS 5308
supplement 5308
Ethics 5307
Liberian 5306
tra@@ 5305
processed 5303
annexed 5298
ization 5296
updates 5296
Chemicals 5294
ranging 5294
avoiding 5293
Advice 5292
western 5291
surface 5289
AC@@ 5288
sixty-second 5288
UNFICYP 5287
breakdown 5287
revisions 5286
fifty-sixth 5282
Ali 5281
arguments 5280
Every 5279
chief 5277
Natural 5275
certainly 5271
goes 5270
ale 5268
so@@ 5267
acknowledges 5266
aliens 5265
133 5263
Capacity 5263
endeavours 5261
ru@@ 5261
Four 5257
councils 5252
weaknesses 5250
Mandate 5249
unanimously 5247
Tokelau 5243
Date 5242
CRIC 5240
UNCDF 5240
Secondly 5237
crossing 5236
grow 5236
sur@@ 5235
multi@@ 5234
College 5233
specify 5232
ve 5232
casualties 5231
parliamentarians 5231
thereafter 5231
adapted 5230
females 5229
elect 5228
modules 5228
Unfortunately 5226
accreditation 5226
commends 5225
consequently 5223
inventories 5222
Committed 5221
books 5221
PR@@ 5218
contexts 5216
Zone 5214
2016 5213
Plenary 5213
finally 5211
ong 5210
shelters 5210
0,000 5209
harmonize 5207
missile 5206
MI@@ 5205
amending 5203
Baghdad 5202
air@@ 5202
objections 5199
appropriations 5194
est@@ 5192
eventually 5190
promulgated 5189
th 5188
communicated 5186
distinguished 5182
recourse 5182
punished 5179
Presidency 5177
designing 5173
Presidential 5170
illiteracy 5169
ian 5168
ani 5167
33@@ 5162
alleviation 5162
corrections 5162
inconsistent 5159
signs 5158
attain 5156
defend 5156
commend 5155
told 5155
consist 5152
threshold 5150
ver@@ 5149
Is 5146
freeze 5145
Transfer 5144
Papua 5142
ders 5141
cessation 5139
AL@@ 5136
developmental 5134
Liaison 5133
classes 5132
peacekeepers 5131
tension 5129
fertility 5128
9-@@ 5127
accelerated 5125
CST 5124
TS 5114
ness 5113
discretion 5111
front 5111
Sha@@ 5110
Bi@@ 5109
Peaceful 5108
comprised 5108
inalienable 5108
licence 5106
confidentiality 5105
linking 5105
limiting 5104
131 5103
MINURSO 5103
arrival 5102
900 5097
succession 5094
irregular 5093
Dispute 5092
foreigners 5091
izing 5091
heart 5090
den@@ 5088
highlighting 5088
fail 5086
tr@@ 5086
recording 5085
34@@ 5084
Americas 5083
ill 5081
respecting 5073
Abyei 5072
uphold 5072
concentration 5070
Kar@@ 5068
answer 5068
invoked 5068
liquidation 5068
Ensuring 5067
assault 5067
2.4 5065
measuring 5065
SO@@ 5062
entail 5060
tri@@ 5058
Commander 5053
revise 5053
0-@@ 5051
Chambers 5048
Monaco 5048
acute 5047
Key 5045
seemed 5041
sure 5041
Mon@@ 5039
UNAMA 5038
Stabilization 5037
8th 5032
IT@@ 5032
ged 5032
immigrants 5031
der@@ 5030
Liberation 5029
regret 5029
145 5028
filled 5027
C-@@ 5025
C.6 5025
assumptions 5025
asylum-seekers 5025
authorize 5025
gender-sensitive 5025
owed 5025
MONUSCO 5022
Enforced 5020
ks 5020
speed 5020
sport 5020
Percentage 5014
divorce 5012
threaten 5012
ko 5010
fit 5009
playing 5008
protective 5005
Lesotho 5003
emphasizing 5003
pillar 5002
thirteenth 5002
methodological 5001
pa@@ 5001
Mogadishu 5000
Destruction 4995
UR@@ 4995
roster 4994
worker 4994
Providing 4992
Conventional 4991
1.4 4989
Presidents 4989
sixty-fifth 4988
intent 4987
systemic 4986
rations 4985
Personnel 4983
139 4982
Gibraltar 4981
fiftieth 4981
socially 4981
sixty-third 4980
Seminar 4979
vary 4977
decentralized 4974
SS 4970
Address 4969
secret 4969
flag 4968
í@@ 4968
Minorities 4962
high-@@ 4961
Me@@ 4957
properties 4957
Commercial 4956
warrant 4956
moratorium 4955
assured 4952
damaged 4950
Bonn 4949
meets 4949
holds 4948
monitors 4948
Compliance 4947
Min@@ 4946
scientists 4945
ics 4941
Insurance 4939
defines 4939
GS 4938
ja 4938
slightly 4938
adolescent 4937
collectively 4937
For@@ 4935
Policies 4935
qualitative 4935
NATO 4933
socioeconomic 4933
residential 4927
IMIS 4925
demonstration 4925
describe 4925
we@@ 4925
136 4924
owners 4923
Partnerships 4922
142 4920
143 4920
align 4912
small-scale 4912
boards 4911
CE@@ 4910
Professor 4910
atory 4910
receives 4910
licensing 4908
Civilian 4907
lived 4904
mixed 4904
finalize 4902
plus 4902
ak 4900
ist@@ 4900
metres 4898
SR@@ 4897
admitted 4897
155 4896
fifty-fourth 4896
orbit 4894
C.@@ 4893
careful 4891
dismissed 4891
Cairo 4890
projections 4890
autonomous 4889
162 4888
4.1 4887
segments 4886
Per@@ 4885
im 4885
genetic 4884
night 4883
strive 4883
P.@@ 4882
render 4879
Reiterates 4878
ach@@ 4878
violating 4878
So 4876
medium-sized 4876
Com@@ 4875
non-discriminatory 4872
alignment 4871
weather 4869
Guiding 4868
River 4868
M. 4867
Governmental 4866
revitalization 4860
draws 4859
microfinance 4854
war@@ 4851
platforms 4848
are@@ 4844
Current 4843
ba@@ 4843
ton 4842
tribute 4842
consolidating 4841
prolonged 4841
ex 4840
navigation 4839
satellites 4838
4.2 4836
childhood 4836
consumers 4836
feel 4835
commence 4834
enactment 4833
Consider 4832
www.@@ 4826
politics 4824
Counsel 4823
9.@@ 4820
nineteenth 4820
deferred 4819
indicative 4819
earmarked 4815
invest 4814
Agreements 4813
CCW 4813
1984 4810
infection 4809
min@@ 4809
eligibility 4808
INF 4807
book 4804
argues 4802
Establish 4801
ize 4800
reflection 4799
reverse 4799
AI 4798
Bahamas 4798
Radio 4798
falls 4798
Future 4797
ecological 4796
GA 4791
H. 4790
137 4788
explored 4788
CC@@ 4786
panels 4785
exemption 4783
fifty-third 4780
km 4779
convey 4774
fi@@ 4774
Five 4772
Treaties 4772
UNU 4772
ow@@ 4771
AU 4770
installations 4769
8-@@ 4767
CC 4767
DE@@ 4767
Practices 4767
Should 4767
fifteenth 4767
Gambia 4766
sion 4764
Cor@@ 4763
entrepreneurs 4763
installation 4761
country-specific 4758
Meanwhile 4756
Centres 4755
false 4755
issuing 4754
Organizational 4753
aiming 4752
notified 4751
FARDC 4750
ai 4749
sed 4748
non-nuclear-weapon 4747
Inter-@@ 4746
Ban@@ 4745
exceeded 4745
deficit 4743
bridge 4742
Italian 4741
Prison 4740
tested 4739
volunteers 4739
144 4737
Risk 4735
Ra@@ 4734
IDPs 4733
og@@ 4733
proceeded 4733
4,000 4732
Revised 4732
Construction 4730
emergence 4729
notwithstanding 4728
chronic 4726
3.3 4724
CONF.@@ 4724
cancer 4723
individually 4723
Light 4722
posted 4721
ges 4720
accredited 4718
communiqué 4717
Commerce 4715
ran@@ 4715
CR@@ 4714
Corporation 4708
Groups 4708
persistence 4708
Considering 4707
Performance 4707
committing 4707
grown 4707
independently 4707
Japanese 4706
decisive 4706
restrictive 4704
Sal@@ 4703
all@@ 4703
lowest 4703
q 4703
phased 4702
147 4698
Higher 4697
IA 4697
Tourism 4695
distance 4695
mapping 4695
traditionally 4695
El@@ 4694
enables 4694
entitlements 4693
Governor 4691
Impact 4690
ambitious 4690
aries 4690
Sub@@ 4688
Ro@@ 4683
SADC 4683
quarterly 4683
whatever 4682
OIC 4681
Owing 4681
cut 4679
Maintenance 4678
student 4678
Oman 4674
Disability 4671
rotation 4669
totalling 4669
Substantive 4668
quantities 4668
examinations 4667
multilateralism 4667
exclude 4665
restrict 4664
arrests 4663
sp@@ 4663
alize 4661
wondered 4661
50,000 4660
37@@ 4659
48@@ 4657
Competition 4657
Q 4657
Reference 4654
establishments 4654
clinics 4653
judgements 4653
popular 4652
compatible 4648
marginalization 4647
exemptions 4645
166 4644
200@@ 4642
Sir 4640
deficiencies 4640
abolished 4638
linguistic 4636
Go@@ 4634
supplied 4632
Judges 4631
break 4631
founded 4630
wishing 4628
expect 4625
deploy 4623
helps 4623
146 4622
inability 4620
choices 4618
San@@ 4616
du@@ 4616
suspects 4616
unknown 4616
contingents 4615
faces 4613
Due 4612
completing 4612
colonial 4611
confident 4611
Goods 4610
certified 4610
hazards 4610
operates 4607
un 4606
hence 4605
prosecutions 4605
Courts 4603
Anti-@@ 4601
stressing 4601
ING 4600
tor 4598
trainers 4598
gradual 4597
Danish 4596
neighbours 4596
ke 4594
vendors 4593
exceeding 4592
restriction 4592
beliefs 4589
Minimum 4588
aside 4588
forensic 4588
ib@@ 4587
addendum 4586
fate 4586
agendas 4584
ban@@ 4583
profound 4583
operators 4582
urbanization 4582
ation@@ 4581
visiting 4580
inception 4579
complemented 4576
36@@ 4575
Hence 4575
ang@@ 4575
1998-1999 4574
Company 4574
Har@@ 4572
micro@@ 4572
continental 4571
ically 4571
Expressing 4570
60@@ 4568
Decisions 4567
describes 4566
applicants 4562
module 4562
voted 4562
80@@ 4561
Verde 4561
ang 4561
151 4560
interdependence 4560
diversion 4558
collaborate 4555
conceptual 4555
long-standing 4554
Approach 4553
end@@ 4553
Detention 4552
sensing 4552
quantitative 4550
Swedish 4549
UNDOF 4549
harmony 4549
privileges 4549
Rehabilitation 4547
methyl 4545
running 4542
38@@ 4541
attacked 4541
Decolonization 4539
03 4538
UNV 4538
infections 4537
nationwide 4536
sixty-fourth 4536
mercenaries 4534
seekers 4532
So@@ 4531
colleagues 4531
No@@ 4529
interpretative 4527
smooth 4527
isolation 4526
Bali 4525
Kivu 4525
adding 4525
marital 4524
exploring 4522
underlines 4521
Refugee 4517
breaches 4517
chapters 4517
adhere 4516
CTBT 4512
flights 4512
politically 4512
cooperatives 4511
council 4511
streamlining 4511
varied 4511
visible 4510
afford 4509
wherever 4504
visibility 4500
mere 4499
multi-stakeholder 4498
sincere 4498
lacking 4497
attitude 4496
Intelligence 4495
settled 4495
alism 4494
sixteenth 4491
subprogrammes 4491
attaches 4490
typically 4490
Sub.2 4488
156 4487
farming 4486
prerequisite 4486
Enhancing 4483
unnecessary 4481
10,@@ 4480
St. 4478
Crimes 4477
shipping 4477
toxic 4477
ICC 4474
demonstrations 4472
remittances 4472
coercive 4470
reminded 4468
Web 4467
medicine 4465
vi 4463
brings 4461
poses 4461
east 4459
Capacity-building 4458
Border 4457
Uses 4455
audited 4453
desired 4452
valued 4450
12.@@ 4449
J 4447
earnings 4447
shortage 4447
Abu 4446
Brazilian 4445
dependence 4445
non-post 4445
anyone 4444
1979 4443
CN@@ 4442
Good 4442
Vice-Chairman 4442
1325 4439
Works 4439
ite 4439
154 4436
parliaments 4435
commented 4433
Media 4431
zero 4431
vacant 4430
introductory 4428
Road 4427
Young 4426
profits 4426
GHG 4425
ational 4425
awaiting 4425
directors 4424
pass 4424
MDG 4423
dec@@ 4423
undermined 4423
seventeenth 4422
possess 4420
obvious 4419
simultaneously 4417
Sam@@ 4416
6,000 4414
Compensation 4414
cancellation 4413
pour 4412
Organisation 4411
ats 4408
alleviate 4407
constantly 4407
renew 4407
PRST 4406
helpful 4406
realizing 4405
ty 4404
152 4402
Hall 4402
Income 4402
cl@@ 4400
cope 4400
files 4400
capture 4399
ala 4389
men@@ 4389
timing 4389
Challenges 4388
tackling 4388
demining 4386
declining 4384
ol 4384
preferred 4384
208 4383
Held 4382
accessing 4382
pandemic 4381
tuberculosis 4380
57@@ 4379
schooling 4378
virtue 4375
Enforcement 4374
deportation 4373
halt 4372
trafficked 4372
consultant 4370
vis-à-vis 4370
to-@@ 4367
contributors 4366
les 4365
Adopted 4364
Blue 4363
hardship 4360
ur 4360
civilizations 4359
tion@@ 4358
XII 4352
periodically 4350
questioned 4350
Ageing 4349
referral 4349
Investigations 4346
expense 4345
positively 4343
39@@ 4341
exhausted 4341
157 4339
UNMEE 4337
Ministries 4335
shortly 4335
Electronic 4334
ill@@ 4334
Press 4333
AC.109 4331
divide 4330
eradicating 4330
Subsidiary 4329
can@@ 4328
hour 4328
humankind 4325
ourselves 4325
UNDG 4324
unencumbered 4323
pretrial 4321
respondents 4321
designation 4320
parity 4320
scenario 4320
na 4319
teacher 4319
Ber@@ 4318
Im@@ 4317
ast@@ 4317
Life 4315
Procedures 4314
Scheme 4313
solve 4311
restitution 4310
acceding 4309
competencies 4308
ethnicity 4308
149 4307
preference 4307
Twenty-@@ 4306
prominent 4305
Line 4303
signatories 4298
substitute 4298
Conservation 4296
Mor@@ 4295
du 4295
1974 4294
stimulate 4293
UNAMSIL 4292
5.2 4291
Holy 4291
nominations 4290
identifies 4288
routes 4288
endorsement 4287
helicopters 4287
policing 4286
ret@@ 4283
earthquake 4281
magnitude 4280
steady 4280
d-@@ 4279
visa 4278
Recovery 4275
248 4273
@ 4273
upgrade 4272
á@@ 4272
148 4269
Solidarity 4268
Nonetheless 4266
crop 4266
deliberate 4264
designate 4264
158 4263
Tax 4262
Be@@ 4261
TA@@ 4258
self-defence 4258
02 4256
Others 4256
UNAMI 4256
170 4255
Figure 4254
streamline 4254
accomplishment 4252
chains 4250
XV 4249
permission 4248
UNMIT 4243
Verification 4243
Moscow 4242
Dec@@ 4241
ants 4240
criterion 4239
immunities 4239
filing 4237
disclosed 4236
sixty-sixth 4236
IC 4235
coordinates 4234
agent 4233
quota 4231
vulnerabilities 4231
Application 4226
mm 4225
occurring 4224
ID 4221
1970 4220
Likewise 4217
expeditiously 4217
10-@@ 4216
doctors 4216
translate 4216
242 4214
3.5 4214
laboratory 4214
Men 4212
CP@@ 4210
the@@ 4210
benefiting 4209
recipients 4209
specialist 4208
dangers 4204
incomes 4204
proposing 4203
,000 4202
47@@ 4200
diligence 4200
IG@@ 4199
modernization 4197
CIS 4196
accident 4195
agrees 4192
empowered 4192
161 4191
Argentine 4191
Beirut 4191
Executives 4190
boundary 4190
civic 4190
settlers 4189
intercultural 4188
tors 4188
Empowerment 4187
carrier 4186
credentials 4186
expects 4186
ological 4186
rebel 4185
5.1 4184
Ba@@ 4184
Equatorial 4184
reliance 4184
postponed 4180
Emphasizes 4178
eighteenth 4178
disappeared 4177
confirmation 4176
neutral 4176
rel@@ 4176
overarching 4175
accelerating 4174
boundaries 4173
Background 4172
WP.@@ 4172
accomplished 4172
peace-building 4172
Prior 4170
high-quality 4170
Various 4168
scourge 4167
chair 4165
ou 4164
10-year 4163
interregional 4163
Recalls 4161
Compact 4159
tonnes 4157
negatively 4154
Early 4153
Z 4153
dropped 4153
201 4151
Kimberley 4150
Islam 4149
safeguarding 4149
04 4148
OP@@ 4148
J. 4147
directives 4145
apportionment 4143
chairmanship 4142
commonly 4136
preserving 4136
earliest 4135
worst 4133
ised 4131
ering 4128
UNMISS 4127
IOM 4126
ordnance 4122
stakeholder 4121
inspectors 4119
voluntarily 4118
165 4117
accuracy 4116
respects 4115
wood 4115
auditors 4114
Communities 4112
creative 4109
270 4108
huge 4105
IL@@ 4104
Together 4103
lending 4103
illegally 4102
archives 4100
1983 4097
finalization 4097
outlines 4097
Funds 4096
Mohamed 4094
marking 4094
Friends 4093
Notwithstanding 4092
computers 4092
supervisory 4091
ists 4089
treat 4089
foreseen 4087
4.5 4086
males 4085
Provisions 4084
probably 4083
PRESIDENT 4081
w 4081
cell 4080
deposits 4080
Fundamental 4078
informing 4077
dual 4074
broadcast 4071
impetus 4070
overcoming 4069
shocks 4069
aftermath 4068
ane 4068
devastating 4067
ously 4067
RIGHTS 4066
46@@ 4065
Comoros 4065
connectivity 4064
public-private 4063
remnants 4062
affirmative 4061
militias 4058
Market 4057
Rico 4056
eliminated 4056
Eritrean 4055
twenty-fourth 4053
childcare 4052
Granting 4051
GA@@ 4050
1.6 4049
anti@@ 4046
commensurate 4045
wanted 4045
han@@ 4044
reconnaissance 4044
regretted 4044
213 4041
overseas 4041
synergy 4041
ble 4039
LE@@ 4038
researchers 4038
acknowledging 4037
10.@@ 4036
challenged 4036
renewal 4035
PA 4034
ie 4034
tor@@ 4034
Ban 4033
4.3 4032
1961 4031
220 4031
sixty-seventh 4027
IDF 4026
thirds 4026
1977 4025
depth 4024
defendant 4022
abduction 4021
investigators 4020
189 4019
Registration 4019
Request 4017
er-@@ 4017
conscience 4015
full-time 4014
perception 4013
incentive 4012
persecution 4012
consulting 4010
lawful 4008
prioritize 4008
notify 4006
publish 4005
compiled 4002
uranium 4002
251 4000
1975 3998
impede 3997
2.6 3996
longer-term 3996
entitlement 3995
fourteenth 3995
sending 3994
159 3993
Applications 3993
Landlocked 3991
IPCC 3989
escalation 3984
gases 3983
advocated 3981
alternate 3981
ven@@ 3980
ends 3978
diplomacy 3976
ner 3974
remind 3974
210 3973
stockpiles 3973
unlikely 3972
Supply 3971
replied 3971
evacuation 3968
ballot 3967
Institutional 3966
allegation 3963
ric@@ 3963
Os 3960
Citizens 3959
gather 3959
1951 3958
clusters 3958
variance 3957
Green 3956
driving 3956
illness 3955
reserved 3955
automatically 3954
creates 3953
Belize 3951
211 3948
demonstrates 3948
Closed 3947
nomination 3947
gen@@ 3944
Taiwan 3942
Aboriginal 3937
hazard 3934
000 3933
11,@@ 3931
rejection 3931
tailored 3929
mar@@ 3928
thinking 3928
linkage 3927
Plurinational 3926
blockade 3926
miscellaneous 3926
aggregate 3922
receivables 3922
holder 3921
industrialized 3920
settle 3918
Contracts 3917
imposing 3917
country-level 3915
occurs 3912
oversee 3910
Embassy 3909
convictions 3909
CISG 3908
Ethiopian 3908
MENT 3904
NO@@ 3904
dr@@ 3904
implies 3904
Solomon 3903
stateless 3903
PS 3902
backlog 3901
detect 3899
58@@ 3898
wounded 3898
expectancy 3896
image 3896
two-year 3896
resistance 3895
calculation 3894
controlling 3894
ars 3892
facilitates 3891
fe@@ 3890
legality 3890
usefulness 3890
Enterprise 3888
FMCT 3888
ens 3888
ozone-depleting 3888
90@@ 3885
appreciates 3884
str@@ 3884
Guam 3881
accrued 3881
ess@@ 3881
gold 3881
mat@@ 3880
vendor 3879
endorse 3878
tic 3877
after-service 3876
our@@ 3876
loc@@ 3875
websites 3874
Albanian 3873
avoided 3873
mobilized 3873
D-2 3871
packages 3871
sal@@ 3870
IFAD 3869
residing 3869
As@@ 3868
exacerbated 3868
removing 3867
Annexes 3865
narrow 3865
seat 3863
Projects 3862
admissible 3862
CH@@ 3861
circulation 3861
UNLB 3860
applicability 3859
Greater 3858
beneficiary 3856
clauses 3856
formula 3853
Pe@@ 3852
suicide 3852
profit 3851
173 3843
contaminated 3842
broaden 3840
ring 3840
Mines 3839
NE@@ 3839
Swaziland 3839
bromide 3839
fee 3839
infected 3839
sing 3839
Lack 3837
Towards 3837
1971 3836
channel 3834
cohesion 3833
164 3832
easier 3832
abide 3831
bur@@ 3829
drivers 3829
inheritance 3829
signatory 3829
TION 3826
judgment 3826
complementarity 3825
virtually 3825
Fisheries 3824
Christian 3823
.org 3822
temporarily 3822
ut@@ 3822
49@@ 3821
Colonial 3821
20,000 3820
verified 3819
maps 3817
library 3815
licences 3814
profession 3811
Almaty 3809
corrected 3809
predecessor 3807
explanations 3806
cycles 3805
requisite 3803
segregation 3803
print 3802
colour 3801
Norwegian 3799
coast 3799
deforestation 3798
hundred 3798
fifty-second 3796
hampered 3795
successor 3795
enacting 3794
167 3793
imported 3793
dialogues 3792
vessel 3791
instituted 3789
ascertain 3788
L.1 3786
accord 3785
Examples 3782
usage 3781
ber@@ 3780
fairly 3779
neglect 3778
ari 3776
intend 3776
installed 3774
perpetrator 3774
undermining 3774
Ap@@ 3773
forwarded 3772
sions 3772
Near 3770
Transparency 3770
sensitization 3769
Exchange 3766
Suriname 3764
Intolerance 3761
taxation 3761
227 3758
José 3758
credits 3758
go@@ 3758
Engineering 3756
recover 3754
satisfy 3754
ai@@ 3753
route 3753
succeed 3753
Kinshasa 3752
deny 3751
scenarios 3750
COM@@ 3749
175 3747
instrumental 3746
163 3745
activists 3745
dynamics 3745
part-time 3745
rooms 3743
vol 3743
John 3739
isolated 3738
1980s 3737
Georgian 3736
announcement 3735
del 3735
modest 3735
residual 3735
investing 3734
mu@@ 3734
readily 3734
save 3732
ked 3731
shells 3731
predictability 3730
At@@ 3729
logical 3728
progressively 3728
broadcasting 3727
drive 3727
Adaptation 3725
Ver@@ 3725
192 3724
procuring 3724
dry 3721
bar@@ 3719
Funding 3718
Lucia 3716
em 3714
ACC 3712
MS 3712
199@@ 3711
35@@ 3711
enrolled 3711
sample 3711
Periodic 3708
seizure 3708
Mer@@ 3704
qualification 3704
ef@@ 3702
manager 3701
Organic 3700
Forest 3699
Hu@@ 3699
Non-Governmental 3699
Khartoum 3696
Nations-@@ 3696
acquiring 3696
sold 3696
Attorney 3695
actuarial 3694
reaffirming 3691
tradition 3690
au 3687
tortured 3685
utility 3685
13,@@ 3684
privatization 3681
168 3679
lacked 3679
generic 3678
172 3677
laundering 3677
millennium 3676
steadily 3675
varying 3675
reliability 3673
70@@ 3672
start-up 3672
CP 3667
disproportionate 3667
fairness 3667
panellists 3667
consisted 3665
mitigating 3665
interrelated 3664
complied 3663
studied 3663
passage 3662
handled 3661
directions 3660
ali 3659
measurable 3658
Offices 3657
tragic 3657
ins 3655
Inspectors 3654
ently 3654
universally 3654
assignments 3653
entails 3653
interface 3653
Add.3 3652
multisectoral 3652
participates 3652
recosting 3652
up-to-date 3649
hygiene 3648
middle 3648
afforded 3647
lease 3647
undertakings 3645
coalition 3643
Instead 3642
livestock 3641
supplemented 3641
Senate 3640
carries 3640
turned 3640
12,@@ 3639
Globalization 3639
ches 3639
doctrine 3639
paramount 3639
rent 3638
pressures 3637
ps 3635
1972 3634
furniture 3634
Whole 3633
di 3633
freight 3632
notifications 3632
preferential 3631
academia 3630
appendix 3628
invested 3628
ful 3627
UPR 3626
deadlines 3626
constructed 3625
remainder 3625
Antigua 3622
Subject 3622
DA@@ 3621
gaining 3619
ish@@ 3618
empowering 3617
ure 3617
Malaria 3615
profiles 3615
redeployed 3615
22@@ 3614
devote 3614
modify 3614
3.4 3612
degrees 3611
correspondence 3610
ard@@ 3608
innovations 3608
AC.@@ 3607
meantime 3607
drop 3606
dic@@ 3605
attaining 3603
optimal 3603
14,@@ 3602
checks 3602
toward 3602
enti@@ 3601
ED 3600
contracted 3600
Col@@ 3596
clearing 3593
hit 3593
institute 3592
183 3591
Accord 3590
volatile 3590
OR@@ 3589
174 3588
Commitment 3588
litem 3588
sixty-eighth 3588
supplier 3588
hostile 3587
inmates 3587
shipment 3587
sponsor 3587
misuse 3586
rounds 3586
Missions 3585
ah@@ 3585
Vanuatu 3583
ably 3582
administrations 3582
ica 3582
Actions 3581
volatility 3581
experiencing 3580
utilizing 3580
asserted 3579
RO@@ 3578
provider 3578
cards 3577
Marino 3575
cooperated 3575
Addressing 3574
renovation 3574
quotas 3573
reaction 3573
Andorra 3572
work@@ 3571
243 3570
Effects 3569
ER 3567
Supporting 3564
Travel 3564
overdue 3564
Campaign 3563
recovered 3562
extremism 3561
Eight 3560
TH 3560
owner 3559
1969 3558
imply 3558
ot 3558
Em@@ 3557
ys 3557
Ben@@ 3556
Tokyo 3556
171 3555
56@@ 3555
ki 3555
embodied 3554
ozone 3554
suppression 3554
Subcommission 3553
ice 3553
214 3552
Du@@ 3552
Preparation 3552
flying 3552
seizures 3551
ish 3550
ited 3549
modifications 3548
diamond 3547
notable 3547
do@@ 3545
information-sharing 3545
chance 3544
publishing 3543
farm 3542
automatic 3541
ade 3540
Stressing 3539
observes 3538
opium 3538
aya 3537
2.7 3536
threatening 3536
modification 3535
om 3533
AC.105 3531
Economy 3530
terror 3529
que 3528
15,@@ 3527
Understanding 3527
steering 3527
ore 3524
unclear 3524
Implementing 3523
mankind 3523
Tuvalu 3522
abducted 3522
bulk 3521
factual 3521
recycling 3521
succeeded 3521
IV@@ 3519
15-@@ 3518
Jo@@ 3518
col@@ 3518
lifting 3518
ta@@ 3518
0,@@ 3517
affiliated 3517
defer 3516
Kabul 3515
non-expendable 3515
2017 3514
estate 3514
select 3513
Ne@@ 3512
accompanying 3511
Be 3510
Level 3510
Or@@ 3510
coupled 3510
59@@ 3509
tribal 3509
II.@@ 3508
Paragraphs 3508
Ozone 3507
suspend 3506
fuels 3505
spectrum 3504
Brindisi 3503
iv@@ 3503
ICSC 3502
IP 3502
usual 3502
0.7 3501
Egyptian 3501
Net 3501
discriminate 3501
visitors 3501
Similar 3500
printing 3500
226 3499
Evidence 3499
fo@@ 3498
ce 3496
occurrence 3496
extraterritorial 3495
ms 3495
10th 3494
-up 3493
Pre@@ 3493
CT@@ 3492
tobacco 3492
177 3491
CA 3488
tin@@ 3487
failing 3486
Initial 3485
gravity 3485
pledge 3484
deciding 3483
963-@@ 3482
1.7 3481
190 3481
Areas 3481
inappropriate 3481
suspicious 3481
differentiated 3480
tel 3480
Elections 3479
car 3479
deposit 3479
Brunei 3478
CON@@ 3476
currencies 3476
indiscriminate 3476
ease 3475
gone 3475
Throughout 3473
attained 3473
upheld 3473
HR@@ 3471
Inquiry 3471
year-old 3471
ME@@ 3470
Moroccan 3470
successive 3470
Bu@@ 3468
claiming 3467
unchanged 3467
UK 3465
successes 3465
1976 3464
centred 3464
ne 3464
reunification 3464
ious 3463
unequal 3463
Arusha 3462
Paper 3462
norm 3462
Home 3461
SubCommission 3461
fact-finding 3461
terminology 3461
Supplementary 3460
fresh 3459
countermeasures 3456
nets 3456
Principal 3455
forming 3455
tendency 3455
reproduced 3454
tasked 3454
condemn 3453
multidisciplinary 3453
shot 3453
down@@ 3452
handle 3451
Jewish 3450
st 3450
191 3447
11.@@ 3444
Ps 3443
advocates 3441
tariff 3440
Sanctions 3439
precisely 3436
TE@@ 3435
financially 3434
freezing 3434
illustrated 3433
mountain 3433
5.3 3432
Vincent 3432
interviewed 3432
181 3431
departmental 3431
rationale 3431
Stockpiling 3430
multidimensional 3430
235 3429
cells 3429
desk 3429
els 3429
geared 3429
laboratories 3429
amongst 3428
recurrent 3428
selective 3427
Relevant 3425
ba 3425
Cities 3424
fa@@ 3421
Ham@@ 3420
know-how 3420
Abuse 3418
destroy 3418
thousand 3417
185 3416
enact 3416
CO2 3415
Satellite 3415
infrastructures 3415
interview 3415
SU@@ 3414
Sales 3414
Virgin 3413
233 3409
midterm 3409
ning 3409
reg@@ 3409
portal 3408
68@@ 3407
Much 3407
ching 3407
tsunami 3406
passing 3405
US@@ 3404
memory 3403
undue 3403
ESA 3402
ex-combatants 3402
Exploitation 3401
TR@@ 3401
three-@@ 3401
LRA 3400
lu@@ 3400
186 3398
TC 3397
1.8 3395
INSTRAW 3395
240 3394
Ag@@ 3394
criminalization 3394
Muslims 3392
fallen 3391
Abidjan 3390
belong 3390
traffickers 3390
206 3389
Barbuda 3389
domain 3388
AS@@ 3386
multinational 3386
unsustainable 3386
Substances 3385
emanating 3383
260 3382
voters 3382
totally 3381
Accra 3380
FO@@ 3380
afternoon 3379
Consultations 3378
Front 3377
somewhat 3377
za 3377
images 3376
Serbian 3375
ke@@ 3375
merit 3375
west 3375
202 3374
218 3374
arose 3373
205 3372
ama 3372
solar 3372
flagrant 3370
libraries 3370
therapy 3370
exporting 3368
fashion 3368
sen@@ 3368
fluctuations 3367
promising 3367
sis 3367
Mexican 3366
adviser 3366
floods 3366
formerly 3365
players 3365
police-contributing 3365
refuse 3365
NAM 3364
cumulative 3364
offender 3364
17,@@ 3363
two-@@ 3363
blood 3360
ignored 3360
supplementing 3359
Portuguese 3358
raw 3357
Defense 3355
La@@ 3355
Trustees 3355
checkpoints 3355
planet 3355
ruled 3354
Strategies 3353
shape 3353
Cluster 3352
substantiated 3351
Sahel 3350
Gra@@ 3349
mer@@ 3349
ve@@ 3348
Colombian 3347
legacy 3347
sc@@ 3347
bro@@ 3345
References 3344
textbooks 3344
LDC 3343
overwhelming 3343
Atlas 3342
exit 3342
gl@@ 3342
co 3341
promise 3341
Church 3340
Seychelles 3340
Vice-Chair 3340
extremist 3340
named 3340
presumption 3338
Belgrade 3337
confined 3337
Physical 3336
recruit 3336
OL 3334
Co-@@ 3332
Entity 3332
Priority 3331
ss@@ 3331
dismissal 3329
feeding 3326
Facilitation 3324
Open 3323
foregoing 3322
likewise 3322
Sch@@ 3320
mail 3320
attach 3319
complicated 3319
rap@@ 3319
raises 3316
EP 3315
Growth 3315
178 3314
guard 3314
kits 3314
Legislation 3313
Poor 3313
1,7@@ 3312
MINURCAT 3312
PV.@@ 3312
democratization 3311
Assistants 3310
Time 3310
phenomena 3310
attempting 3309
demonstrating 3309
arsenals 3308
1267 3307
att@@ 3306
leg@@ 3306
Emphasizing 3305
Crisis 3302
UNOMIG 3302
reclassification 3302
terminated 3302
CTC 3301
boost 3301
ely 3301
Sciences 3300
abandoned 3300
contamination 3300
pre-trial 3300
4.4 3299
Significant 3299
Tra@@ 3299
appropriated 3298
ians 3297
1,500 3293
16,@@ 3293
Xenophobia 3289
yield 3289
impediments 3286
one-@@ 3286
Ge@@ 3285
Thematic 3285
something 3285
coexistence 3284
sexes 3284
fleet 3283
cannabis 3282
orphans 3282
Soviet 3280
Val@@ 3280
lie 3279
Rev@@ 3278
commissioned 3277
pen@@ 3277
sensitivity 3277
ide 3275
43@@ 3273
Now 3273
Opening 3271
Gar@@ 3270
adjust 3270
condemns 3270
phase-out 3269
Crescent 3268
wh@@ 3267
tly 3266
un.org 3265
197@@ 3264
230 3264
Claims 3264
reject 3264
176 3263
securities 3263
triangular 3263
euros 3262
Quartet 3261
indications 3261
tional 3261
broken 3260
govern 3259
protracted 3258
Journal 3255
cor@@ 3255
Responsibility 3253
hor@@ 3253
AD@@ 3252
Girls 3252
inviting 3250
Overseas 3249
visas 3249
TA 3248
1960 3246
thing 3246
Reintegration 3245
executing 3245
narcotic 3245
voter 3245
194 3244
Guidance 3244
ara 3244
purchasing 3244
Identification 3243
PRO@@ 3242
Bel@@ 3241
ales 3241
Knowledge 3240
XIII 3240
ri 3240
Commissions 3239
psychosocial 3239
184 3238
clothing 3238
Disabled 3236
King 3236
concentrate 3235
delegate 3235
disproportionately 3235
unauthorized 3235
earned 3234
recommending 3234
187 3233
Cs 3232
long-@@ 3232
ines 3231
clashes 3228
deposited 3228
sk@@ 3227
ERP 3226
eth@@ 3226
helicopter 3226
minimal 3226
alongside 3225
in-house 3225
abolish 3224
iti@@ 3224
He@@ 3223
consular 3223
foremost 3223
risen 3223
Rather 3219
compile 3219
scholarships 3219
educate 3218
speedy 3217
UNITA 3215
ensuing 3213
synthesis 3213
cutting 3212
disclose 3212
groupings 3212
Controller 3211
exploited 3211
ff@@ 3210
Darussalam 3209
consecutive 3209
won 3209
briefly 3208
self-sustainment 3208
tracing 3207
manuals 3206
ca@@ 3205
cost-sharing 3205
encouragement 3205
5.5 3203
cuts 3203
openness 3203
regrettable 3203
venue 3203
prevail 3202
reasonably 3201
188 3200
Ha@@ 3200
chairpersons 3200
count 3200
Encourage 3199
alike 3199
check 3199
restoring 3199
shipments 3199
Ibid 3198
feed 3198
erosion 3197
grass-roots 3197
interesting 3197
banning 3196
joining 3196
demanded 3194
Caledonia 3193
Credentials 3193
hereinafter 3193
Conclusion 3192
ceased 3192
tan@@ 3191
203 3190
350 3190
adi 3190
overlap 3188
Acknowledging 3186
228 3185
Documentation 3184
Migrants 3184
8,000 3183
Is@@ 3183
four-year 3183
2,0@@ 3182
2.8 3182
den 3182
enforcing 3182
tic@@ 3182
-level 3180
Chargé 3179
conciliation 3178
imbalances 3178
recruiting 3178
Laws 3177
block 3177
case-by-case 3177
mil@@ 3177
ping 3177
pres@@ 3177
ITU 3176
gra@@ 3174
confinement 3172
encompass 3172
finalizing 3172
pollutants 3171
Pact 3169
deteriorating 3167
protest 3167
attainable 3164
studying 3164
I.@@ 3163
versions 3163
ew@@ 3162
doubts 3161
269 3160
HIPC 3160
ours 3160
ce@@ 3159
ery 3159
policy-making 3158
Memorandum 3157
favoured 3157
6.2 3156
ICTs 3156
preamble 3156
viability 3155
Initiatives 3154
everything 3154
225 3152
Ahmed 3151
RA 3151
alarming 3151
harmonizing 3150
pol@@ 3150
restraint 3150
commanders 3149
patient 3145
207 3144
Cases 3144
Departments 3143
OAS 3143
apparently 3143
routine 3143
bel@@ 3142
hu@@ 3142
AF@@ 3140
Grenadines 3140
Allow 3139
Narcotics 3136
proclaimed 3136
scene 3136
237 3135
Ay@@ 3135
ash@@ 3135
Ottawa 3134
ber 3134
lodged 3134
unaccompanied 3134
unfair 3134
Indicators 3133
san@@ 3133
veto 3133
Can@@ 3131
persist 3131
vo@@ 3131
configuration 3130
plight 3130
AC 3128
lose 3128
EL@@ 3127
employ 3126
GE@@ 3125
director 3124
verifiable 3124
delegated 3123
adds 3122
benchmark 3122
241 3121
immunization 3121
Port 3120
thoroughly 3120
HUMAN 3119
OS@@ 3119
Primary 3119
ev 3119
hydro@@ 3119
Malvinas 3117
Ri@@ 3117
encumbered 3117
Infrastructure 3116
UNSOA 3116
DC 3115
guards 3114
253 3113
F-@@ 3113
under-@@ 3112
1,6@@ 3111
179 3110
Dakar 3110
Respect 3110
conform 3110
costly 3110
electrical 3110
reparations 3110
CD@@ 3109
saying 3109
Conclusions 3108
II@@ 3108
PC 3108
fruitful 3108
artillery 3107
cold 3107
Intellectual 3106
L.2 3105
Volunteer 3105
Consolidated 3104
Judiciary 3104
differential 3103
eventual 3103
Contact 3102
RES 3101
extends 3101
266 3100
Resolutions 3097
deputy 3097
mal@@ 3095
1,8@@ 3094
Bar 3094
Female 3093
L. 3093
fails 3093
reveal 3093
La 3092
accepting 3091
schedules 3090
sl@@ 3090
arranged 3089
assists 3088
Indonesian 3086
constituting 3085
comprehensively 3084
volunteer 3084
sick 3083
urging 3083
elaborating 3082
reforming 3082
simplified 3082
detrimental 3081
twenty-fifth 3081
Associate 3080
centralized 3080
confiscated 3080
Her@@ 3079
Kh@@ 3078
222 3077
7,000 3077
Extension 3076
faster 3076
Directors 3074
Tu@@ 3074
expeditious 3073
arises 3071
barrier 3071
Increasing 3070
expelled 3070
Falkland 3069
converted 3069
depended 3068
fax 3068
collaborating 3067
criminals 3067
incomplete 3067
Ru@@ 3066
Specifically 3066
ICAO 3065
fund-raising 3065
influenced 3065
Master 3064
aggravated 3064
literature 3062
Classification 3060
Trans@@ 3060
compound 3060
lift 3060
Directive 3059
extradite 3058
friends 3058
sustaining 3057
K. 3056
Rec@@ 3056
6.1 3055
fighters 3055
EA 3054
Tenth 3053
rarely 3053
SP@@ 3052
compensate 3052
tics 3052
IO@@ 3051
conditional 3051
AS 3050
confront 3050
Diplomatic 3048
Technological 3048
High-Level 3047
demarcation 3047
Southeast 3046
tertiary 3046
Documents 3045
Traffic 3045
interactions 3045
tanks 3045
ODS 3044
spaces 3044
hate 3043
hinder 3042
ion 3041
dependency 3040
ler 3038
Agencies 3037
attracting 3037
Ram@@ 3036
Si@@ 3035
marks 3035
mineral 3035
competing 3032
exact 3032
Austrian 3031
aff@@ 3031
purchased 3031
county 3030
lengthy 3030
LE 3027
generous 3026
insofar 3026
grantor 3025
har@@ 3024
hiring 3023
CI 3022
robbery 3022
Sport 3021
dramatic 3020
twenty-second 3019
NAP 3016
Subprogramme 3016
arrive 3016
ces 3016
summer 3016
timeliness 3016
IB@@ 3013
broad-based 3013
non-Annex 3013
pu@@ 3012
leverage 3011
third-party 3011
ón 3011
Nos. 3010
relied 3009
waiting 3009
materiel 3008
Ger@@ 3007
replacing 3007
sciences 3007
197 3006
Ak@@ 3005
unexploded 3005
intervene 3004
ministry 3003
shortfall 3001
236 3000
Export 3000
ICCPR 3000
assi@@ 3000
passport 2999
Concluding 2998
filling 2998
totalled 2998
evolved 2997
prioritized 2997
&apos;affaires 2996
1,4@@ 2995
dead 2995
sen 2995
193 2994
EM@@ 2993
Turning 2993
Timorese 2992
assuming 2992
differ 2992
contributor 2991
furthermore 2991
Nor@@ 2989
inquiries 2989
Sar@@ 2987
perceptions 2987
1,5@@ 2985
216 2985
Apart 2984
accurately 2984
condemnation 2984
des@@ 2984
1.15 2983
tes 2983
ess 2982
grew 2982
samples 2982
streamlined 2982
lot 2981
Fight 2979
determines 2979
overcrowding 2979
remarkable 2979
cornerstone 2977
pro-@@ 2977
int@@ 2976
SP 2975
confirms 2975
ums 2974
Religious 2972
nutritional 2972
Grenada 2969
ear@@ 2969
bed 2968
extensively 2968
Armenian 2967
Disappearance 2967
compliments 2966
abortions 2964
ong@@ 2963
Mc@@ 2962
Te@@ 2962
accumulation 2962
rigorous 2962
error 2961
precursors 2960
215 2959
500,000 2959
rocket 2959
stories 2957
wa 2955
204 2954
complainants 2954
evidenced 2954
pleasure 2954
adequacy 2951
initiation 2951
Rapporteurs 2950
wars 2949
S. 2948
bureau 2947
childbirth 2947
ratione 2947
defendants 2946
Particular 2945
founding 2945
municipality 2945
sharp 2944
276 2943
MD@@ 2943
decreasing 2943
ran 2943
19,@@ 2941
convergence 2940
summaries 2940
195 2939
MOP 2939
transferring 2939
day-to-day 2938
initiating 2938
ites 2938
answers 2937
timber 2936
217 2935
TH@@ 2935
affirms 2935
compatibility 2935
evidence-based 2934
221 2933
Catholic 2933
apart 2933
payroll 2933
ths 2933
bills 2932
2,500 2930
uneven 2930
equ@@ 2929
popul@@ 2929
hi 2928
impeding 2928
precarious 2928
D-@@ 2926
D.C. 2926
coercion 2926
bar 2923
ceiling 2922
18,@@ 2920
ICCD 2919
captured 2919
escape 2919
Firearms 2918
accumulated 2918
criminalize 2918
de-@@ 2918
reorganization 2918
12-@@ 2917
Cypriots 2917
Language 2917
beaten 2917
May@@ 2916
Transit 2916
contravention 2916
bulletin 2915
importing 2915
scales 2914
kidnapping 2913
69@@ 2912
codification 2912
microcredit 2912
sixty-ninth 2912
LEG 2911
dem@@ 2910
doctor 2910
strengths 2910
triennial 2910
Auditor 2909
Establishing 2909
concessions 2909
Commissioners 2908
KFOR 2908
Srpska 2907
aging 2907
Sol@@ 2906
and@@ 2906
excellence 2906
ris@@ 2906
E-@@ 2905
device 2905
247 2904
ik@@ 2903
seriousness 2903
Drafting 2902
Inspector 2902
Ombudsperson 2902
abused 2901
ub@@ 2901
Debt 2900
Observers 2900
underline 2900
Equipment 2897
Lo@@ 2897
Reserve 2897
cat@@ 2897
scrutiny 2896
physically 2895
rescue 2893
detected 2892
Point 2891
Tonga 2891
advocating 2891
5.4 2890
Dec.@@ 2890
morbidity 2890
pregnancies 2890
breaking 2889
ising 2889
Republika 2888
debts 2888
concentrations 2887
upper 2887
199 2886
About 2886
NG@@ 2886
an-@@ 2886
auditing 2886
her@@ 2886
handbook 2885
yearly 2884
196 2883
Co-Chairs 2883
identical 2883
juveniles 2883
educated 2882
Truth 2881
evictions 2881
land-use 2881
Watch 2880
Pol@@ 2879
consultancy 2878
imp@@ 2878
transform 2878
TIONS 2877
distinguish 2877
hon@@ 2877
Temporary 2876
Far@@ 2875
abilities 2875
Na@@ 2874
ho@@ 2874
suspect 2874
Full 2873
238 2872
FD@@ 2872
ingly 2872
246 2871
Proposal 2871
inserted 2871
unconditional 2871
Six 2870
ratios 2869
prosecuting 2868
shortages 2866
petition 2864
spring 2864
Under@@ 2863
soci@@ 2863
theft 2862
distribute 2861
importantly 2861
printed 2861
Especially 2860
th-@@ 2860
Reconstruction 2859
conducts 2858
244 2857
scarce 2857
generators 2856
sa 2855
Until 2854
bio@@ 2854
really 2854
retaining 2853
Objectives 2852
healthcare 2852
occupations 2851
WIPO 2850
ata 2850
Hospital 2848
shelf 2846
ell@@ 2845
remedial 2845
write 2844
sw@@ 2843
Char@@ 2842
UNIDIR 2842
revolution 2842
safer 2842
standardization 2841
Vi@@ 2840
quick-impact 2840
bin 2839
CM@@ 2838
ada 2838
credited 2838
ranks 2837
approached 2836
dominant 2836
Olympic 2834
infectious 2834
cleaner 2833
counter-@@ 2833
clarifying 2832
communal 2831
ns 2831
vested 2830
Ni@@ 2829
validation 2829
Frente 2828
Overview 2828
edition 2828
legislature 2828
ISAF 2827
high-risk 2826
ju@@ 2826
Marshall 2825
Mat@@ 2825
exported 2822
delete 2821
-to-@@ 2820
berg 2820
209 2819
ee 2819
ing-@@ 2819
interdependent 2819
tremendous 2819
Improve 2818
Thirdly 2817
clearer 2816
BY 2815
Estimated 2815
enrichment 2815
nonetheless 2815
Associations 2814
circulate 2814
ement 2814
supporters 2814
258 2813
non-core 2812
rests 2812
Post 2811
column 2811
sell 2811
Mil@@ 2810
mode 2810
Freedoms 2809
INTERPOL 2809
PL@@ 2808
removals 2807
96@@ 2806
SPT 2806
constructively 2806
Phase 2805
certainty 2805
scaling 2805
moreover 2804
und@@ 2804
IPU 2803
euro 2803
ities 2803
pr@@ 2803
1948 2802
dedication 2802
solving 2802
255 2801
tended 2801
UNMOVIC 2800
statutes 2800
Opinion 2799
questionnaires 2799
198 2798
stopped 2798
off@@ 2797
WMO 2796
Seabed 2794
Serb 2794
allocating 2794
Discussions 2792
embarked 2792
1701 2791
FDLR 2791
defamation 2791
Gazette 2789
gar@@ 2788
ple@@ 2788
265 2785
We@@ 2784
alcohol 2783
cleared 2782
affirm 2781
travelling 2781
GIS 2780
Quality 2780
ze 2780
Comments 2775
audience 2775
acy 2774
imbalance 2774
Mutual 2773
emb@@ 2772
Ku@@ 2768
read@@ 2767
spatial 2767
val@@ 2767
Have 2766
compensable 2765
stigma 2765
jo@@ 2764
stemming 2763
cost-effectiveness 2762
gender-@@ 2762
ex-@@ 2761
ished 2761
turning 2761
1,9@@ 2760
interpreters 2760
ach 2759
discriminated 2758
ft 2758
outbreak 2758
6.5 2757
deepen 2756
conveyed 2755
expressions 2755
newspapers 2755
charter 2754
manufactured 2754
passengers 2754
Arrangements 2753
reception 2753
volumes 2753
Amnesty 2752
Po@@ 2752
societal 2752
unresolved 2752
ye 2752
Aires 2751
precedent 2751
200,000 2748
Ta@@ 2748
emerge 2748
footing 2748
20,@@ 2747
Buenos 2746
DPKO 2746
ISU 2746
Settlement 2745
purely 2745
collaborated 2744
constituent 2744
indictment 2744
irreversible 2744
Chairs 2742
articulated 2742
bid 2742
irrigation 2742
appointing 2740
intensity 2740
undertakes 2740
customer 2739
immigrant 2739
instructed 2739
rapporteur 2739
44@@ 2738
Cam@@ 2738
box 2737
restored 2737
undoubtedly 2736
ip@@ 2735
AL 2734
Includes 2734
ICPD 2733
discovered 2733
ceremony 2732
confrontation 2730
slum 2729
Membership 2728
fifty-first 2728
reads 2728
ty@@ 2728
Janeiro 2727
ker 2727
likelihood 2727
subparagraphs 2726
2.9 2725
Cha@@ 2725
án 2725
Approximately 2724
D.@@ 2723
ency 2722
documentary 2721
similarly 2721
Adopt 2720
fin@@ 2720
protests 2720
Afro-@@ 2719
Continental 2719
sign@@ 2719
261 2718
magistrates 2718
originating 2718
DO@@ 2717
arrange 2717
season 2717
Def@@ 2716
Here 2716
chart 2716
ances 2715
devise 2714
river 2714
expectation 2713
expensive 2713
sentencing 2713
234 2712
demanding 2712
lan@@ 2712
tariffs 2711
264 2710
Nu@@ 2710
atrocities 2710
upholding 2710
ineffective 2709
offensive 2709
quarters 2709
strikes 2709
travelled 2709
Dutch 2707
extra 2707
Mohammed 2706
liberation 2706
283 2705
bombs 2705
ste@@ 2705
1,3@@ 2704
Nicosia 2704
encompasses 2704
spiritual 2704
ial 2703
Consultation 2702
ley 2702
no-@@ 2702
30,000 2701
whereabouts 2700
connections 2698
ther@@ 2698
disposition 2695
metal 2695
saving 2695
198@@ 2694
PP@@ 2694
fast 2694
matrix 2694
Possible 2692
Shi@@ 2692
virus 2692
Annan 2691
metric 2691
non-communicable 2691
mid@@ 2690
67@@ 2688
confronting 2688
Relationship 2687
combine 2685
Best 2683
frames 2683
problematic 2683
quick 2683
Plans 2682
acclamation 2682
biotechnology 2682
ail@@ 2681
antiretroviral 2681
neutrality 2681
231 2680
Juvenile 2680
cocaine 2680
6.3 2679
Ukrainian 2679
cap@@ 2679
underrepresented 2679
compounds 2677
invitations 2677
varies 2677
younger 2677
289 2676
News 2676
nu@@ 2676
Age 2675
thirtieth 2675
Claimant 2674
i-@@ 2674
249 2673
Mad@@ 2673
driver 2672
yl@@ 2671
Ter@@ 2669
a.i. 2668
ano 2666
brother 2666
contends 2666
curb 2666
drawdown 2666
Delhi 2663
Marriage 2662
compounded 2662
rebuilding 2662
troop- 2661
Hazardous 2660
accepts 2660
Besides 2658
Treasury 2657
animal 2656
brackets 2656
specifications 2656
232 2655
UND@@ 2655
ord@@ 2655
personally 2654
Conditions 2653
Appointment 2652
Learning 2652
Schedule 2652
getting 2652
imminent 2652
inflicted 2652
psychiatric 2652
Contribution 2651
Requirements 2651
facilitator 2648
gan@@ 2648
armaments 2647
1.9 2646
ought 2646
politicians 2646
fortieth 2645
ug@@ 2645
donations 2644
interrogation 2644
GC 2642
del@@ 2642
subregions 2642
Geographical 2641
Index 2641
nonproliferation 2641
petroleum 2641
ti 2641
imprisoned 2640
destructive 2639
Distribution 2638
exploit 2638
subnational 2638
Restrictions 2637
Delivering 2636
ese 2635
Ser@@ 2634
frozen 2634
president 2634
aquifer 2632
asserts 2632
big 2632
explains 2632
Bal@@ 2631
preferences 2630
customers 2629
Punish 2627
adjacent 2627
tragedy 2627
21st 2626
encompassing 2625
match 2625
aut 2624
holdings 2624
inflows 2624
protects 2624
qualify 2624
seize 2624
trade-related 2624
Experience 2623
Offences 2623
Sports 2623
Arctic 2622
Limited 2622
Micronesia 2622
reprisals 2622
254 2621
Cartagena 2621
Mus@@ 2620
skill 2620
sti@@ 2620
contested 2619
ents 2619
oring 2619
forecast 2618
dramatically 2617
insert 2617
revising 2617
disciplines 2616
non-profit 2616
ICTY 2615
Socialist 2615
alleges 2615
Bas@@ 2614
aka 2614
formats 2613
industrialization 2613
Res@@ 2612
aerial 2612
institution-building 2612
obstetric 2612
med 2611
rational 2611
Dar@@ 2610
stockpile 2610
53@@ 2609
horizontal 2609
k-@@ 2609
deepening 2608
adjournment 2606
fragmentation 2606
CS@@ 2605
approving 2603
broadening 2603
selecting 2603
dominated 2602
ind@@ 2602
albeit 2601
alliances 2601
repercussions 2601
umbrella 2601
15,000 2600
inc@@ 2598
struck 2598
administer 2597
milestone 2597
united 2597
AN 2596
Last 2595
chairs 2595
Improvement 2594
MA 2594
TO@@ 2594
compliant 2594
deter 2594
CCPR 2593
accomplish 2593
banned 2593
insured 2593
I-@@ 2592
brokering 2591
narrative 2591
ture 2591
North-South 2590
Oc@@ 2590
Polish 2590
card 2590
presently 2590
petitioner 2589
wor@@ 2589
mix 2588
Recommends 2587
airports 2586
cut-off 2586
delimitation 2586
failures 2586
Series 2585
Sub-@@ 2585
widening 2585
Del@@ 2584
Grand 2584
Art. 2583
precautionary 2583
tripartite 2583
unliquidated 2583
ation-@@ 2582
complying 2582
Israelis 2581
Are 2580
223 2578
istic 2578
fullest 2577
Boards 2575
Tri@@ 2575
DPRK 2572
depositary 2572
Accountability 2571
Units 2571
Biodiversity 2569
confronted 2569
exchanged 2569
forty-sixth 2569
Il@@ 2568
bing 2568
296 2567
cancelled 2567
permanently 2567
criticism 2566
signatures 2566
anthropogenic 2565
culturally 2565
essence 2565
365 2564
da@@ 2564
describing 2564
economics 2564
time-@@ 2564
Andean 2562
sophisticated 2562
Oceans 2561
259 2560
Abkhazia 2559
ium 2559
Hotel 2558
far-reaching 2558
liquidity 2558
Sim@@ 2556
constrained 2556
happened 2556
sel@@ 2556
y-related 2556
AT@@ 2554
Den@@ 2553
Oslo 2553
alist 2552
organisation 2552
rebels 2552
G-@@ 2551
tw@@ 2551
variations 2551
graduation 2550
Preventing 2549
bureaux 2549
prevalent 2549
275 2548
Je@@ 2548
enriched 2548
forcibly 2548
245 2547
ACABQ 2547
Cost 2547
hom@@ 2547
personality 2547
219 2546
Like 2546
Eleventh 2545
ICTR 2545
UNITED 2545
diagnosis 2545
incorporates 2545
MSP 2544
Managing 2544
undergoing 2544
Heritage 2543
Nauru 2543
hectares 2543
prospect 2543
terminate 2543
voices 2541
POPs 2540
discrepancies 2540
lin@@ 2539
CE 2538
272 2537
Transition 2537
on-site 2536
pretext 2536
organised 2535
Ir@@ 2534
Making 2534
Populations 2534
aring 2534
awa 2534
ga@@ 2534
SIDS 2533
heroin 2532
intense 2532
COMMITTEE 2531
Particularly 2531
micro-@@ 2531
runs 2531
globe 2528
Faculty 2527
ICEF 2526
TE 2526
45@@ 2525
asking 2525
Instrument 2524
commemoration 2524
metals 2524
Kyrgyz 2521
Strengthened 2521
XIV 2521
Croatian 2520
Referring 2520
Twelfth 2519
farms 2519
ura 2519
MERCOSUR 2518
deliberately 2518
rice 2518
Changes 2517
peacefully 2517
isation 2515
respondent 2515
specially 2515
Ko@@ 2514
Schools 2514
invoke 2513
replenishment 2513
Bermuda 2512
containers 2512
fied 2512
window 2512
Bur@@ 2511
Subregional 2511
Sub 2510
intermediate 2510
overflew 2510
4.6 2509
adapting 2509
heightened 2509
7.5 2507
ED@@ 2507
advertising 2507
fled 2507
multifaceted 2507
outsourcing 2507
symposium 2507
temperature 2507
capitals 2506
cre@@ 2506
Ste@@ 2505
back@@ 2505
ga 2505
Da@@ 2504
bonds 2504
self-government 2504
Algiers 2503
Persistent 2503
Slovak 2503
Whether 2503
lacks 2503
AM@@ 2502
Provincial 2502
academics 2502
impeded 2502
ire 2502
mer 2502
Pan@@ 2501
add@@ 2501
summarizes 2501
cleansing 2500
rating 2499
224 2497
Chernobyl 2497
Damascus 2497
by-@@ 2497
ile 2497
Page 2496
pharmaceutical 2496
simultaneous 2496
7.2 2495
Abuja 2495
Hal@@ 2495
exporters 2495
tel@@ 2495
ped 2494
underscore 2494
Partners 2493
efficiencies 2493
redouble 2493
Er@@ 2492
OD@@ 2492
TNCs 2492
Contract 2490
alities 2490
cast 2489
clarifications 2489
machine 2489
DA 2487
Kal@@ 2487
situated 2487
disregard 2486
universalization 2486
counter@@ 2485
hal@@ 2485
prisoner 2485
modes 2484
Add.4 2483
288 2482
Dem@@ 2482
ann@@ 2482
propaganda 2482
regulates 2482
space-based 2481
Vol 2480
http 2480
publicity 2480
EA@@ 2479
cost-@@ 2479
disadvantage 2479
film 2479
first-@@ 2479
opposite 2479
silence 2479
7.1 2478
ain@@ 2478
prioritization 2478
restricting 2478
OPCW 2477
ash 2477
AP 2476
Fish 2475
criminalized 2475
surge 2475
ideal 2474
Sao 2473
asi@@ 2473
ji 2473
quest 2472
furthering 2471
suspicion 2471
Arbitrary 2470
directive 2470
ast 2469
errors 2469
wa@@ 2469
cur@@ 2468
quadrennial 2468
Prisoners 2467
accommodated 2467
Nor 2466
disputed 2466
incremental 2466
Average 2465
Juba 2465
Serbs 2465
UNISFA 2465
fil@@ 2465
lectures 2464
Proposals 2463
intentions 2463
99@@ 2462
repairs 2462
Suppress 2461
ets 2461
spend 2461
vii 2461
Arabs 2460
Delegation 2460
anti-discrimination 2460
arbitrarily 2460
dioxide 2460
rank 2460
reconcile 2460
Rad@@ 2458
252 2457
338 2457
Sheikh 2457
implements 2457
time-bound 2456
Laundering 2455
Unless 2455
calm 2455
invoices 2455
technically 2455
NS@@ 2454
Ratification 2454
bottom 2454
withdrew 2454
Af@@ 2453
ts@@ 2453
AB@@ 2452
mentoring 2452
3.6 2451
Tr@@ 2451
fathers 2451
Confederation 2450
guides 2450
ishing 2450
sheets 2450
stored 2450
Tunis 2449
Entebbe 2448
Palau 2448
intra-@@ 2448
venture 2448
66@@ 2447
Interpol 2447
LO@@ 2447
violates 2447
diplomats 2446
outlining 2446
rockets 2446
assistant 2445
contraceptive 2445
Officials 2444
pursuance 2444
tering 2444
Fe@@ 2443
inf@@ 2443
cr@@ 2442
deeper 2442
newspaper 2441
Ca@@ 2440
labor 2440
twenty-sixth 2440
• 2440
observing 2439
Sources 2438
ab 2438
congratulated 2437
elementary 2437
suit 2437
transported 2437
Ash@@ 2436
P-@@ 2435
blocks 2435
hel@@ 2435
preclude 2435
1963 2434
Bor@@ 2434
cri@@ 2434
memorandums 2434
20-@@ 2433
Alternative 2433
Economics 2433
DAC 2432
arisen 2432
exhaustive 2432
27,@@ 2430
Mi@@ 2430
employing 2430
margin 2430
Material 2429
Hol@@ 2428
Kam@@ 2428
bribery 2428
if@@ 2427
HC@@ 2426
amnesty 2426
erv@@ 2425
tion-@@ 2425
twenty-seventh 2425
256 2424
signal 2424
mortar 2423
Attorney-General 2422
Speakers 2422
Hel@@ 2421
ed-@@ 2421
MENTS 2420
age-@@ 2420
Vocational 2418
disparity 2418
stolen 2417
deserve 2416
endorses 2416
1966 2415
Mediation 2415
Unlawful 2415
buffer 2415
invaluable 2415
Endorses 2414
breastfeeding 2414
Identical 2413
emotional 2413
vertical 2413
non-permanent 2412
burdens 2411
correctional 2411
bus 2410
257 2409
Individual 2409
Seventh 2409
post@@ 2408
CPC 2407
builds 2407
C.12 2406
NP@@ 2406
geospatial 2406
income-generating 2406
ratifications 2406
262 2405
SGB 2405
pro-poor 2404
constituencies 2403
OCHA 2401
Paul 2401
isi@@ 2401
Shelf 2399
offshore 2398
predominantly 2398
š@@ 2398
Expected 2397
action-oriented 2397
reconsider 2397
Add 2396
dismantling 2396
foreseeable 2396
hen@@ 2396
pan@@ 2396
Algerian 2395
Ros@@ 2395
promulgation 2395
55@@ 2393
Pl@@ 2393
deems 2393
footnote 2393
implied 2393
promises 2393
bienniums 2392
R. 2391
taught 2390
Chi@@ 2389
SAT 2389
congratulations 2389
objectivity 2389
pragmatic 2389
Concern 2388
Ass@@ 2387
IF 2386
annum 2386
proximity 2386
ö@@ 2386
Reproductive 2385
Santiago 2385
appearance 2385
br@@ 2385
forty-ninth 2385
tied 2385
hub 2383
peak 2383
wing 2383
yah 2383
Expenditure 2382
condolences 2382
kh@@ 2382
18-@@ 2381
Authorities 2381
Fo@@ 2381
Observation 2380
Census 2379
array 2379
229 2378
undergo 2377
239 2376
commits 2376
corrupt 2376
Bou@@ 2375
Mah@@ 2375
POPS 2374
confusion 2374
doubled 2374
theory 2374
diffusion 2373
Camp 2372
Symposium 2372
corrective 2372
sheet 2372
happen 2371
unanimous 2371
Agreed 2370
produces 2370
° 2370
M-@@ 2368
spoken 2368
suggesting 2368
NATIONS 2367
Handbook 2366
permitting 2366
Kofi 2365
Ref@@ 2365
pricing 2365
Amendments 2364
Black 2364
ECOSOC 2364
ballistic 2364
interact 2364
Wal@@ 2363
292 2362
Azerbaijani 2362
die 2362
Beyond 2361
Preliminary 2361
Using 2361
agreeing 2361
Anti-Corruption 2360
Ceasefire 2360
ick 2360
lend 2360
unfortunately 2360
cross-sectoral 2359
freshwater 2359
widest 2359
wrote 2359
peninsula 2358
Peter 2356
mes 2356
sanction 2355
compelled 2354
void 2354
Airport 2353
Des@@ 2353
1,200 2351
uncertainties 2350
land@@ 2349
A-@@ 2348
CESCR 2348
á 2347
staffed 2345
utilities 2345
Offenders 2344
warming 2344
Ur@@ 2342
vicinity 2342
proud 2341
worse 2340
Stocks 2339
landscape 2339
passenger 2339
anything 2337
ening 2337
minimizing 2337
450 2336
arena 2336
presiding 2336
regionally 2336
Discussion 2335
ham 2335
mainstreamed 2335
polymetallic 2335
Rem@@ 2334
wake 2334
yesterday 2334
13.@@ 2333
minerals 2333
SAR 2332
enforceable 2332
native 2332
orderly 2332
interfere 2331
Donor 2330
Drought 2330
Technologies 2330
forty-fourth 2330
over-@@ 2330
sts 2330
cross 2329
subsidy 2329
virtual 2329
Observatory 2328
deceased 2328
noteworthy 2328
organisms 2328
ory 2328
warplanes 2328
Nation@@ 2327
definitive 2327
deserved 2327
BiH 2326
Literacy 2326
Rom@@ 2326
Set 2326
of@@ 2326
sive 2326
Ivoire 2325
Exploration 2324
Hassan 2324
speci@@ 2324
negotiable 2323
ro 2323
absent 2322
grades 2322
Jordanian 2321
MYFF 2321
Pristina 2321
institutionalized 2321
detainee 2320
hamper 2320
principally 2320
classifications 2319
educators 2319
preconditions 2319
prevents 2319
routinely 2319
Forestry 2318
RU@@ 2318
advising 2317
pat@@ 2317
incoming 2315
amb@@ 2314
backgrounds 2314
litres 2314
pivotal 2313
ures 2313
Out 2312
enjoys 2312
ila 2312
operationalization 2312
pieces 2312
self-assessment 2312
undermines 2312
ali@@ 2311
disruption 2311
finances 2311
Cal@@ 2310
Combined 2310
SAICM 2310
fossil 2310
modality 2310
proc@@ 2310
unforeseen 2310
ron@@ 2308
Ahmad 2307
Insolvency 2307
Comm@@ 2306
Effectiveness 2306
Municipal 2306
Tehran 2306
Naqurah 2305
Results 2305
sees 2305
GNSS 2304
artistic 2304
provisionally 2304
ü@@ 2304
entirety 2303
familiar 2303
mentally 2303
supposed 2303
Cooperative 2302
shortfalls 2302
263 2301
absolutely 2301
hindered 2301
human@@ 2301
ida 2301
overtime 2301
Outreach 2300
uncertain 2300
SH@@ 2299
Terrorist 2299
0.5 2298
687 2298
impediment 2298
web-based 2298
associates 2297
contraception 2297
catalyst 2296
itation 2296
CGE 2295
ail 2295
pays 2295
transformed 2294
corporation 2293
Lessons 2292
paramilitary 2291
reputation 2291
warranted 2291
Facilities 2290
Mel@@ 2290
UNISPACE 2290
exchanging 2290
ier 2290
ades 2289
end-of-service 2288
graduates 2288
ni@@ 2288
poppy 2288
avoidance 2287
statelessness 2287
Collective 2286
ung 2286
Telecommunication 2285
ung@@ 2285
expiration 2284
dumping 2283
rooted 2283
slave 2283
litigation 2282
IGAD 2280
Oil 2280
USA 2280
counties 2280
Ituri 2279
ls 2279
David 2278
EX@@ 2278
ICA 2277
top@@ 2276
Lusaka 2275
couples 2275
16.@@ 2274
forty-fifth 2274
reformed 2274
Ms 2273
honoured 2273
15.@@ 2272
versus 2272
9,000 2271
exceeds 2271
ple 2271
OR 2270
pain 2270
migratory 2269
sec@@ 2269
Command 2268
oun@@ 2268
tropical 2268
DS 2267
Labor 2267
unequivocal 2266
Existing 2265
ji@@ 2265
Core 2264
ame 2264
st-@@ 2264
Societies 2263
Transboundary 2263
combining 2263
tically 2263
correspond 2262
knowledge-sharing 2262
prospective 2262
suppress 2262
bre@@ 2261
4.8 2260
Money 2260
Vision 2260
285 2259
lifted 2259
pre-session 2259
s.@@ 2259
suited 2259
30-@@ 2258
attractive 2258
ises 2258
CB@@ 2257
professionalism 2257
ranges 2257
Az@@ 2256
Cambodian 2256
Items 2256
290 2255
11th 2254
responds 2254
FIR 2253
Goma 2253
envisages 2253
Hamas 2252
concurred 2252
correction 2252
fines 2252
indebted 2252
mg 2252
rough 2252
CP.7 2251
ides 2250
illustrate 2250
obsolete 2250
Award 2249
dual-use 2249
tur@@ 2249
Almost 2248
18.@@ 2247
cul@@ 2247
Ethnic 2246
Federated 2246
Aware 2245
RS 2245
GO@@ 2244
Paulo 2244
default 2244
jeopardize 2244
prompted 2244
U.S. 2243
lesser 2243
precondition 2243
wan@@ 2243
white 2243
Trends 2242
disadvantages 2242
Developments 2241
impasse 2241
hired 2240
protections 2240
break@@ 2239
deploying 2239
ity-@@ 2239
1968 2238
Rel@@ 2238
UNO@@ 2238
cons@@ 2238
of-@@ 2238
repeal 2238
worship 2238
confirming 2237
dra@@ 2237
examines 2237
simplification 2237
va 2237
14.@@ 2236
bias 2236
catalytic 2236
premature 2236
Investments 2235
PIC 2235
compelling 2235
forty-third 2235
occupy 2235
surrender 2235
Fa@@ 2234
Ltd 2233
avail 2233
commendable 2233
private-sector 2233
promotional 2233
6.4 2232
streets 2232
har 2231
12-month 2230
Dissemination 2230
Submission 2230
caution 2230
destroying 2230
sessional 2230
Cash 2229
Mac@@ 2229
armoured 2229
preferable 2229
stake 2229
Methods 2228
CERs 2227
ification 2227
interlocutors 2226
presumed 2226
1996-1997 2225
checklist 2225
wrong 2225
4.7 2224
Fre@@ 2224
acc@@ 2224
IE@@ 2223
motivation 2222
naval 2222
sor@@ 2222
Fifty-@@ 2221
cement 2221
ched 2221
unutilized 2221
Citizenship 2219
L.3 2219
alisation 2219
guardian 2219
landing 2219
12th 2218
Nationality 2218
disturbing 2218
reinforcement 2218
repeat 2218
16-@@ 2217
ación 2217
aire 2217
co-operation 2217
audiences 2216
avenues 2216
differing 2216
dissolution 2216
Disappearances 2215
caring 2215
shaping 2215
Secondary 2214
leaves 2214
slight 2214
jurisdictional 2213
nationalities 2213
everywhere 2212
expiring 2212
201@@ 2211
Puntland 2211
305 2210
ined 2210
kers 2210
maximizing 2210
Tar@@ 2209
concession 2209
Slavery 2208
fruit 2208
denying 2207
disbursement 2207
distress 2207
purview 2207
exert 2206
row 2206
incommunicado 2205
Cayman 2204
Implement 2204
ration 2204
van 2204
2,7@@ 2203
injustice 2203
relies 2203
Saharan 2202
bad 2202
eh 2202
ok 2202
Options 2200
Preventive 2200
prime 2200
Mas@@ 2199
bomb 2199
refuge 2199
underscores 2199
ads 2198
cha@@ 2198
nursing 2198
1244 2197
Eradicate 2197
Recognition 2197
cal@@ 2197
facilitators 2197
neglected 2197
tank 2197
titles 2197
upgraded 2197
Havana 2196
280 2195
Mainstreaming 2195
UNCT 2195
threatens 2194
unsafe 2194
Civilizations 2193
UN-SPIDER 2193
retired 2193
Ouagadougou 2192
reversed 2192
understands 2192
LA 2191
Li@@ 2190
Older 2190
Presentation 2190
Kampala 2189
Pending 2189
sha@@ 2189
specifies 2189
IV.@@ 2188
Horn 2187
forty-seventh 2187
P. 2186
red@@ 2186
spreading 2186
Option 2185
ić 2185
preceded 2185
irregularities 2184
ICT@@ 2183
alert 2182
Leaders 2181
sexuality 2181
criminality 2180
form@@ 2179
collapse 2178
Joseph 2176
dire 2176
laying 2176
turnover 2176
Ten 2175
practicable 2175
267 2174
psychotropic 2174
Names 2173
controversial 2173
316 2172
celebration 2171
B.@@ 2170
graduate 2170
ien@@ 2170
margins 2170
registers 2170
The@@ 2169
bombing 2169
gender-related 2169
M23 2168
Traditional 2168
announcements 2168
invalid 2168
conscientious 2167
tim@@ 2167
287 2166
supervise 2166
homeless 2165
Globally 2164
uniformed 2164
arm@@ 2163
consequent 2163
noble 2163
stringent 2163
entailed 2162
White 2161
INTERNATIONAL 2160
Muhammad 2160
ered 2159
rationalization 2159
affiliation 2158
Actual 2156
co-sponsored 2156
optimize 2156
professions 2156
Minority 2155
Turks 2155
mined 2155
rac@@ 2155
arm 2153
FNL 2152
bargaining 2152
l-@@ 2152
pos@@ 2152
11-@@ 2151
deficits 2151
explaining 2151
puts 2151
reiterating 2151
tered 2151
tro@@ 2151
Pollutants 2150
black 2150
refined 2150
governorates 2149
prosperous 2149
1970s 2148
Recently 2148
Ren@@ 2148
discretionary 2148
Guard 2147
administrators 2146
institutionalization 2146
1958 2145
Belgian 2145
Residual 2145
Wall 2145
biggest 2145
ira 2145
attracted 2144
francs 2144
precursor 2144
Mak@@ 2143
ac 2143
centers 2143
sanitary 2143
Convinced 2142
paradigm 2142
SNA 2141
interpret 2140
Expenditures 2139
assertion 2139
prohibitions 2139
populated 2138
Berlin 2137
ix 2137
revitalize 2137
ski 2137
impacted 2136
ova 2136
purchases 2136
279 2135
CN.15 2135
19.@@ 2134
Lord 2134
lethal 2134
Collaborative 2133
Harmonized 2133
SME 2133
diversified 2133
groundwater 2133
rebuild 2133
Nations-owned 2132
commander 2131
unilaterally 2131
20.@@ 2130
recurrence 2130
Mindful 2129
Yes 2129
layer 2129
3.7 2128
IR 2128
rightly 2127
disorders 2125
stat@@ 2125
CMP.1 2124
UN-@@ 2124
Vice-Presidents 2124
authorizing 2124
dependants 2124
fu@@ 2124
Ho@@ 2123
Lima 2123
ables 2123
animals 2123
deletion 2123
ela 2123
hereby 2123
ination 2123
infants 2123
narcotics 2123
AG@@ 2122
Anguilla 2122
preferably 2122
sake 2122
29,@@ 2121
Continued 2121
L.4 2121
atmospheric 2121
retaliation 2121
scarcity 2121
Amman 2120
Approves 2120
Dou@@ 2120
Single 2120
ré@@ 2120
assemblies 2119
colonialism 2119
declaring 2119
discourage 2119
Recruitment 2118
crossings 2118
extraction 2118
engine 2117
one-time 2117
2030 2116
UNCLOS 2116
ading 2116
whatsoever 2116
expired 2115
privately 2115
Add.5 2114
∙ 2114
rendering 2113
7.3 2112
Ph@@ 2112
UNA@@ 2112
assistants 2112
backed 2112
5.6 2111
Tome 2111
CRP.1 2110
EULEX 2110
XX@@ 2110
poorly 2110
single-@@ 2110
strongest 2110
78@@ 2109
DPI 2109
eminent 2109
exhaustion 2109
iss@@ 2109
operator 2109
deliveries 2108
FA 2107
You 2107
relying 2107
jure 2106
profiling 2106
aggressive 2105
chambers 2105
co-chairs 2105
13-@@ 2104
WA 2104
e-based 2104
effected 2104
Pra@@ 2103
Pres@@ 2103
Principe 2103
defending 2103
mercenary 2103
CB 2102
CCA 2102
Ibrahim 2102
TV 2102
rou@@ 2102
tively 2102
UNOWA 2101
fifty 2101
ment-@@ 2101
net@@ 2101
Sen@@ 2100
2018 2099
Certification 2099
Self-@@ 2099
induction 2099
Councils 2097
discontinued 2097
round-table 2096
timeline 2096
2,8@@ 2094
pesticides 2094
teenage 2094
268 2093
Make 2093
quo 2093
Demobilization 2092
Tan@@ 2092
unfortunate 2092
ado 2091
hand@@ 2091
conscious 2090
thirty-eighth 2090
Comment 2089
ita 2089
waiver 2089
Concerned 2088
23,@@ 2087
CN.7 2087
forefront 2087
recurring 2087
&apos;a 2086
CSOs 2086
Montserrat 2086
criminalizing 2086
forty-second 2086
ned 2086
squ@@ 2086
trauma 2086
modelling 2085
Bre@@ 2084
SPLA 2083
passports 2083
és 2083
Do@@ 2081
Non-governmental 2081
Pal@@ 2080
repatriated 2079
Inclusion 2078
entrepreneurial 2078
manifest 2078
ography 2078
promised 2078
recreational 2078
2002-2005 2077
unregulated 2077
che 2076
conferred 2075
crossed 2075
earn 2074
fac@@ 2074
seeds 2074
shorter 2074
Nordic 2073
ack@@ 2073
complications 2073
fellowship 2073
ideals 2073
Yearbook 2072
ek@@ 2072
sun@@ 2072
Aliens 2071
Signature 2071
assert 2071
Advocacy 2070
deb@@ 2070
exempt 2070
endanger 2069
Seven 2068
child-@@ 2068
destabilizing 2068
ranking 2067
Ten@@ 2066
V.@@ 2066
diversify 2066
Dominica 2065
Over@@ 2065
REPORT 2065
evolve 2065
ONUB 2064
Ugandan 2064
compete 2064
overlapping 2064
Ob@@ 2063
contemplated 2063
depletion 2063
imposes 2063
interpretations 2063
miles 2063
rev@@ 2063
Club 2062
Reducing 2062
punitive 2062
Monthly 2061
ment-related 2061
sponsorship 2061
ards 2060
moderate 2060
reside 2060
sight 2060
striving 2060
timelines 2060
Does 2058
Park 2057
lim@@ 2057
2008-2011 2056
Burundian 2056
State-@@ 2056
bidding 2056
disbursements 2056
condemning 2055
phone 2055
precedence 2055
13th 2054
Approved 2054
Claim 2054
ECCAS 2054
ini 2054
sewage 2054
Hammarskjöld 2053
stance 2053
substantiate 2053
Generally 2052
Kan@@ 2052
SO 2052
Details 2051
Direct 2051
closures 2051
Briefing 2050
constraint 2050
enc@@ 2050
neighbourhood 2050
scheduling 2050
uk@@ 2050
č@@ 2050
borrowing 2049
conceived 2049
talk 2049
fraudulent 2048
tures 2048
Khan 2047
ere 2047
expiry 2047
forty-eighth 2047
mi@@ 2047
AT 2046
14th 2045
Ninth 2045
voiced 2045
crew 2044
firing 2044
harsh 2044
ils 2044
ver 2044
EM 2043
Ed@@ 2043
battalion 2043
mentation 2043
Dag 2042
ema 2042
minute 2042
Leadership 2041
all-@@ 2040
identities 2040
moves 2039
E.@@ 2038
Manager 2038
disposed 2038
escorted 2038
wide-ranging 2038
Mechanisms 2037
eng@@ 2037
fying 2037
WG@@ 2036
aquifers 2036
devised 2036
herself 2036
tends 2036
Hom@@ 2035
She@@ 2035
explosion 2035
Achieving 2034
Sami 2034
tually 2034
exc@@ 2033
forcing 2033
marry 2033
Maternal 2032
28,@@ 2031
Though 2031
undergone 2031
carriers 2030
CFCs 2029
2001-2010 2028
Cro@@ 2028
positioning 2028
accusations 2027
xenophobic 2027
ally-@@ 2026
compiling 2026
rare 2026
273 2025
Host 2025
Nature 2025
outgoing 2025
detentions 2024
ni 2024
ow 2024
inspired 2023
comm@@ 2022
consensual 2022
hou@@ 2022
inevitably 2022
motions 2022
posters 2022
reveals 2021
E4 2020
Exercise 2020
colleges 2020
door 2020
expire 2020
forty-first 2020
ović 2020
ain 2019
clandestine 2019
Colonel 2018
absorb 2018
bridging 2018
Commodities 2017
Failure 2017
Reiterating 2017
cybercrime 2017
gun 2017
15th 2016
Attention 2016
BWC 2016
Nation 2016
Palais 2016
alliance 2016
proportionality 2016
ERW 2015
cu@@ 2015
reduces 2015
two-State 2015
wastewater 2015
Kitts 2014
64@@ 2013
O-@@ 2012
logging 2012
rejects 2012
stigmatization 2012
widows 2012
20th 2011
impressive 2011
victimization 2011
295 2010
commencing 2010
explosions 2010
FGM 2009
arriving 2009
electric 2009
Fer@@ 2008
Materials 2008
concise 2007
responsiveness 2007
Call 2006
Design 2006
derive 2005
nominal 2005
Caicos 2004
costing 2004
critically 2004
nominate 2004
nurses 2004
mindful 2003
stimulating 2003
super@@ 2003
Better 2002
Governors 2002
happy 2002
overseeing 2002
repression 2002
sup@@ 2002
warrants 2002
286 2001
ket 2001
Replace 2000
SD@@ 2000
journalist 1999
visual 1998
reminder 1997
subsidized 1997
SM@@ 1996
Somaliland 1996
defences 1996
deteriorated 1996
s-related 1996
yan@@ 1995
CS 1994
Tuberculosis 1994
acknowledgement 1994
atic 1994
diagnostic 1994
oning 1994
25,@@ 1993
26,@@ 1993
OC 1992
develops 1992
24,@@ 1991
HKSAR 1991
alter 1991
disbursed 1991
thirty-seventh 1991
300,000 1990
intentional 1990
16th 1989
ben@@ 1989
ignore 1989
Inter-Parliamentary 1988
Nevis 1988
SS@@ 1988
extractive 1988
low@@ 1988
seabed 1988
Collaboration 1987
FOR@@ 1987
circumstance 1987
forecasting 1987
ham@@ 1987
backstopping 1986
illustrates 1986
reaches 1986
stan@@ 1986
Clearly 1985
Daily 1985
ute 1985
Macao 1984
concessionaire 1984
refine 1984
Long-term 1983
Rs 1983
Smuggling 1983
ired 1983
outlook 1983
roughly 1983
sit 1983
coral 1981
decrees 1981
withdrawing 1981
IFRS 1980
XVI 1980
opposing 1980
pon@@ 1980
shifts 1980
14-@@ 1979
co-sponsors 1979
persisted 1979
deputies 1978
Ju@@ 1977
abolishment 1977
diverted 1977
281 1976
argue 1976
lays 1976
vaccines 1976
PR 1975
ace@@ 1973
akh@@ 1973
detriment 1973
pri@@ 1973
WG 1972
abl@@ 1971
preserved 1971
stabilize 1971
7.4 1970
PN@@ 1970
Rican 1970
thirty-fourth 1970
Encouraging 1969
Extradition 1969
None 1969
Proportion 1969
ger 1969
Abkhaz 1968
deserves 1968
17th 1967
Tom@@ 1967
and-@@ 1967
274 1966
Scope 1966
absorbed 1966
ich@@ 1966
simplify 1966
Carlos 1965
Helena 1965
ascertained 1965
warfare 1965
Al-Shabaab 1964
unhindered 1964
Chadian 1963
Mag@@ 1963
ON@@ 1963
SLM 1963
choosing 1963
han 1963
manufacturers 1963
reserving 1963
79@@ 1962
contacted 1962
1995-@@ 1961
Luis 1961
li 1961
minister 1961
ue 1961
advisable 1960
cleaning 1960
hardware 1960
prefer 1960
XVII 1959
shifting 1958
assign 1957
execute 1957
liaise 1957
sensitize 1957
reforestation 1956
enquired 1955
gn@@ 1955
queries 1955
1964 1954
Database 1954
mid-term 1954
thirty-ninth 1954
Enhance 1953
Greenland 1953
Preparations 1953
ff 1953
automated 1952
rated 1952
trusts 1952
FPA 1951
Recommended 1951
begins 1950
not@@ 1950
severity 1950
Principle 1949
S.@@ 1949
contraceptives 1949
poorer 1949
system@@ 1949
vigorously 1949
Union-United 1948
declares 1948
ez@@ 1948
permissible 1947
Autonomous 1945
enters 1945
entries 1945
dropout 1944
98@@ 1943
favourably 1943
sinks 1943
worthy 1943
petitioners 1942
real@@ 1942
sol@@ 1942
vaccination 1942
variables 1942
299 1941
GNI 1941
Inter-agency 1941
Safeguards 1941
chiefs 1941
wind 1941
fixed-wing 1940
Facilitator 1939
Karabakh 1939
e-commerce 1939
trigger 1939
Kigali 1938
diminished 1938
radiological 1938
54@@ 1937
JS1 1937
278 1936
Gross 1936
Illegal 1935
UNPOS 1935
25,000 1934
304 1934
TED 1934
assignee 1934
practised 1934
worsening 1934
ath 1933
counts 1933
pul@@ 1933
sky 1933
3.8 1932
EEC 1932
Pre-@@ 1932
Street 1932
clubs 1932
display 1932
dé@@ 1932
ez 1932
forge 1932
hy@@ 1932
ming 1932
wisdom 1932
DDT 1931
bas@@ 1931
Fair 1930
ays 1930
Ongoing 1929
Identify 1928
compact 1928
conflicting 1928
factions 1928
non-formal 1928
semi-@@ 1928
ved 1928
30,@@ 1927
Needs 1927
adhered 1927
cas@@ 1927
supervised 1927
Finnish 1926
custodial 1926
es-@@ 1926
measurements 1926
ners 1926
unrest 1926
SB@@ 1925
solved 1925
water@@ 1925
ce-@@ 1924
gratis 1924
communicable 1923
raped 1922
resignation 1922
Continuing 1921
ure@@ 1921
Mul@@ 1919
lat@@ 1919
globalized 1917
SESSION 1915
por@@ 1915
chamber 1914
seeing 1914
Malian 1913
Mun@@ 1913
prioritizing 1913
automation 1912
specifying 1912
1946 1911
22,@@ 1911
Points 1911
damaging 1911
debt-@@ 1911
guns 1911
Abdullah 1910
Awareness 1910
Cook 1910
announce 1910
sk 1910
wives 1910
Sanitation 1909
decreases 1909
obviously 1909
Estimates 1908
Ou@@ 1908
hardly 1908
Practical 1906
radi@@ 1906
wave 1906
CRPD 1905
trips 1905
# 1904
NC@@ 1904
Sil@@ 1904
continually 1904
twenty-eighth 1904
lah 1903
Benefits 1902
custom 1902
pic@@ 1902
thirty-sixth 1902
ó@@ 1901
Alma 1900
Detailed 1900
Responding 1900
Negotiations 1899
landmark 1898
yan 1898
17.@@ 1897
Resistance 1896
flu@@ 1896
GNP 1895
oppose 1895
ori@@ 1895
stra@@ 1895
rah 1894
win 1894
Abdel@@ 1893
inclusiveness 1893
retirees 1893
Cl@@ 1892
Steps 1892
ink 1892
ter-@@ 1892
Television 1891
bal@@ 1890
checkpoint 1890
selling 1890
eye 1889
ine@@ 1889
18th 1888
Which 1888
settling 1888
Credit 1887
Movements 1887
clinical 1887
comparability 1887
conflict-affected 1887
phones 1887
seventy-@@ 1887
warned 1887
circular 1886
co-chaired 1886
resilient 1886
tens 1886
Up 1885
abandonment 1885
praised 1885
surveyed 1885
tings 1885
ular 1885
1954 1884
Sp@@ 1884
exhaust 1884
silent 1884
FR@@ 1883
L.7 1883
Opportunity 1883
Wastes 1883
assignor 1883
deficiency 1883
trip 1883
ITL 1882
Para 1882
evidentiary 1882
extensions 1882
mann 1882
experimental 1881
Thanks 1880
civilization 1880
for-@@ 1880
impaired 1880
AC.26 1879
avi@@ 1879
educating 1879
intervals 1879
Biennial 1878
Caucasus 1878
forest-related 1878
push 1878
Sect 1877
Thirty-@@ 1877
Living 1876
OP 1876
non-traditional 1876
resource-@@ 1876
Disengagement 1875
approaching 1875
commemorate 1875
ey 1875
unlike 1875
zi 1874
Regrettably 1873
bond 1873
fed 1873
producer 1873
trees 1873
maturity 1872
sampling 1872
Thomas 1871
Unions 1871
correctly 1871
stem 1871
thirty-second 1871
Lawyers 1870
conver@@ 1870
ich 1870
reproduction 1870
MT@@ 1869
Neither 1869
Representation 1869
polling 1869
pp. 1869
282 1868
JI 1868
ack 1868
container 1868
coping 1868
ola 1868
Fellowship 1867
Nigerian 1867
harmonious 1867
UNTAET 1866
pluralism 1866
recruits 1866
refusing 1866
EF 1865
believing 1865
husbands 1865
nouvelles 1865
-year 1864
Specialized 1864
L.6 1863
Proliferation 1863
Revision 1863
baselines 1863
deriving 1863
ining 1863
271 1862
Covenants 1862
São 1862
proportionate 1862
Commitments 1861
coll@@ 1861
milestones 1861
prudent 1861
couple 1860
descriptions 1860
hostage 1860
Adequate 1859
Hy@@ 1859
Limits 1859
RBM 1859
high@@ 1859
openly 1859
tender 1859
ć 1859
Gener@@ 1858
ao 1858
gri@@ 1858
Submitted 1857
channelled 1856
friendship 1856
noon 1856
prejudices 1856
Facilitating 1855
Hyogo 1855
downward 1855
stereotyping 1855
19th 1854
communicating 1854
inspected 1854
1718 1853
Pat@@ 1853
authoritative 1853
bears 1853
else 1853
inconsistencies 1853
Extraordinary 1852
Numerous 1852
confessions 1852
hard-@@ 1852
sharply 1851
Pa@@ 1850
Bra@@ 1849
kindly 1849
Mass 1848
char@@ 1848
fires 1848
trucks 1848
L.8 1847
ony 1847
MINUSMA 1846
embedded 1846
workplans 1846
chose 1845
fragmented 1845
Au@@ 1844
Michael 1844
historically 1843
backdrop 1842
stimulants 1842
swift 1842
weakness 1842
CM 1841
aggravating 1841
crude 1841
Assets 1840
Innovation 1840
XX 1840
one-year 1840
photographs 1840
1962 1839
Han@@ 1839
bridges 1839
marginal 1839
posting 1839
Med@@ 1838
conference-servicing 1838
omission 1838
registries 1838
achievable 1837
involuntary 1837
toxicity 1837
FM@@ 1836
loading 1836
tric@@ 1836
intensification 1835
procured 1835
thirty-fifth 1835
Bilateral 1834
CF@@ 1834
Cas@@ 1834
PNTL 1834
don@@ 1834
prenatal 1834
Jan 1833
demobilized 1833
in-kind 1833
law@@ 1833
burning 1832
domination 1832
thirty-third 1832
Bad@@ 1831
Psychotropic 1831
brutal 1831
fer@@ 1831
intentionally 1831
losing 1831
Monrovia 1830
hol@@ 1830
le-@@ 1830
ES-10 1829
Strongly 1829
Transportation 1829
frank 1829
pronounced 1828
template 1828
77@@ 1827
Problems 1827
Telecommunications 1827
earth 1827
CONA@@ 1826
Juan 1826
Charles 1825
Jean-@@ 1824
deterrent 1824
twelve 1824
Francophonie 1823
criticized 1823
searches 1823
yo 1823
Trusteeship 1822
Deeply 1821
Multi-@@ 1821
Thai 1820
ence-@@ 1820
277 1819
Lower 1819
Meteorological 1819
sou@@ 1819
typical 1819
Disposal 1818
humane 1818
ore@@ 1817
N. 1816
brothers 1816
NAPs 1815
adopts 1815
complained 1815
cooperates 1815
fixed-term 1815
Acknowledges 1814
Pound@@ 1814
Tal@@ 1814
UNC@@ 1814
health-related 1814
off-@@ 1814
pointing 1814
theoretical 1814
tourist 1814
Associated 1813
recession 1813
reluctant 1813
Asset 1812
celebrate 1812
privilege 1811
warehouse 1811
2000-@@ 1810
Antarctic 1810
Dj@@ 1810
Sk@@ 1810
downsizing 1810
Referendum 1809
balancing 1808
chances 1808
fishery 1808
ories 1808
Waste 1807
contempt 1807
def@@ 1807
gs 1807
76@@ 1806
aj@@ 1806
censuses 1806
2.45 1805
Nile 1805
17-@@ 1804
291 1804
Bak@@ 1804
HFCs 1804
XXI 1804
courage 1804
desirability 1804
fore@@ 1804
juridical 1804
jury 1803
Navigation 1802
repository 1802
scholars 1802
ulation 1802
IES 1801
Chairperson-Rapporteur 1800
attribution 1800
intensifying 1800
thrust 1800
wards 1800
conflict-@@ 1799
web@@ 1799
Neighbouring 1798
carriage 1797
impression 1797
Category 1796
Nacional 1796
ner@@ 1796
supplements 1796
kill 1795
Term 1794
band 1794
volunteerism 1794
zing 1794
fy 1793
guilt 1793
Appendix 1792
coup 1792
ick@@ 1792
Focus 1791
as-@@ 1791
Sex 1790
enhancements 1790
telecommunication 1790
FS 1789
Students 1787
grouped 1787
non-interference 1787
passive 1787
sub-items 1787
Coordinators 1786
County 1786
theatre 1786
L.5 1785
Mental 1785
Undertake 1785
Individuals 1784
Martin 1784
Cu@@ 1783
arity 1783
registering 1783
sanctioned 1783
fundamentally 1781
juncture 1781
meteorological 1781
yielded 1781
2050 1780
Creation 1780
3,500 1779
Africans 1779
Bangui 1779
Columbia 1779
low-cost 1779
Ammunition 1778
Publications 1778
indices 1778
ign@@ 1777
inhumane 1777
strides 1777
verifying 1777
y-based 1777
Witnesses 1776
soldier 1776
Equity 1775
Israeli-Palestinian 1775
induced 1774
STA@@ 1773
19-@@ 1772
Pollution 1771
immunodeficiency 1771
tre@@ 1771
Amended 1770
boy 1770
nation@@ 1770
trainees 1770
25-@@ 1769
INF@@ 1769
endemic 1769
guardians 1769
presences 1769
303 1768
360 1768
40,000 1768
Ti@@ 1768
eviction 1768
hn@@ 1768
licensed 1768
End 1767
Philippine 1767
diminish 1767
motor 1767
revert 1767
Boundary 1766
Whereas 1766
solitary 1766
298 1765
Fi@@ 1765
Indebted 1765
enhances 1765
merger 1765
multicultural 1765
ú@@ 1765
CRP.@@ 1764
Wales 1764
ass 1764
gendarmerie 1764
goodwill 1764
guardianship 1764
88@@ 1763
Ke@@ 1763
Scale 1763
indefinite 1763
ér@@ 1763
Chan@@ 1762
Proceedings 1762
questioning 1762
daughter 1761
tax@@ 1761
RI 1760
deported 1760
drafts 1760
junior 1760
transforming 1760
Valley 1759
assassination 1759
III.@@ 1758
iri 1758
tical 1758
AWG-LCA 1757
ew 1757
indicted 1757
practically 1757
write-off 1756
calculations 1755
general-purpose 1755
infringement 1755
Cap@@ 1754
Cell 1754
Government-@@ 1754
X. 1754
holidays 1754
immense 1754
prevailed 1754
treating 1754
alleviating 1753
charts 1753
Fun@@ 1752
ences 1752
1737 1751
Anti@@ 1751
exacerbate 1750
Leg@@ 1749
To@@ 1749
depleted 1749
ell 1749
fellow 1749
sli@@ 1749
terminal 1749
Consistent 1748
Sul@@ 1748
differently 1748
distributing 1748
roots 1748
subordinate 1748
NHRIs 1747
fugitives 1747
humans 1747
load 1747
outlets 1747
ISO 1746
behaviours 1746
compensated 1746
compromised 1746
fostered 1746
resourced 1746
stalemate 1746
two-thirds 1746
Corporate 1745
electronically 1745
restorative 1745
sa@@ 1745
unjust 1745
Abdul 1744
peacemaking 1744
penitentiary 1744
publicize 1744
supplying 1744
Adolescents 1743
Fiscal 1743
Hungarian 1743
explanatory 1742
reactions 1742
triggered 1742
FROM 1741
MTSP 1741
Sin@@ 1741
co-organized 1741
radical 1741
425 1740
Forced 1740
non-citizens 1740
construct 1739
head@@ 1739
Counsellor 1738
directing 1738
Consortium 1737
SW@@ 1737
influx 1737
22nd 1736
organizes 1736
tireless 1736
Bay 1735
atively 1734
bi 1734
bilingual 1734
illnesses 1734
Update 1733
fold 1733
plaintiff 1733
resear@@ 1733
3,0@@ 1731
Majesty 1731
Prostitution 1731
wait 1731
Mercury 1730
exactly 1730
proportional 1730
tran@@ 1730
trusted 1730
EN 1729
IM 1729
Soci@@ 1729
Sur@@ 1729
discusses 1729
dispatch 1729
postpone 1729
terrestrial 1729
65@@ 1728
Hussein 1728
Shanghai 1728
Thirteenth 1728
accords 1728
trainings 1728
audio 1727
izes 1727
vis@@ 1727
AWG-KP 1726
L.9 1726
genuinely 1726
recreation 1726
traders 1726
Responses 1725
Map 1724
discourse 1724
nexus 1724
upward 1724
broadband 1723
gender-responsive 1723
hubs 1723
8.1 1722
Nutrition 1722
STI 1722
convert 1722
ek 1721
Arts 1720
vigorous 1720
Ec@@ 1719
South-Eastern 1719
biomass 1719
12,000 1718
Fu@@ 1717
logic 1717
sister 1717
4.9 1716
Chairmen 1716
discharging 1716
Complaints 1715
Operative 1715
ideological 1715
rence 1715
slums 1715
hostility 1714
Costs 1713
Tunisian 1713
ino 1713
sible 1713
caregivers 1712
tru@@ 1712
ICESCR 1711
Immediate 1711
unusual 1711
ush@@ 1711
G-8 1710
Hybrid 1710
abandon 1710
reassignment 1710
CN.3 1709
NAPAs 1709
charitable 1708
investor 1708
underlining 1708
weakened 1708
Eighth 1707
fears 1707
iyah 1707
solicitation 1707
2.30 1706
Completion 1706
Equalization 1706
330 1705
Maori 1705
recognised 1705
unfounded 1705
1612 1704
Dangerous 1704
RES@@ 1704
enjoying 1704
relocated 1704
approves 1703
int 1703
tactical 1703
tentative 1703
1996-@@ 1702
GENERAL 1702
Maria 1702
Observations 1702
swiftly 1702
results-oriented 1701
rulings 1701
vic@@ 1701
Mother 1700
four-@@ 1700
house@@ 1700
ately 1699
dental 1699
rehabilitate 1699
self 1699
Appropriate 1698
MAL 1698
auditor 1698
ole 1698
Course 1697
arbitrator 1697
dispatched 1697
long@@ 1697
programmed 1697
remand 1697
supreme 1697
Ah@@ 1696
intermediaries 1695
Honourable 1694
Kiribati 1694
featured 1694
rail 1694
301 1693
On@@ 1693
actor 1693
enlargement 1693
inter-sessional 1693
massacre 1693
monopoly 1693
750 1692
log 1692
unreported 1692
unrestricted 1692
Commends 1691
IOC 1691
Position 1691
blind 1691
conven@@ 1691
looting 1691
port@@ 1690
GATS 1689
additions 1689
aids 1689
buy 1689
L.10 1688
cent@@ 1688
inv@@ 1688
six-month 1688
tackled 1688
SCO 1687
bold 1687
prostitutes 1687
1950 1686
Unemployment 1686
XIX 1686
breast 1686
reciprocal 1686
sickness 1686
warmly 1686
endangered 1685
warm 1685
Baltic 1684
devising 1684
petrol 1684
seed 1684
· 1684
1000 1683
TCDC 1683
cotton 1683
medium- 1683
Abdul@@ 1682
hire 1682
pass@@ 1682
sia 1682
gun@@ 1681
AMIS 1679
forward-looking 1679
ries 1679
1945 1678
311 1677
hotel 1677
indivisible 1677
manages 1677
risk-@@ 1677
DP@@ 1676
belongs 1676
Kon@@ 1675
aling 1675
gent 1675
Crown 1674
DDR 1674
Mobile 1674
Supervision 1674
ram@@ 1674
viii 1674
well-known 1673
Definition 1672
Displaced 1672
accompany 1672
302 1671
Maz@@ 1671
basically 1671
esti@@ 1671
influencing 1671
reconvened 1671
strengthens 1671
75@@ 1670
NA 1670
broadcasts 1670
reciprocity 1670
testify 1670
è@@ 1670
1,600 1669
DF 1669
Jean 1669
Just 1669
characteristic 1668
clinic 1668
doctrines 1668
Guarantee 1667
answered 1666
stepped 1666
unreasonable 1666
284 1665
GC.@@ 1665
eli@@ 1665
quantified 1665
tation 1665
294 1664
prepares 1664
ser@@ 1664
dy 1663
reimbursed 1663
PRE@@ 1662
UNA0@@ 1662
milk 1662
railway 1662
servers 1662
Ki@@ 1661
connect 1661
deadlock 1661
impairment 1661
1965 1660
40,@@ 1660
consortium 1660
corresponds 1659
positioned 1659
unsatisfactory 1659
SPLOS 1658
asa 1658
ligh@@ 1658
shifted 1658
superior 1658
Mur@@ 1657
PM@@ 1657
8.2 1656
hospitality 1656
jus 1656
Assist 1655
EU@@ 1655
embark 1655
prerequisites 1655
prone 1655
ust@@ 1655
Do 1654
ca 1654
chairman 1654
ox@@ 1654
ul 1654
Eliminate 1653
T-@@ 1653
boarding 1653
iro 1653
pay@@ 1653
pesticide 1653
shareholders 1653
wise 1653
Post-@@ 1652
broadened 1652
caught 1652
Immunities 1651
Mos@@ 1651
complies 1651
exhibition 1651
expendable 1651
secrecy 1651
Repertory 1650
Prince 1649
citing 1649
disagreement 1648
JISC 1647
Ontario 1647
Vo@@ 1647
lifetime 1647
preventable 1647
si 1647
2004-@@ 1646
Holocaust 1646
Kab@@ 1646
corpus 1646
liquid 1646
second-@@ 1646
ICP 1645
ambassadors 1645
cop@@ 1645
lasted 1645
packaging 1645
technicians 1645
22-@@ 1644
Safe 1644
vague 1644
wildlife 1644
sil@@ 1643
talent 1643
transporting 1643
1,800 1642
Br@@ 1642
ny 1642
slowly 1641
Component 1640
Prohibitions 1640
Toxin 1640
disappointment 1640
wells 1640
293 1639
Geographic 1639
IFF 1639
M.@@ 1639
consensus-building 1639
drove 1639
gate 1639
atomic 1638
2014-2017 1637
Equally 1637
Hon@@ 1637
Kafr 1637
TER@@ 1637
jan 1637
Again 1636
Balkans 1636
START 1636
activated 1636
encounter 1636
improvised 1636
leveraging 1636
posing 1636
translating 1636
Disputes 1635
abusive 1635
sim@@ 1635
direc@@ 1634
standpoint 1634
creativity 1633
insisted 1633
2,9@@ 1632
lubricants 1632
shed 1632
TF 1631
tongue 1631
Games 1630
Heavily 1630
Stability 1630
hierarchy 1630
receipts 1630
CR 1629
ICJ 1629
Organs 1629
Plan@@ 1629
projection 1629
worrying 1629
alised 1628
handover 1628
homeland 1628
insights 1628
checked 1627
editorial 1627
mor@@ 1627
officio 1627
reminds 1627
Bl@@ 1626
bo 1626
fellowships 1626
food-@@ 1626
Dili 1625
Investigate 1625
ous@@ 1625
Donors 1624
HS 1624
kit 1624
landmine 1624
machines 1624
undocumented 1624
Along 1623
alk@@ 1623
engineers 1623
flooding 1623
ill-@@ 1622
abductions 1621
catch 1621
interlinked 1621
persists 1621
validated 1621
HRI 1620
Represents 1620
Robert 1620
diaspora 1620
piece 1620
24-@@ 1619
Gen@@ 1619
matched 1619
89@@ 1618
Bos@@ 1618
DLDD 1618
Privileges 1618
bri@@ 1618
logistic 1618
multi-ethnic 1618
quoted 1618
ton@@ 1618
25th 1617
320 1617
Metohija 1617
Town 1617
ains 1617
Transactions 1616
calculating 1616
estimation 1616
ora 1616
Gi@@ 1615
Liability 1615
Non@@ 1615
behavioural 1615
expel 1615
geological 1615
tier 1615
buyers 1614
inter-ministerial 1614
1990-@@ 1613
Concerns 1613
elling 1613
fistula 1613
grievances 1613
non-refoulement 1613
stockpiling 1613
8.3 1612
Fs 1612
KPC 1612
displayed 1612
spacecraft 1612
stipulate 1612
Kashmir 1611
alleging 1611
basin 1611
envisage 1611
63@@ 1610
Creating 1610
Pr@@ 1609
dispose 1609
onset 1609
perpetuate 1609
sy@@ 1609
Bodies 1608
CFC 1608
Co-operation 1608
collateral 1608
intangible 1608
L.11 1607
Underlines 1607
agu@@ 1607
departed 1607
ISAR 1606
Peer 1606
demolition 1606
organizers 1606
phasing 1606
Institution 1605
Lake 1605
polygamy 1605
user-friendly 1605
warheads 1605
stand-alone 1604
battle 1603
dri@@ 1603
23rd 1602
George 1602
discharged 1602
sincerely 1602
310 1601
Coast 1601
Ka@@ 1601
aligning 1601
assumes 1600
reluctance 1600
unspent 1600
WP@@ 1599
mother-to-child 1599
testimonies 1599
GE 1598
Pretoria 1598
Sec@@ 1598
ater@@ 1598
striking 1598
ç@@ 1598
297 1597
DFS 1597
PFOS 1597
obligatory 1597
standby 1597
tin 1597
tomorrow 1597
DE 1596
21.@@ 1595
401 1595
RT@@ 1595
Threats 1595
possessing 1595
symbol 1595
L.13 1594
appropriateness 1594
endosulfan 1594
pac@@ 1594
sympathy 1594
FP 1593
Ol@@ 1593
Tor@@ 1593
acid 1593
operationalize 1593
rer 1592
Has 1591
PB@@ 1591
ation-related 1591
boats 1591
sch@@ 1591
Exc@@ 1590
Lib@@ 1590
UNMISET 1590
attachment 1590
everyday 1590
pipeline 1590
split 1590
23-@@ 1589
Inclusive 1589
coal 1589
pervasive 1589
Damage 1588
forecasts 1588
sho@@ 1588
thirty-first 1588
vaccine 1588
Remote 1587
degraded 1587
depreciation 1587
Port-au-Prince 1586
multilingualism 1586
ITA@@ 1585
Mining 1585
heating 1585
5.7 1584
CL@@ 1584
Elements 1584
ICA@@ 1584
je 1584
phere 1584
Antonio 1583
Century 1583
L.15 1583
LS 1583
ancy 1583
music 1583
reas@@ 1583
vein 1583
Bujumbura 1582
Involuntary 1582
Ratify 1582
cen@@ 1582
ith@@ 1582
parking 1582
self-reliance 1581
vigilance 1581
forged 1580
innocence 1580
regulators 1580
rest@@ 1580
Fin@@ 1578
acquisitions 1578
cia 1578
306 1577
AR 1577
Speci@@ 1577
enumerated 1577
ied 1577
neg@@ 1577
Dan@@ 1576
aa 1576
bin@@ 1576
contradiction 1576
domestically 1576
manifestation 1576
therapeutic 1576
FC 1575
Nuclear-Weapon-Free 1575
WH@@ 1575
broadest 1575
fabric 1575
ic-@@ 1575
security-related 1575
CWC 1574
deem 1574
underdevelopment 1574
Terms 1573
geostationary 1573
hill 1573
interior 1573
punishing 1573
307 1572
Mit@@ 1572
Outlook 1572
UNMIBH 1572
cing 1572
Fuel 1571
Mahmoud 1571
ae 1571
wholly 1571
2,5@@ 1570
Mis@@ 1570
Sections 1570
Speaker 1570
compel 1570
enclosure 1570
reasoning 1570
sitting 1570
Consumer 1569
TRA@@ 1569
instruc@@ 1569
ranged 1569
ía 1569
climatic 1568
interreligious 1568
penetrated 1568
burg 1567
determinants 1567
followup 1567
injecting 1567
ome 1567
Bro@@ 1566
Maj@@ 1566
embrace 1566
legislators 1566
portable 1566
spec@@ 1566
twenty-ninth 1566
Seek 1565
gender-specific 1564
in-country 1564
intern@@ 1564
onwards 1564
proportions 1564
react 1564
construed 1563
experiments 1563
BO@@ 1562
MOTAPM 1562
din@@ 1562
leaflets 1562
leisure 1562
sized 1562
tou@@ 1562
Dev@@ 1561
LD@@ 1561
Pitcairn 1561
RECOMMENDATIONS 1561
Sy@@ 1561
debated 1561
inevitable 1561
Co-Chair 1560
manifestly 1560
stand@@ 1560
tine 1560
Discipline 1559
SD 1559
functionality 1559
knew 1559
tour 1559
INTER@@ 1558
Important 1558
Operating 1558
ace 1558
artificial 1558
1,400 1557
Forty-@@ 1557
underway 1557
editing 1556
equip 1556
specificities 1556
counterpart 1555
reimbursable 1555
ster 1555
ati 1554
Entry 1553
Vice-Chairperson 1553
story 1553
Demand 1552
Gbagbo 1552
menting 1552
signals 1552
slowdown 1552
L.18 1551
PRSP 1551
Colonialism 1550
ION 1550
flagship 1550
González 1549
TN@@ 1549
Work@@ 1549
ion@@ 1549
ota 1549
safeguarded 1549
toll 1549
1,300 1548
Brigade 1548
let@@ 1548
outlying 1548
ude 1548
accessed 1547
ty-@@ 1547
CT 1546
Prosecutors 1546
afforestation 1546
specialization 1546
store 1546
87@@ 1545
constructing 1545
vicious 1545
Air@@ 1544
Inalienable 1544
counted 1544
fun@@ 1544
centrally 1543
pensionable 1543
stri@@ 1543
CP.@@ 1542
administrator 1542
judged 1542
counting 1541
null 1541
someone 1541
unlawfully 1541
grounded 1540
harness 1540
modernize 1540
el-@@ 1539
massacres 1539
IASC 1538
ailing 1538
destined 1538
hat@@ 1538
manifested 1538
Angolan 1537
ey@@ 1537
&gt; 1536
Hg 1535
Martínez 1535
churches 1535
says 1535
Gali 1534
confession 1534
odi@@ 1534
principled 1534
Deployment 1533
anti-terrorism 1533
boo@@ 1533
subsection 1533
capacitybuilding 1532
earning 1532
grand@@ 1532
Add.1-@@ 1531
at-@@ 1531
colleague 1531
concessional 1531
ving 1531
De 1530
interconnected 1530
Form 1529
ena 1529
repetition 1529
DIS 1528
Kat@@ 1528
breached 1528
democracies 1528
illiterate 1528
keen 1528
mine-@@ 1528
ok@@ 1528
unduly 1528
L.14 1527
Men@@ 1527
PF 1527
Pre-Trial 1527
Subsequent 1527
duplicate 1527
fence 1526
kin 1526
petitions 1526
seasonal 1526
variation 1526
Jakarta 1525
L.16 1525
aug@@ 1525
optimum 1525
shooting 1525
ventures 1525
AM 1524
F-16 1524
efficacy 1524
polio 1524
public@@ 1524
ula 1524
45th 1523
Occupational 1523
amphetamine-type 1523
bly 1523
naturally 1523
nodules 1523
pre-school 1523
21-@@ 1522
Bamako 1522
Missile 1522
Pu@@ 1522
Taylor 1522
UN-HABITAT 1522
patriarchal 1522
sort 1522
Ali@@ 1521
Seoul 1521
Tripartite 1521
War@@ 1521
abolishing 1521
fur@@ 1521
non-United 1521
ITS 1520
discovery 1520
steel 1520
6.6 1519
L.12 1519
NAPA 1519
careers 1519
mentioning 1519
density 1518
locate 1518
remember 1518
HCFCs 1517
Multi@@ 1517
gravely 1517
Ki-moon 1516
gre@@ 1516
Barcelona 1515
Need 1515
pressed 1515
Tlatelolco 1514
circle 1514
gam@@ 1514
interpreting 1514
lec@@ 1514
notices 1514
od 1514
pur@@ 1514
trace 1514
underground 1514
altered 1513
boat 1513
Wa@@ 1512
corridors 1512
flood 1512
Broad@@ 1511
church 1511
cont@@ 1511
stems 1511
tracks 1511
COUNCIL 1510
Don@@ 1510
Teaching 1510
B-@@ 1509
Gran@@ 1509
Kisangani 1509
Mé@@ 1509
ever-@@ 1509
exhibit 1509
hidden 1509
medication 1509
pave 1509
Ambassadors 1508
L.20 1508
experiment 1508
sugar 1508
2004-2007 1507
bail 1507
dwellers 1507
oppression 1507
Sor@@ 1506
forging 1506
improper 1506
3.9 1505
Munitions 1505
Standardization 1505
Ts 1505
alteration 1505
mb@@ 1505
oon 1505
sterilization 1505
ACTIVITIES 1504
Positive 1504
ath@@ 1504
conc@@ 1504
illa 1504
Displacement 1503
Week 1503
bra@@ 1503
judgments 1503
tribes 1503
Rein@@ 1502
Sel@@ 1502
delicate 1502
informally 1502
vice-@@ 1502
23.@@ 1501
Banking 1501
Commissioner-General 1501
Missing 1501
Purpose 1501
VIII.@@ 1501
deadly 1501
discount 1501
compare 1500
entrance 1500
excuse 1500
ishes 1500
keynote 1500
Met@@ 1499
Mitrovica 1499
RB@@ 1499
XVIII 1499
coun@@ 1499
interdisciplinary 1499
lowering 1499
1955 1498
550 1498
roll-out 1498
46th 1497
demonstrators 1497
government-@@ 1497
lo 1497
paternity 1497
poly@@ 1497
unjustified 1497
chan@@ 1496
variability 1496
high-ranking 1495
presided 1495
Clean 1494
Loss 1493
interlinkages 1493
60,@@ 1492
computerized 1492
Focal 1491
KO@@ 1491
cloning 1491
deprive 1491
fies 1491
frustration 1491
yn@@ 1491
8.5 1490
Emphasis 1490
oting 1490
tours 1490
Bon@@ 1489
L.19 1489
Nur@@ 1489
Reg@@ 1489
computing 1489
refurbishment 1489
strategically 1489
DR 1488
VA 1488
Eurostat 1487
Hab@@ 1487
Minsk 1487
Tur@@ 1487
catalogue 1487
sing@@ 1487
subjective 1487
309 1486
ranked 1486
MP 1485
R.@@ 1485
fronts 1485
informative 1485
ys@@ 1485
2,4@@ 1484
Vis@@ 1484
intergenerational 1484
1999-@@ 1483
308 1483
Afghans 1483
Protecting 1483
importation 1482
objected 1482
variable 1482
governorate 1481
380 1480
60,000 1480
matching 1480
optimism 1480
residency 1480
soft 1480
Canal 1479
Objects 1479
adjusting 1479
ature 1479
curbing 1479
pros@@ 1479
312 1478
condoms 1478
preschool 1478
England 1477
Guatemalan 1477
Niño 1477
ust 1477
Aw@@ 1476
Interest 1476
PPPs 1476
authorizes 1476
caseload 1476
compl@@ 1476
lic@@ 1476
modifying 1476
people-centred 1476
sums 1476
PE@@ 1475
entrenched 1475
1,700 1474
Aung 1474
Emerging 1474
Layer 1474
MC 1474
POPR@@ 1474
URE 1474
Tel 1473
reimbursements 1473
Disciplinary 1472
Parts 1472
deterrence 1472
ified 1472
run@@ 1472
ET@@ 1471
infringed 1471
micro 1471
stimulus 1471
anda 1470
chairing 1470
newborn 1470
§ 1470
28th 1469
318 1469
Industries 1469
Less 1469
arrivals 1469
etc. 1469
evening 1469
launches 1469
non-tariff 1469
pi@@ 1469
survive 1469
Commun@@ 1468
Kor@@ 1468
patri@@ 1468
Ari@@ 1467
IONS 1467
ounding 1467
PROGRAMME 1466
documenting 1466
outdated 1466
1874 1465
4,500 1465
Internally 1465
disappointed 1465
standard-setting 1465
Inc 1464
Vice-Chairmen 1464
blocked 1464
ock@@ 1464
Ankara 1463
Fac@@ 1463
agro-@@ 1463
HRW 1462
Payment 1462
Perhaps 1462
lex 1462
L.17 1461
ase 1461
habitats 1461
imagery 1461
land-based 1461
engagements 1460
sh 1460
shipped 1460
Che@@ 1459
bombings 1459
27th 1458
Corps 1458
Liber@@ 1458
Mari@@ 1458
Sum@@ 1458
teach 1458
Subtotal 1457
affiliates 1457
co-financing 1457
indictments 1457
refining 1457
acceleration 1456
Indiscriminate 1455
Jurists 1455
Payments 1455
Requested 1455
artisanal 1455
dose 1455
friend 1455
stores 1455
unwanted 1455
Firstly 1454
Innovative 1454
REP 1454
anywhere 1454
domains 1454
origins 1454
Rodríguez 1453
Romanian 1453
contest 1453
dered 1453
dly 1453
insist 1453
meth@@ 1453
29th 1452
Co 1452
Regulatory 1452
self-employed 1452
GU@@ 1451
weakening 1451
God 1450
Sab@@ 1450
alive 1450
apartheid 1450
value-added 1450
97@@ 1449
Enterprises 1449
IDP 1449
New@@ 1449
lawfulness 1449
Deputies 1448
Jab@@ 1448
Publication 1448
Rep@@ 1448
arid 1448
static 1448
ão 1448
ARTICLE 1447
alizes 1447
bun@@ 1447
e-learning 1447
proclamation 1447
real-time 1447
representations 1447
9.1 1446
Had@@ 1446
Land@@ 1446
Not@@ 1446
ened 1446
Monitor 1445
POLISARIO 1445
complexities 1445
designs 1445
graduated 1445
yl 1445
Demographic 1444
Including 1444
half-@@ 1444
minim@@ 1444
ree 1444
HCFC 1443
Revolutionary 1443
Str@@ 1443
drug-@@ 1443
unequivocally 1443
unused 1443
24th 1442
Tripoli 1442
catering 1442
interruption 1442
man-made 1442
organ@@ 1442
primacy 1442
40th 1441
42nd 1441
BA 1441
CONFERENCE 1441
Potential 1441
Pri@@ 1441
Vietnamese 1441
admit 1441
arized 1441
beds 1441
Tindouf 1440
UNCC 1440
epidemiological 1440
iting 1440
Est@@ 1439
Nov@@ 1439
eva 1439
tal@@ 1439
Dra@@ 1438
Next 1438
OS 1438
aquatic 1438
foot 1438
reefs 1438
safely 1438
stewardship 1438
WG.6 1437
excludes 1437
liber@@ 1437
lifestyles 1437
school@@ 1437
387 1436
Being 1436
Rob@@ 1436
ams 1435
dil@@ 1435
fir@@ 1435
forcible 1435
short- 1435
MEETING 1434
Rapid 1434
WMD 1434
unstable 1434
Introducing 1433
Jan@@ 1433
coffee 1433
convoy 1433
person@@ 1433
possessed 1433
proving 1433
vetting 1433
yer 1433
Different 1432
Maternity 1432
acies 1432
ario 1432
engages 1432
flee 1432
ideology 1432
,@@ 1431
Op@@ 1431
apparatus 1431
eyes 1431
Fel@@ 1430
Mano 1430
igh@@ 1430
philosophy 1430
underpin 1430
ut 1430
50,@@ 1429
Macroeconomic 1429
multilingual 1428
youths 1428
Contemporary 1427
droughts 1427
yo@@ 1427
appellate 1426
eries 1426
federations 1426
intersectoral 1426
James 1425
Sharing 1425
ests 1425
unidentified 1425
R-@@ 1424
RY 1424
Subparagraph 1424
Tel@@ 1424
al. 1424
contention 1424
rem@@ 1424
winter 1424
1997-@@ 1423
rationalize 1423
star@@ 1423
til@@ 1423
ud 1422
313 1421
tion-related 1421
Childhood 1420
cautioned 1420
continents 1420
superiority 1420
09@@ 1419
Cat@@ 1419
MOU 1419
WSIS 1419
Weekly 1419
XXIX 1419
expelling 1419
Junior 1418
Medium-term 1418
Riyadh 1418
SECURITY 1418
Tam@@ 1418
any@@ 1418
retail 1418
usable 1418
contentious 1417
magazine 1417
pot@@ 1417
privileged 1417
Established 1416
150,000 1415
Composition 1415
TIVE 1415
politicization 1415
postponement 1415
refinement 1415
OTHER 1414
dignified 1414
insecure 1414
precision 1414
Counter@@ 1413
Event 1413
Stat@@ 1413
dou@@ 1413
expose 1413
omissions 1413
syndrome 1413
biased 1412
detecting 1412
harvesting 1412
ify 1412
ik 1412
obligated 1412
resorting 1412
diver@@ 1411
dozens 1411
expires 1411
ñ@@ 1411
DH 1410
TRIPS 1410
aki 1410
Sustainability 1409
constitutions 1409
fol@@ 1409
neighbourhoods 1409
precious 1409
stream 1409
30th 1408
Awards 1408
CMP@@ 1408
drylands 1408
T. 1407
empirical 1407
gener@@ 1407
negligence 1407
1,100 1406
Prize 1406
Sound 1406
articulate 1406
homicide 1406
Omar 1405
ante 1405
cars 1405
fre@@ 1405
informs 1405
iron 1405
overlooked 1405
re-establish 1405
secondly 1405
2,6@@ 1404
2005-2006 1404
NU@@ 1404
Otherwise 1404
correlation 1404
ili@@ 1404
interrupted 1404
opted 1404
space-related 1404
verbal 1404
Return 1403
affirming 1403
cour@@ 1403
encies 1403
restructured 1403
saved 1403
sporting 1403
HA@@ 1402
addenda 1402
aegis 1402
circum@@ 1402
complements 1402
influential 1402
los 1402
performs 1402
shore 1402
eighty-@@ 1401
embargoes 1401
factory 1401
self@@ 1401
250,000 1400
Bol@@ 1400
Box 1400
Disasters 1400
Helsinki 1400
RT 1400
compromising 1400
motives 1400
26th 1399
altitude 1399
commun@@ 1399
heed 1399
ian-@@ 1399
implicit 1399
5.8 1398
Revitalization 1398
murders 1398
elec@@ 1397
NS 1396
cantons 1396
comparisons 1396
deployments 1396
fifty@@ 1396
multiplier 1396
nearby 1396
rid@@ 1396
wi@@ 1396
El-@@ 1395
Manila 1395
artists 1395
numbered 1395
314 1394
CBD 1394
Procedural 1394
Processing 1394
ample 1394
percentages 1394
tam@@ 1394
tioning 1394
Experiencing 1393
Kin@@ 1393
coca 1393
1624 1392
aches 1392
composite 1392
demilitarized 1392
ids 1392
Facilitate 1391
incorrect 1391
respectful 1391
Beings 1390
Khal@@ 1390
Mountain 1390
attributes 1390
incursions 1390
yed 1390
319 1389
geographically 1389
newsletter 1389
sit@@ 1389
48th 1388
replicated 1388
1992-@@ 1387
Asylum 1387
Chairpersons 1387
collec@@ 1387
mixture 1387
sex-disaggregated 1387
ush 1385
www.un@@ 1385
Principality 1384
competency 1384
heat 1384
multimedia 1384
myself 1384
ombudsman 1384
onto 1384
1353 1383
Protect 1383
WP 1383
enduring 1383
shoulder 1383
substitution 1383
ä@@ 1383
generously 1382
appearing 1381
drug-related 1381
low- 1381
ISBA 1380
allies 1380
brochures 1380
motherhood 1380
oblig@@ 1380
orbital 1380
Coastal 1379
IDA 1379
Irish 1379
Renewable 1379
ashed 1379
compendium 1379
patrolling 1379
translators 1379
3,8@@ 1378
Timely 1378
arbitrators 1378
belonged 1378
chi 1378
iga 1378
localities 1378
11.30 1377
G-20 1377
Pen@@ 1377
bore 1377
commemorative 1377
categorized 1376
rid 1376
ster@@ 1376
verbatim 1376
warnings 1376
worsened 1376
0.1 1375
2006-@@ 1375
proactively 1375
serviced 1375
-L@@ 1374
Lan@@ 1374
Mohammad 1374
itting 1374
tolerated 1374
UD@@ 1373
dwellings 1373
North-East 1372
isc@@ 1372
lodge 1372
spots 1372
1514 1371
CRP.2 1371
Conven@@ 1371
babies 1371
culminated 1371
metadata 1371
non-members 1371
unwilling 1371
DD@@ 1370
Plant 1370
Tim@@ 1370
exerted 1370
regi@@ 1370
supervising 1370
Active 1369
Jam@@ 1369
sat 1369
shop 1369
1957 1368
FM 1368
PBC.@@ 1368
Real 1368
connecting 1368
incur 1368
medi@@ 1368
revitalizing 1368
wel@@ 1368
Abbas 1367
SSC 1367
Stan@@ 1367
deliverables 1367
murdered 1367
remittance 1367
seventieth 1367
unfavourable 1367
Reduce 1366
audio-visual 1366
barracks 1366
prosecutorial 1366
rez 1366
Gh@@ 1365
Inspectorate 1365
Peruvian 1365
headings 1365
iya 1365
materiae 1365
trillion 1365
underpinned 1365
al-Sha`b 1364
Abolition 1363
Mai 1363
foods 1363
tenders 1363
346 1362
Companies 1362
DEVELOPMENT 1362
aria 1362
autumn 1362
je@@ 1362
rhetoric 1362
Amend 1361
Consolidation 1361
DM 1361
gangs 1361
liqu@@ 1361
touch 1361
7,500 1360
Banks 1360
Interregional 1360
Strait 1360
affordability 1360
whilst 1360
Belarusian 1359
retraining 1359
stabilizing 1359
stone 1359
thers 1359
6.8 1358
centuries 1358
discrepancy 1358
Albanians 1356
ISS 1356
aer@@ 1356
completeness 1356
crow@@ 1356
Dubai 1355
Still 1355
antly 1355
celebrated 1355
donated 1355
unconditionally 1355
Diseases 1354
Harmonization 1354
ME 1354
complementarities 1354
democratically 1354
inter-committee 1354
transgender 1354
workplaces 1354
wounding 1354
Kas@@ 1353
Manufacturing 1353
embassies 1353
insufficiently 1353
lag 1353
magistrate 1353
sudden 1353
&apos;t 1352
Accession 1352
Add.6 1352
Descent 1352
Unlike 1352
MN@@ 1351
commentaries 1351
hot 1351
ico 1351
non-member 1351
nondiscrimination 1351
otic 1351
trust@@ 1351
Es@@ 1350
Mobilization 1350
extra-@@ 1350
fication 1350
lieu 1350
pling 1350
ration@@ 1350
tas@@ 1350
DESA 1349
Ga@@ 1349
Regions 1349
beatings 1349
donation 1349
family-@@ 1349
projec@@ 1349
roll 1349
symbols 1349
0.2 1348
10.30 1348
315 1348
Certificate 1348
ows 1348
Lisbon 1347
Seas 1347
UNDP-@@ 1347
Workshops 1347
biofuels 1347
feeling 1347
hab@@ 1347
forget 1346
practise 1346
rostrum 1346
650 1345
Orthodox 1345
exceptionally 1345
8.4 1344
CERF 1344
LES 1344
attorney 1344
short-@@ 1344
twenty-@@ 1344
well-established 1344
EB@@ 1343
SG 1343
contradictory 1343
desktop 1343
expedited 1343
non-recurrent 1343
Bri@@ 1342
exhibitions 1342
Has@@ 1341
aching 1341
anticipation 1341
expediting 1341
transferable 1341
twenty@@ 1341
Ny@@ 1340
aba 1340
inefficient 1340
intermediary 1340
ition 1340
System-wide 1339
collections 1339
eco-@@ 1339
fundraising 1339
needy 1339
supervisors 1339
400,000 1338
ESS 1338
Sale 1337
assaults 1337
eral 1337
ith 1337
oned 1337
precluded 1337
recovering 1337
tactics 1337
9.2 1336
Injurious 1336
besides 1336
disorder 1336
measles 1336
style 1336
understandings 1336
AD 1335
Inventory 1335
Often 1335
habeas 1335
inland 1335
syn@@ 1335
Arabian 1334
Delegates 1334
asbestos 1334
assesses 1334
designating 1334
pirates 1334
post-crisis 1334
win@@ 1334
5,500 1333
L.22 1333
PP 1333
cher 1333
educ@@ 1333
oma 1333
spot 1333
verdict 1333
Updated 1332
commercially 1332
dor@@ 1332
downturn 1332
inherited 1332
kil@@ 1332
seconded 1332
smoking 1332
smuggled 1332
44th 1331
Reduced 1331
chlor@@ 1331
ero 1331
uniforms 1331
Sus@@ 1330
inter-State 1330
mar 1330
reclassified 1330
avert 1329
endeavoured 1329
Ibero-American 1328
Vice 1328
addiction 1328
awarding 1328
cam@@ 1328
cocoa 1328
market-based 1328
mediators 1328
solemn 1328
zz@@ 1328
Dar 1327
injuring 1327
memorial 1327
ordering 1327
premise 1327
setbacks 1327
swing 1327
Aircraft 1326
Station 1326
battalions 1326
constituency 1326
predeployment 1326
2,400 1325
CN.6 1325
congresses 1325
cross@@ 1325
pools 1325
shelling 1325
wear 1325
Bulletin 1324
Kenyan 1324
Maoist 1324
Us 1324
ais 1324
introduces 1324
ope 1324
MI 1323
convenience 1323
respiratory 1323
Depending 1322
JEM 1322
catastrophic 1322
facie 1322
formalized 1322
ins@@ 1322
irs 1322
2002-@@ 1321
22.@@ 1321
Accreditation 1321
iring 1321
thresholds 1321
underpinning 1321
Nearly 1320
bat@@ 1320
cogens 1320
rit@@ 1319
Excessively 1318
cer@@ 1318
epidemics 1318
inform@@ 1318
lesson 1318
exempted 1317
oz@@ 1317
una 1317
Micro@@ 1316
Pi@@ 1316
authorizations 1316
disrupt 1316
gers 1316
insertion 1316
stationed 1316
stereotypical 1316
2007-2008 1315
325 1315
Lomé 1315
Upper 1315
Wh@@ 1315
bodily 1315
inaction 1315
itor 1315
Broadcasting 1314
GRA@@ 1314
JS2 1314
gay 1314
gear 1314
jo 1314
ket@@ 1314
lifelong 1314
326 1313
EUFOR 1313
human-rights 1313
renounce 1313
unimpeded 1313
Close 1312
EUR 1312
comp@@ 1312
development-related 1312
merchandise 1312
piloted 1312
plane 1312
prerogative 1312
Acc@@ 1311
WCO 1311
itt@@ 1311
pain@@ 1311
rejecting 1311
Repertoire 1310
Sunday 1310
escalating 1310
reconfiguration 1310
1956 1309
Assisting 1309
Ecosystem 1309
ITY 1309
Ji@@ 1309
az 1309
daughters 1309
daunting 1309
ef 1309
rig@@ 1309
tec@@ 1309
73@@ 1308
CONVENTION 1308
Euro 1308
distinctive 1308
inadequacy 1308
ona 1308
quar@@ 1308
renders 1308
reversing 1308
trade-@@ 1308
196@@ 1307
bolster 1307
convincing 1307
sustainably 1307
videoconferencing 1307
2013-@@ 1306
Fran@@ 1306
Tre@@ 1306
ees 1306
fora 1306
incite 1306
IMPLEMENTATION 1305
climate-@@ 1305
corps 1305
reinsertion 1305
ressed 1305
unpredictable 1305
viol@@ 1305
ward 1305
Shar@@ 1304
acquitted 1304
cassation 1304
differed 1304
shipper 1304
yields 1304
‘ 1304
6.7 1303
Chilean 1303
Corrections 1303
LC 1303
Vol@@ 1303
dom@@ 1303
inscribed 1303
old-age 1303
uc@@ 1303
widen 1303
340 1302
4,0@@ 1302
Gal@@ 1302
PS@@ 1302
elev@@ 1302
heinous 1302
Advanced 1301
Bin 1301
Bio@@ 1301
Kir@@ 1301
MSAR 1301
iter@@ 1301
kin@@ 1301
presidents 1301
variances 1301
Lead 1300
bor@@ 1300
broke 1300
labelling 1300
misleading 1300
Richard 1299
bert 1299
irrelevant 1299
na@@ 1299
1. 1298
Dam@@ 1298
MIN@@ 1298
PAR@@ 1298
Prisons 1298
eda 1298
originated 1298
rav@@ 1298
translations 1298
JS@@ 1297
UNIKOM 1297
Vice-@@ 1297
competences 1297
insul@@ 1297
resist 1297
sub-regional 1297
Bat@@ 1296
insight 1296
olu@@ 1296
weaken 1296
Ev@@ 1295
destinations 1295
op 1295
prima 1295
Rumaysh 1294
Tables 1294
aran@@ 1294
entrust 1294
upbringing 1294
1559 1293
Alfonso 1293
aps 1293
ater 1293
instig@@ 1293
knows 1293
lots 1293
mad@@ 1293
FATF 1292
ICE 1292
PL 1292
Pierre 1292
STATES 1292
declines 1292
2,200 1291
520 1291
Approval 1291
Cho@@ 1291
Ker@@ 1291
REC@@ 1291
Santa 1291
complicity 1291
famine 1291
techn@@ 1291
L.24 1290
Activity 1289
LL 1289
Yemeni 1289
ate-@@ 1289
dismantle 1289
rifles 1289
ATS 1288
Länder 1288
Teachers 1288
law-enforcement 1288
water-@@ 1288
Khmer 1287
Laden 1287
RUF 1287
rolled 1287
Bil@@ 1286
equitably 1286
harvest 1286
publicized 1286
repayment 1286
2007-@@ 1285
GCC 1285
Kyi 1285
child@@ 1285
dig@@ 1285
diminishing 1285
irresponsible 1285
ly@@ 1285
alists 1284
data-processing 1284
hrs 1284
onic 1284
Popular 1283
Victim 1283
bilaterally 1283
normalization 1283
paths 1283
portions 1283
secretary 1283
AU@@ 1282
Leader 1282
impartially 1282
skin 1282
PRSPs 1281
Pilot 1281
by@@ 1281
fauna 1281
intake 1281
journey 1281
mechanical 1281
Ok@@ 1280
commissioners 1280
terrible 1280
2008-@@ 1279
CD-ROM 1279
IPF 1279
aver@@ 1279
development-oriented 1279
rosters 1279
subvention 1279
IAS 1278
Maghreb 1278
app@@ 1278
implication 1278
merged 1278
oti@@ 1278
F-15 1277
icity 1277
premium 1277
provocative 1277
ycl@@ 1277
DU@@ 1276
PO 1276
SUB@@ 1276
Successful 1276
economical 1276
exemplary 1276
iled 1276
interdepartmental 1276
pro 1276
1572 1275
bles 1275
cy 1275
hotels 1275
siege 1275
155-mm 1274
1993-@@ 1274
Judgement 1274
asks 1274
differentiation 1274
ight 1274
meals 1274
Collection 1273
Hunger 1273
calculate 1273
rob@@ 1273
AH@@ 1272
Bunia 1272
Reservations 1272
first-hand 1272
investigator 1272
Guided 1271
Pakistani 1271
antenatal 1271
hum@@ 1271
uncontrolled 1271
z-@@ 1271
&lt; 1270
incre@@ 1270
oni 1270
rable 1270
twenty 1270
Equitable 1269
Jal@@ 1269
booklet 1269
bottlenecks 1269
derogation 1269
field-based 1269
invoking 1269
mentions 1269
reaffirmation 1269
Affecting 1268
blatant 1268
prospecting 1268
truck 1268
uni@@ 1268
24.@@ 1267
Original 1267
Strong 1267
policemen 1267
situ 1267
treatments 1267
Cre@@ 1266
Territorial 1266
mistreatment 1266
qualifying 1266
searching 1266
Bush 1265
Large 1265
RP@@ 1265
Rev.2 1265
aqu@@ 1265
eous 1265
foot@@ 1265
328 1264
Consent 1264
Tribal 1264
benchmarking 1264
costed 1264
diabetes 1264
new@@ 1264
two-day 1264
1959 1263
Negotiating 1263
Nothing 1263
Selection 1263
anti-trafficking 1263
brokers 1263
tations 1263
youth-@@ 1263
Investig@@ 1262
Man 1262
invalidity 1262
rainfall 1262
synthetic 1262
AWACS 1261
Modalities 1261
much-needed 1261
outward 1261
shi@@ 1261
26.@@ 1260
Medicine 1260
absorption 1260
asc@@ 1260
concurrence 1260
deliberation 1260
intraregional 1260
objectively 1260
prescribes 1260
satisfactorily 1260
unconstitutional 1260
vibrant 1259
Advocate 1258
Closure 1258
History 1258
Presentations 1258
suffers 1258
Christians 1257
KP 1257
Spe@@ 1257
Worst 1257
conception 1257
finished 1257
retreat 1257
insurgency 1256
post-disaster 1256
resolute 1256
à 1256
Fasher 1255
MIS@@ 1255
annotations 1255
conflict-related 1255
enclosed 1255
license 1255
self-employment 1255
Issue 1254
L.23 1254
Languages 1254
interpreter 1254
ICG 1253
Identifying 1253
Iraqis 1253
Uzbek 1253
dam 1253
infantry 1253
lam@@ 1253
323 1252
XL@@ 1252
esses 1252
outbreaks 1252
41st 1251
Adopts 1251
-led 1250
327 1250
Por@@ 1250
Underlining 1250
occupancy 1250
traded 1250
Jews 1249
MB@@ 1249
Nine 1249
Notification 1249
Off@@ 1249
ique 1249
non-staff 1249
passes 1249
24-hour 1248
5.9 1248
Except 1248
Gas 1248
Kordofan 1248
distant 1248
extortion 1248
hun@@ 1248
olog@@ 1248
Drawing 1247
Explosives 1247
ria 1247
unite 1247
pers 1246
335 1245
4.30 1245
Elec@@ 1245
Francisco 1245
Sev@@ 1245
Speaking 1245
anga 1245
brain 1245
consumed 1245
eri 1245
nautical 1245
rectify 1245
symptoms 1245
Cla@@ 1244
Secretaries 1244
alled 1244
checking 1244
hin@@ 1244
rati@@ 1244
tell 1244
Gre@@ 1243
Hizbullah 1243
Savings 1243
improves 1243
overly 1243
selfdetermination 1243
tickets 1243
GR@@ 1242
HU@@ 1242
non-violent 1242
remediation 1242
DI 1241
Kum@@ 1241
SI 1241
bureaucratic 1241
Ce@@ 1240
aspiration 1240
energies 1240
ep 1240
surrendered 1240
,000,000 1239
Decree-Law 1239
Intranet 1239
log@@ 1239
neonatal 1239
Highness 1238
L.21 1238
descendants 1238
end-user 1238
forfeiture 1238
isa 1238
set@@ 1238
Criteria 1237
Efficiency 1237
Naz@@ 1237
Requ@@ 1237
XXVI 1237
bush 1237
detailing 1237
retro@@ 1237
scaled 1237
tabled 1237
47th 1236
Freetown 1236
Kim 1236
Sarajevo 1236
Threat 1236
custom@@ 1236
harnessing 1236
non-existent 1236
ounded 1236
porting 1236
raids 1236
rolling 1236
rot@@ 1236
43rd 1235
AC.51 1235
feels 1235
non-binding 1235
policy-@@ 1235
retains 1235
susceptible 1235
walls 1235
SF 1234
geopolitical 1234
gran@@ 1234
sediment 1234
Bir@@ 1233
Enhancement 1233
LAC 1233
PH@@ 1233
abs@@ 1233
ake 1233
ever@@ 1233
formulations 1233
speeches 1233
Equ@@ 1232
SAF 1232
fought 1232
9.3 1231
L.29 1231
Obligations 1231
ho 1231
mutandis 1231
rey 1231
Basin 1230
Madam 1230
ide@@ 1230
mayors 1230
aim@@ 1229
buil@@ 1229
munition 1229
yp@@ 1229
3,9@@ 1228
631 1228
Lar@@ 1228
illegitimate 1228
um-@@ 1228
Trading 1227
gender@@ 1227
internet 1227
minefields 1227
overhead 1227
stones 1227
tem@@ 1227
work-@@ 1227
26-@@ 1226
CEO 1226
South-West 1226
geography 1226
itable 1226
long-range 1226
planted 1226
reconciled 1226
rivers 1226
Create 1225
Dé@@ 1225
IHL 1225
ices 1225
infringe 1225
probability 1225
the-@@ 1225
vacuum 1225
zo 1225
Kabila 1224
Warning 1224
alling 1224
cabinet 1224
commending 1224
dispersed 1224
knowing 1224
lawfully 1224
oul@@ 1224
ratings 1224
repu@@ 1224
Advisers 1223
unwavering 1223
49,@@ 1222
Everyone 1222
GEO 1222
KWD 1222
anc@@ 1222
cooking 1222
ity@@ 1222
para@@ 1222
reconciling 1222
wants 1222
Bukavu 1221
USAID 1221
aerospace 1221
aga 1221
indefinitely 1221
liberties 1221
my@@ 1221
pa 1221
reversal 1221
375 1220
Hay@@ 1220
Laboratory 1220
PBC 1220
inated 1220
legislations 1220
referrals 1220
streams 1220
tourists 1220
50th 1219
Anti-Personnel 1219
CFA 1219
classrooms 1219
expedi@@ 1219
illtreatment 1219
und 1219
420 1218
CAC 1218
bans 1218
cel@@ 1218
probable 1218
ENT@@ 1217
MISC.5 1217
naturalization 1217
317 1216
333 1216
370 1216
ented 1216
modernizing 1216
oms 1216
year-end 1216
27-@@ 1215
37th 1215
50-@@ 1215
arguing 1215
delineation 1215
labour-intensive 1215
mutatis 1215
349 1214
UR 1214
ancestral 1214
clothes 1214
defects 1214
fault 1214
multi-donor 1214
sson 1214
Buildings 1213
Managers 1213
WA@@ 1213
scar@@ 1213
Deemed 1212
Yu@@ 1212
disrupted 1212
redeploy 1212
Ful@@ 1211
LTTE 1211
Ze@@ 1211
college 1211
det@@ 1211
devastation 1211
hotline 1211
ood 1211
stricter 1211
Petro@@ 1210
Selected 1210
Structure 1210
WITH 1210
breaks 1210
forgotten 1210
ible 1210
lifestyle 1210
Chiefs 1209
Katanga 1209
Priv@@ 1209
il-@@ 1209
progressed 1209
punishments 1209
Grant 1208
Save 1208
edi@@ 1208
ogo 1208
unmet 1208
Doc@@ 1207
Nagorny 1207
contributory 1207
corridor 1207
hot@@ 1207
iers 1207
ima 1207
CNDP 1206
DNA 1206
Highway 1206
Hen@@ 1205
Interpretation 1205
Your 1205
complementing 1205
patent 1205
rain 1205
LULUCF 1204
ODP-tonnes 1204
endorsing 1204
fleeing 1204
handicapped 1204
indivisibility 1204
Balance 1203
Kuala 1203
Suu 1203
alo@@ 1203
ills 1203
inspect 1203
qualities 1203
supporter 1203
touched 1203
Comparison 1202
Low 1202
Revenue 1202
sacred 1202
7.6 1201
Estonian 1201
Took 1201
accrual 1201
aly@@ 1201
basket 1201
catastrophe 1201
easing 1201
necessitated 1201
4,8@@ 1200
divorced 1200
inviolability 1200
parks 1200
repealed 1200
shadow 1200
slowed 1200
366 1199
AGENDA 1199
Mixed 1199
Moon 1199
Observing 1199
confer 1199
deepest 1199
eless 1199
physicians 1199
waive 1199
Att@@ 1198
MP@@ 1198
Mol@@ 1198
archiving 1198
bet@@ 1198
concurrently 1198
printers 1198
thou@@ 1198
warehouses 1198
128@@ 1197
Lumpur 1197
unarmed 1197
al-level 1196
distinctions 1196
exploiting 1196
incapacity 1196
toolkit 1196
én@@ 1196
Looking 1195
Previous 1195
eding 1195
instalments 1195
institutionalize 1195
Van 1194
fuller 1194
importers 1194
Archives 1193
drop-out 1193
rul@@ 1193
selectivity 1193
Torres 1192
anticipate 1192
convoys 1192
detain 1192
estimating 1192
mission-specific 1192
par 1192
webcast 1192
Mes@@ 1191
Wor@@ 1191
debtors 1191
hybrid 1191
idi 1191
minds 1191
ote 1191
pooled 1191
questionable 1191
Codification 1190
Delivery 1190
Lin@@ 1190
U-@@ 1190
frontier 1190
staying 1190
Budapest 1189
boxes 1189
cher@@ 1189
e-related 1189
groundwork 1189
ignorance 1189
inadmissibility 1189
mi 1189
nan@@ 1189
technique 1189
31st 1188
Grants 1188
broadcasters 1188
comman@@ 1188
detec@@ 1188
ega 1188
ei@@ 1188
vouchers 1188
Adult 1187
bids 1187
cos@@ 1187
cost-benefit 1187
distortions 1187
exhibits 1187
fasc@@ 1187
les@@ 1187
revisit 1187
sum@@ 1187
Miguel 1186
Recognize 1186
eve 1186
five-@@ 1186
judic@@ 1186
Book 1185
Franc@@ 1185
Start 1185
arc@@ 1185
chairperson 1185
sad 1185
tal 1185
unaware 1185
volunteering 1185
70,@@ 1184
circles 1184
ck 1184
panellist 1184
planting 1184
psych@@ 1184
wearing 1184
GE.0@@ 1183
GPS 1183
Indic@@ 1183
notions 1183
JA@@ 1182
Religion 1182
Santos 1182
common@@ 1182
ei 1182
milit@@ 1182
1947 1181
charging 1181
scholarship 1181
subsidi@@ 1181
ø@@ 1181
507 1180
Conciliation 1180
MR@@ 1180
Saturday 1180
characterization 1180
end-users 1180
wounds 1180
bil@@ 1179
bs 1179
capit@@ 1179
Ara@@ 1178
bon@@ 1178
centrality 1178
films 1178
premiums 1178
textiles 1178
vice 1178
9.5 1177
Ken@@ 1177
ML@@ 1177
altogether 1177
amba 1177
brochure 1177
comparing 1177
criminalizes 1177
disturbed 1177
feet 1177
human-@@ 1177
inherently 1177
ques 1177
unification 1177
unsuccessful 1177
38th 1176
L.27 1176
gr@@ 1176
haven 1176
life-@@ 1176
nom@@ 1176
tetrachloride 1176
ï@@ 1176
Figures 1175
defeat 1175
lar@@ 1175
1998-@@ 1174
Considerable 1174
blast 1174
egu@@ 1174
excessively 1174
fri@@ 1174
impair 1174
knowledge-based 1174
post-retirement 1174
villagers 1174
2003-@@ 1173
ar-@@ 1173
cut@@ 1173
famil@@ 1173
iri@@ 1173
ney 1173
pertain 1173
proxy 1173
35,@@ 1172
90,@@ 1172
Lim@@ 1172
Plus 1172
depriving 1172
destabilize 1172
furnished 1172
impl@@ 1172
prominence 1172
wedlock 1172
426 1171
Gender-@@ 1171
Multinational 1171
Rabat 1171
aboriginal 1171
ary-@@ 1171
concurrent 1171
disc@@ 1171
ero@@ 1171
foodstuffs 1171
pir@@ 1171
Petroleum 1170
ap 1170
lev@@ 1170
opt 1170
Ky@@ 1169
Vari@@ 1169
check@@ 1169
equipping 1169
hostages 1169
immune 1169
motor@@ 1169
personalities 1169
re-establishment 1169
sem@@ 1169
servant 1169
1960s 1168
324 1168
Nam@@ 1168
Twenty 1168
Uni@@ 1168
encompassed 1168
envisioned 1168
evid@@ 1168
rubber 1168
surviving 1168
Postal 1167
Radiation 1167
WORK 1167
cou@@ 1167
inhabited 1167
ité 1167
manpower 1167
talking 1167
therefrom 1167
F-14 1166
Fri@@ 1166
Scotland 1166
instituting 1166
less@@ 1166
missed 1166
rever@@ 1166
Hos@@ 1165
Railway 1165
inequities 1165
low-carbon 1165
possesses 1165
storms 1165
3,200 1164
329 1164
E.9@@ 1164
Protected 1164
edo 1164
initi@@ 1164
plan@@ 1164
thin@@ 1164
Back 1163
Mess@@ 1163
airline 1163
blueprint 1163
cancel 1163
child-friendly 1163
ech@@ 1163
negotiators 1163
resorted 1163
1.0 1162
Death 1162
ERS 1162
Mr 1162
Organizing 1162
deplored 1162
jeopardized 1162
kets 1162
Can 1161
Title 1161
destiny 1161
full-@@ 1161
painful 1161
rup@@ 1161
sequence 1161
Admission 1160
Ecuadorian 1160
entr@@ 1160
inasmuch 1160
struggling 1160
tra 1160
UNJSPF 1159
deliberative 1159
hindering 1159
! 1158
1952 1158
CRP.3 1158
Up@@ 1158
Very 1158
plastic 1158
shel@@ 1158
strain 1158
temperatures 1158
trav@@ 1158
354 1157
L.26 1157
UNMIN 1157
Wil@@ 1157
abusers 1157
conserve 1157
constitutionality 1157
doors 1157
ray 1157
redistribution 1157
resurgence 1157
sorties 1157
yi 1157
Improvements 1156
colon@@ 1156
dat@@ 1156
inaugurated 1156
liberal 1156
prescription 1156
tense 1156
Add.7 1155
MAN@@ 1155
Release 1155
SL@@ 1155
amparo 1155
pping 1155
region@@ 1155
rol@@ 1155
CAP 1154
Type 1154
briefs 1154
censorship 1154
morals 1154
Produc@@ 1153
SB 1153
Wide 1153
burned 1153
contra@@ 1153
derives 1153
forbidden 1153
.. 1152
Compe@@ 1152
Hampson 1152
Polisario 1152
Salaam 1152
Top@@ 1152
ent-@@ 1152
wan 1152
Import 1151
PARTIES 1151
Silva 1151
controversy 1151
feelings 1151
fuelling 1151
gang 1151
grouping 1151
ially 1151
inter-ethnic 1151
listen 1151
predicted 1151
ron 1151
understandable 1151
2009-2010 1150
Pedro 1150
bling 1150
illustrative 1150
orphaned 1150
prof@@ 1150
rigid 1150
unrepresented 1150
321 1149
Employees 1149
peremptory 1149
referenced 1149
sors 1149
39th 1148
L.25 1148
Launched 1148
aquaculture 1148
obstruct 1148
polar 1148
secretaries 1148
topical 1148
345 1147
arization 1147
diesel 1147
eman 1147
informational 1147
surprising 1147
0.3 1146
Demining 1146
divergent 1146
one-day 1146
operationally 1146
Later 1145
Manuel 1145
XXV 1145
backing 1145
eller 1145
manipulation 1145
optimistic 1145
sian 1145
stockpiled 1145
strife 1145
Geo@@ 1144
habitual 1144
hosts 1144
overriding 1144
AC.96 1143
NASA 1143
O. 1143
Poly@@ 1143
instructors 1143
prominently 1143
south-east 1143
322 1142
BE@@ 1142
Memorial 1142
Ossetia 1142
doc@@ 1142
elapsed 1142
rested 1142
sulphides 1142
tain 1142
Highly 1141
Ja@@ 1141
medium-@@ 1141
monies 1141
sector@@ 1141
3,7@@ 1140
Secretariat-General 1140
defec@@ 1140
econom@@ 1140
thermal 1140
BC 1139
NonProliferation 1139
cholera 1139
decrimin@@ 1139
vector 1139
vegetation 1139
600,000 1138
Investing 1138
UNIPSIL 1138
bursts 1138
hampering 1138
pre-sessional 1138
wid@@ 1138
But@@ 1137
L.38 1137
Law@@ 1137
Migratory 1137
mounted 1137
− 1137
Bacteriological 1136
Coherence 1136
Far 1136
Indicator 1136
Qual@@ 1136
SFOR 1136
astr@@ 1136
craft 1136
radar 1136
tag@@ 1136
HA 1135
Maintaining 1135
denounced 1135
ether 1135
record-keeping 1135
refoulement 1135
reviewers 1135
undesirable 1135
ADB 1134
DRC 1134
Hydro@@ 1134
Jul@@ 1134
Online 1134
Tropical 1134
Wid@@ 1134
ast-@@ 1134
factories 1134
optim@@ 1134
unrelated 1134
&apos;Djamena 1133
Expanded 1133
Navy 1133
Tro@@ 1133
categorically 1133
honest 1133
hunting 1133
ram 1133
realm 1133
specificity 1133
Ways 1132
abstain 1132
af 1132
anti 1132
arch@@ 1132
pride 1132
Addendum 1131
Kr@@ 1131
RESOLUTION 1131
centr@@ 1131
disappointing 1131
expended 1131
holiday 1131
organiz@@ 1131
terror@@ 1131
EGTT 1130
High@@ 1130
Le 1130
concert 1130
data-@@ 1130
housed 1130
inaccessible 1130
libération 1130
mediator 1130
Feder@@ 1129
MAR@@ 1129
Mill@@ 1129
graph@@ 1129
machineries 1129
relocate 1129
settler 1129
slower 1129
Gs 1128
XXVII 1128
abe@@ 1128
ava 1128
clim@@ 1128
deteriorate 1128
habitat 1128
reinforces 1128
spelled 1128
tual 1128
zed 1128
337 1127
EA-6B 1127
Educ@@ 1127
Panels 1127
Raising 1127
assigning 1127
cater 1127
conditionalities 1127
Frameworks 1126
Mitigation 1126
alarm 1126
end-@@ 1126
ference 1126
gifts 1126
hurricanes 1126
markedly 1126
migrate 1126
shaped 1126
Critical 1125
PD@@ 1125
influences 1125
moderated 1125
ori 1125
rupt 1125
videos 1125
1521 1124
SR 1124
Supervisory 1124
adhering 1124
ased 1124
norm@@ 1124
vacation 1124
336 1123
build-up 1123
cyclical 1123
dissolved 1123
ept 1123
flo@@ 1123
happening 1123
server 1123
summarizing 1123
80,@@ 1122
Comp@@ 1122
Conversely 1122
Miscellaneous 1122
Pay 1122
Rou@@ 1122
assuring 1122
div@@ 1122
mobil@@ 1122
owe 1122
38,@@ 1121
Ng@@ 1121
adjudication 1121
aving 1121
predic@@ 1121
ship@@ 1121
usefully 1121
1503 1120
PI 1120
Rab@@ 1120
Vehicle 1120
Yaoundé 1120
bit@@ 1120
implicated 1120
multilaterally 1120
refrigeration 1120
replication 1120
s-based 1120
● 1120
Eminent 1119
January-@@ 1119
cho@@ 1119
defensive 1119
fications 1119
m2 1119
movable 1119
reconsideration 1119
unintended 1119
vir@@ 1119
497 1118
OB@@ 1118
Replies 1118
Ultimately 1118
mas 1118
atten@@ 1117
day@@ 1117
dynamism 1117
occasional 1117
Legislature 1116
mag@@ 1116
postgraduate 1116
reuse 1116
Journalists 1115
L-@@ 1115
SC-@@ 1115
diet 1115
disengagement 1115
indi@@ 1115
1907 1114
Available 1114
agro@@ 1114
bility 1114
fosters 1114
inaccurate 1114
ninety-@@ 1114
Household 1113
LT@@ 1113
differs 1113
incapable 1113
loaded 1113
oph@@ 1113
treasury 1113
www.un.org 1113
2,600 1112
Liberty 1112
Wi@@ 1112
clan 1112
mel@@ 1112
schoolchildren 1112
strives 1112
arranging 1111
courtroom 1111
fal@@ 1111
oa 1111
preside 1111
subcommittees 1111
Analy@@ 1110
Cassation 1110
Compilation 1110
Parliamentarians 1110
WE@@ 1110
agrarian 1110
ases 1110
duty-free 1110
lesbian 1110
pled 1110
revive 1110
watch 1110
6,500 1109
Jabal 1109
candidature 1109
conspiracy 1109
formalities 1109
ito 1109
mal 1109
omb@@ 1109
or-@@ 1109
starts 1109
time-consuming 1109
CES 1108
interns 1108
licit 1108
radios 1108
-off 1107
6.9 1107
Academic 1107
Closing 1107
HIV-positive 1107
UNFIP 1107
aw 1107
earthquakes 1107
eld 1107
labourers 1107
ose 1107
Clarification 1106
Examination 1106
dium 1106
eng 1106
extremists 1106
grid 1106
ologists 1106
tit@@ 1106
tries 1106
3,6@@ 1105
Pesticides 1105
applauded 1105
discontinuation 1105
echoed 1105
embl@@ 1105
mir@@ 1105
surpluses 1105
tia 1105
331 1104
430 1104
Museum 1104
awaited 1104
bidders 1104
but@@ 1104
eu@@ 1104
aca 1103
aux 1103
cattle 1103
chapeau 1103
classroom 1103
drain 1103
solicit 1103
spared 1103
tible 1103
L.34 1102
Sovereign 1102
TEC 1102
biannual 1102
idi@@ 1102
open-@@ 1102
ound 1102
Bulgarian 1101
Pan 1101
Raj@@ 1101
Univers@@ 1101
W. 1101
William 1101
counsellors 1101
dia 1101
symbolic 1101
ACP 1100
Arafat 1100
Procurator 1100
Tak@@ 1100
asing 1100
bottom-up 1100
che@@ 1100
extradited 1100
forwarding 1100
icating 1100
immovable 1100
intervening 1100
looted 1100
stayed 1100
ston 1100
French-speaking 1099
Step 1099
cautious 1099
combustion 1099
deser@@ 1099
occasionally 1099
ores 1099
sons 1099
sul@@ 1099
Arbitral 1098
CN.17 1098
Kra@@ 1098
Venezuelan 1098
colonization 1098
extract 1098
furnish 1098
gue 1098
mus@@ 1098
oured 1098
pooling 1098
EP@@ 1097
holy 1097
3,600 1096
ENGLISH 1096
Log@@ 1096
Malaysian 1096
Oceania 1096
Tru@@ 1096
free-@@ 1096
induce 1096
penetration 1096
SS.@@ 1095
State-owned 1095
allotted 1095
me-@@ 1095
north-east 1095
responsibly 1095
t-based 1095
0.4 1094
2,700 1094
28-@@ 1094
Cotonou 1094
SLA 1094
Teams 1094
dal 1094
grenades 1094
intra@@ 1094
mounting 1094
salt 1094
testified 1094
0.0@@ 1093
1820 1093
2,800 1093
9.4 1093
CW 1093
California 1093
Sensing 1093
accidental 1093
advises 1093
job-@@ 1093
len@@ 1093
observ@@ 1093
specializing 1093
GN@@ 1092
escaped 1092
fuelled 1092
g-@@ 1092
661 1091
Fal@@ 1091
Productive 1091
austerity 1091
graphy 1091
pardon 1091
professors 1091
pushed 1091
transformative 1091
Fem@@ 1090
Hariri 1090
Serv@@ 1090
Sun 1090
disclosures 1090
perfect 1090
sm 1090
stalled 1090
venues 1090
ür@@ 1090
334 1089
Delete 1089
dev@@ 1089
dies 1089
mature 1089
tight 1089
tric 1089
ug 1089
UNTSO 1088
coincide 1088
en-@@ 1088
favours 1088
homelessness 1088
magazines 1088
oil-@@ 1088
out-of-@@ 1088
predict 1088
quantify 1088
yes 1088
1,900 1087
1994-@@ 1087
406 1087
XXIII 1087
e-government 1087
ots 1087
rains 1087
refu@@ 1087
teen 1087
yers 1087
Bah@@ 1086
García 1086
Radioactive 1086
discontinue 1086
imperatives 1086
mountains 1086
UNSMIL 1085
billions 1085
brigade 1085
cru@@ 1085
lower-@@ 1085
midwives 1085
militants 1085
resolutely 1085
vol@@ 1085
Ds 1084
Sup@@ 1084
electing 1084
feder@@ 1084
hyper@@ 1084
omitted 1084
affirmation 1083
ald 1083
augment 1083
embar@@ 1083
enrich 1083
fly 1083
furtherance 1083
hemisphere 1083
Explosive 1082
attorneys 1082
calibre 1082
clean-up 1082
contacting 1082
identifiable 1082
lenders 1082
protectionism 1082
py@@ 1082
smallholder 1082
341 1081
Benefit 1081
Cap 1081
Commodity 1081
Why 1081
ambition 1081
faction 1081
followers 1081
2009-@@ 1080
332 1080
Bay@@ 1080
Integrating 1080
SID@@ 1080
SPLM 1080
lock 1080
onia 1080
sely 1080
2025 1079
compensatory 1079
counterproductive 1079
regain 1079
tieth 1079
0.8 1078
410 1078
CF 1078
Mid@@ 1078
channelling 1078
dedere 1078
lers 1078
smo@@ 1078
Fourthly 1077
coalitions 1077
complain 1077
interrogated 1077
obstruction 1077
reconciliations 1077
sociocultural 1077
1929 1076
Bekaa 1076
breeding 1076
endeavouring 1076
need@@ 1076
uma 1076
Green@@ 1075
Mam@@ 1075
Nyala 1075
Tobacco 1075
arsenal 1075
entially 1075
envoys 1075
excav@@ 1075
paren@@ 1075
Neg@@ 1074
Tw@@ 1074
postal 1074
rad@@ 1074
rers 1074
vigilant 1074
352 1073
95@@ 1073
Sixty-@@ 1073
ives 1073
strip 1073
uniformity 1073
Mayor 1072
leased 1072
part@@ 1072
shops 1072
34th 1071
Fra@@ 1071
Organize 1071
RD 1071
await 1071
herein 1071
non-use 1071
0.6 1070
Mortality 1070
RO 1070
divert 1070
3,5@@ 1069
BINUB 1069
OM 1069
Translation 1069
heter@@ 1069
inactive 1069
on-line 1069
pes@@ 1069
reactors 1069
redundant 1069
unch 1069
Comparative 1068
attendant 1068
governs 1068
lighting 1068
prefabricated 1068
tak@@ 1068
windows 1068
10.2 1067
L.32 1067
hia 1067
self-evaluation 1067
sured 1067
wet 1067
351 1066
L.28 1066
biom@@ 1066
buying 1066
ental 1066
formations 1066
mandate-holders 1066
releasing 1066
shock 1066
validate 1066
witnessing 1066
357 1065
counteract 1065
desks 1065
inauguration 1065
inspiration 1065
36th 1064
Coun@@ 1064
IE 1064
Michel 1064
Nazi 1064
TEAP 1064
ilit@@ 1064
2,300 1063
Coordinated 1063
Redeployment 1063
Victoria 1063
dismantled 1063
gro@@ 1063
planners 1063
Money-Laundering 1062
Tall 1062
activation 1062
cohesive 1062
delisting 1062
din 1062
fifteen 1062
hear@@ 1062
path@@ 1062
pronged 1062
suitability 1062
ño 1062
8.6 1061
CONCLUSIONS 1061
PER@@ 1061
Projected 1061
breadth 1061
prior-period 1061
progressing 1061
road@@ 1061
85@@ 1060
Priorities 1060
Sectoral 1060
You@@ 1060
band@@ 1060
cost-recovery 1060
fruits 1060
love 1060
practic@@ 1060
shortest 1060
Develop@@ 1059
Entities 1059
Instruments 1059
Prospects 1059
Sharm 1059
Value 1059
commercialization 1059
eds 1059
enlarged 1059
noncompliance 1059
quantifiable 1059
NCDs 1058
concentrating 1058
eful 1058
repl@@ 1058
titled 1058
973 1057
Guinean 1057
Statelessness 1057
casualty 1057
denies 1057
median 1057
ordinance 1057
364 1056
Arrangement 1056
Compared 1056
Include 1056
Rol@@ 1056
Structural 1056
displacements 1056
electro@@ 1056
judicare 1056
Astr@@ 1055
Price 1055
abstention 1055
distances 1055
gh 1055
permissibility 1055
resistant 1055
sal 1055
stereotyped 1055
timetables 1055
urs 1055
Tornado 1054
abstained 1054
cau@@ 1054
concurs 1054
feminization 1054
inquired 1054
procure 1054
servic@@ 1054
ulate 1054
Bolivian 1053
DIS@@ 1053
Diver@@ 1053
III@@ 1053
Preparedness 1053
explo@@ 1053
hopeful 1053
noticed 1053
quarantine 1053
Bissau 1052
CSD 1052
Sergio 1052
apportioned 1052
domicile 1052
journal 1052
special-purpose 1052
Counter 1051
bran@@ 1051
dar 1051
dering 1051
e.@@ 1051
fellows 1051
guarantor 1051
ient 1051
subcommittee 1051
unlimited 1051
Appointments 1050
Defenders 1050
dispen@@ 1050
disturbances 1050
precautions 1050
soils 1050
-wide 1049
374 1049
Name 1049
PPP 1049
Re-@@ 1049
chem@@ 1049
contravene 1049
feared 1049
generates 1049
justifying 1049
nit@@ 1049
509 1048
Hus@@ 1048
Initi@@ 1048
boosting 1048
case-@@ 1048
identity-related 1048
implicitly 1048
interfaith 1048
provocation 1048
1390 1047
Ben 1047
Inspira 1047
Kou@@ 1047
Sir@@ 1047
iced 1047
impoverished 1047
inity 1047
life-saving 1047
opponents 1047
LGBT 1046
Oper@@ 1046
Test 1046
immun@@ 1046
incumbency 1046
[...]
